{"version":"1.0","truncation":null,"padding":null,"added_tokens":[{"id":0,"special":true,"content":"<mask>","single_word":false,"lstrip":false,"rstrip":false,"normalized":false},{"id":1,"special":true,"content":"<pad>","single_word":false,"lstrip":false,"rstrip":false,"normalized":false},{"id":2,"special":true,"content":"<unk>","single_word":false,"lstrip":false,"rstrip":false,"normalized":false},{"id":3,"special":true,"content":"<s>","single_word":false,"lstrip":false,"rstrip":false,"normalized":false},{"id":4,"special":true,"content":"</s>","single_word":false,"lstrip":false,"rstrip":false,"normalized":false}],"normalizer":{"type":"Lowercase"},"pre_tokenizer":{"type":"ByteLevel","add_prefix_space":true,"trim_offsets":true},"post_processor":null,"decoder":null,"model":{"type":"BPE","dropout":null,"unk_token":"<unk>","continuing_subword_prefix":null,"end_of_word_suffix":null,"fuse_unk":false,"vocab":{"<mask>":0,"<pad>":1,"<unk>":2,"<s>":3,"</s>":4,"!":5,"\"":6,"#":7,"$":8,"%":9,"&":10,"'":11,"(":12,")":13,"*":14,"+":15,",":16,"-":17,".":18,"/":19,"0":20,"1":21,"2":22,"3":23,"4":24,"5":25,"6":26,"7":27,"8":28,"9":29,":":30,";":31,"<":32,"=":33,">":34,"?":35,"@":36,"[":37,"\\":38,"]":39,"^":40,"_":41,"`":42,"a":43,"b":44,"c":45,"d":46,"e":47,"f":48,"g":49,"h":50,"i":51,"j":52,"k":53,"l":54,"m":55,"n":56,"o":57,"p":58,"q":59,"r":60,"s":61,"t":62,"u":63,"v":64,"w":65,"x":66,"y":67,"z":68,"{":69,"|":70,"}":71,"~":72,"¡":73,"¢":74,"£":75,"¤":76,"¥":77,"¦":78,"§":79,"¨":80,"©":81,"ª":82,"«":83,"¬":84,"®":85,"¯":86,"°":87,"±":88,"²":89,"³":90,"´":91,"µ":92,"¶":93,"·":94,"¸":95,"¹":96,"º":97,"»":98,"¼":99,"½":100,"¾":101,"¿":102,"Â":103,"Ã":104,"Ä":105,"Å":106,"Æ":107,"Ç":108,"È":109,"É":110,"Ê":111,"Ë":112,"Ì":113,"Í":114,"Î":115,"Ï":116,"Ð":117,"Ñ":118,"Ò":119,"Ó":120,"Õ":121,"Ö":122,"×":123,"Ø":124,"Ù":125,"Ú":126,"Û":127,"Ü":128,"ß":129,"à":130,"á":131,"â":132,"ã":133,"ä":134,"å":135,"æ":136,"ç":137,"è":138,"é":139,"ê":140,"ë":141,"ì":142,"í":143,"ï":144,"ð":145,"Ĉ":146,"Ċ":147,"Ġ":148,"Ģ":149,"ģ":150,"Ĥ":151,"ĥ":152,"Ħ":153,"ħ":154,"Ĩ":155,"ĩ":156,"Ī":157,"ī":158,"Ĭ":159,"ĭ":160,"Į":161,"į":162,"İ":163,"ı":164,"Ĳ":165,"ĳ":166,"Ĵ":167,"ĵ":168,"Ķ":169,"ķ":170,"ĸ":171,"Ĺ":172,"ĺ":173,"Ļ":174,"ļ":175,"Ľ":176,"ľ":177,"Ŀ":178,"ŀ":179,"Ł":180,"ł":181,"Ń":182,"Ġt":183,"Ġa":184,"he":185,"in":186,"Ġthe":187,"re":188,"Ġo":189,"Ġs":190,"er":191,"Ġw":192,"Ġc":193,"on":194,"Ġ.":195,"at":196,"Ġ,":197,"Ġb":198,"an":199,"en":200,"Ġp":201,"it":202,"is":203,"ed":204,"Ġf":205,"Ġin":206,"Ġm":207,"es":208,"or":209,"Ġan":210,"Ġof":211,"al":212,"ar":213,"Ġd":214,"ou":215,"ing":216,"Ġh":217,"ic":218,"Ġand":219,"Ġto":220,"Ġl":221,"as":222,"ion":223,"ro":224,"Ġ\"":225,"Ġth":226,"Ġn":227,"Ġg":228,"Ġe":229,"le":230,"Ġre":231,"ent":232,"om":233,"il":234,"st":235,"Ġbe":236,"ve":237,"ly":238,"ct":239,"Ġu":240,"id":241,"ol":242,"Ġis":243,"am":244,"Ġon":245,"Ġst":246,"et":247,"Ġfor":248,"ad":249,"im":250,"Ġy":251,"ot":252,"Ġhe":253,"Ġ1":254,"ig":255,"ut":256,"Ġwh":257,"ch":258,"ation":259,"ow":260,"ce":261,"Ġthat":262,"Ġas":263,"Ġit":264,"ur":265,"se":266,"'s":267,"ay":268,"ver":269,"ir":270,"Ġr":271,"Ġwas":272,"Ġal":273,"Ġ-":274,"ith":275,"el":276,"ul":277,"Ġcon":278,"Ġwith":279,"ter":280,"her":281,"Ġde":282,"Ġ?":283,"Ġpro":284,"Ġk":285,"ist":286,"Ġby":287,"Ġyou":288,"Ġ(":289,"Ġ)":290,"Ġsu":291,"Ġse":292,"Ġj":293,"Ġcom":294,"ere":295,"ra":296,"Ġv":297,"Ġmo":298,"Ġare":299,"us":300,"th":301,"Ġch":302,"op":303,"if":304,"and":305,"Ġor":306,"ers":307,"Ġat":308,"ri":309,"rom":310,"um":311,"Ġun":312,"ac":313,"oun":314,"Ġ2":315,"ag":316,"ld":317,"em":318,"est":319,"Ġex":320,"Ġ19":321,"ate":322,"ain":323,"un":324,"Ġne":325,"os":326,"od":327,"ant":328,"Ġfrom":329,"res":330,"Ġha":331,"ies":332,"igh":333,"ab":334,"qu":335,"pp":336,"ill":337,"ity":338,"ak":339,"Ġsp":340,"ud":341,"ment":342,"iv":343,"oc":344,"ive":345,"Ġhis":346,"art":347,"00":348,"ort":349,"ess":350,"Ġthis":351,"all":352,"ich":353,"Ġnot":354,"Ġsh":355,"Ġi":356,"Ġar":357,"Ġle":358,"ial":359,"Ġpl":360,"Ġen":361,"Ġgo":362,"ian":363,"Ġhave":364,"gh":365,"Ġwor":366,"Ġdo":367,"ight":368,"ap":369,"ical":370,"Ġwhe":371,"ect":372,"Ġwere":373,"ther":374,"red":375,"ard":376,"ated":377,"Ġwhich":378,"Ġthey":379,"ia":380,"ge":381,"Ġcan":382,"ome":383,"ber":384,"ast":385,"Ġsa":386,"ie":387,"Ġus":388,"ear":389,"Ġab":390,"ould":391,"ough":392,"ell":393,"ust":394,"ame":395,"Ġwhat":396,"Ġtr":397,"Ġcomp":398,"our":399,"der":400,"Ġone":401,"ok":402,"ine":403,"ions":404,"cl":405,"ip":406,"ary":407,"Ġad":408,"Ġhas":409,"og":410,"ure":411,"ound":412,"Ġcl":413,"pt":414,"Ġbut":415,"Ġall":416,"Ġint":417,"ong":418,"so":419,"Ġman":420,"Ġaf":421,"Ġwe":422,"ous":423,"Ġthere":424,"per":425,"Ġâ":426,"ish":427,"Ġwho":428,"Ġro":429,"ide":430,"cc":431,"Ġcont":432,"out":433,"Ġtheir":434,"end":435,"ans":436,"Ġother":437,"ke":438,"Ġhad":439,"Ġme":440,"Ġalso":441,"ĠâĢ":442,"Ġam":443,"iz":444,"ack":445,"Ġno":446,"ore":447,"Ġpart":448,"ry":449,"ub":450,"Ġsc":451,"Ġte":452,"rit":453,"ally":454,"Ġli":455,"Ġper":456,"ations":457,"du":458,"Ġim":459,"Ġ20":460,"ign":461,"ice":462,"ass":463,"Ġnew":464,"Ġgr":465,"Ġmore":466,"Ġres":467,"age":468,"Ġsaid":469,"Ġbec":470,"Ġcomm":471,"ult":472,"act":473,"Ġyear":474,"Ġsome":475,"ater":476,"Ġits":477,"ren":478,"Ġso":479,"Ġfir":480,"Ġco":481,"pl":482,"ime":483,"Ġag":484,"av":485,"Ġdis":486,"ang":487,"ount":488,"Ġtw":489,"Ġform":490,"own":491,"Ġpe":492,"Ġfirst":493,"ition":494,"ction":495,"vel":496,"Ġbo":497,"Ġout":498,"ates":499,"ence":500,"Ġbeen":501,"ire":502,"Ġind":503,"Ġapp":504,"ue":505,"Ġup":506,"ord":507,"Ġkn":508,"one":509,"Ġ:":510,"au":511,"Ġmar":512,"Ġcol":513,"'t":514,"ree":515,"ff":516,"Ġshe":517,"ru":518,"Ġsy":519,"ory":520,"clud":521,"ib":522,"ace":523,"Ġev":524,"Ġover":525,"Ġoff":526,"Ġpo":527,"ance":528,"Ġrec":529,"Ġlo":530,"ec":531,"Ġwhen":532,"ach":533,"Ġafter":534,"ks":535,"Ġcent":536,"ake":537,"Ġ;":538,"erm":539,"orm":540,"Ġhow":541,"Ġtwo":542,"Ġthan":543,"hed":544,"Ġbl":545,"able":546,"Ġinclud":547,"ile":548,"ph":549,"Ġpres":550,"ens":551,"ents":552,"we":553,"ors":554,"vers":555,"ric":556,"Ġrep":557,"Ġmost":558,"Ġ201":559,"tern":560,"Ġwould":561,"ose":562,"Ġser":563,"ond":564,"Ġdes":565,"Ġlike":566,"Ġsuch":567,"Ġ200":568,"Ġabout":569,"Ġfe":570,"Ġpre":571,"Ġem":572,"Ġher":573,"ts":574,"Ġthem":575,"ced":576,"ind":577,"Ġpr":578,"Ġele":579,"Ġtime":580,"Ġgen":581,"ah":582,"Ġpol":583,"ll":584,"Ġwhere":585,"lic":586,"Ġear":587,"ces":588,"ite":589,"Ġwill":590,"Ġ3":591,"Ġqu":592,"are":593,"ade":594,"Ġmay":595,"Ġbet":596,"very":597,"ational":598,"Ġbr":599,"Ġph":600,"land":601,"Ġinto":602,"ved":603,"ase":604,"Ġcons":605,"Ġmany":606,"ited":607,"wn":608,"te":609,"Ġrel":610,"Ġpeop":611,"Ġ18":612,"uring":613,"Ġacc":614,"low":615,"Ġthese":616,"Ġused":617,"ild":618,"Ġcar":619,"Ġplay":620,"Ġwork":621,"Ġimp":622,"Ġpeople":623,"amp":624,"Ġla":625,"ĠâĢĵ":626,"reat":627,"Ġ'":628,"Ġwar":629,"ck":630,"ied":631,"ings":632,"Ġonly":633,"ism":634,"Ġsch":635,"Ġreg":636,"Ġcount":637,"Ġatt":638,"Ġdid":639,"les":640,"ep":641,"ered":642,"Ġunder":643,"Ġstud":644,"ular":645,"ays":646,"olog":647,"ress":648,"ted":649,"ail":650,"Ġact":651,"iff":652,"old":653,"na":654,"vern":655,"Ġoh":656,"ath":657,"eric":658,"ons":659,"Ġsec":660,"Ġinf":661,"rib":662,"Ġpop":663,"Ġworld":664,"als":665,"ious":666,"Ġhim":667,"Ġcall":668,"iss":669,"Ġfl":670,"Ġduring":671,"ased":672,"Ġyears":673,"Ġsee":674,"ood":675,"Ġref":676,"Ġgovern":677,"Ġjo":678,"rop":679,"Ġprodu":680,"eren":681,"Ġright":682,"ause":683,"Ġtra":684,"Ġsub":685,"Ġac":686,"Ġnum":687,"Ġif":688,"gan":689,"ident":690,"tle":691,"ink":692,"Ġlar":693,"Ġthr":694,"ative":695,"Ġfr":696,"Ġpar":697,"Ġwell":698,"Ġinc":699,"oth":700,"Ġexp":701,"ween":702,"Ġbetween":703,"Ġbu":704,"oup":705,"ific":706,"ft":707,"stem":708,"gr":709,"Ġma":710,"urn":711,"Ġeng":712,"Ġmin":713,"Ġrem":714,"Ġdiff":715,"ten":716,"ics":717,"Ġmon":718,"Ġnow":719,"Ġ4":720,"ool":721,"Ġsystem":722,"Ġthen":723,"Ġok":724,"Ġpub":725,"ick":726,"Ġthrough":727,"Ġass":728,"ities":729,"Ġdef":730,"Ġdon":731,"ists":732,"Ġtrans":733,"Ġameric":734,"ject":735,"ys":736,"Ġsm":737,"Ġyour":738,"Ġget":739,"Ġgener":740,"Ġinst":741,"Ġany":742,"Ġsupp":743,"ual":744,"Ġob":745,"Ġwant":746,"Ġhere":747,"Ġuse":748,"ĠâĢĶ":749,"Ġmet":750,"Ġstates":751,"Ġokay":752,"Ġ199":753,"Ġchar":754,"Ġmu":755,"ient":756,"ating":757,"Ġspec":758,"Ġwhile":759,"Ġ5":760,",\"":761,"orn":762,"Ġjust":763,"ince":764,"Ġed":765,"Ġcould":766,"Ġstate":767,"Ġgovernment":768,"Ġfound":769,"iet":770,"Ġz":771,"Ġschool":772,"Ġfol":773,"Ġinv":774,"Ġ!":775,"other":776,"Ġhigh":777,"ution":778,"ury":779,"ix":780,"Ġbecause":781,"Ġagain":782,"Ġgroup":783,"Ġpos":784,"ting":785,"Ġinter":786,"Ġlit":787,"hes":788,"Ġ%":789,"velop":790,"io":791,"Ġdec":792,"yp":793,"ines":794,"Ġhist":795,"Ġmem":796,"Ġcalled":797,"ict":798,"Ġset":799,"ily":800,"Ġadd":801,"Ġthree":802,"Ġmade":803,"Ġdevelop":804,"Ġfin":805,"uc":806,"Ġmus":807,"Ġsou":808,"ever":809,"ished":810,"Ġback":811,"Ġlet":812,"ward":813,"fore":814,"Ġlook":815,"ivers":816,"Ġsur":817,"Ġcity":818,"Ġend":819,"Ġbro":820,"Ġair":821,"Ġeu":822,"Ġdist":823,"ower":824,"Ġelect":825,"ise":826,"Ġfollow":827,"Ġknown":828,"Ġhowever":829,"Ġsim":830,"Ġlater":831,"Ġput":832,"Ġfil":833,"Ġunited":834,"ures":835,"Ġboth":836,"row":837,"Ġprov":838,"ually":839,"sel":840,"Ġfun":841,"'re":842,"Ġgu":843,"Ġbeing":844,"Ġdep":845,"ife":846,"ock":847,"int":848,"Ġgood":849,"tain":850,"li":851,"Ġlong":852,"ving":853,"Ġcap":854,"cept":855,"000":856,"Ġnor":857,"Ġknow":858,"ty":859,"Ġwrit":860,"Ġeff":861,"Ġdifferen":862,"Ġmil":863,"ins":864,"Ġvar":865,"Ġmed":866,"hip":867,"Ġ/":868,"Ġent":869,"Ġ6":870,"Ġsign":871,"Ġest":872,"ized":873,"Ġsince":874,"Ġye":875,"Ġlaw":876,"Ġbel":877,"Ġconst":878,"Ġthose":879,"Ġart":880,"its":881,"ters":882,"ost":883,"Ġext":884,"omet":885,"Ġloc":886,"ather":887,"ble":888,"Ġdown":889,"Ġarm":890,"Ġincluding":891,"ug":892,"Ġearly":893,"ange":894,"Ġ198":895,"Ġnational":896,"Ġhel":897,"Ġsoc":898,"Ġfam":899,"ral":900,"Ġnumber":901,"ning":902,"ically":903,"Ġaut":904,"Ġmy":905,"con":906,"imes":907,"cess":908,"Ġmain":909,"ful":910,"ments":911,"Ġcre":912,".\"":913,"Ġlead":914,"ton":915,"iel":916,"cy":917,"ne":918,"ible":919,"ined":920,"man":921,"Ġke":922,"ract":923,"Ġmake":924,"Ġcentury":925,"Ġshow":926,"Ġpers":927,"Ġdoes":928,"Ġyeah":929,"illion":930,"Ġbefore":931,"led":932,"Ġop":933,"Ġown":934,"ants":935,"Ġintern":936,"Ġbecame":937,"ale":938,"Ġgerm":939,"co":940,"Ġhum":941,"ros":942,"bers":943,"Ġsecond":944,"ium":945,"Ġmat":946,"Ġbook":947,"day":948,"Ġconf":949,"ron":950,"Ġ197":951,"Ġvery":952,"any":953,"Ġfilm":954,"hing":955,"Ġdire":956,"ural":957,"ank":958,"gest":959,"Ġcal":960,"Ġeven":961,"ames":962,"Ġthough":963,"Ġoper":964,"Ġel":965,"Ġpa":966,"til":967,"Ġlang":968,"Ġterm":969,"aking":970,"Ġfour":971,"Ġunivers":972,"Ġmaj":973,"Ġeurop":974,"ds":975,"Ġeach":976,"Ġsame":977,"Ġprot":978,"way":979,"ouse":980,"Ġrom":981,"ially":982,"Ġoffic":983,"Ġstr":984,"Ġthink":985,"ves":986,"Ġeurope":987,"Ġret":988,"Ġdem":989,"Ġsl":990,"Ġcr":991,"Ġsay":992,"ork":993,"Ġgre":994,"Ġmuch":995,"ision":996,"Ġchild":997,"Ġlangu":998,"ues":999,"Ġclass":1000,"Ġ7":1001,"ians":1002,"Ġleg":1003,"Ġanother":1004,"ger":1005,"ology":1006,"Ġtyp":1007,"Ġaround":1008,"ages":1009,"Ġhelp":1010,"form":1011,"Ġorig":1012,"Ġpartic":1013,"Ġmajor":1014,"Ġcontin":1015,"get":1016,"arch":1017,"ave":1018,"Ġwater":1019,"Ġsever":1020,"Ġcor":1021,"Ġbrit":1022,"Ġcolle":1023,"Ġlarge":1024,"Ġche":1025,"Ġ196":1026,"uss":1027,"Ġking":1028,"ility":1029,"Ġoften":1030,"ives":1031,"Ġday":1032,"Ġ8":1033,"ven":1034,"Ġamerican":1035,"Ġpublic":1036,"Ġcommun":1037,"Ġdifferent":1038,"osed":1039,"ared":1040,"Ġresp":1041,"Ġneed":1042,"Ġins":1043,"Ġlittle":1044,"ulation":1045,"Ġseveral":1046,"Ġcountry":1047,"Ġsmall":1048,"xt":1049,"erg":1050,"Ġpresident":1051,"Ġresult":1052,"Ġold":1053,"gram":1054,"iew":1055,"Ġcommon":1056,"Ġsw":1057,"Ġcur":1058,"ording":1059,"Ġcontro":1060,"Ġagainst":1061,"lished":1062,"lish":1063,"Ġdesc":1064,"Ġname":1065,"ature":1066,"Ġway":1067,"Ġ17":1068,"Ġsomet":1069,"Ġnorth":1070,"Ġ10":1071,"Ġincre":1072,"Ġgl":1073,"Ġsupport":1074,"Ġlife":1075,"ars":1076,"Ġcomple":1077,"Ġpri":1078,"Ġsouth":1079,"Ġdirect":1080,"Ġlast":1081,"ired":1082,"cer":1083,"ina":1084,"Ġprogram":1085,"ruct":1086,"ived":1087,"Ġorigin":1088,"Ġval":1089,"Ġplan":1090,"Ġap":1091,"up":1092,"Ġir":1093,"Ġevery":1094,"ula":1095,"Ġcour":1096,"Ġgreat":1097,"Ġpower":1098,"Ġmod":1099,"az":1100,"Ġorgan":1101,"Ġstill":1102,"Ġstart":1103,"Ġhand":1104,"Ġequ":1105,"Ġland":1106,"oy":1107,"Ġocc":1108,"Ġdet":1109,"Ġ15":1110,"rist":1111,"ries":1112,"Ġpolit":1113,"air":1114,"Ġspe":1115,"Ġimport":1116,"Ġconsid":1117,"ample":1118,"ull":1119,"Ġstand":1120,"Ġ>":1121,"Ġuntil":1122,"Ġserv":1123,"Ġsing":1124,"Ġfar":1125,"vent":1126,"Ġtake":1127,"Ġtrad":1128,"Ġ9":1129,"Ġge":1130,"Ġmark":1131,"Ġcome":1132,"Ġdesign":1133,"Ġ$":1134,"ute":1135,"Ġecon":1136,"Ġeconom":1137,"Ġexper":1138,"ised":1139,"Ġbased":1140,"cent":1141,"ier":1142,"Ġaccording":1143,"chn":1144,"Ġread":1145,"Ġopen":1146,"though":1147,"Ġallow":1148,"hn":1149,"Ġchrist":1150,"Ġremain":1151,"Ġdr":1152,"Ġnear":1153,"anc":1154,"ason":1155,"Ġalthough":1156,"rent":1157,"ided":1158,"Ġrele":1159,"Ġrequ":1160,"Ġ<":1161,"Ġpass":1162,"Ġteam":1163,"Ġpat":1164,"Ġmillion":1165,"Ġca":1166,"ob":1167,"Ġhouse":1168,"raph":1169,"Ġrese":1170,"Ġrun":1171,"iod":1172,"Ġbas":1173,"Ġann":1174,"Ġbus":1175,"Ġbar":1176,"Ġprop":1177,"Ġbig":1178,"ience":1179,"Ġhome":1180,"Ġhead":1181,"br":1182,"Ġuniversity":1183,"Ġexample":1184,"read":1185,"Ġisland":1186,"ued":1187,"Ġsol":1188,"Ġes":1189,"Ġrev":1190,"ital":1191,"Ġmoder":1192,"Ġgeneral":1193,"Ġ16":1194,"ross":1195,"hen":1196,"atic":1197,"Ġshould":1198,"self":1199,"Ġamong":1200,"Ġeffect":1201,"iver":1202,"Ġsk":1203,"Ġtechn":1204,"Ġmusic":1205,"Ġwom":1206,"Ġperson":1207,"Ġrecord":1208,"Ġmid":1209,"ets":1210,"son":1211,"ional":1212,"Ġant":1213,"Ġtoo":1214,"Ġmilit":1215,"Ġhistory":1216,"urch":1217,"orts":1218,"Ġrad":1219,"Ġer":1220,"ody":1221,"ccess":1222,"Ġbelie":1223,"min":1224,"Ġjohn":1225,"Ġ194":1226,"Ġcult":1227,"Ġrest":1228,"mber":1229,"Ġperiod":1230,"Ġnon":1231,"ides":1232,"Ġfact":1233,"ik":1234,"Ġav":1235,"Ġexpl":1236,"Ġfre":1237,"Ġinclude":1238,"ield":1239,"Ġposs":1240,"Ġbegan":1241,"Ġdiv":1242,"Ġter":1243,"onna":1244,"ner":1245,"Ġcharact":1246,"Ġturn":1247,"Ġmag":1248,"alth":1249,"omm":1250,"els":1251,"Ġtri":1252,"Ġusing":1253,"Ġfollowing":1254,"Ġhar":1255,"Ġgoing":1256,"Ġbat":1257,"Ġfore":1258,"aim":1259,"oney":1260,"Ġprocess":1261,"Ġopp":1262,"Ġhun":1263,"ene":1264,"Ġvis":1265,"Ġappro":1266,"Ġbuild":1267,"akes":1268,"ified":1269,"Ġmodern":1270,"Ġparty":1271,"Ġmove":1272,"ned":1273,"'ll":1274,"Ġadv":1275,"inc":1276,"ov":1277,"itions":1278,"lu":1279,"ha":1280,"Ġsuccess":1281,"ently":1282,"alk":1283,"omin":1284,"Ġx":1285,"ices":1286,"ement":1287,"imate":1288,"Ġgiv":1289,"Ġinternational":1290,"Ġ12":1291,"Ġgame":1292,"Ġgonna":1293,"ission":1294,"Ġarea":1295,"Ġ195":1296,"Ġje":1297,"Ġdeath":1298,"Ġless":1299,"Ġchildren":1300,"Ġperform":1301,"ected":1302,"Ġreal":1303,"ret":1304,"Ġformula":1305,"Ġpopulation":1306,"Ġhuman":1307,"ote":1308,"ms":1309,"Ġwithin":1310,"mb":1311,"the":1312,"Ġste":1313,"ases":1314,"Ġbritish":1315,"ize":1316,"Ġdra":1317,"Ġsit":1318,"oot":1319,"ird":1320,"Ġauth":1321,"Ġrepres":1322,"Ġve":1323,"ended":1324,"Ġcamp":1325,"Ġlanguage":1326,"ization":1327,"Ġcrit":1328,"Ġide":1329,"Ġseries":1330,"Ġeas":1331,"Ã©":1332,"Ġta":1333,"Ġwest":1334,"Ġtem":1335,"ness":1336,"Ġport":1337,"Ġlat":1338,"Ġmilitary":1339,"bs":1340,"Ġgot":1341,"Ġbre":1342,"Ġstat":1343,"eng":1344,"Ġrece":1345,"ley":1346,"ense":1347,"used":1348,"Ġcle":1349,"Ġdue":1350,"Ġestab":1351,"Ġblack":1352,"Ġfamily":1353,"me":1354,"iation":1355,"Ġmembers":1356,"Ġcat":1357,"Ġfew":1358,"ured":1359,"Ġra":1360,"ying":1361,"Ġplace":1362,"Ġang":1363,"ark":1364,"Ġcoun":1365,"amed":1366,"Ġscient":1367,"Ġpopular":1368,"Ġdescrib":1369,"Ġhistor":1370,"Ġanim":1371,"ont":1372,"Ġsal":1373,"Ġfind":1374,"Ġalong":1375,"Ġproble":1376,"Ġwin":1377,"Ġled":1378,"Ġgerman":1379,"Ġstudents":1380,"Ġimportant":1381,"Ġphil":1382,"ane":1383,"Ġcare":1384,"Ġdisc":1385,"ilar":1386,"Ġmen":1387,"Ġtele":1388,"Ġred":1389,"Ġpolitical":1390,"ator":1391,"Ġmean":1392,"Ġchang":1393,"Ġafric":1394,"Ġii":1395,"gin":1396,"Ġgrow":1397,"Ġprof":1398,"erv":1399,"ency":1400,"ids":1401,"Ġsimilar":1402,"por":1403,"Ġinflu":1404,"ought":1405,"Ġaff":1406,"iam":1407,"Ġtest":1408,"Ġlab":1409,"bo":1410,"ged":1411,"Ġfive":1412,"Ġleft":1413,"Ġenglish":1414,"Ġtook":1415,"ash":1416,"Ġhig":1417,"Ġarg":1418,"Ġassoc":1419,"Ġhal":1420,"Ġtop":1421,"Ġreturn":1422,"Ġhu":1423,"be":1424,"Ġtradition":1425,"ama":1426,"rench":1427,"Ġchurch":1428,"Ġlevel":1429,"Ġlim":1430,"mer":1431,"Ġorder":1432,"ament":1433,"sp":1434,"Ġaddition":1435,"Ġsocial":1436,"Ġwithout":1437,"que":1438,"Ġrelig":1439,"Ġfood":1440,"ember":1441,"Ġdel":1442,"Ġwhite":1443,"Ġtimes":1444,"Ġreport":1445,"une":1446,"Ġrepresent":1447,"ration":1448,"Ġju":1449,"Ġ193":1450,"Ġcontrol":1451,"Ġlight":1452,"Ġnet":1453,"Ġmonth":1454,"Ġspace":1455,"Ġeduc":1456,"rodu":1457,"Ġnat":1458,"ograph":1459,"aced":1460,"Ġ11":1461,"gress":1462,"Ġwee":1463,"Ġiss":1464,"Ġvi":1465,"ann":1466,"Ġparticular":1467,"Ġfrench":1468,"Ġofficial":1469,"Ġgod":1470,"ories":1471,"ister":1472,"Ġcountries":1473,"iety":1474,"Ġcompany":1475,"ats":1476,"Ġaust":1477,"Ġeast":1478,"Ġroman":1479,"ius":1480,"Ġlate":1481,"Ġsuper":1482,"yl":1483,"ards":1484,"Ġwomen":1485,"par":1486,"Ġvol":1487,"Ġvers":1488,"Ġwon":1489,"Ġline":1490,"Ġimm":1491,"Ġindust":1492,"Ġlow":1493,"Ġsix":1494,"Ġsug":1495,"Ġshort":1496,"ling":1497,"Ġhapp":1498,"Ġtreat":1499,"Ġcomput":1500,"'m":1501,"Ġbecome":1502,"ony":1503,"Ġdevelopment":1504,"Ġmust":1505,"aw":1506,"eder":1507,"Ġrepub":1508,"lect":1509,"Ġcame":1510,"Ġpract":1511,"ison":1512,"Ġyoun":1513,"Ġpresent":1514,"by":1515,"Ġfree":1516,"Ġcontain":1517,"Ġpost":1518,"Ġpoint":1519,"Ġrepublic":1520,"Ġlocal":1521,"Ġcomb":1522,"Ġep":1523,"Ġattack":1524,"Ġ14":1525,"ior":1526,"Ġauthor":1527,"ones":1528,"Ġ13":1529,"Ġrul":1530,"Ġdev":1531,"Ġstudy":1532,"ried":1533,"Ġfur":1534,"Ġpur":1535,"Ġarch":1536,"oph":1537,"Ġciv":1538,"Ġview":1539,"Ġbra":1540,"Ġmass":1541,"yn":1542,"Ġbeh":1543,"ots":1544,"ably":1545,"Ġnever":1546,"Ġpercent":1547,"olution":1548,"Ġruss":1549,"ata":1550,"Ġhard":1551,"Ġsun":1552,"oss":1553,"enn":1554,"Ġhy":1555,"Ġcharacter":1556,"Ġgiven":1557,"hod":1558,"Ġproject":1559,"to":1560,"Ġappear":1561,"ese":1562,"ering":1563,"Ġcourt":1564,"Ġclaim":1565,"Ġothers":1566,"estern":1567,"Ġdecl":1568,"Ġcir":1569,"Ġevent":1570,"let":1571,"ript":1572,"Ġconsidered":1573,"Ġformer":1574,"Ġnext":1575,"iness":1576,"Ġkill":1577,"ops":1578,"Ġinform":1579,"Ġcentral":1580,"port":1581,"Ġsays":1582,"Ġbab":1583,"ival":1584,"Ġphys":1585,"Ġeuropean":1586,"Ġhealth":1587,"Ġarmy":1588,"Ġresearch":1589,"ither":1590,"Ġspecial":1591,"side":1592,"augh":1593,"Ġcer":1594,"Ġgra":1595,"Ġident":1596,"Ġsn":1597,"Ġball":1598,"Ġbi":1599,"ode":1600,"epend":1601,"Ġbest":1602,"Ġcivil":1603,"Ġpublished":1604,"rote":1605,"Ġprom":1606,"ball":1607,"uck":1608,"Ġindepend":1609,"Ġour":1610,"Ġhold":1611,"Ġcond":1612,"ipp":1613,"Ġforce":1614,"Ġservice":1615,"Ġprim":1616,"Ġcase":1617,"Ġdri":1618,"Ġmult":1619,"Ġproduct":1620,"Ġband":1621,"anna":1622,"ining":1623,"ze":1624,"Ġage":1625,"erc":1626,"Ġyes":1627,"Ġsum":1628,"Ġusually":1629,"Ġexist":1630,"Ġinvol":1631,"Ġmot":1632,"ctor":1633,"Ġwhy":1634,"ends":1635,"less":1636,"cil":1637,"Ġmic":1638,"ological":1639,"Ġ192":1640,"Ġworks":1641,"Ġchange":1642,"Ġearth":1643,"ality":1644,"Ġrepl":1645,"ened":1646,"ively":1647,"Ġsour":1648,"Ġwrote":1649,"ler":1650,"ument":1651,"Ġinit":1652,"Ġheld":1653,"Ġconn":1654,"iving":1655,"tal":1656,"Ġhaving":1657,"Ġmal":1658,"Ġsingle":1659,"hers":1660,"Ġyork":1661,"ove":1662,"ploy":1663,"work":1664,"Ġcurrent":1665,"Ġtoday":1666,"Ġmor":1667,"Ġpap":1668,"amm":1669,"Ġprev":1670,"ribut":1671,"Ġvarious":1672,"Ġalb":1673,"Ġlargest":1674,"ump":1675,"ilt":1676,"Ġstar":1677,"sc":1678,"Ġunion":1679,"Ġfurther":1680,"bert":1681,"Ġmaking":1682,"Ġintrodu":1683,"ances":1684,"Ġlist":1685,"empt":1686,"Ġproper":1687,"aces":1688,"Ġaug":1689,"Ġmiss":1690,"Ġdoing":1691,"Ġpet":1692,"Ġactiv":1693,"gg":1694,"Ġmight":1695,"Ġdeveloped":1696,"Ġreleased":1697,"Ġpress":1698,"Ġredu":1699,"mit":1700,"Ġsignific":1701,"Ġaway":1702,"Ġgroups":1703,"Ġsea":1704,"Ġrock":1705,"Ġstre":1706,"Ġjan":1707,"Ġwestern":1708,"Ġincluded":1709,"Ġmethod":1710,"wards":1711,"Ġwat":1712,"Ġstruct":1713,"Ġemp":1714,"Ġpot":1715,"gen":1716,"Ġcost":1717,"Ġmoney":1718,"Ġcirc":1719,"erest":1720,"Ġsat":1721,"ention":1722,"Ġpal":1723,"Ġpain":1724,"ination":1725,"Ġho":1726,"apan":1727,"ae":1728,"ways":1729,"Ġsometimes":1730,"Ġoct":1731,"Ġfeat":1732,"ogn":1733,"most":1734,"Ġstrong":1735,"Ġgive":1736,"Ġtour":1737,"istic":1738,"Ġgames":1739,"Ġnort":1740,"Ġ[":1741,"Ġtit":1742,"Ġoccur":1743,"ien":1744,"ched":1745,"Ġfield":1746,"Ġmeas":1747,"Ġjapan":1748,"ivid":1749,"Ġ]":1750,"ges":1751,"Ġfri":1752,"Ġmount":1753,"Ġengine":1754,"ple":1755,"hem":1756,"Ġital":1757,"ergy":1758,"iated":1759,"Ġbir":1760,"Ġtell":1761,"Ġregion":1762,"Ġur":1763,"Ġthird":1764,"ring":1765,"Ġsystems":1766,"Ġwanna":1767,"Ġinterest":1768,"Ġseason":1769,"Ġgree":1770,"Ġareas":1771,"ster":1772,"Ġclose":1773,"Ġsent":1774,"Ġconstit":1775,"Ġhalf":1776,"Ġtoget":1777,"Ġtogether":1778,"Ġsong":1779,"Ġdi":1780,"Ġtur":1781,"Ġsomething":1782,"Ġbetter":1783,"Ġindivid":1784,"add":1785,"Ġpolic":1786,"Ġesp":1787,"osp":1788,"Ġvir":1789,"Ġproduction":1790,"Ġbusiness":1791,"Ġcell":1792,"Ġsuggest":1793,"Ġ191":1794,"Ġrefer":1795,"Ġrelations":1796,"Ġwent":1797,"dom":1798,"Ġtre":1799,"Ġbody":1800,"ising":1801,"idence":1802,"Ġmater":1803,"Ġmarch":1804,"Ġver":1805,"Ġanc":1806,"Ġanal":1807,"ending":1808,"Ġwide":1809,"Ġjew":1810,"Ġden":1811,"Ġdays":1812,"Ġside":1813,"here":1814,"Ġfeder":1815,"rict":1816,"raft":1817,"Ġforces":1818,"Ġnamed":1819,"Ġpark":1820,"Ġson":1821,"Ġfall":1822,"Ġfoot":1823,"Ġconcer":1824,"Ġword":1825,"ead":1826,"Ġaugust":1827,"Ġriver":1828,"Ġce":1829,"uary":1830,"dle":1831,"Ġsold":1832,"Ġoriginal":1833,"Ġobject":1834,"Ġchina":1835,"ott":1836,"Ġber":1837,"Ġsignificant":1838,"Ġjud":1839,"Ġtheory":1840,"ored":1841,"Ġrole":1842,"ox":1843,"Ġdisco":1844,"Ġeconomic":1845,"itive":1846,"Ġscience":1847,"Ġprofess":1848,"ape":1849,"Ġeducation":1850,"Ġsil":1851,"Ġattempt":1852,"ruction":1853,"Ġthus":1854,"Ġkind":1855,"Ġonce":1856,"lo":1857,"Ġblock":1858,"Ġhen":1859,"Ġsept":1860,"ential":1861,"Ġfather":1862,"ai":1863,"ators":1864,"Ġhop":1865,"Ġtown":1866,"Ġnav":1867,"Ġyoung":1868,"Ġkeep":1869,"Ġru":1870,"Ġinstit":1871,"Ġsepar":1872,"Ġthought":1873,"Ġfull":1874,"Ġobs":1875,"etic":1876,"ague":1877,"Ġinvest":1878,"Ġdece":1879,"Ġlear":1880,"Ġgir":1881,"Ġsound":1882,"Ġestablished":1883,"ada":1884,"Ġenergy":1885,"Ġcolor":1886,"Ġwilliam":1887,"Ġnight":1888,"Ġbur":1889,"Ġtotal":1890,"Ġstory":1891,"Ġ30":1892,"Ġenc":1893,"ming":1894,"Ġwritten":1895,"Ġheav":1896,"Ġinformation":1897,"Ġcenter":1898,"Ġspecies":1899,"Ġmaterial":1900,"Ġmomm":1901,"Ġdest":1902,"gy":1903,"Ġseen":1904,"Ġearli":1905,"Ġnatural":1906,"Ġeither":1907,"Ġdata":1908,"aster":1909,"aken":1910,"Ġrather":1911,"Ġinstead":1912,"Ġlive":1913,"Ġeth":1914,"Ġcreated":1915,"ability":1916,"Ġcouncil":1917,"Ġgreen":1918,"iate":1919,"Ġhol":1920,"Ġalmost":1921,"Ġagre":1922,"Ġproduced":1923,"Ġpriv":1924,"Ġdeb":1925,"Ġwind":1926,"Ġwa":1927,"Ġstandard":1928,"Ġchristian":1929,"Ġask":1930,"Ġban":1931,"ls":1932,"Ġbegin":1933,"Ġsyn":1934,"Ġenv":1935,"Ġcompet":1936,"Ġbuilt":1937,"Ġfire":1938,"Ġeat":1939,"Ġjune":1940,"Ġfunction":1941,"hm":1942,"Ġadmin":1943,"Ġmanag":1944,"Ġcalif":1945,"lin":1946,"Ġthings":1947,"acy":1948,"ril":1949,"Ġrights":1950,"ps":1951,"ches":1952,"Ġ0":1953,"sequ":1954,"Ġdemoc":1955,"Ġsen":1956,"Ġprotect":1957,"Ġschools":1958,"asing":1959,"Ġjanuary":1960,"Ġcop":1961,"bit":1962,"Ġpossible":1963,"Ġcy":1964,"Ġbor":1965,"Ġacross":1966,"Ġbroad":1967,"Ġmommy":1968,"val":1969,"Ġamerica":1970,"Ġleast":1971,"Ġara":1972,"sh":1973,"Ġsty":1974,"Ġsov":1975,"ecially":1976,"Ġespecially":1977,"cing":1978,"Ġcollege":1979,"Ġ25":1980,"line":1981,"Ġimpro":1982,"Ġdescribed":1983,"Ġsan":1984,"Ġcertain":1985,"Ġsoviet":1986,"oms":1987,"Ġgermany":1988,"Ġship":1989,"go":1990,"craft":1991,"Ġvict":1992,"Ġder":1993,"Ġnorm":1994,"ober":1995,"Ġmiddle":1996,"erence":1997,"ware":1998,"Ġpay":1999,"Ġgold":2000,"Ġappe":2001,"Ġweek":2002,"hern":2003,"Ġkingdom":2004,"Ġoctober":2005,"Ġdecember":2006,"Ġseptember":2007,"Ġjuly":2008,"Ġgeor":2009,"Ġdepart":2010,"Ġadminist":2011,"Ġannoun":2012,"Ġord":2013,"Ġhom":2014,"Ġliter":2015,"Ġmarket":2016,"Ġpast":2017,"Ġplayed":2018,"Ġpen":2019,"Ġsuff":2020,"Ġcam":2021,"Ġprinc":2022,"rew":2023,"Ġgrand":2024,"Ġrecogn":2025,"Ġreceived":2026,"gs":2027,"Ġexpress":2028,"Ġaustral":2029,"Ġsqu":2030,"Ġworking":2031,"Ġreally":2032,"Ġtype":2033,"ush":2034,"ta":2035,"right":2036,"yal":2037,"Ġmeans":2038,"ief":2039,"Ġfrequ":2040,"ades":2041,"vered":2042,"Ġable":2043,"Ġtravel":2044,"Ġforeign":2045,"ification":2046,"Ġdied":2047,"ma":2048,"Ġcoast":2049,"lex":2050,"thern":2051,"Ġviol":2052,"Ġmother":2053,"ana":2054,"Ġhit":2055,"Ġprevious":2056,"Ġsel":2057,"sy":2058,"iron":2059,"Ġfrance":2060,"Ġfail":2061,"Ġcaliforn":2062,"uel":2063,"Ġdou":2064,"Ġill":2065,"Ġterrit":2066,"Ġpred":2067,"Ġspan":2068,"fer":2069,"Ġhuh":2070,"Ġnorthern":2071,"cle":2072,"Ġhigher":2073,"ctions":2074,"Ġcommit":2075,"Ġgenerally":2076,"Ġempire":2077,"Ġcommand":2078,"ucle":2079,"bur":2080,"Ġground":2081,"Ġchem":2082,"Ġbase":2083,"che":2084,"Ġstarted":2085,"Ġbaby":2086,"ald":2087,"ney":2088,"Ġcut":2089,"verage":2090,"ensive":2091,"oo":2092,"olic":2093,"Ġelse":2094,"Ġcommunity":2095,"Ġapril":2096,"Ġquest":2097,"Ġoutside":2098,"Ġprob":2099,"Ġnove":2100,"Ġenviron":2101,"Ġpie":2102,"Ġsouthern":2103,"Ġstop":2104,"Ġavail":2105,"Ġsaw":2106,"Ġcontinued":2107,"vision":2108,"Ġnovember":2109,"Ġbuilding":2110,"Ġneg":2111,"ille":2112,"Ġcalifornia":2113,"inese":2114,"Ġoffice":2115,"Ġparts":2116,"Ġox":2117,"Ġhour":2118,"Ġfish":2119,"20":2120,"Ġenough":2121,"stand":2122,"Ġhm":2123,"Ġrich":2124,"Ġcapital":2125,"Ġdav":2126,"Ġborn":2127,"Ġprincip":2128,"Ġposition":2129,"Ġtar":2130,"ino":2131,"Ġalbum":2132,"Ġfac":2133,"Ġfig":2134,"Ġfederal":2135,"Ġpolice":2136,"Ġradio":2137,"Ġtemper":2138,"Ġbattle":2139,"Ġlanguages":2140,"Ġnucle":2141,"xic":2142,"ached":2143,"Ġbud":2144,"Ġchinese":2145,"Ġ2010":2146,"Ġmovement":2147,"ready":2148,"ained":2149,"Ġmeet":2150,"Ġ100":2151,"Ġaccept":2152,"Ġtrade":2153,"Ġcoll":2154,"Ġengland":2155,"Ġmember":2156,"Ġtax":2157,"Ġsubject":2158,"tic":2159,"Ġren":2160,"und":2161,"Ġfem":2162,"Ġtro":2163,"Ġversion":2164,"Ġlower":2165,"ains":2166,"Ġproblem":2167,"Ġpoin":2168,"iting":2169,"Ġlost":2170,"Ġalready":2171,"omp":2172,"Ġscientists":2173,"Ġdomin":2174,"Ġhor":2175,"Ġmach":2176,"Ġfinal":2177,"Ġblue":2178,"Ġthroughout":2179,"Ġdone":2180,"osition":2181,"Ġexec":2182,"Ġdeterm":2183,"Ġreligious":2184,"Ġemploy":2185,"Ġcompan":2186,"Ġexam":2187,"Ġrange":2188,"Ġboy":2189,"Ġsociety":2190,"Ġdam":2191,"Ġcomplete":2192,"iction":2193,"face":2194,"Ġuk":2195,"Ġdesp":2196,"Ġmodel":2197,"Ġfav":2198,"Ġnumbers":2199,"Ġsaf":2200,"Ġhimself":2201,"Ġreact":2202,"Ġwashing":2203,"Ġleague":2204,"Ġfund":2205,"Ġphilos":2206,"istan":2207,"aves":2208,"Ġsam":2209,"ude":2210,"reme":2211,"Ġcast":2212,"thing":2213,"Ġmonths":2214,"Ġanimals":2215,"Ġdidn":2216,"Ġsex":2217,"Ġconnect":2218,"Ġaha":2219,"ales":2220,"Ġliber":2221,"Ġhost":2222,"Ġvot":2223,"Ġtraditional":2224,"Ġroad":2225,"Ġbreak":2226,"Ġfoc":2227,"Ġconcept":2228,"Ġcomputer":2229,"Ġaccount":2230,"iding":2231,"Ġfa":2232,"Ġgave":2233,"Ġtelevision":2234,"Ġculture":2235,"Ġabove":2236,"omb":2237,"arily":2238,"Ġwhose":2239,"aur":2240,"Ġanti":2241,"Ġmagn":2242,"Ġtaken":2243,"Ġnation":2244,"rael":2245,"icult":2246,"Ġrail":2247,"Ġach":2248,"Ġbit":2249,"Ġpict":2250,"umb":2251,"Ġleaders":2252,"Ġregard":2253,"Ġfront":2254,"Ġcomplex":2255,"Ġavailable":2256,"Ġeastern":2257,"Ġdoc":2258,"Ġlove":2259,"Ġdig":2260,"Ġbal":2261,"Ġvide":2262,"Ġcross":2263,"Ġenvironment":2264,"Ġ2011":2265,"Ġhon":2266,"Ġwhether":2267,"Ġcath":2268,"inal":2269,"Ġlaun":2270,"ror":2271,"addy":2272,"Ġten":2273,"Ġdu":2274,"erous":2275,"Ġrate":2276,"Ġfight":2277,"Ġidea":2278,"ery":2279,"aps":2280,"cul":2281,"Ġbill":2282,"Ġkey":2283,"Ġupon":2284,"Ġcongress":2285,"Ġfut":2286,"Ġyet":2287,"Ġcann":2288,"Ġsecret":2289,"af":2290,"Ġliving":2291,"Ġlou":2292,"fact":2293,"aign":2294,"lam":2295,"Ġdol":2296,"iment":2297,"Ġcho":2298,"Ġ2012":2299,"ples":2300,"arc":2301,"Ġlond":2302,"Ġbrother":2303,"ands":2304,"Ġaward":2305,"Ġwashington":2306,"Ġevidence":2307,"Ġallowed":2308,"Ġwords":2309,"Ġgreek":2310,"Ġtechnology":2311,"Ġtalk":2312,"hib":2313,"Ġterms":2314,"Ġlondon":2315,"Ġlog":2316,"Ġcampaign":2317,"Ġconstitution":2318,"arian":2319,"Ġever":2320,"Ġ21":2321,"Ġbox":2322,"icle":2323,"put":2324,"rents":2325,"Ġfeb":2326,"Ġdaddy":2327,"Ġitself":2328,"Ġafrica":2329,"Ġ50":2330,"Ġminister":2331,"Ġdespite":2332,"Ġalways":2333,"ban":2334,"Ġabs":2335,"Ġflow":2336,"aries":2337,"imately":2338,"ique":2339,"Ġcause":2340,"Ġ1990":2341,"Ġstep":2342,"igr":2343,"Ġwall":2344,"Ġsoft":2345,"Ġaccess":2346,"Ġglob":2347,"Ġmill":2348,"duct":2349,"Ġlot":2350,"Ġfollowed":2351,"Ġelection":2352,"Ġindustry":2353,"Ġhyd":2354,"Ġformed":2355,"Ġreported":2356,"Ã¡":2357,"Ġestim":2358,"Ġisrael":2359,"Ġrecent":2360,"Ġq":2361,"Ġopt":2362,"Ġpow":2363,"Ġnetwork":2364,"Ġentire":2365,"Ġcritic":2366,"Ġmer":2367,"Ġadded":2368,"ites":2369,"Ġgrad":2370,"Ġamount":2371,"Ġdifficult":2372,"Ġcities":2373,"Ġsoon":2374,"ols":2375,"Ġevents":2376,"Ġstri":2377,"Ġseven":2378,"Ġproblems":2379,"Ġdemocr":2380,"Ġancient":2381,"Ġschol":2382,"Ġhot":2383,"Ġindia":2384,"ruary":2385,"Ġapplic":2386,"Ġris":2387,"ria":2388,"Ġtex":2389,"Ġstra":2390,"Ġfebruary":2391,"Ġadop":2392,"Ġbring":2393,"Ġintroduced":2394,"Ġislands":2395,"Ġinte":2396,"Ġacad":2397,"Ġfer":2398,"pped":2399,"Ġafrican":2400,"Ġey":2401,"Ġaud":2402,"Ġeight":2403,"Ġstyle":2404,"Ġtrib":2405,"Ġpsy":2406,"Ġindic":2407,"chan":2408,"eth":2409,"ef":2410,"Ġclub":2411,"Ġrespect":2412,"lim":2413,"Ġexcept":2414,"Ġservices":2415,"Ġroyal":2416,"Ġfell":2417,"Ġmuse":2418,"Ġcompanies":2419,"uses":2420,"Ġrelative":2421,"Ġ1980":2422,"Ġdise":2423,"Ġcolon":2424,"Ġseem":2425,"Ġbirth":2426,"Ġlaws":2427,"ows":2428,"Ġself":2429,"Ġplayers":2430,"Ġrespons":2431,"Ġ2008":2432,"Ġrule":2433,"Ġannounced":2434,"Ġparticularly":2435,"den":2436,"Ġlos":2437,"Ġpoly":2438,"Ġdom":2439,"Ġbooks":2440,"Ġmultip":2441,"iers":2442,"Ġprivate":2443,"Ġforms":2444,"Ġmoved":2445,"Ġcases":2446,"Ġ2009":2447,"Ġarab":2448,"Ġrelated":2449,"Ġdraw":2450,"selves":2451,"Ġaverage":2452,"urity":2453,"Ġcook":2454,"Ġspeed":2455,"Ġsubst":2456,"idge":2457,"Ġincreased":2458,"Ġcreat":2459,"Ġchanges":2460,"Ġple":2461,"Ġphot":2462,"Ġpolicy":2463,"Ġeventually":2464,"Ġsurv":2465,"rian":2466,"Ġmuseum":2467,"Ġvari":2468,"aff":2469,"Ġ2000":2470,"Ġinfluence":2471,"Ġacadem":2472,"Ġtransport":2473,"Ġindian":2474,"onst":2475,"Ġgas":2476,"Ġoil":2477,"Ġarri":2478,"Ġprovide":2479,"Ġconsist":2480,"Ġcit":2481,"Ġmac":2482,"key":2483,"Ġul":2484,"ceed":2485,"ham":2486,"Ġnovel":2487,"Ġcand":2488,"Ġpaul":2489,"Ġincreasing":2490,"ĠÂ":2491,"Ġparli":2492,"med":2493,"Ġ190":2494,"Ġ2013":2495,"Ġmhm":2496,"Ġmakes":2497,"ago":2498,"Ġsuccessful":2499,"Ġsize":2500,"uments":2501,"Ġlikely":2502,"Ġbrought":2503,"rown":2504,"ateg":2505,"Ġmix":2506,"Ġstudies":2507,"Ġwood":2508,"ara":2509,"mon":2510,"Ġface":2511,"Ġ2007":2512,"Ġislam":2513,"Ġgun":2514,"Ġdispl":2515,"Ġpun":2516,"Ġnearly":2517,"Ġdeg":2518,"pr":2519,"atory":2520,"ee":2521,"ength":2522,"Ġast":2523,"Ġmedia":2524,"Ġsource":2525,"ky":2526,"Ġjour":2527,"rest":2528,"pect":2529,"Ġclear":2530,"Ġfuture":2531,"Ġmicro":2532,"Ġkilled":2533,"Ġworkers":2534,"ography":2535,"Ġbank":2536,"Ġnations":2537,"Ġrequired":2538,"Ġindividual":2539,"Ġconsider":2540,"Ġdeal":2541,"Ġpsych":2542,"Ġreform":2543,"Ġdefin":2544,"Ġnature":2545,"Ġparliament":2546,"Ġmaintain":2547,"Ġvalue":2548,"Ġspanish":2549,"Ġachie":2550,"Ġmess":2551,"Ġ1970":2552,"aut":2553,"atives":2554,"Ġaction":2555,"Ġlay":2556,"Ġbecom":2557,"Ġelements":2558,"Ġearlier":2559,"Ġbeginning":2560,"Ġmart":2561,"rap":2562,"Ġbow":2563,"Ġcard":2564,"Ġexecut":2565,"Ġwriting":2566,"Ġincrease":2567,"Ġlatin":2568,"Ġpaper":2569,"Ġlocated":2570,"Ġfeel":2571,"Ġconserv":2572,"oid":2573,"Ġthemselves":2574,"Ġeconomy":2575,"Ġchief":2576,"Ġlegal":2577,"Ġtold":2578,"Ġstructure":2579,"ny":2580,"Ġdoesn":2581,"ires":2582,"Ġbillion":2583,"bon":2584,"lation":2585,"inted":2586,"itor":2587,"Ġlin":2588,"for":2589,"Ġenter":2590,"Ġago":2591,"Ġtaking":2592,"Ġunderstand":2593,"Ġcapt":2594,"hest":2595,"Ġmeaning":2596,"bor":2597,"Ġprotest":2598,"Ġspecific":2599,"Ġtext":2600,"Ġess":2601,"Ġdut":2602,"Ġfamil":2603,"ica":2604,"Ġalex":2605,"Ġmechan":2606,"Ġassociated":2607,"Ġ189":2608,"Ġremained":2609,"Ġplaying":2610,"mp":2611,"Ġlack":2612,"Ġ2014":2613,"Ġhall":2614,"Ġdepartment":2615,"Ġspok":2616,"Ġreason":2617,"Ġwalk":2618,"ex":2619,"Ġregular":2620,"tt":2621,"Ġvideo":2622,"Ġ40":2623,"Ġ&":2624,"Ġmanu":2625,"Ġsecurity":2626,"Ġmajority":2627,"Ġbad":2628,"of":2629,"Ġpeace":2630,"Ġquick":2631,"Ġgoes":2632,"anch":2633,"Ġofficials":2634,"Ġnecess":2635,"Ġconvent":2636,"Ġemerg":2637,"Ġaircraft":2638,"Ġkh":2639,"Ġtry":2640,"Ġpoor":2641,"Ġparticip":2642,"apt":2643,"Ġrelationship":2644,"Ġreb":2645,"Ġcommerc":2646,"Ġstay":2647,"Ġmax":2648,"Ġrob":2649,"Ġlonger":2650,"Ġmel":2651,"Ġjer":2652,"Ġoce":2653,"Ġrules":2654,"Ġmexic":2655,"Ġrevolution":2656,"Ġtable":2657,"Ġbelieved":2658,"Ġrussian":2659,"Ġemb":2660,"Ġleading":2661,"ibility":2662,"Ġsymb":2663,"Ġtypically":2664,"Ġapprox":2665,"rast":2666,"ams":2667,"ns":2668,"Ġcommission":2669,"Ġprovided":2670,"Ġincludes":2671,"Ġpersonal":2672,"Ġcaused":2673,"Ġelectron":2674,"Ġboard":2675,"Ġmm":2676,"ka":2677,"Ġprevent":2678,"ores":2679,"Ġhur":2680,"Ġtypes":2681,"Ġpractice":2682,"lement":2683,"Ġdistin":2684,"Ġcust":2685,"50":2686,"Ġcra":2687,"Ġpick":2688,"Ġnews":2689,"Ġuses":2690,"Ġsurface":2691,"Ġindependent":2692,"Ġstation":2693,"Ġmanufact":2694,"Ġswe":2695,"Ġfix":2696,"Ġbc":2697,"Ġbene":2698,"urs":2699,"Ġpret":2700,"Ġprime":2701,"ify":2702,"Ġ2006":2703,"Ġconsum":2704,"Ġplant":2705,"ingu":2706,"wh":2707,"Ġwanted":2708,"Ġsle":2709,"Ġgrowth":2710,"Ġdirector":2711,"Ġstreet":2712,"Ġaltern":2713,"Ġ24":2714,"ift":2715,"Ġthreat":2716,"Ġham":2717,"ises":2718,"Ġbrown":2719,"Ġplayer":2720,"Ġteac":2721,"Ġnative":2722,"Ġdesigned":2723,"rial":2724,"Ġchamp":2725,"Ġinstr":2726,"Ġparents":2727,"Ġsummer":2728,"Ġneigh":2729,"Ġroom":2730,"ax":2731,"Ġcode":2732,"Ġlink":2733,"Ġreferred":2734,"ties":2735,"Ġ1960":2736,"ert":2737,"Ġwatch":2738,"Ġcollect":2739,"ption":2740,"Ġspeak":2741,"Ġwild":2742,"clus":2743,"Ġlibr":2744,"Ġchair":2745,"aching":2746,"itch":2747,"Ġgeorge":2748,"Ġlimited":2749,"Ġdefe":2750,"lying":2751,"Ġsell":2752,"Ġquant":2753,"Ġcod":2754,"isc":2755,"Ġpu":2756,"Ġcanada":2757,"Ġwhole":2758,"Ġrank":2759,"Ġbehind":2760,"Ġcommunic":2761,"uation":2762,"Ġjames":2763,"Ġmc":2764,"Ġhydro":2765,"Ġmich":2766,"ences":2767,"Ġsite":2768,"Ġthing":2769,"Ġassociation":2770,"Ġ2015":2771,"Ġgar":2772,"Ġrussia":2773,"ilities":2774,"head":2775,"Ġappo":2776,"Ġmathem":2777,"Ġlarger":2778,"Ġrequire":2779,"Ġice":2780,"Ġsubsequ":2781,"Ġspir":2782,"Ġletter":2783,"Ġcatholic":2784,"Ġprobably":2785,"gypt":2786,"Ġinvolved":2787,"pe":2788,"ounds":2789,"Ġeffects":2790,"Ġserved":2791,"ania":2792,"Ġmostly":2793,"Ġfle":2794,"Ġthous":2795,"uries":2796,"Ġphysical":2797,"utes":2798,"Ġfilms":2799,"Ġcounty":2800,"Ġcry":2801,"Ġappeared":2802,"Ġnames":2803,"'ve":2804,"Ġdavid":2805,"Ġmuslim":2806,"Ġvo":2807,"Ġfarm":2808,"hel":2809,"Ġalright":2810,"Ġrout":2811,"Ġminor":2812,"oon":2813,"idents":2814,"Ġfif":2815,"Ġegypt":2816,"cast":2817,"Ġwear":2818,"Ġconstruction":2819,"Ġfootball":2820,"Ġ2005":2821,"oura":2822,"app":2823,"een":2824,"Ġ2016":2825,"Ġorganization":2826,"Ġec":2827,"wor":2828,"Ġpan":2829,"Ġloss":2830,"reg":2831,"Ġsequ":2832,"Ġcub":2833,"Ġcannot":2834,"Ġbed":2835,"Ġ186":2836,"Ġelectric":2837,"ray":2838,"Ġnuclear":2839,"Ġrap":2840,"Ġkids":2841,"Ġvisit":2842,"Ġhighest":2843,"Ġinterp":2844,"Ġbear":2845,"Ġestablish":2846,"Ġhoney":2847,"Ġasked":2848,"Ġbelow":2849,"hood":2850,"Ġlegis":2851,"Ġresults":2852,"Ġlabor":2853,"Ġphilosoph":2854,"Ġnice":2855,"Ġreturned":2856,"Ġweap":2857,"Ġflo":2858,"Ġworked":2859,"Ġmatter":2860,"Ġrac":2861,"Ġangel":2862,"Ġelected":2863,"Ġfeatures":2864,"Ġbritain":2865,"Ġobser":2866,"ributed":2867,"Ġera":2868,"Ġgreater":2869,"Ġcitiz":2870,"vere":2871,"ford":2872,"Ġshows":2873,"icient":2874,"Ġjapanese":2875,"wer":2876,"icles":2877,"Ġdan":2878,"Ġoccup":2879,"Ġpurp":2880,"Ġlength":2881,"itude":2882,"Ġcomes":2883,"ston":2884,"Ġ23":2885,"Ġemper":2886,"Ġaddress":2887,"Ġpressure":2888,"Ġconstant":2889,"Ġgal":2890,"Ġproduce":2891,"Ġconduct":2892,"Ġsure":2893,"Ġvill":2894,"Ġseparate":2895,"Ġtarget":2896,"Ġtherefore":2897,"roy":2898,"Ġunit":2899,"Ġpoints":2900,"semb":2901,"Ġquestion":2902,"Ġinside":2903,"Ġcorn":2904,"Ġsand":2905,"Ġjack":2906,"Ġconver":2907,"lled":2908,"Ġprograms":2909,"Ġfounded":2910,"ari":2911,"Ġconditions":2912,"Ġdiscuss":2913,"asion":2914,"ume":2915,"'d":2916,"Ġprimary":2917,"ope":2918,"Ġdru":2919,"Ġcareer":2920,"Ġrat":2921,"Ġbul":2922,"Ġtitle":2923,"Ġproducts":2924,"Ġremains":2925,"Ġglobal":2926,"Ġtrue":2927,"Ġlines":2928,"Ã¶":2929,"Ġelement":2930,"Ġspread":2931,"nes":2932,"Ġfast":2933,"asc":2934,"Ġult":2935,"Ġjewish":2936,"Ġet":2937,"Ġjob":2938,"Ġchanged":2939,"Ġmur":2940,"Ġstated":2941,"Ġprec":2942,"Ġdefined":2943,"Ġwidely":2944,"Ġcommercial":2945,"Ġtou":2946,"aged":2947,"Ġslow":2948,"Ġfinanc":2949,"outh":2950,"Ġbehav":2951,"utions":2952,"Ġdyn":2953,"enced":2954,"Ġrelease":2955,"nal":2956,"Ġmom":2957,"Ġfort":2958,"Ġ188":2959,"Ġfriends":2960,"Ġperformance":2961,"Ġdead":2962,"Ġben":2963,"Ġmov":2964,"Ġchemical":2965,"Ġgetting":2966,"Ġintegr":2967,"Ġblood":2968,"Ġfamous":2969,"Ġchall":2970,"Ġsmaller":2971,"Ġhear":2972,"Ġproposed":2973,"burg":2974,"Ġcreate":2975,"Ġhours":2976,"Ġocean":2977,"Ġ187":2978,"Ġdim":2979,"com":2980,"Ġdivision":2981,"Ġaustralia":2982,"Ġchic":2983,"Ġpack":2984,"Ġshar":2985,"izing":2986,"Ġkore":2987,"aint":2988,"Ġagric":2989,"Ġleader":2990,"Ġcultural":2991,"Ġ=":2992,"Ġcup":2993,"Ġactually":2994,"Ġmeasure":2995,"Ġtraining":2996,"Ġoriginally":2997,"ulated":2998,"Ġgirl":2999,"isions":3000,"Ġ22":3001,"mar":3002,"Ġhous":3003,"rated":3004,"Ġmedical":3005,"men":3006,"Ġissue":3007,"ss":3008,"Ġdaugh":3009,"Ġkit":3010,"Ġprior":3011,"ulf":3012,"ables":3013,"quote":3014,"Ġthank":3015,"Ġdeep":3016,"Ġ2017":3017,"Ġrecorded":3018,"ills":3019,"Ġblockquote":3020,"pper":3021,"Ġappl":3022,"ael":3023,"Ġassist":3024,"Ġcommonly":3025,"Ġlouis":3026,"Ġdistrict":3027,"Ġcarry":3028,"anded":3029,"Ġclimate":3030,"Ġze":3031,"Ġstudent":3032,"Ġdecided":3033,"oted":3034,"ii":3035,"like":3036,"Ġitalian":3037,"Ġagricult":3038,"my":3039,"Ġconflic":3040,"Ġsports":3041,"Ġcharles":3042,"Ġsoftware":3043,"Ġtrying":3044,"Ġcommitte":3045,"ension":3046,"Ġinvestig":3047,"Ġterritory":3048,"Ġdisease":3049,"Ġobama":3050,"Ġcover":3051,"Ġcontinu":3052,"Ġassemb":3053,"Ġhung":3054,"Ġscientific":3055,"cks":3056,"Ġhund":3057,"Ġfranc":3058,"anced":3059,"oh":3060,"Ġsup":3061,"Ġsnow":3062,"Ġflight":3063,"uals":3064,"Ġnar":3065,"Ġgrowing":3066,"onse":3067,"Ġamericans":3068,"Ġheart":3069,"Ġclos":3070,"Ġhelped":3071,"amb":3072,"Ġfriend":3073,"Ġgrant":3074,"Ġthom":3075,"Ġuh":3076,"Ġhundred":3077,"Ġresearc":3078,"ields":3079,"Ġpil":3080,"ental":3081,"Ġcele":3082,"Ġlun":3083,"fl":3084,"Ġwil":3085,"Ġ2018":3086,"Ġanimal":3087,"inary":3088,"Ġlevels":3089,"Ġscholars":3090,"Ġwife":3091,"Ġmission":3092,"riage":3093,"Ġleave":3094,"Ġitaly":3095,"itect":3096,"Ġneeded":3097,"Ġreview":3098,"Ġbelieve":3099,"zz":3100,"Ġlooking":3101,"ners":3102,"Ġveh":3103,"Ġquar":3104,"ole":3105,"Ġreligion":3106,"Ġscre":3107,"sec":3108,"Ġhistorical":3109,"Ġdocument":3110,"Ġrunning":3111,"Ġlived":3112,"ysis":3113,"Ġdiscovered":3114,"Ġresponse":3115,"Ġ2001":3116,"cript":3117,"Ġreplaced":3118,"uth":3119,"Ġhi":3120,"Ġemperor":3121,"Ġarchitect":3122,"istics":3123,"Ġround":3124,"Ġrh":3125,"Ġresist":3126,"Ġmetal":3127,"Ġexperience":3128,"ening":3129,"mi":3130,"Ġfamilies":3131,"Ġestimated":3132,"itz":3133,"Ġcandid":3134,"Ġindependence":3135,"Ġhenry":3136,"Ġcharacters":3137,"Ġdirectly":3138,"Ġsupported":3139,"Ġ2004":3140,"Ġlu":3141,"Ġfel":3142,"Ġrome":3143,"Ġstarting":3144,"Ġdecision":3145,"antic":3146,"Ġcold":3147,"lands":3148,"rs":3149,"Ġic":3150,"Ġsense":3151,"Ġacqu":3152,"ris":3153,"Ġreached":3154,"Ġcoming":3155,"Ġplat":3156,"Ġvariety":3157,"Ġforest":3158,"Ġremember":3159,"rect":3160,"oes":3161,"ola":3162,"Ġimmed":3163,"Ġfemale":3164,"Ġhappened":3165,"Ġsleep":3166,"Ġrobert":3167,"mitted":3168,"uit":3169,"ech":3170,"Ġwoman":3171,"istry":3172,"Ġtom":3173,"Ġissues":3174,"Ġtv":3175,"Ġvote":3176,"Ġunits":3177,"Ġimmediate":3178,"asons":3179,"Ġesc":3180,"Ġlad":3181,"Ġtrain":3182,"Ġvia":3183,"Ġoperation":3184,"Ġinternet":3185,"Ġborder":3186,"ribution":3187,"Ġhell":3188,"Ġinsp":3189,"imum":3190,"Ġethn":3191,"Ġpath":3192,"Ġfreed":3193,"Ġstru":3194,"Ġlargely":3195,"where":3196,"Ġheavy":3197,"Ġdog":3198,"Ġ26":3199,"Ġparis":3200,"Ġ2019":3201,"ym":3202,"ero":3203,"Ġfra":3204,"Ġsources":3205,"ques":3206,"resp":3207,"Ġadministration":3208,"use":3209,"Ġtal":3210,"Ġlake":3211,"Ġimplement":3212,"Ġpope":3213,"Ġoperations":3214,"Ġdestroy":3215,"ledge":3216,"Ġnumerous":3217,"Ġrare":3218,"Ġmedic":3219,"Ġrace":3220,"ply":3221,"Ġven":3222,"Ġprogress":3223,"Ġbenef":3224,"Ġtrack":3225,"Ġcred":3226,"Ġrecords":3227,"ket":3228,"Ġcere":3229,"Ġpac":3230,"Ġexc":3231,"Ġtemperature":3232,"Ġsett":3233,"Ġchann":3234,"ÃŃ":3235,"Ġhosp":3236,"wood":3237,"ivity":3238,"Ġapproximately":3239,"Ġopened":3240,"hab":3241,"Ġpassed":3242,"Ġcompared":3243,"Ġforced":3244,"Ġimprove":3245,"Ġrain":3246,"Ġroll":3247,"Ġready":3248,"ga":3249,"Ġdemocratic":3250,"over":3251,"Ġasia":3252,"Ġlives":3253,"Ġsusp":3254,"Ġfest":3255,"Ġrecently":3256,"Ġdial":3257,"Ġactive":3258,"Ġbay":3259,"Ġcommittee":3260,"Ġmathemat":3261,"Ġhumans":3262,"Ġcelebr":3263,"wide":3264,"ida":3265,"Ġadditional":3266,"Ġgovernor":3267,"Ġtree":3268,"Ġepis":3269,"Ġtun":3270,"Ġbound":3271,"Ġstage":3272,"Ġhair":3273,"Ġdisp":3274,"Ġexperiment":3275,"Ġcarbon":3276,"Ġtor":3277,"Ġquickly":3278,"Ġnine":3279,"Ġpeter":3280,"Ġpra":3281,"Ġmaybe":3282,"uff":3283,"Ġsettle":3284,"oe":3285,"Ġran":3286,"Ġfavor":3287,"off":3288,"berg":3289,"Ġsens":3290,"Ġspirit":3291,"ging":3292,"Ġdisplay":3293,"Ġauthority":3294,"Ġmind":3295,"iences":3296,"Ġdetail":3297,"Ġindustrial":3298,"Ġyell":3299,"Ġrisk":3300,"Ġsaying":3301,"Ġthomas":3302,"Ġlibrary":3303,"att":3304,"Ġmole":3305,"Ġchicago":3306,"Ġnomin":3307,"Ġscale":3308,"Ġnavy":3309,"Ġhyp":3310,"porary":3311,"Ġrot":3312,"Ġdrink":3313,"Ġclaimed":3314,"Ġdark":3315,"Ġtowards":3316,"Ġcentre":3317,"using":3318,"agn":3319,"Ġmagaz":3320,"Ġburn":3321,"Ġtreatment":3322,"Ġ28":3323,"Ġbasic":3324,"Ġresour":3325,"Ġhighly":3326,"Ġcontract":3327,"Ġhands":3328,"Ġalle":3329,"aught":3330,"Ġproperty":3331,"Ġjoined":3332,"Ġens":3333,"Ġextreme":3334,"Ġcourse":3335,"Ġmad":3336,"Ġreflect":3337,"Ġtreaty":3338,"ulations":3339,"Ġ27":3340,"ini":3341,"Ġsym":3342,"Ġexamples":3343,"Ġteams":3344,"Ġstatus":3345,"Ġwol":3346,"Ġisn":3347,"Ġmun":3348,"Ġturned":3349,"Ġ60":3350,"Ġimper":3351,"Ġdro":3352,"Ġwrite":3353,"astic":3354,"Ġdemonst":3355,"aled":3356,"iger":3357,"Ġperformed":3358,"Ġtroops":3359,"Ġfrank":3360,"Ġconcent":3361,"Ġsimple":3362,"Ġcru":3363,"Ġadopted":3364,"ients":3365,"Ġregions":3366,"Ġresearchers":3367,"Ġgi":3368,"Ġstars":3369,"Ġah":3370,"Ġfinancial":3371,"Ġpotential":3372,"Ġfair":3373,"Ġ2003":3374,"Ġrichard":3375,"Ġmultiple":3376,"view":3377,"Ġwhom":3378,"iverse":3379,"Ġshare":3380,"respond":3381,"Ġsac":3382,"Ġmary":3383,"Ġdin":3384,"Ġcorrespond":3385,"Ġcitizens":3386,"Ġparties":3387,"Ġpicture":3388,"body":3389,"de":3390,"Ã¼":3391,"Ġagreement":3392,"aq":3393,"Ġjose":3394,"Ġended":3395,"Ġplaced":3396,"ems":3397,"ression":3398,"Ġatl":3399,"Ġbudd":3400,"Ġdoll":3401,"back":3402,"erson":3403,"Ġelectr":3404,"Ġways":3405,"Ġ2020":3406,"phone":3407,"Ġstories":3408,"ander":3409,"Ġwinter":3410,"Ġcells":3411,"nam":3412,"Ġexpected":3413,"Ġmachine":3414,"Ġbelief":3415,"ios":3416,"Ġdang":3417,"ste":3418,"ream":3419,"Äģ":3420,"Ġshowed":3421,"Ġnoted":3422,"Ġfinally":3423,"Ġcustom":3424,"Ġolder":3425,"Ġbasis":3426,"ously":3427,"Ġ80":3428,"Ġones":3429,"Ġconstruct":3430,"Ġtheat":3431,"Ġmexico":3432,"nel":3433,"igned":3434,"Ġwars":3435,"Ġinn":3436,"Ġprote":3437,"ips":3438,"ground":3439,"Ġcounter":3440,"Ġpretty":3441,"Ġsquare":3442,"Ġinj":3443,"cles":3444,"Ġreject":3445,"Ġobtain":3446,"Ġrapid":3447,"Ġtakes":3448,"ety":3449,"Ġpiece":3450,"Ġmethods":3451,"ken":3452,"Ã³":3453,"Ġcenturies":3454,"Ġtransl":3455,"Ġconv":3456,"Ġplants":3457,"cies":3458,"yr":3459,"Ġshown":3460,"Ġtim":3461,"Ġwal":3462,"Ġapple":3463,"Ġanalysis":3464,"itation":3465,"Ġexch":3466,"Ġcontem":3467,"Ġ184":3468,"airs":3469,"Ġinitially":3470,"round":3471,"Ġimpact":3472,"onents":3473,"Ġfit":3474,"Ġspent":3475,"Ġmarriage":3476,"Ġdistinct":3477,"Ġrise":3478,"Ġmainly":3479,"Ġreve":3480,"Ġdaughter":3481,"Ġserious":3482,"Ġplaces":3483,"Ġknowledge":3484,"Ġsigned":3485,"Ġdoct":3486,"Ġdegree":3487,"aper":3488,"Ġ2002":3489,"Ġrepublican":3490,"Ġapart":3491,"Ġprison":3492,"Ġselect":3493,"ki":3494,"Ġmale":3495,"Ġlif":3496,"Ġautom":3497,"Ġchampions":3498,"Ġegg":3499,"Ġarticle":3500,"Ġcorpor":3501,"aded":3502,"illed":3503,"Ġjournal":3504,"oke":3505,"ura":3506,"Ġlatter":3507,"isation":3508,"Ġcamer":3509,"Ġclean":3510,"Ġangeles":3511,"Ġcateg":3512,"Ġinstitute":3513,"year":3514,"ider":3515,"Ġprin":3516,"Ġshot":3517,"iance":3518,"Ġax":3519,"iter":3520,"Ġbird":3521,"Ġmob":3522,"wise":3523,"Ġlord":3524,"bour":3525,"oses":3526,"Ġremo":3527,"Ġspect":3528,"Ġsimply":3529,"aches":3530,"Ġmos":3531,"ped":3532,"Ġswed":3533,"Ġapproach":3534,"Ġos":3535,"Ġmarried":3536,"Ġclassical":3537,"Ġactivity":3538,"Ġmilk":3539,"Ġunlike":3540,"Ġvan":3541,"Ġdivided":3542,"Ġsuggested":3543,"Ġtheore":3544,"Ġability":3545,"Ġfigure":3546,"hol":3547,"Ġ1950":3548,"Ġplans":3549,"Ġmemory":3550,"ressed":3551,"Ġtransfer":3552,"Ġgiving":3553,"reng":3554,"Ġpattern":3555,"Ġpreviously":3556,"Ġanything":3557,"lor":3558,"Ġamb":3559,"Ġdefense":3560,"Ġdate":3561,"Ġhat":3562,"Ġweight":3563,"Ġletters":3564,"Ġspeech":3565,"Ġinteract":3566,"Ġiron":3567,"Ġrelatively":3568,"Ġspain":3569,"sey":3570,"Ġweeks":3571,"ask":3572,"Ġmention":3573,"Ġdie":3574,"iles":3575,"Ġfourth":3576,"ortun":3577,"Ġwait":3578,"Ġstore":3579,"ellig":3580,"Ġcontains":3581,"aving":3582,"Ġflu":3583,"Ġcontinue":3584,"Ġbroadcast":3585,"izations":3586,"Ġorth":3587,"Ġum":3588,"Ġneut":3589,"Ġcollection":3590,"Ġideas":3591,"Ġextra":3592,"Ġyellow":3593,"Ġfeet":3594,"Ġargued":3595,"vey":3596,"Ġseat":3597,"Ġmusical":3598,"da":3599,"Ġspl":3600,"Ġarr":3601,"Ġcurrently":3602,"Ġaw":3603,"Ġefforts":3604,"Ġcoal":3605,"Ġtransform":3606,"abor":3607,"Ġaim":3608,"Ġstaff":3609,"Ġsection":3610,"Ġpig":3611,"Ġmountain":3612,"can":3613,"Ġlic":3614,"Ġvac":3615,"bc":3616,"Ġflor":3617,"Ġjul":3618,"Ġrepe":3619,"Ġ1999":3620,"olved":3621,"Ġmoon":3622,"Ġdip":3623,"Ġcalend":3624,"Ġprimarily":3625,"fect":3626,"isms":3627,"Ġalg":3628,"bi":3629,"Ġcontrast":3630,"Ġiv":3631,"Ġchap":3632,"Ġexecutive":3633,"Ġoly":3634,"Ġpoll":3635,"Ġstreng":3636,"Ġsurround":3637,"mission":3638,"Ġarts":3639,"Ġcontact":3640,"Ġbuy":3641,"Ġmir":3642,"Ġthousands":3643,"Ġpromin":3644,"Ġdiss":3645,"Ġurban":3646,"Ġcart":3647,"Ġcompar":3648,"Ġlooks":3649,"Ġfunctions":3650,"Ġolymp":3651,"Ġwr":3652,"Ġpit":3653,"Ġmis":3654,"Ġgard":3655,"Ġquality":3656,"Ġpowers":3657,"Ġneeds":3658,"Ġattention":3659,"Ġregional":3660,"Ġdrive":3661,"Ġgoal":3662,"Ġcontrovers":3663,"Ġ31":3664,"Ġattract":3665,"Ġsar":3666,"Ġsaint":3667,"Ġdoctor":3668,"Ġwants":3669,"Ġbomb":3670,"Ġdistance":3671,"Ġfat":3672,"Ġintellig":3673,"Ġattacks":3674,"Ġalt":3675,"Ġassum":3676,"Ġnormal":3677,"Ġlaunched":3678,"Ġmoving":3679,"Ġprofessional":3680,"field":3681,"pa":3682,"Ġacid":3683,"Ġmotor":3684,"Ġweapons":3685,"Ġcarried":3686,"Ġbeg":3687,"Ġbey":3688,"Ġincor":3689,"Ġshoot":3690,"Ġprofessor":3691,"Ġcharge":3692,"Ġscott":3693,"Ġcab":3694,"Ġsongs":3695,"Ġsexual":3696,"Ġmut":3697,"Ġmichael":3698,"Ġ29":3699,"Ġagreed":3700,"Ġbecoming":3701,"Ġthrow":3702,"ĠÎ":3703,"othes":3704,"Ġelections":3705,"phas":3706,"Ġcompleted":3707,"well":3708,"Ġliterature":3709,"Ġfrancis":3710,"igration":3711,"Ġfailed":3712,"Ġmorn":3713,"Ġiii":3714,"Ġdouble":3715,"Ġguard":3716,"Ġethnic":3717,"Ġhey":3718,"Ġencoura":3719,"Ġislamic":3720,"Ġpoet":3721,"estic":3722,"Ġadult":3723,"Ġactivities":3724,"Ġkar":3725,"Ġstone":3726,"Ġglass":3727,"Ġannual":3728,"aker":3729,"Ġdigital":3730,"Ġinitial":3731,"Ġscript":3732,"Ġobserv":3733,"Ġ183":3734,"Ġcars":3735,"Ġprovides":3736,"Ġsoldiers":3737,"Ġapplied":3738,"Ġtried":3739,"Ġresponsible":3740,"Ġappointed":3741,"Ġjustice":3742,"ession":3743,"ey":3744,"Ġjews":3745,"Ġjump":3746,"Ġproperties":3747,"Ġcoup":3748,"Ġbod":3749,"Ġclosed":3750,"otic":3751,"Ġjes":3752,"Ġire":3753,"Ġbuildings":3754,"Ġ+":3755,"Ġbish":3756,"Ġrang":3757,"Ġalternative":3758,"Ġhorse":3759,"rative":3760,"Ġbond":3761,"Ġpak":3762,"Ġpositive":3763,"Ġbrain":3764,"aming":3765,"och":3766,"ibly":3767,"Ġobjects":3768,"ements":3769,"Ġvirt":3770,"Ġinfluenced":3771,"Ġath":3772,"Ġupper":3773,"Ġpacific":3774,"Ġshall":3775,"Ġnewsp":3776,"bed":3777,"Ġdeclared":3778,"kes":3779,"Ġreduced":3780,"Ġships":3781,"ocks":3782,"Ġnecessary":3783,"Ġsweet":3784,"Ġequip":3785,"Ġful":3786,"Ġtexas":3787,"inian":3788,"Ġsmith":3789,"Ġiran":3790,"Ġequal":3791,"Ġresulting":3792,"Ġastron":3793,"Ġphilosophy":3794,"hold":3795,"Ġminutes":3796,"inet":3797,"Ġpush":3798,"Ġdirection":3799,"Ġheat":3800,"Ġmouth":3801,"ects":3802,"Ġlocation":3803,"Ġmeeting":3804,"Ġmagazine":3805,"Ġairport":3806,"Ġthir":3807,"Ġconvention":3808,"Ġaccepted":3809,"Ġfreedom":3810,"Ġindividuals":3811,"Ġplanet":3812,"uls":3813,"Ġiraq":3814,"orial":3815,"Ġib":3816,"oper":3817,"Ġdefinition":3818,"Ġireland":3819,"Ġcompos":3820,"Ġclasses":3821,"Ġsafety":3822,"Ġgirls":3823,"Ġda":3824,"Ġreach":3825,"Ġbag":3826,"âĢ":3827,"Ġnothing":3828,"ij":3829,"Ġcalendar":3830,"Ġonline":3831,"Ġ1998":3832,"iber":3833,"tical":3834,"Ġmanagement":3835,"Ġcritical":3836,"Ġmorning":3837,"Ġappears":3838,"Ġbell":3839,"Ġassembly":3840,"Ġdecades":3841,"Ġopposition":3842,"board":3843,"erve":3844,"Ġnotable":3845,"Ġwave":3846,"Ġvirgin":3847,"Ġod":3848,"Ġequival":3849,"Ġimage":3850,"light":3851,"Ġken":3852,"Ġartists":3853,"za":3854,"Ġfields":3855,"Ġsport":3856,"bre":3857,"Ġconc":3858,"ya":3859,"10":3860,"anta":3861,"Ġoffered":3862,"ees":3863,"ville":3864,"Ġbeyond":3865,"Ġbun":3866,"Ġevolution":3867,"Ġpresidential":3868,"Ġexact":3869,"Ġhope":3870,"Ġafgh":3871,"adian":3872,"Ġarmed":3873,"Ġcomment":3874,"Ġdna":3875,"Ġequipment":3876,"rupt":3877,"Ġrough":3878,"Ġcrew":3879,"ils":3880,"ests":3881,"Ġbri":3882,"Ġnic":3883,"atures":3884,"Ġbowl":3885,"uk":3886,"met":3887,"Ġexhib":3888,"Ġly":3889,"Ġcens":3890,"Ġfuel":3891,"book":3892,"Ġcro":3893,"Ġconflict":3894,"Ġpurch":3895,"ads":3896,"onic":3897,"Ġlegisl":3898,"Ġfloor":3899,"ba":3900,"Ġfro":3901,"Ġjun":3902,"Ġintended":3903,"Ġprotection":3904,"Ġgives":3905,"la":3906,"Ġring":3907,"Ġgrew":3908,"Ġbehavior":3909,"Ġrub":3910,"Ġneighbor":3911,"Ġhill":3912,"Ġfighting":3913,"Ġjoseph":3914,"Ġconsequ":3915,"Ġtouch":3916,"Ġgall":3917,"Ġsubs":3918,"Ġpakistan":3919,"stein":3920,"Ġpair":3921,"Ġsafe":3922,"Ġcalcul":3923,"Ġhospital":3924,"Ġcool":3925,"Ġcolumb":3926,"Ġemphas":3927,"Ġnap":3928,"Ġcontent":3929,"iform":3930,"Ġoffer":3931,"Ġoperating":3932,"Ġhaw":3933,"Ġfeature":3934,"Ġpresence":3935,"Ġimperial":3936,"Ġsymbol":3937,"Ġstock":3938,"Ġeverything":3939,"va":3940,"Ġallows":3941,"Ġdifference":3942,"king":3943,"Ġfear":3944,"Ġdecre":3945,"Ġcreation":3946,"Ġfrequently":3947,"Ġvalues":3948,"Ġflag":3949,"Ġfeatured":3950,"Ġenvironmental":3951,"Ġmaterials":3952,"Ġ185":3953,"Ġjobs":3954,"Ġans":3955,"alled":3956,"Ġsecretary":3957,"Ġbelong":3958,"Ġtwent":3959,"Ġcas":3960,"inger":3961,"Ġadj":3962,"Ġhonor":3963,"Ġapplications":3964,"Ġgraph":3965,"Ġlimit":3966,"Ġnegative":3967,"Ġconference":3968,"Ġcarol":3969,"Ġaspect":3970,"Ġvalley":3971,"Ġclaims":3972,"iled":3973,"Ġscot":3974,"Ġgeneration":3975,"Ġdutch":3976,"Ġpage":3977,"Ġportug":3978,"Ġ1997":3979,"Ġidentified":3980,"Ġtoward":3981,"Ġspring":3982,"Ġstrugg":3983,"hips":3984,"omen":3985,"uge":3986,"onent":3987,"Ġresources":3988,"akers":3989,"Ġconfir":3990,"Ġpowerful":3991,"Ġmodels":3992,"Ġinterview":3993,"Ġafghan":3994,"Ġlie":3995,"Ġformal":3996,"Ġcombined":3997,"Ġhero":3998,"Ġengineering":3999,"iny":4000,"Ġwed":4001,"Ġmovie":4002,"Ġcommunities":4003,"Ġderived":4004,"Ġphen":4005,"eter":4006,"usion":4007,"gal":4008,"Ġcow":4009,"Ġclim":4010,"Ġexpans":4011,"Ġkept":4012,"Ġcrime":4013,"Ġfelt":4014,"icted":4015,"Ġnob":4016,"Ġinternal":4017,"Ġalone":4018,"Ġfocus":4019,"Ġconqu":4020,"Ġnaz":4021,"Ġdepend":4022,"Ġsearch":4023,"more":4024,"ented":4025,"Ġreference":4026,"Ġcris":4027,"ett":4028,"Ġchance":4029,"Ġacademy":4030,"Ġrab":4031,"Ġalph":4032,"Ġagency":4033,"ek":4034,"west":4035,"Ġwit":4036,"Ġlearn":4037,"Ġwel":4038,"Ġded":4039,"Ġwriter":4040,"Ġdistribution":4041,"osh":4042,"Ġunique":4043,"Ġraised":4044,"Ġid":4045,"Ġpolish":4046,"Ġtend":4047,"Ġsuit":4048,"osaur":4049,"Ġeffort":4050,"encies":4051,"izes":4052,"imin":4053,"Ġ1996":4054,"Ġprovince":4055,"Ġarrest":4056,"Ġgradu":4057,"Ġrepresented":4058,"Ġfaith":4059,"Ġmand":4060,"Ġcomposed":4061,"Ġfres":4062,"Ġextended":4063,"Ġeyes":4064,"Ġresidents":4065,"Ġfiction":4066,"Ġremaining":4067,"Ġpurpose":4068,"Ġserve":4069,"Ġopportun":4070,"Ġexchange":4071,"Ġmeant":4072,"Ġdemand":4073,"Ġinstrument":4074,"Ġsolar":4075,"Ġvoc":4076,"dp":4077,"Ġtub":4078,"Ġhus":4079,"Ġmatch":4080,"Ġprice":4081,"Ġfoundation":4082,"Ġachieve":4083,"Ġsignal":4084,"Ġofficers":4085,"icip":4086,"Ġincome":4087,"Ġcondition":4088,"Ġfeed":4089,"Ġjur":4090,"Ġsupreme":4091,"Ġchannel":4092,"Ġconclud":4093,"ately":4094,"Ġreferen":4095,"Ġoccurred":4096,"mark":4097,"ew":4098,"Ġprep":4099,"rad":4100,"Ġsin":4101,"ala":4102,"Ġatm":4103,"Ġstandards":4104,"ĠÃ":4105,"Ġbott":4106,"ensity":4107,"icated":4108,"igrants":4109,"Ġminute":4110,"Ġspeaking":4111,"ike":4112,"ota":4113,"Ġpaid":4114,"Ġholy":4115,"Ġdomestic":4116,"Ġmont":4117,"Ġowned":4118,"Ġsituation":4119,"band":4120,"Ġ70":4121,"Ġnote":4122,"Ġearliest":4123,"Ġplane":4124,"Ġsales":4125,"Ġplease":4126,"Ġdance":4127,"force":4128,"Ġvolume":4129,"Ġdar":4130,"Ġ1994":4131,"Ġeffective":4132,"Ġdoor":4133,"Ġanth":4134,"Ġmit":4135,"Ġarrived":4136,"Ġallowing":4137,"Ġguit":4138,"Ġadvant":4139,"Ġfinished":4140,"omy":4141,"Ġopposed":4142,"Ġmas":4143,"Ġimmediately":4144,"Ġimag":4145,"Ġirish":4146,"Ġ32":4147,"Ġgh":4148,"Ġoverall":4149,"Ġrefuge":4150,"heast":4151,"ocol":4152,"Ġlearning":4153,"Ġbranch":4154,"haps":4155,"Ġ1991":4156,"Ġol":4157,"Ġcham":4158,"Ġgain":4159,"enth":4160,"Ġcontemporary":4161,"Ġliberal":4162,"Ġcrow":4163,"lection":4164,"Ġarms":4165,"Ġentered":4166,"Ġfestival":4167,"acter":4168,"Ġpolitics":4169,"Ġframe":4170,"Ġimpl":4171,"Ġphase":4172,"Ġreduce":4173,"anda":4174,"Ġreaction":4175,"Ġ1992":4176,"rison":4177,"Ġgro":4178,"Ġund":4179,"Ġperhaps":4180,"ua":4181,"Ġissued":4182,"Ġ1995":4183,"Ġexistence":4184,"zil":4185,"Ġleaving":4186,"Ġquarter":4187,"Ġspecif":4188,"ancy":4189,"Ġweb":4190,"Ġ90":4191,"ordin":4192,"Ġdry":4193,"ca":4194,"ona":4195,"Ġsupply":4196,"Ġviolence":4197,"iques":4198,"Ġruns":4199,"Ġatom":4200,"Ġpoland":4201,"Ġdistingu":4202,"Ġqueen":4203,"Ġconsists":4204,"Ġowners":4205,"Ġpull":4206,"Ġnas":4207,"Ġrecomm":4208,"odox":4209,"Ġweak":4210,"Ġign":4211,"Ġincorpor":4212,"Ġversions":4213,"Ġbye":4214,"ĠÂ°":4215,"Ġmyth":4216,"Ġgreatest":4217,"Ġba":4218,"Ġordered":4219,"Ġpieces":4220,"ita":4221,"Ġdoub":4222,"cher":4223,"Ġcareful":4224,"Ġrates":4225,"Ġadver":4226,"Ġ35":4227,"Ġavoid":4228,"Ġterror":4229,"umn":4230,"Ġadvanced":4231,"Ġcanadian":4232,"Ġfru":4233,"Ġmaster":4234,"Ġdamage":4235,"Ġmartin":4236,"Ġsomeone":4237,"Ġcontribut":4238,"Ġrespond":4239,"Ġperman":4240,"odes":4241,"Ġreading":4242,"Ġsilver":4243,"Ġvoice":4244,"Ġtrees":4245,"Ġplays":4246,"ram":4247,"Ġpaint":4248,"Ġaid":4249,"Ġshap":4250,"Ġsud":4251,"ternal":4252,"Ġuniform":4253,"Ġinstance":4254,"bra":4255,"Ġresulted":4256,"Ġbeat":4257,"Ġvictory":4258,"Ġarrang":4259,"Ġprince":4260,"Ġpresented":4261,"iling":4262,"Ġcooper":4263,"Ġreplace":4264,"Ġscreen":4265,"Ġinhab":4266,"Åį":4267,"Ġcore":4268,"Ġmotion":4269,"rate":4270,"oman":4271,"Ġmoment":4272,"Ġaustralian":4273,"Ġvictor":4274,"Ġsets":4275,"gers":4276,"Ġthin":4277,"Ġviet":4278,"Ġcapac":4279,"Ġcompetition":4280,"Ġsuc":4281,"Ġanaly":4282,"Ġgone":4283,"Ġuns":4284,"Ġdestroyed":4285,"Ġgene":4286,"het":4287,"yth":4288,"Ġcompletely":4289,"Ġatmosp":4290,"Ġacts":4291,"Ġcauses":4292,"Ġrespectively":4293,"Ġeating":4294,"Ġorient":4295,"Ġexpansion":4296,"Ġtan":4297,"Ġdevices":4298,"Ġinterpret":4299,"Ġplanned":4300,"Ġadvoc":4301,"Ġdub":4302,"Ġnotes":4303,"Ġedition":4304,"Ġsenate":4305,"Ġprize":4306,"Ġwow":4307,"Ġremoved":4308,"iday":4309,"asty":4310,"ception":4311,"Ġ180":4312,"pping":4313,"Ġqual":4314,"Ġbrazil":4315,"Ġwrong":4316,"mas":4317,"Ġut":4318,"Ġvary":4319,"Ġretain":4320,"Ġukra":4321,"Ġbrief":4322,"Ġbridge":4323,"Ġparal":4324,"Ġfactors":4325,"ffic":4326,"Ġofficer":4327,"Ġbrand":4328,"Ġray":4329,"ested":4330,"Ġpenn":4331,"iring":4332,"Ġinspired":4333,"Ġworldwide":4334,"Ġslight":4335,"icit":4336,"ares":4337,"Ġcontrolled":4338,"Ġactions":4339,"Ġmiles":4340,"lom":4341,"Ġfully":4342,"Ġtruck":4343,"kn":4344,"Ġconnected":4345,"Ġeye":4346,"elled":4347,"Ġsites":4348,"works":4349,"Ġluc":4350,"Ġdetect":4351,"Ġviews":4352,"uted":4353,"Ġbeaut":4354,"Ġdifferences":4355,"Ġcrisis":4356,"Ġott":4357,"Ġbang":4358,"osis":4359,"Ġpalest":4360,"isters":4361,"Ġkm":4362,"agan":4363,"Ġwinning":4364,"don":4365,"Ġpropos":4366,"Ġprominent":4367,"Ġdisapp":4368,"Ġstatement":4369,"Ġ181":4370,"Ġflorida":4371,"ologist":4372,"Ġsucceed":4373,"Ġcatal":4374,"Ġ1993":4375,"Ġsolution":4376,"21":4377,"oud":4378,"Ġhuge":4379,"eed":4380,"Ġrefused":4381,"Ġopening":4382,"orters":4383,"Ġow":4384,"rick":4385,"Ġcancer":4386,"ipped":4387,"Ġwealth":4388,"Ġchoice":4389,"Ġfal":4390,"Ġrand":4391,"rm":4392,"Ġdirected":4393,"Ġsteel":4394,"ithm":4395,"Ġoppos":4396,"Ġnut":4397,"Ġmountains":4398,"rel":4399,"Ġcreating":4400,"kins":4401,"Ġfigures":4402,"Ġdail":4403,"Ġlaunch":4404,"Ġshut":4405,"Ġenem":4406,"Ġformation":4407,"Ġmedie":4408,"Ġcommunist":4409,"Ġexpressed":4410,"Ġnegot":4411,"Ġ1930":4412,"Ġsevere":4413,"Ġtechniques":4414,"Ġkorea":4415,"Ġmedieval":4416,"Ġincreasingly":4417,"Ġorganizations":4418,"gu":4419,"Ġfrequency":4420,"Ġorthodox":4421,"Ġmarked":4422,"Ġstations":4423,"Ġsubsequently":4424,"Ġpray":4425,"Ġrecognized":4426,"rier":4427,"Ġcheck":4428,"Ġkid":4429,"Ġdiscovery":4430,"racy":4431,"Ġexerc":4432,"Ġfran":4433,"Ġappearance":4434,"Ġquite":4435,"Ġ1989":4436,"Ġtrou":4437,"Ġchron":4438,"Ġga":4439,"Ġopin":4440,"Ġdaily":4441,"Ġweather":4442,"Ġdescript":4443,"Ġmedicine":4444,"Ġchur":4445,"Ġreasons":4446,"Ġintel":4447,"gar":4448,"Ġspot":4449,"Ġsister":4450,"Ġconvers":4451,"Ġfixed":4452,"quar":4453,"Ġcorrect":4454,"Ġlady":4455,"Ġcritics":4456,"agon":4457,"Ġshape":4458,"Ġcombat":4459,"po":4460,"Ġwindows":4461,"Ġfifth":4462,"80":4463,"Ġexperts":4464,"Ġreports":4465,"Ġsupposed":4466,"Ġprojects":4467,"Ġjoint":4468,"Ġauthors":4469,"arent":4470,"har":4471,"Ġdrug":4472,"Ġvolun":4473,"Ġstudied":4474,"Ġ500":4475,"iw":4476,"eral":4477,"sa":4478,"Ġuniversal":4479,"Ġdefeated":4480,"Ġpron":4481,"Ġconservative":4482,"Ġintelligence":4483,"Ġunf":4484,"Ġancest":4485,"Ġfly":4486,"irt":4487,"Ġsector":4488,"Ġmeat":4489,"Ġorange":4490,"entially":4491,"Ġenj":4492,"Ġarchae":4493,"Ġveget":4494,"orter":4495,"igen":4496,"Ġvice":4497,"Ġapparent":4498,"Ġobserved":4499,"Ġbol":4500,"Ġbirds":4501,"adium":4502,"Ġchurches":4503,"Ġguitar":4504,"Ġtowns":4505,"Ġpictures":4506,"Ġcrown":4507,"Ġoxy":4508,"Ġheard":4509,"Ġhydrogen":4510,"Ġusers":4511,"Ġswim":4512,"Ġ1940":4513,"Ġauthorities":4514,"Ġchalleng":4515,"Ġstick":4516,"Ġreign":4517,"Ġapplication":4518,"Ġmarine":4519,"Ġsolid":4520,"Ġstructures":4521,"Ġregarded":4522,"rich":4523,"Ġcalls":4524,"imal":4525,"Ġdogs":4526,"oration":4527,"Ġdetermined":4528,"Ġequivalent":4529,"Ġpolicies":4530,"Ġtheatre":4531,"Ġboys":4532,"ographic":4533,"Ġofficially":4534,"ano":4535,"Ġlith":4536,"Ġ179":4537,"Ġ1920":4538,"orph":4539,"Ġpul":4540,"Ġpromot":4541,"vin":4542,"iments":4543,"Ġves":4544,"Ġperfect":4545,"win":4546,"aland":4547,"Ġadm":4548,"war":4549,"Ġtick":4550,"Ġtape":4551,"Ġmonarch":4552,"Ġturk":4553,"Ġsubsequent":4554,"Ġnick":4555,"Ġstring":4556,"Ġfactor":4557,"ani":4558,"Ġrestaur":4559,"Ġsche":4560,"down":4561,"water":4562,"Ġdrum":4563,"Ġmanufacture":4564,"come":4565,"lines":4566,"Ġuniverse":4567,"Ġteach":4568,"60":4569,"Ġhundreds":4570,"ding":4571,"Ġsurpr":4572,"Ġexpanded":4573,"Ġunderstanding":4574,"Ġbuddh":4575,"Ġbodies":4576,"cell":4577,"teen":4578,"30":4579,"Ġalexander":4580,"Ġcryst":4581,"Ġskin":4582,"Ġcatch":4583,"hens":4584,"Ġyouth":4585,"greg":4586,"time":4587,"Ġconducted":4588,"thes":4589,"Ġentertain":4590,"gl":4591,"Ġdevice":4592,"Ġhurt":4593,"Ġsought":4594,"Ġfundament":4595,"Ġgained":4596,"Ġdrop":4597,"Ġdiam":4598,"andon":4599,"Ġliqu":4600,"Ġnearby":4601,"usal":4602,"Ġjesus":4603,"Ġteachers":4604,"Ġcou":4605,"Ġbroke":4606,"onia":4607,"Ġexisting":4608,"Ġleadership":4609,"Ġfinish":4610,"Ġagriculture":4611,"hi":4612,"Ġdecade":4613,"ulate":4614,"opp":4615,"Ġsplit":4616,"ext":4617,"Ġtail":4618,"illa":4619,"Ġages":4620,"Ġadvent":4621,"Ġathlet":4622,"âĢĻ":4623,"Ġsequence":4624,"ensions":4625,"Ġtemperatures":4626,"gment":4627,"Ġmixed":4628,"Ġille":4629,"Ġadapt":4630,"Ġvillage":4631,"Ġfine":4632,"iations":4633,"Ġwithd":4634,"Ġaffect":4635,"Ġidentity":4636,"Ġreceive":4637,"Ġton":4638,"25":4639,"ado":4640,"Ġartist":4641,"Ġcomed":4642,"Ġcosts":4643,"Ġresistance":4644,"Ġoccurs":4645,"Ġuser":4646,"Ġlabour":4647,"Ġflat":4648,"Ġholding":4649,"Ġawards":4650,"Ġwing":4651,"Ġchick":4652,"Ġpeak":4653,"Ġspecifically":4654,"Ġaccur":4655,"Ġvel":4656,"Ġbacter":4657,"Ġsem":4658,"Ġeasily":4659,"aling":4660,"ogen":4661,"Ġpossibly":4662,"Ġtrip":4663,"Ġboat":4664,"Ġdeveloping":4665,"Ġadam":4666,"Ġdiplom":4667,"Ġorbit":4668,"ici":4669,"Ġscene":4670,"Ġawarded":4671,"ifying":4672,"Ġalgor":4673,"Ġplate":4674,"Ġlearned":4675,"Ġmentioned":4676,"zy":4677,"Ġbasket":4678,"rine":4679,"zen":4680,"Ġgramm":4681,"Ġpus":4682,"rol":4683,"Ġsir":4684,"oring":4685,"Ġsurvey":4686,"Ġabandon":4687,"cont":4688,"Ġdropped":4689,"order":4690,"Ġrequires":4691,"ighter":4692,"Ġfollows":4693,"Ġmap":4694,"Ġwebs":4695,"Ġruled":4696,"Ġzero":4697,"Ġbudget":4698,"Ġrose":4699,"Ġcontaining":4700,"Ġimportance":4701,"Ġhappy":4702,"Ġcos":4703,"Ġforward":4704,"orders":4705,"Ġprem":4706,"Ġdebate":4707,"Ġcovered":4708,"ologists":4709,"Ġelectronic":4710,"Ġgeorg":4711,"Ġmessage":4712,"Ġheight":4713,"Ġbaseball":4714,"Ġdram":4715,"Ġhistorian":4716,"Ġtwenty":4717,"Ġsides":4718,"Ġproved":4719,"Ġbecomes":4720,"Ġyounger":4721,"Ġhello":4722,"Ġsuggests":4723,"Ġphenomen":4724,"Ġrow":4725,"Ġprefer":4726,"Ġstrength":4727,"amin":4728,"Ġepisode":4729,"isher":4730,"room":4731,"Ġisol":4732,"Ġinstitutions":4733,"set":4734,"Ġlands":4735,"Ġattempts":4736,"Ġstorm":4737,"Ġjoin":4738,"Ġcomputers":4739,"Ġdepending":4740,"Ġscen":4741,"arm":4742,"Ġrefers":4743,"Ġpartners":4744,"Ġedward":4745,"Ġ300":4746,"Ġprinciple":4747,"Ġscotland":4748,"Ġpurs":4749,"Ġvehicles":4750,"Ġbon":4751,"Ġcrim":4752,"known":4753,"Ġcycle":4754,"Ġspoken":4755,"Ġfred":4756,"ault":4757,"Ġstraight":4758,"aging":4759,"Ġcoff":4760,"Ġnit":4761,"Ġactual":4762,"kin":4763,"Ġhors":4764,"Ġpure":4765,"itan":4766,"ieties":4767,"Ġdynasty":4768,"Ġtu":4769,"Ġexclus":4770,"Ġeasy":4771,"Ġpric":4772,"Ġlee":4773,"Ġdiscip":4774,"Ġsky":4775,"Ġsort":4776,"Ġenjoy":4777,"Ġarchitecture":4778,"ias":4779,"Ġoldest":4780,"Ġseems":4781,"ung":4782,"Ġorganized":4783,"Ġzealand":4784,"Ġgrav":4785,"Ġasian":4786,"Ġattend":4787,"Ġfu":4788,"Ġcompl":4789,"Ġrailway":4790,"Ġreven":4791,"ern":4792,"Ġextensive":4793,"claim":4794,"Ġsuppl":4795,"Ġinstruments":4796,"Ġhouses":4797,"Ġshared":4798,"Ġzone":4799,"Ġphysics":4800,"Ġberlin":4801,"Ġroughly":4802,"Ġbes":4803,"Ġcontext":4804,"Ġric":4805,"Ġbath":4806,"Ġinvasion":4807,"Ġtesting":4808,"Ġwriters":4809,"lers":4810,"Ġimages":4811,"Ġeld":4812,"Ġattempted":4813,"Ġcensus":4814,"Ġexternal":4815,"Ġlooked":4816,"Ġsyria":4817,"Ġadvantage":4818,"Ġtower":4819,"Ġ45":4820,"Ġtechnical":4821,"Ġstanding":4822,"Ġjohnson":4823,"Ġtrust":4824,"Ġmunicip":4825,"Ġoxygen":4826,"Ġsout":4827,"Ġanne":4828,"Ġnaval":4829,"Ġexperien":4830,"Ġbarb":4831,"Ġclosely":4832,"Ġsettlement":4833,"Ġvirginia":4834,"Ġoccasion":4835,"Ġcaptured":4836,"oral":4837,"Ġquestions":4838,"Ġwides":4839,"Ġexplain":4840,"Ġcombination":4841,"11":4842,"Ġcourts":4843,"Ġdiet":4844,"eds":4845,"Ġstadium":4846,"Ġkil":4847,"Ġrecording":4848,"Ġpainting":4849,"lav":4850,"Ġutil":4851,"Ġproviding":4852,"Ġsignificantly":4853,"Ġsax":4854,"Ġknew":4855,"gon":4856,"ador":4857,"40":4858,"Ġtall":4859,"Ġsubstant":4860,"ortion":4861,"Ġcolonial":4862,"Ġnotably":4863,"Ġoutput":4864,"iced":4865,"Ġworth":4866,"Ġtoy":4867,"Ġtypical":4868,"fare":4869,"Ġrein":4870,"Ġetc":4871,"Ġparalle":4872,"Ġstan":4873,"Ġstudio":4874,"Ġtools":4875,"ipe":4876,"Ġmond":4877,"Ġexpect":4878,"Ġcollabor":4879,"Ġfolk":4880,"Ġvisited":4881,"Ġbeach":4882,"Ġultimately":4883,"Ġmist":4884,"Ġlabel":4885,"Ġuseful":4886,"Ġotherwise":4887,"Ġsom":4888,"Ġranked":4889,"wa":4890,"Ġtherm":4891,"Ġcapacity":4892,"Ġlas":4893,"Ġsuffered":4894,"cop":4895,"tery":4896,"Ġdangerous":4897,"Ġjac":4898,"Ġcircle":4899,"Ġcla":4900,"Ġheavily":4901,"Ġcampus":4902,"Ġpractices":4903,"Ġram":4904,"Ġride":4905,"Ġspin":4906,"Ġtemple":4907,"Ġfarmers":4908,"Ġshel":4909,"Ġfleet":4910,"Ġahead":4911,"Ġrejected":4912,"Ġsecondary":4913,"Ġsunday":4914,"Ġmagnetic":4915,"Ġliterary":4916,"what":4917,"uing":4918,"Ġacademic":4919,"Ġatlantic":4920,"Ġmobile":4921,"Ġafghanistan":4922,"Ġbron":4923,"Ġquantum":4924,"aph":4925,"Ġeveryone":4926,"Ġaffected":4927,"Ġtests":4928,"Ġbishop":4929,"Ġmcc":4930,"Ġgolden":4931,"Ġalco":4932,"Ġgenetic":4933,"Ġbroken":4934,"Ġdescribes":4935,"rees":4936,"Ġwhereas":4937,"Ġbot":4938,"now":4939,"Ġproced":4940,"ule":4941,"Ġteaching":4942,"Ġprogramming":4943,"Ġtel":4944,"Ġ1986":4945,"Ġlingu":4946,"Ġgranted":4947,"Ġnose":4948,"ropri":4949,"Ġfresh":4950,"pread":4951,"itors":4952,"Ġhin":4953,"Ġpositions":4954,"Ġduck":4955,"Ġchain":4956,"Ġaccomp":4957,"Ġroute":4958,"Ġwidespread":4959,"erved":4960,"Ġdescribe":4961,"Ġross":4962,"oles":4963,"icial":4964,"Ġapproved":4965,"Ġmolec":4966,"Ġradiation":4967,"Ġdensity":4968,"Ġrivers":4969,"rie":4970,"house":4971,"Ġcoordin":4972,"Ġ1979":4973,"Ġjim":4974,"Ġnfl":4975,"ih":4976,"Ġaz":4977,"Ġbob":4978,"Ġdetermine":4979,"Ġdur":4980,"Ġnom":4981,"Ġ1945":4982,"Ġcaptain":4983,"Ġmars":4984,"Ġtraffic":4985,"Ġinfin":4986,"rence":4987,"Ġslightly":4988,"Ġrice":4989,"Ġ1975":4990,"Ġnewspaper":4991,"vi":4992,"Ġash":4993,"Ġfailure":4994,"life":4995,"Ġcommunication":4996,"ali":4997,"Ġprohib":4998,"Ġaren":4999,"Ġtransition":5000,"Ġtwice":5001,"Ġchallen":5002,"Ġinstruct":5003,"Ġcards":5004,"Ġexpensive":5005,"Ġopera":5006,"Ġaudience":5007,"Ġstrateg":5008,"Ġphone":5009,"Ġhistoric":5010,"Ġscore":5011,"Ġachieved":5012,"Ġmeasures":5013,"ato":5014,"Ġimproved":5015,"opher":5016,"Ġprincipal":5017,"osen":5018,"Ġparam":5019,"Ġdecline":5020,"Ġsatell":5021,"Ġbah":5022,"Ġgovernments":5023,"ograp":5024,"Ġcel":5025,"Ġtruth":5026,"elling":5027,"Ġstuff":5028,"Ġseats":5029,"Ġsetting":5030,"Ġrestrict":5031,"Ġchanging":5032,"cious":5033,"Ġaffairs":5034,"Ġsimpl":5035,"rations":5036,"Ġwheel":5037,"Ġjuice":5038,"Ġinvolve":5039,"Ġlinear":5040,"Ġtheories":5041,"char":5042,"Ġcausing":5043,"Ġcopy":5044,"Ġfrancisco":5045,"Ġfans":5046,"Ġcriticism":5047,"Ġrepeated":5048,"anes":5049,"Ġpopulations":5050,"Ġharm":5051,"vant":5052,"Ġpermanent":5053,"road":5054,"Ġrus":5055,"Ġpossess":5056,"atically":5057,"Ġcriminal":5058,"Ġfocused":5059,"Ġchart":5060,"ager":5061,"Ġell":5062,"Ġextremely":5063,"Ġgdp":5064,"acing":5065,"Ġsugar":5066,"Ġshortly":5067,"Ġbass":5068,"Ġgreece":5069,"rd":5070,"Ġconfeder":5071,"Ġcandidate":5072,"Ġion":5073,"Ġari":5074,"Ġplatform":5075,"Ġpump":5076,"new":5077,"ading":5078,"Ġpref":5079,"Ġmaximum":5080,"Ġparks":5081,"Ġchristians":5082,"Ġsenior":5083,"Ġconnection":5084,"Ġadvert":5085,"500":5086,"Ġ1987":5087,"Ġdun":5088,"Ġoverse":5089,"Ġfunny":5090,"Ġgoods":5091,"Ġles":5092,"ogue":5093,"Ġdisney":5094,"Ġtrial":5095,"Ġ1984":5096,"Ġteacher":5097,"Ġfundamental":5098,"Ġsevent":5099,"Ġvow":5100,"oll":5101,"Ġwarm":5102,"Ġtraditionally":5103,"Ġchristianity":5104,"Ġamend":5105,"Ġgenes":5106,"Ġprocesses":5107,"Ġmanager":5108,"Ġbirthday":5109,"Ġpatri":5110,"Ġlaura":5111,"Ġterritories":5112,"Ġ1985":5113,"Ġchampionship":5114,"tles":5115,"umin":5116,"azz":5117,"ili":5118,"Ġshell":5119,"Ġcontained":5120,"Ġcircum":5121,"Ġabsol":5122,"Ġpolar":5123,"Ġmah":5124,"Ġoperated":5125,"iana":5126,"Ġchristmas":5127,"ologies":5128,"Ġwolf":5129,"Ġhusband":5130,"Ġsor":5131,"Ġrid":5132,"Ġattended":5133,"Ġtoys":5134,"rend":5135,"Ġinfant":5136,"rid":5137,"Ġ1982":5138,"Ġ1988":5139,"Ġna":5140,"Ġmamm":5141,"Ġsla":5142,"Ġdeclar":5143,"Ġentirely":5144,"Ġexplained":5145,"Ġpopularity":5146,"Ġagricultural":5147,"Ġindex":5148,"Ġcu":5149,"Ġcouple":5150,"Ġped":5151,"Ġmine":5152,"Ġinfect":5153,"Ġbom":5154,"Ġtribes":5155,"Ġuniversities":5156,"Ġlisted":5157,"Ġcomponents":5158,"ansas":5159,"Ġelev":5160,"Ġskills":5161,"Ġonto":5162,"Ġproducing":5163,"Ġbush":5164,"Ġturkey":5165,"Ġchosen":5166,"Ġsoil":5167,"Ġcav":5168,"Ġuncle":5169,"Ġhomes":5170,"Ġanton":5171,"Ġbackground":5172,"miss":5173,"ims":5174,"Ġrod":5175,"Ġeggs":5176,"Ġgets":5177,"Ġ1983":5178,"Ġboston":5179,"Ġphysic":5180,"Ġlinked":5181,"Ġaer":5182,"Ġvon":5183,"Ġbrothers":5184,"Ġarist":5185,"Ġtwel":5186,"Ġhunting":5187,"Ġadministrative":5188,"Ġtaught":5189,"verse":5190,"Ġsynthes":5191,"Ġillust":5192,"Ġregarding":5193,"Ġfox":5194,"roll":5195,"Ġreality":5196,"Ġemot":5197,"Ġparticles":5198,"rem":5199,"leg":5200,"Ġeditor":5201,"Ġtask":5202,"Ġsave":5203,"Ġformat":5204,"eness":5205,"Ġku":5206,"Ġabd":5207,"Ġ150":5208,"Ġcompounds":5209,"Ġbutter":5210,"nd":5211,"Ġliquid":5212,"Ġintroduction":5213,"Ġconcerns":5214,"tie":5215,"icks":5216,"Ġsimilarly":5217,"iful":5218,"Ġjeff":5219,"Ġconfirmed":5220,"Ġtexts":5221,"Ġau":5222,"Ġnewly":5223,"Ġflying":5224,"Ġhug":5225,"Ġvehicle":5226,"rum":5227,"Ġnether":5228,"Ġfirm":5229,"Ġthinking":5230,"Ġsalt":5231,"Ġstopped":5232,"Ġisraeli":5233,"Ġabsor":5234,"Ġvisitors":5235,"Ġbottom":5236,"Ġ1968":5237,"Ġwasn":5238,"Ġunp":5239,"Ġunable":5240,"Ġpublication":5241,"Ġrural":5242,"Ġsurrounding":5243,"Ġministry":5244,"Ġexpression":5245,"rim":5246,"Ġbapt":5247,"Ġunknown":5248,"writ":5249,"Ġcin":5250,"Ġcodice":5251,"hamm":5252,"Ġsust":5253,"Ġfinding":5254,"Ġconcluded":5255,"Ġoccupied":5256,"Ġdegrees":5257,"Ġalbert":5258,"Ġtransportation":5259,"Ġrevealed":5260,"mann":5261,"Ġprinciples":5262,"Ġobtained":5263,"sen":5264,"fast":5265,"Ġdivers":5266,"Ġhappen":5267,"Ġjuris":5268,"Ġts":5269,"Ġwaves":5270,"Ġcoffee":5271,"Ġadding":5272,"Ġcoc":5273,"Ġcrop":5274,"Ġdefeat":5275,"Ġcarolina":5276,"rey":5277,"Ġblocks":5278,"Ġ64":5279,"Ġextin":5280,"chy":5281,"Ġsigns":5282,"Ġportugues":5283,"Ġtherap":5284,"Ġcontinues":5285,"cules":5286,"Ġmental":5287,"Ġgrown":5288,"Ġeleph":5289,"Ġbiggest":5290,"Ġfile":5291,"while":5292,"Ġpoem":5293,"ship":5294,"Ġtreated":5295,"Ġhistorians":5296,"Ġteen":5297,"Ġminimum":5298,"Ġdefend":5299,"Ġflood":5300,"Ġportuguese":5301,"Ġcd":5302,"otyp":5303,"Ġnarrow":5304,"Ġjackson":5305,"igan":5306,"Ġcamera":5307,"Ġbright":5308,"Ġexpand":5309,"Ã¨":5310,"Ġinsur":5311,"Ġsounds":5312,"Ġadvance":5313,"Ġheb":5314,"Ġcastle":5315,"Ġbure":5316,"Ġchrom":5317,"Ġtalking":5318,"Ġfant":5319,"eland":5320,"Ġsend":5321,"Ġdefence":5322,"athan":5323,"Ġ1976":5324,"Ġfewer":5325,"Ġselling":5326,"they":5327,"Ġwet":5328,"Ġmerc":5329,"Ġrival":5330,"Ġmanaged":5331,"Ġconstructed":5332,"Ġtast":5333,"oln":5334,"ricts":5335,"Ġindigen":5336,"Ġabsolute":5337,"Ġinvestment":5338,"Ġaspects":5339,"Ġhistorically":5340,"abeth":5341,"Ġpalace":5342,"Ġcolumbia":5343,"Ġine":5344,"oking":5345,"Ġedge":5346,"Ġrevol":5347,"Ġsitu":5348,"Ġsufficient":5349,"Ġkings":5350,"Ġhypothes":5351,"Ġmort":5352,"Ġcalling":5353,"icon":5354,"Ġarth":5355,"Ġexped":5356,"Ġroads":5357,"ras":5358,"Ġserving":5359,"Ġslavery":5360,"Ġsettled":5361,"Ġmathematics":5362,"Ġ1973":5363,"Ġmassive":5364,"Ġwaters":5365,"Ġcommander":5366,"Ġmaintained":5367,"Ġemployed":5368,"Ġeliz":5369,"Ġvotes":5370,"Ġdocuments":5371,"bac":5372,"Ġimmigrants":5373,"Ġsatur":5374,"Ġbern":5375,"Ġnetherlands":5376,"do":5377,"pan":5378,"Ġdeaths":5379,"Ġindigenous":5380,"Ġrepresentatives":5381,"onym":5382,"Ġalliance":5383,"Ġengines":5384,"Ġsab":5385,"Ġnormally":5386,"anian":5387,"Ġgreg":5388,"Ġvietnam":5389,"rus":5390,"Ġdream":5391,"Ġvast":5392,"Ġneighborhood":5393,"ĠâĢĿ":5394,"ashion":5395,"Ġrapidly":5396,"Ġvisual":5397,"Ġsarah":5398,"Ġsacr":5399,"Ġtank":5400,"Ġjones":5401,"Ġ1969":5402,"Ġjersey":5403,"Ġmr":5404,"Ġmonday":5405,"70":5406,"Ġstable":5407,"yan":5408,"Ġcarl":5409,"Ġexplos":5410,"Ġmedium":5411,"Ġ1974":5412,"Ġtraditions":5413,"Ġitems":5414,"Ġunc":5415,"Ġemerged":5416,"tion":5417,"Ġack":5418,"Ġdress":5419,"igation":5420,"Ġ1972":5421,"Ġwid":5422,"Ġsanta":5423,"verty":5424,"Ġbears":5425,"Ġneither":5426,"Ġholds":5427,"ĠâĢľ":5428,"Ġbusinesses":5429,"Ġdedicated":5430,"Ġprepar":5431,"Ġcompr":5432,"oured":5433,"Ġpoverty":5434,"rain":5435,"Ġtermin":5436,"Ġguns":5437,"Ġvessel":5438,"Ġmes":5439,"Ġsemi":5440,"Ġpersian":5441,"Ġunus":5442,"Ġ33":5443,"Ġputting":5444,"Ġsweden":5445,"unk":5446,"osph":5447,"Ġsupporters":5448,"Ġmachines":5449,"iro":5450,"Ġ1967":5451,"Ġinfluential":5452,"Ġplot":5453,"ena":5454,"Ġdeclined":5455,"Ġmathematical":5456,"Ġspiritual":5457,"Ġprices":5458,"Ġexactly":5459,"Ġentertainment":5460,"Ġexperienced":5461,"Ġlinc":5462,"Ġ1981":5463,"Ġshowing":5464,"Ġargument":5465,"Ġinput":5466,"abet":5467,"Ġnep":5468,"Ġcontributed":5469,"Ġinstitution":5470,"Ġfoss":5471,"Ġtechnique":5472,"Ġproceed":5473,"Ġnoise":5474,"Ġtheme":5475,"Ġduke":5476,"Ġacquired":5477,"Ġselected":5478,"Ġsciences":5479,"Ġhousehold":5480,"Ġcomposition":5481,"Ġplanning":5482,"vis":5483,"Ġrepresents":5484,"Ġdynam":5485,"Ġguy":5486,"Ġideal":5487,"Ġbanks":5488,"Ġorders":5489,"Ġnetworks":5490,"Ġinhabit":5491,"Ġpin":5492,"eless":5493,"Ġconstitutional":5494,"Ġnazi":5495,"utation":5496,"Ġlew":5497,"Ġ1971":5498,"Ġfought":5499,"Ġmayor":5500,"Ġaccounts":5501,"Ġniger":5502,"Ġpatients":5503,"stra":5504,"Ġasc":5505,"Ġleaves":5506,"vereign":5507,"Ġbib":5508,"gian":5509,"Ġhay":5510,"Ġhabit":5511,"Ġwalls":5512,"Ġpenins":5513,"Ġsovereign":5514,"Ġtourism":5515,"Ġmuslims":5516,"Ġsympt":5517,"Ġparallel":5518,"Ġlincoln":5519,"heim":5520,"ione":5521,"Ġresc":5522,"Ġ38":5523,"Ġkiss":5524,"Ġelectro":5525,"Ġgeomet":5526,"rete":5527,"Ġhang":5528,"stone":5529,"ounder":5530,"ĠâĪ":5531,"Ġpurposes":5532,"Ġsole":5533,"Ã¤":5534,"Ġmanufacturing":5535,"Ġtenn":5536,"Ġlion":5537,"ication":5538,"Ġusage":5539,"Ġgreatly":5540,"Ġphilipp":5541,"12":5542,"ropol":5543,"Ġvector":5544,"Ġcandidates":5545,"urt":5546,"Ġwearing":5547,"Ġswitch":5548,"Ġvolunte":5549,"Ġfaster":5550,"raw":5551,"Ġ36":5552,"Ġcorps":5553,"Ġprotein":5554,"ructure":5555,"Ġsick":5556,"Ġacting":5557,"Ġfacilities":5558,"orage":5559,"asy":5560,"Ġ1978":5561,"Ġadap":5562,"Ġottoman":5563,"isted":5564,"ords":5565,"Ġpeoples":5566,"Ġconcerned":5567,"Ġbought":5568,"Ġcorporation":5569,"ceived":5570,"Ġspend":5571,"Ġincreases":5572,"Ġhence":5573,"Ġrecognition":5574,"lets":5575,"Ġstret":5576,"Ġneu":5577,"ancing":5578,"Ġharv":5579,"Ġcommunications":5580,"Ġopportunity":5581,"etime":5582,"Ġdistricts":5583,"iat":5584,"Ġpc":5585,"Ġstrict":5586,"Ġmovements":5587,"Ġherit":5588,"Ġslaves":5589,"Ġbbc":5590,"yer":5591,"Ġfruit":5592,"Ġcircuit":5593,"Ġmeasured":5594,"Ġcycl":5595,"ses":5596,"ishes":5597,"Ġkick":5598,"Ġsav":5599,"Ġmarsh":5600,"Ġelimin":5601,"Ġwilson":5602,"Ġalge":5603,"Ġwonder":5604,"Ġattacked":5605,"Ġcriticized":5606,"iar":5607,"Ġrig":5608,"Ġtranslation":5609,"Ġtelephone":5610,"usalem":5611,"Ġchallenge":5612,"Ġlegend":5613,"15":5614,"Ġteeth":5615,"Ġukraine":5616,"Ġvent":5617,"Ġauton":5618,"Ġchamber":5619,"Ġkilling":5620,"Ġinnov":5621,"Ġpoetry":5622,"Ġinterpre":5623,"Ġjean":5624,"stream":5625,"Ġpreced":5626,"Ġveter":5627,"Ġspoke":5628,"grad":5629,"Ġportray":5630,"Ġbands":5631,"Ġwilliams":5632,"Ġlayer":5633,"quarters":5634,"Ġexists":5635,"Ġspaces":5636,"Ġaccused":5637,"Ġnone":5638,"adel":5639,"Ġdesigns":5640,"Ġjerusalem":5641,"Ġmerch":5642,"Ġatmosphere":5643,"ja":5644,"olf":5645,"Ġstrongly":5646,"Ġske":5647,"Ġmama":5648,"rates":5649,"Ġlegislation":5650,"Ġestablishment":5651,"Ġ1965":5652,"fall":5653,"Ġbce":5654,"Ġresolution":5655,"enger":5656,"Ġbind":5657,"Ġpilot":5658,"Ġbasketball":5659,"Ġcoalition":5660,"Ġtrig":5661,"Ġempt":5662,"Ġproof":5663,"Ġaccident":5664,"itzer":5665,"Ġmail":5666,"Ġopposite":5667,"Ġcapable":5668,"Ġmulti":5669,"Ġcontinuous":5670,"Ġalongside":5671,"Ġfellow":5672,"Ġhorn":5673,"Ġalf":5674,"Ġcolors":5675,"iano":5676,"Ġjudge":5677,"Ġarabic":5678,"Ġtheorem":5679,"Ġagree":5680,"zech":5681,"Ġot":5682,"Ġequation":5683,"Ġhousing":5684,"Ġorche":5685,"Ġsitting":5686,"rane":5687,"Ġsupporting":5688,"Ġnasa":5689,"bing":5690,"Ġwire":5691,"Ġip":5692,"Ġpractical":5693,"Ġ400":5694,"Ġhelps":5695,"Ġdominated":5696,"Ġelizabeth":5697,"Ġiniti":5698,"Ġfilled":5699,"ocked":5700,"Ġegyptian":5701,"Ġkorean":5702,"Ġdates":5703,"Ġessential":5704,"Ġcuba":5705,"Ġtiss":5706,"Ġinfrast":5707,"Ġgender":5708,"oked":5709,"Ġthanks":5710,"Ġdisput":5711,"Ġappropri":5712,"ictions":5713,"Ġ1977":5714,"Ġfashion":5715,"illy":5716,"Ġmoral":5717,"Ġintellect":5718,"Ġcomplic":5719,"Ġrequest":5720,"Ġ178":5721,"Ġjurisd":5722,"Ġczech":5723,"Ġenforce":5724,"uther":5725,"Ġfishing":5726,"Ġrising":5727,"Ġprepared":5728,"zo":5729,"Ġratio":5730,"Ġka":5731,"Ġanalog":5732,"Ġbible":5733,"Ġexpert":5734,"Ġinterests":5735,"Ġdrugs":5736,"Ġabol":5737,"Ġconcert":5738,"Ġcharacteristics":5739,"Ġexport":5740,"Ġwebsite":5741,"Ġboom":5742,"Ġmemorial":5743,"Ġinterested":5744,"gn":5745,"ilit":5746,"Ġdescription":5747,"Ġacknow":5748,"bal":5749,"Ġallies":5750,"Ġexception":5751,"Ġcloth":5752,"Ġproducer":5753,"Ġ65":5754,"Ġprocessing":5755,"Ġextent":5756,"Ġviewed":5757,"Ġak":5758,"Ġphr":5759,"burgh":5760,"Ġlithu":5761,"Ġbull":5762,"Ġclassic":5763,"Ġsucceeded":5764,"Ġstores":5765,"Ġexperiments":5766,"Ġdemocracy":5767,"Ġpunish":5768,"Ġhyper":5769,"this":5770,"Ġinterf":5771,"Ġimmigration":5772,"Ġyep":5773,"Ġatomic":5774,"Ġopinion":5775,"Ġwaste":5776,"soft":5777,"Ġtitled":5778,"Ġcategory":5779,"Ġraise":5780,"Ġdiagn":5781,"Ġmillions":5782,"Ġ75":5783,"Ġtiny":5784,"Ġarc":5785,"Ġgarden":5786,"Ġdir":5787,"Ġdetails":5788,"Ġeb":5789,"Ġensure":5790,"Ġcomedy":5791,"Ġportion":5792,"tes":5793,"Ġanyone":5794,"Ġcharl":5795,"Ġoperate":5796,"Ġalleged":5797,"idel":5798,"Ġgay":5799,"Ġpronoun":5800,"Ġclock":5801,"Ġque":5802,"Ġhole":5803,"Ġsoutheast":5804,"Ġfan":5805,"Ġgrass":5806,"Ġheadquarters":5807,"Ġcaught":5808,"Ġment":5809,"Ġexpos":5810,"Ġolympic":5811,"ĠÏ":5812,"inity":5813,"Ġdinosaur":5814,"stood":5815,"Ġspending":5816,"Ġprotected":5817,"Ġstrate":5818,"Ġgiant":5819,"Ġ34":5820,"isp":5821,"Ġ1964":5822,"Ġsatis":5823,"Ġsie":5824,"Ġty":5825,"Ġoffers":5826,"Ġobl":5827,"Ġconservation":5828,"Ġbeautiful":5829,"Ġpeninsula":5830,"24":5831,"Ġholly":5832,"Ġcolony":5833,"ylv":5834,"Ġwitness":5835,"urally":5836,"Ġohio":5837,"Ġcosm":5838,"ĠÂ£":5839,"Ġtwelve":5840,"athe":5841,"Ġpublish":5842,"Ġheritage":5843,"Ġeasier":5844,"Ġhappens":5845,"Ġindo":5846,"mers":5847,"Ġger":5848,"Ġshif":5849,"Ġending":5850,"Ġcanal":5851,"ran":5852,"celer":5853,"Ġmanner":5854,"Ġinfrastructure":5855,"Ġtong":5856,"Ġphon":5857,"Ġadults":5858,"jo":5859,"Ġtues":5860,"americ":5861,"Ġburied":5862,"Ġdriving":5863,"Ġkent":5864,"Ġamounts":5865,"rot":5866,"Ġhindu":5867,"Ġknight":5868,"Ġ1966":5869,"Ġkinds":5870,"Ġminority":5871,"Ġ49":5872,"illing":5873,"oren":5874,"Ġstreets":5875,"Ġshooting":5876,"tra":5877,"Ġindu":5878,"Ġseparated":5879,"Ġelectrical":5880,"Ġvit":5881,"Ġevolved":5882,"Ġacceler":5883,"clusion":5884,"Ġastronom":5885,"Ġrib":5886,"Ġstorage":5887,"Ġdeploy":5888,"antly":5889,"Ġhebrew":5890,"ople":5891,"fish":5892,"onian":5893,"Ġsurf":5894,"Ġcloser":5895,"Ġgulf":5896,"issance":5897,"Ġslave":5898,"Ġscientist":5899,"Ġselection":5900,"Ġpatterns":5901,"Ġbacteria":5902,"Ġ1939":5903,"Ġprotestant":5904,"Ġcabinet":5905,"Ġhorses":5906,"Ġmode":5907,"Ġcarrying":5908,"itarian":5909,"Ġcolour":5910,"Ġbranc":5911,"no":5912,"Ġfried":5913,"Ġrelation":5914,"Ġelectricity":5915,"Ġtrop":5916,"Ġtool":5917,"Ġstatistics":5918,"Ġstrategy":5919,"Ġpier":5920,"Ġregist":5921,"Ġfinger":5922,"Ġcrus":5923,"Ġcoastal":5924,"Ġstrike":5925,"engers":5926,"Ġlogic":5927,"Ġcomic":5928,"Ġinterpretation":5929,"Ġdrawing":5930,"Ġabandoned":5931,"Ġpupp":5932,"Ġstress":5933,"Ġscand":5934,"Ġwritings":5935,"Ġemergency":5936,"Ġleban":5937,"angel":5938,"enses":5939,"Ġperiods":5940,"Ġrepresentation":5941,"town":5942,"fort":5943,"Ġcable":5944,"Ġvul":5945,"Ġclin":5946,"Ġcoach":5947,"Ġblow":5948,"Ġfunding":5949,"Ġvoted":5950,"Ġtuesday":5951,"inations":5952,"Ġexplan":5953,"Ġemployees":5954,"Ġdrawn":5955,"Ġstephen":5956,"Ġ#":5957,"rix":5958,"akh":5959,"Ġfaced":5960,"theless":5961,"Ġbac":5962,"Ġmicrosoft":5963,"Ġnevertheless":5964,"Ġconcern":5965,"iot":5966,"Ġ1963":5967,"Ġstrip":5968,"but":5969,"Ġker":5970,"Ġplus":5971,"Ġcookie":5972,"Ġalcohol":5973,"Ġeve":5974,"Ġmeanwhile":5975,"Ġinner":5976,"Ġenemy":5977,"ois":5978,"Ġneck":5979,"Ġeffectively":5980,"Ġlaboratory":5981,"Ġbuck":5982,"Ġkin":5983,"ucky":5984,"Ġindeed":5985,"Ġinher":5986,"Ġdat":5987,"inton":5988,"iciency":5989,"Ġmining":5990,"Ġgradually":5991,"Ġillegal":5992,"oven":5993,"Ġatoms":5994,"Ġ1962":5995,"sell":5996,"there":5997,"Ġlimits":5998,"Ġrenew":5999,"Ġindones":6000,"Ġdelay":6001,"Ġbureau":6002,"Ġarticles":6003,"14":6004,"Ġroot":6005,"Ġsteps":6006,"Ġwednes":6007,"outs":6008,"Ġcenters":6009,"Ġsubur":6010,"Ġspeakers":6011,"Ġinhabitants":6012,"Ġsymptoms":6013,"Ġlegacy":6014,"Ġscottish":6015,"Ġshoes":6016,"yle":6017,"cts":6018,"mond":6019,"Ġsons":6020,"Ġmong":6021,"Ġassess":6022,"Ġnobel":6023,"Ġtea":6024,"bury":6025,"Ġmodified":6026,"Ġguess":6027,"Ġroose":6028,"rency":6029,"Ġcharged":6030,"Ġtransmission":6031,"Ġepisodes":6032,"Ġswedish":6033,"ylvania":6034,"Ġvisible":6035,"Ġsed":6036,"Ġmyster":6037,"Ġvalid":6038,"Ġsod":6039,"Ġorigins":6040,"Ġalgebra":6041,"Ġamendment":6042,"chen":6043,"rat":6044,"Ġdominant":6045,"Ġhan":6046,"udes":6047,"Ġgoals":6048,"Ġmere":6049,"Ġ37":6050,"Ġfranch":6051,"Ġrepresentative":6052,"Ġbenefit":6053,"Ġallied":6054,"Ġreconst":6055,"Ġidentify":6056,"Ġbiological":6057,"Ġscholar":6058,"going":6059,"Ġwales":6060,"Ġchlor":6061,"Ġenh":6062,"Ġgenerated":6063,"ker":6064,"Ġtow":6065,"Ġdebt":6066,"Ġindicate":6067,"erves":6068,"Ġtriang":6069,"Ġconsiderable":6070,"Ġshift":6071,"Ġdesert":6072,"Ġincident":6073,"Ġmolecules":6074,"Ġrandom":6075,"Ġhungary":6076,"Ġtact":6077,"velt":6078,"Ġrecru":6079,"Ġsubjects":6080,"Ġestimates":6081,"yd":6082,"Ġhem":6083,"Ġfriday":6084,"Ġmetropol":6085,"Ġoxford":6086,"Ġsuccessfully":6087,"Ġcorresponding":6088,"Ġcinem":6089,"Ġreprodu":6090,"Ġzoo":6091,"Ġleads":6092,"Ġbos":6093,"ighters":6094,"Ġroosevelt":6095,"Ġosc":6096,"Ġrug":6097,"Ġscul":6098,"Ġformally":6099,"Ġ177":6100,"Ġpassage":6101,"Ġconsisting":6102,"Ġwildlife":6103,"ouri":6104,"Ġdecisions":6105,"ko":6106,"ooth":6107,"Ġupd":6108,"ucks":6109,"Ġerror":6110,"Ġelectrons":6111,"Ġdoctors":6112,"Ġarrested":6113,"Ġcha":6114,"Ġbegins":6115,"Ġcultures":6116,"Ġpolitic":6117,"Ġescape":6118,"uled":6119,"Ġconverted":6120,"ranean":6121,"Ġfalse":6122,"Ġearthqu":6123,"Ġhitler":6124,"Ġdiseases":6125,"Ġmurder":6126,"Ġcomponent":6127,"Ġroles":6128,"Ġclassified":6129,"Ġcrack":6130,"Ġcollected":6131,"Ġinvestigation":6132,"Ġthousand":6133,"Ġrefugees":6134,"otes":6135,"Ġaustria":6136,"Ġaudio":6137,"Ġ1948":6138,"Ġrepublicans":6139,"Ġcustomers":6140,"Ġ39":6141,"Ġcheese":6142,"ÅĤ":6143,"Ġroots":6144,"Ġapol":6145,"Ġderiv":6146,"Ġchoose":6147,"Ġprotests":6148,"Ġwednesday":6149,"Ġbread":6150,"Ġpartly":6151,"Ġforming":6152,"Ġcharges":6153,"Ġefficient":6154,"Ġeducational":6155,"Ġinvolving":6156,"Ġtrouble":6157,"iwan":6158,"Ġagents":6159,"Ġfoods":6160,"ctors":6161,"Ġmarg":6162,"ruption":6163,"Ġeval":6164,"Ġlies":6165,"Ġparent":6166,"Ġvision":6167,"Ġbeliefs":6168,"Ġmunicipal":6169,"Ġamaz":6170,"iki":6171,"Ġadditionally":6172,"idden":6173,"Ġcolonies":6174,"Ġsher":6175,"Ġlisten":6176,"Ġphosph":6177,"Ġowner":6178,"Ġtreas":6179,"Ġrum":6180,"Ġlowest":6181,"Ġinvolves":6182,"Ġassumed":6183,"Ġveloc":6184,"Ġapply":6185,"Ġgenre":6186,"Ġcogn":6187,"Ġtitles":6188,"Ġfavorite":6189,"Ġfame":6190,"agu":6191,"Ġimposs":6192,"Ġtrading":6193,"Ġconcepts":6194,"Ġchemistry":6195,"Ġcanon":6196,"Ġproteins":6197,"enh":6198,"Ġattached":6199,"Ġattributed":6200,"Ġunderstood":6201,"Ġsurvived":6202,"Ġgather":6203,"Ġrit":6204,"Ġlocations":6205,"Ġsalv":6206,"pir":6207,"iser":6208,"Ġstal":6209,"Ġreputation":6210,"Ġnorway":6211,"16":6212,"22":6213,"iders":6214,"Ġdoctrine":6215,"iable":6216,"Ġthick":6217,"Ġcalc":6218,"Ġsad":6219,"ribute":6220,"Ġmarkets":6221,"worth":6222,"ava":6223,"Ġarthur":6224,"inces":6225,"Ġcopies":6226,"Ġaccompan":6227,"rics":6228,"Ġexplore":6229,"Ġmembership":6230,"Ġadjust":6231,"ws":6232,"aria":6233,"apse":6234,"Ġgran":6235,"Ġassigned":6236,"Ġsatellite":6237,"Ġaqu":6238,"Ġsubmar":6239,"Ġhub":6240,"ummy":6241,"Ġmanus":6242,"Ġconscious":6243,"Ġbuff":6244,"Ġvolcan":6245,"Ġdriver":6246,"tz":6247,"Ġsoph":6248,"emic":6249,"Ġclassification":6250,"Ġdescend":6251,"Ġtaiwan":6252,"dy":6253,"you":6254,"Ġpione":6255,"Ġprol":6256,"Ġjazz":6257,"Ġhelping":6258,"Ġjon":6259,"Ġpromote":6260,"Ġdriven":6261,"Ġbalance":6262,"Ġ48":6263,"Ġpenal":6264,"Ġyay":6265,"aks":6266,"Ġ1944":6267,"Ġlosing":6268,"ni":6269,"ctic":6270,"Ġorb":6271,"Ġbenefits":6272,"Ġwhales":6273,"Ġsignals":6274,"Ġhotel":6275,"Ġseasons":6276,"Ġmigr":6277,"Ġregime":6278,"Ġexisted":6279,"Ġoccasionally":6280,"Ġtight":6281,"Ġpear":6282,"Ġgross":6283,"Ġthor":6284,"fully":6285,"Ġcontroversial":6286,"Ġ1961":6287,"Ġturning":6288,"Ġsocialist":6289,"Ġcontroversy":6290,"Ġcot":6291,"Ġhardware":6292,"secut":6293,"Ġconcentration":6294,"ture":6295,"Ġwine":6296,"ensional":6297,"Ġlunch":6298,"Ġreaching":6299,"Ġagent":6300,"Ġrevolutionary":6301,"Ġmouse":6302,"Ġsuccessor":6303,"Ġdrew":6304,"ella":6305,"Ġjord":6306,"Ġflav":6307,"Ġairpl":6308,"Ġmissouri":6309,"Ġsilly":6310,"Ġsculpt":6311,"aska":6312,"Ġassistance":6313,"Ġdollars":6314,"Ġpassing":6315,"Ġformerly":6316,"Ġexercise":6317,"Ġalgorithm":6318,"Ġmanuscript":6319,"icy":6320,"Ġpossibility":6321,"Ġreforms":6322,"Ġconsumption":6323,"Ġsweetie":6324,"Ġchose":6325,"Ġparad":6326,"Ġanswer":6327,"Ġkong":6328,"Ġradical":6329,"Ġargues":6330,"Ġrarely":6331,"Ġcrowd":6332,"Ġlewis":6333,"Ġbones":6334,"Ġsoul":6335,"Ġdivine":6336,"Ġsched":6337,"Ġdesignated":6338,"Ġmagic":6339,"ommun":6340,"Ġprotocol":6341,"Ġing":6342,"Ġassass":6343,"Ġmatters":6344,"Ġpaintings":6345,"Ġandrew":6346,"Ġ1941":6347,"Ġmechanical":6348,"erted":6349,"Ġnan":6350,"unt":6351,"Ġdaniel":6352,"issions":6353,"Ġfeaturing":6354,"Ġcaes":6355,"oul":6356,"Ġmosc":6357,"Ġsixth":6358,"Ġbreakfast":6359,"Ġneutral":6360,"anium":6361,"Ġfisher":6362,"Ġhelic":6363,"Ġactor":6364,"Ġcommitted":6365,"Ġpersonnel":6366,"Ġdenomin":6367,"itled":6368,"Ġrif":6369,"Ġdavis":6370,"Ġbringing":6371,"Ġplastic":6372,"Ġbrig":6373,"Ġrenamed":6374,"Ġbunny":6375,"Ġfounder":6376,"Ġdeleg":6377,"Ġsomewhat":6378,"Ġromans":6379,"Ġmales":6380,"Ġprecise":6381,"Ġresident":6382,"Ġmediter":6383,"18":6384,"Ġpent":6385,"Ġprovinces":6386,"Ġpassengers":6387,"Ġweapon":6388,"edia":6389,"agen":6390,"Ġdogg":6391,"eding":6392,"Ġdepos":6393,"inson":6394,"Ġincorporated":6395,"abilities":6396,"Ġconsult":6397,"Ġsi":6398,"Ġcapture":6399,"ati":6400,"Ġparticle":6401,"Ġbranches":6402,"Ġmanif":6403,"Ġnorthwest":6404,"Ġexplicit":6405,"Ġappeal":6406,"Ġviolent":6407,"Ġhind":6408,"eman":6409,"Ġresponsibility":6410,"Ġlegislative":6411,"Ġmediterranean":6412,"Ġlyn":6413,"umes":6414,"Ġshaped":6415,"bl":6416,"aints":6417,"Ġoxid":6418,"Ġgeorgia":6419,"Ġsale":6420,"Ġcert":6421,"Ġrelationships":6422,"Ġserves":6423,"ighth":6424,"Ġhosted":6425,"Ġextension":6426,"Ġargue":6427,"Ġsuperior":6428,"Ġhoriz":6429,"Ġampl":6430,"Ġeric":6431,"Ġsample":6432,"Ġcited":6433,"Ġgoth":6434,"Ġkal":6435,"hammad":6436,"Ġbid":6437,"Ġcontinental":6438,"Ġjulian":6439,"Ġyard":6440,"Ġretired":6441,"iti":6442,"Ġvariable":6443,"udi":6444,"aret":6445,"Ġends":6446,"19":6447,"Ġ*":6448,"Ġsight":6449,"Ġbreat":6450,"Ġtracks":6451,"Ġentry":6452,"rec":6453,"Ġfab":6454,"Ġmusicians":6455,"Ġdraft":6456,"oric":6457,"Ġbyz":6458,"ivals":6459,"ikh":6460,"Ġseek":6461,"mony":6462,"Ġmath":6463,"Ġsynd":6464,"Ġexperimental":6465,"Ġempty":6466,"Ġlose":6467,"Ġpromoted":6468,"Ġalleg":6469,"nament":6470,"Ġss":6471,"Ġclothes":6472,"Ġartific":6473,"Ġdestruction":6474,"Ġchairman":6475,"Ġexcess":6476,"Ġloyal":6477,"Ġmexican":6478,"Ġceremony":6479,"rogen":6480,"ounded":6481,"Ġsaturday":6482,"Ġbub":6483,"Ġspr":6484,"achus":6485,"Ġkeeping":6486,"Ġbyzant":6487,"13":6488,"ila":6489,"Ġheads":6490,"Ġborders":6491,"Ġmonitor":6492,"Ġrepresenting":6493,"Ġpredomin":6494,"Ġcream":6495,"Ġchicken":6496,"Ġcant":6497,"Ġcave":6498,"idency":6499,"Ġperforming":6500,"makers":6501,"aked":6502,"Ġtaxes":6503,"Ġinfantry":6504,"Ġadapted":6505,"rors":6506,"icate":6507,"Ġoccas":6508,"Ġimpossible":6509,"Ġpale":6510,"cel":6511,"raction":6512,"Ġmarx":6513,"Ġmagnitude":6514,"Ġyards":6515,"Ġrational":6516,"Ġsus":6517,"Ġvoters":6518,"Ġapollo":6519,"Ġpitch":6520,"oster":6521,"Ġstim":6522,"Ġrocks":6523,"rones":6524,"Ġturkish":6525,"Ġsail":6526,"Ġsubsid":6527,"ette":6528,"Ġnovels":6529,"Ġwalking":6530,"ario":6531,"Ġgate":6532,"employ":6533,"Ġvoting":6534,"Ġlakes":6535,"Ġdomain":6536,"Ġmoscow":6537,"ez":6538,"apers":6539,"Ġpropag":6540,"Ġreceiving":6541,"cers":6542,"Ġinterior":6543,"Ġwindow":6544,"Ġmechanism":6545,"Ġpink":6546,"opl":6547,"Ġunless":6548,"Ġgrade":6549,"Ġsenator":6550,"mo":6551,"asts":6552,"Ġnecessarily":6553,"Ġtranslated":6554,"Ġprofit":6555,"Ġtas":6556,"Ġruling":6557,"Ġlect":6558,"Ġrebell":6559,"Ġtam":6560,"Ġmedal":6561,"ipping":6562,"Ġrocket":6563,"Ġseeking":6564,"Ġbigger":6565,"inois":6566,"Ġmichigan":6567,"Ġooh":6568,"Ġisot":6569,"ifications":6570,"Ġmillenn":6571,"Ġdistributed":6572,"Ġfalling":6573,"ti":6574,"tering":6575,"Ġindustries":6576,"cription":6577,"Ġexpedition":6578,"Ġearned":6579,"Ġwrites":6580,"adelph":6581,"Ġdating":6582,"Ġbegun":6583,"Ġreferences":6584,"oir":6585,"Ġexceed":6586,"Ġevil":6587,"Ġoffices":6588,"Ġhopes":6589,"Ġlinks":6590,"Ġmovies":6591,"hedral":6592,"Ġcredit":6593,"dule":6594,"Ġseemed":6595,"Ġstruggle":6596,"Ġfired":6597,"uits":6598,"ecess":6599,"Ġ55":6600,"Ġstyles":6601,"Ġfemin":6602,"Ġpip":6603,"Ġmissions":6604,"Ġkittie":6605,"Ġclar":6606,"Ġpubl":6607,"etts":6608,"Ġunemploy":6609,"Ġ44":6610,"Ġfounding":6611,"Ġports":6612,"Ġpersons":6613,"Ġsinger":6614,"Ġclearly":6615,"uous":6616,"Ġgor":6617,"Ġorganic":6618,"Ġcommonwe":6619,"Ġannivers":6620,"Ġfederation":6621,"Ġreturning":6622,"Ġunusual":6623,"Ġhollywood":6624,".,":6625,"Ġkansas":6626,"ivered":6627,"Ġplain":6628,"Ġreduction":6629,"Ġencouraged":6630,"Ġanthrop":6631,"Ġscenes":6632,"Ġcolleges":6633,"Ġpollution":6634,"Ġprompt":6635,"Ġanarch":6636,"Ġkir":6637,"Ġproduces":6638,"Ġmol":6639,"Ġchapter":6640,"di":6641,"Ġcarib":6642,"Ġsmart":6643,"Ġpassenger":6644,"Ġdemocrats":6645,"Ġcommonwealth":6646,"Ġcul":6647,"Ġgang":6648,"Ġplanets":6649,"Ġexplo":6650,"Ġhealthy":6651,"claimed":6652,"Ġrequirements":6653,"rary":6654,"agues":6655,"Ġfunds":6656,"Ġdepth":6657,"Ġcontroll":6658,"Ġtrained":6659,"bles":6660,"rep":6661,"Ġdelivered":6662,"Ġpuzz":6663,"Ġracial":6664,"Ġhaven":6665,"Ġcolumn":6666,"Ġillinois":6667,"Ġ|":6668,"Ġsees":6669,"Ġfinland":6670,"Ġpenns":6671,"opes":6672,"Ġpruss":6673,"Ġsult":6674,"ela":6675,"Ġcouldn":6676,"Ġangle":6677,"ching":6678,"ishing":6679,"Ġsymbols":6680,"Ġaxis":6681,"?\"":6682,"Ġstem":6683,"Ġ1942":6684,"Ġreducing":6685,"Ġbone":6686,"Ġko":6687,"Ġdiscover":6688,"Ġpock":6689,"Ġclinton":6690,"Ġremark":6691,"Ġacknowled":6692,"Ġfinite":6693,"Ġslowly":6694,"han":6695,"rons":6696,"Ġinvent":6697,"Ġkhan":6698,"Ġcp":6699,"Ġtomb":6700,"Ġ1949":6701,"Ġcharacterized":6702,"Ġtransferred":6703,"Ġkab":6704,"Ġworst":6705,"clude":6706,"ady":6707,"Ġearn":6708,"Ġbin":6709,"Ġpercentage":6710,"Ġfavour":6711,"Ġproposal":6712,"xual":6713,"Ġillness":6714,"Ġhawai":6715,"Ġhelicop":6716,"Ġarbit":6717,"Ġabst":6718,"Ġfled":6719,"Ġgent":6720,"bered":6721,"Ġfactory":6722,"Ġintegrated":6723,"Ġanniversary":6724,"Ġargent":6725,"Ġflowers":6726,"awa":6727,"Ġclubs":6728,"Ġsudden":6729,"Ġpriest":6730,"Ġdivisions":6731,"Ġspokes":6732,"Ġdistinction":6733,"28":6734,"ports":6735,"Ġpel":6736,"Ġrena":6737,"Ġthrone":6738,"Ġsubstantial":6739,"Ġregularly":6740,"enna":6741,"Ġprinted":6742,"Ġgalax":6743,"ji":6744,"Ġjourney":6745,"Ġtons":6746,"Ġfrederic":6747,"asm":6748,"Ġ1959":6749,"Ġpointed":6750,"Ġdependent":6751,"Ġblank":6752,"Ġmissing":6753,"Ġbanned":6754,"Ġenterpr":6755,"ogy":6756,"Ġsurvive":6757,"Ġmetropolitan":6758,"certain":6759,"oa":6760,"Ġtrump":6761,"Ġclust":6762,"Ġgermanic":6763,"contin":6764,"Ġpennsylvania":6765,"Ġdio":6766,"Ġstudying":6767,"born":6768,"olith":6769,"Ġlik":6770,"Ġelsewhere":6771,"Ġdiscussed":6772,"Ġphiladelph":6773,"Ġdepends":6774,"oma":6775,"Ġlaid":6776,"Ġmalays":6777,"Ġwithdraw":6778,"achusetts":6779,"Ġdy":6780,"Ġ47":6781,"Ġfalls":6782,"Ġimplemented":6783,"ĠâĪĴ":6784,"erals":6785,"Ġvoy":6786,"omorph":6787,"xide":6788,"Ġthemes":6789,"Ġmassachusetts":6790,"27":6791,"ux":6792,"Ġtort":6793,"Ġliver":6794,"Ġcontest":6795,"Ġ1956":6796,"Ġbru":6797,"rog":6798,"etary":6799,"elly":6800,"Ġgermans":6801,"Ġcopper":6802,"Ġdemonstrated":6803,"oly":6804,"Ġdual":6805,"Ġwhoops":6806,"oys":6807,"Ġibm":6808,"Ġdecay":6809,"Ġvolt":6810,"Ġguar":6811,"Ġcrimes":6812,"Ġdimensional":6813,"Ġtet":6814,"Ġolympics":6815,"Ġlandsc":6816,"Ġappoint":6817,"Ġbehavi":6818,"Ġswimming":6819,"jan":6820,"Ġboats":6821,"Ġlanding":6822,"bridge":6823,"itudes":6824,"Ġdeput":6825,"onso":6826,"Ġserb":6827,"Ġremote":6828,"Ġheaded":6829,"Ġkenned":6830,"iy":6831,"Ġtang":6832,"Ġjacob":6833,"Ġthurs":6834,"Ġgods":6835,"Ġshore":6836,"Ġlegs":6837,"Ġunderground":6838,"Ġinfinite":6839,"iner":6840,"uten":6841,"Ġleon":6842,"Ġdepression":6843,"Ġapost":6844,"Ġexperiences":6845,"Ġlots":6846,"Ġtanks":6847,"Ġphiladelphia":6848,"Ġinse":6849,"Ġforg":6850,"Ġneighbour":6851,"Ġforb":6852,"esc":6853,"Ġgray":6854,"Ġmotiv":6855,"Ġdinner":6856,"Ġdeclaration":6857,"inn":6858,"Ġquiet":6859,"Ġmainland":6860,"Ġstating":6861,"Ġessentially":6862,"Ġdismiss":6863,"Ġordinary":6864,"Ġprayer":6865,"gments":6866,"Ġalphabet":6867,"Ġcircumst":6868,"Ġouter":6869,"Ġ1947":6870,"Ġvariations":6871,"Ġconsumer":6872,"Ġstood":6873,"23":6874,"zer":6875,"Ġhong":6876,"Ġdisag":6877,"Ġseeing":6878,"Ġ1958":6879,"Ġtap":6880,"Ġluther":6881,"Ġgib":6882,"play":6883,"Ġelder":6884,"aug":6885,"Ġtechnologies":6886,"Ġsustain":6887,"Ġhypothesis":6888,"Ġhipp":6889,"Ġwoo":6890,"Ġreco":6891,"Ġlux":6892,"Ġphilip":6893,"Ġmissile":6894,"Ġparliamentary":6895,"Ġrevenue":6896,"Ġcollapse":6897,"Ġpartner":6898,"Ġdecide":6899,"Ġgil":6900,"Ġtru":6901,"Ġslav":6902,"Ġcorner":6903,"inth":6904,"Ġsecure":6905,"Ġretire":6906,"Ġreactions":6907,"Ġaccord":6908,"cs":6909,"Ġprobability":6910,"Ġalexand":6911,"eing":6912,"Ġknows":6913,"Ġconventional":6914,"abil":6915,"Ġeag":6916,"ulating":6917,"Ġhaz":6918,"aka":6919,"Ġaggress":6920,"Ġinvented":6921,"Ġoriginated":6922,"Ġ1946":6923,"Ġwhit":6924,"Ġhungarian":6925,"sole":6926,"Ġorganisms":6927,"Ġperformances":6928,"Ġsharp":6929,"Ġsulf":6930,"ications":6931,"Ġtells":6932,"Ġfantasy":6933,"29":6934,"Ġstages":6935,"Ġseconds":6936,"Ġlen":6937,"Ġ43":6938,"Ġmetals":6939,"Ġdiverse":6940,"Ġlind":6941,"Ġyog":6942,"chi":6943,"Ġestate":6944,"Ġale":6945,"ima":6946,"aya":6947,"Ġ1900":6948,"ographical":6949,"Ġengineer":6950,"Ġmerg":6951,"Ġenab":6952,"Ġguide":6953,"Ġvocal":6954,"Ġlap":6955,"ira":6956,"Ġdetailed":6957,"Ġremove":6958,"Ġafford":6959,"Ġindicated":6960,"Ġsupplies":6961,"Ġps":6962,"Ġgaz":6963,"Ġinstalled":6964,"Ġbelieves":6965,"Ġengaged":6966,"Ġsteam":6967,"Ġrestaurants":6968,"Ġstrategic":6969,"Ġkennedy":6970,"place":6971,"Ġdefine":6972,"Ġfeeling":6973,"Ġpic":6974,"Ġconfig":6975,"Ġvacu":6976,"Ġagencies":6977,"Ġoutbre":6978,"Ġfemales":6979,"Ġrecommended":6980,"ifer":6981,"Ġgraduate":6982,"Ġreserve":6983,"Ġtrains":6984,"Ġpsychology":6985,"gi":6986,"iah":6987,"Ġalbums":6988,"Ġdre":6989,"Ġguine":6990,"rin":6991,"unc":6992,"Ġcontributions":6993,"Ġaccompanied":6994,"Ġpir":6995,"Ġmigration":6996,"Ġbattles":6997,"Ġmike":6998,"rav":6999,"Ġfertil":7000,"Ġwake":7001,"rose":7002,"Ġtobac":7003,"iration":7004,"Ġcovers":7005,"Ġdesire":7006,"Ġentitled":7007,"Ġern":7008,"Ġarrival":7009,"Ġpreferred":7010,"Ġthursday":7011,"26":7012,"bec":7013,"riers":7014,"Ġappropriate":7015,"Ġtag":7016,"Ġfasc":7017,"Ġpoison":7018,"Ġrecip":7019,"Ġwouldn":7020,"Ġjoe":7021,"Ġvirtual":7022,"ito":7023,"ront":7024,"Ġoccupation":7025,"Ġcategories":7026,"Ġ1918":7027,"Ġfacility":7028,"Ġspectrum":7029,"Ġreserv":7030,"Ġaccom":7031,"Ġglac":7032,"Ġcelebrated":7033,"Ġpalestinian":7034,"Ġtone":7035,"Ġliv":7036,"Ġphilosophical":7037,"Ġcredited":7038,"Ġdialect":7039,"Ġaccompl":7040,"car":7041,"Ġbreaking":7042,"Ġdenmark":7043,"Ġlosses":7044,"Ġvelocity":7045,"hus":7046,"uate":7047,"omes":7048,"Ġali":7049,"Ġsolutions":7050,"Ġdiamond":7051,"Ġdecor":7052,"Ġvictims":7053,"Ġbronze":7054,"Ġrecept":7055,"Ġcivilian":7056,"uts":7057,"Ġarmen":7058,"bean":7059,"uela":7060,"Ġstored":7061,"Ġpurple":7062,"Ġthreatened":7063,"Ġforests":7064,"Ġcolomb":7065,"Ġmolecular":7066,"Ġsultan":7067,"Ġpapers":7068,"Ġpublicly":7069,"Ġgodd":7070,"intend":7071,"Ġtobacco":7072,"Ġsupports":7073,"Ġapproval":7074,"Ġstuck":7075,"aine":7076,"Ġscar":7077,"Ġhandle":7078,"17":7079,"Ġemployment":7080,"Ġenforcement":7081,"iest":7082,"Ġsheep":7083,"Ġartificial":7084,"Ġserver":7085,"Ġministers":7086,"Ġtaste":7087,"Ġcurrency":7088,"ora":7089,"Ġmoves":7090,"Ġsimult":7091,"Ġchocol":7092,"ribed":7093,"Ġroutes":7094,"ethe":7095,"Ġthirty":7096,"Ġsimultane":7097,"Ġboo":7098,"Ġstands":7099,"Ġrestric":7100,"Ġscheme":7101,"Ġelectoral":7102,"Ġengineers":7103,"Ġduty":7104,"Ġdoggie":7105,"Ġfold":7106,"Ġsaudi":7107,"Ġattorn":7108,"Ġswitzer":7109,"Ġstatist":7110,"Ġborrow":7111,"Ġannounce":7112,"Ġathletes":7113,"Ġpas":7114,"Ġpiano":7115,"Ġintervent":7116,"Ġdiplomatic":7117,"Ġtheod":7118,"Ġwilling":7119,"Ġlicense":7120,"Ġalpha":7121,"icide":7122,"Ġnoun":7123,"Ġron":7124,"Ġ120":7125,"Ġaven":7126,"adow":7127,"Ġcompat":7128,"Ġelementary":7129,"Ġcruc":7130,"Ġaster":7131,"Ġhills":7132,"Ġcape":7133,"Ġaffil":7134,"Ġmorph":7135,"Ġswitzerland":7136,"emen":7137,"Ġabe":7138,"Ġfrequent":7139,"Ġtens":7140,"ials":7141,"Ġexposure":7142,"pro":7143,"iveness":7144,"Ġsyrian":7145,"Ġmuhammad":7146,"Ġtoler":7147,"uration":7148,"ube":7149,"Ġinstruction":7150,"Ġgrounds":7151,"Ġwatching":7152,"Ġrestrictions":7153,"Ġ1943":7154,"Ġsatisf":7155,"part":7156,"Ġexposed":7157,"Ġinstall":7158,"Ġcultiv":7159,"Ġwinds":7160,"Ġguarant":7161,"Ġstro":7162,"Ġquad":7163,"Ġprogramme":7164,"Ġannually":7165,"Ġanglo":7166,"Ġcondem":7167,"Ġvirus":7168,"Ġsquad":7169,"pective":7170,"Ġdistinguished":7171,"Ġdict":7172,"ugos":7173,"Ġspacecraft":7174,"Ġprisoners":7175,"Ġmoroc":7176,"Ġsubstit":7177,"Ġcooperation":7178,"Ġherself":7179,"Ġinfluences":7180,"Ġreferring":7181,"hire":7182,"Ġtay":7183,"Ġconversion":7184,"Ġelephant":7185,"under":7186,"Ġlasted":7187,"Ġconsisted":7188,"Ġthinks":7189,"Ġlongest":7190,"Ġpainted":7191,"Ġdispute":7192,"Ġvik":7193,"Ġblind":7194,"Ġsections":7195,"Ġprint":7196,"Ġsuffering":7197,"Ġcash":7198,"Ġnotion":7199,"Ġpresidency":7200,"Ġdowntown":7201,"Ġety":7202,"Ġlicens":7203,"Ġcomparison":7204,"hum":7205,"Ġsomebody":7206,"roscop":7207,"Ġcrops":7208,"Ġhier":7209,"Ġsurviving":7210,"Ġtrail":7211,"Ġexports":7212,"Ġ1953":7213,"Ġfurthermore":7214,"orous":7215,"organ":7216,"Ġsentence":7217,"Ġtissue":7218,"Ġanat":7219,"Ġwhale":7220,"Ġwaiting":7221,"Ġrhyth":7222,"Ġdialects":7223,"Ġdrinking":7224,"Ġcass":7225,"Ġrelief":7226,"Ġassault":7227,"Ġcrash":7228,"box":7229,"Ã³n":7230,"Ġpurchase":7231,"Ġetym":7232,"sis":7233,"Ġil":7234,"Ġdivor":7235,"see":7236,"Ġavo":7237,"Ġsteve":7238,"Ġnominated":7239,"86":7240,"Ġstream":7241,"Ġphrase":7242,"eper":7243,"Ġpy":7244,"Ġwash":7245,"Ġ1957":7246,"Ġpurchased":7247,"Ġtherapy":7248,"Ġescap":7249,"Ġ1955":7250,"Ġtot":7251,"Ġchocolate":7252,"Ġlem":7253,"Ġford":7254,"Ġnickn":7255,"Ġlists":7256,"Ġhonour":7257,"ographer":7258,"ican":7259,"Ġpleas":7260,"Ġtube":7261,"Ġisolated":7262,"Ġcaribbean":7263,"Ġdamaged":7264,"erior":7265,"Ġdal":7266,"Ġarguments":7267,"Ġdiver":7268,"Ġlions":7269,"Ġrud":7270,"Ġuncertain":7271,"Ġvacuum":7272,"Ġlock":7273,"Ġphenomenon":7274,"Ġfing":7275,"Ġtoxic":7276,"Ġkim":7277,"Ġworship":7278,"Ġadvis":7279,"Ġlatest":7280,"Ġpages":7281,"Ġhoc":7282,"col":7283,"Ġretained":7284,"Ġconj":7285,"rome":7286,"Ġentr":7287,"Ġaimed":7288,"Ġpse":7289,"Ġfinn":7290,"Ġranging":7291,"fe":7292,"Ġworse":7293,"Ġresponded":7294,"Ġfranchise":7295,"Ġvene":7296,"Ġapparently":7297,"Ġtib":7298,"Ġsant":7299,"ington":7300,"Ġdocumentary":7301,"Ġtheoretical":7302,"Ġlam":7303,"Ġrear":7304,"Ġdiego":7305,"Ġoperates":7306,"ierra":7307,"Ġchampion":7308,"Ġpushed":7309,"aren":7310,"rig":7311,"Ġmaria":7312,"Ġjordan":7313,"Ġfighters":7314,"veland":7315,"Ġeuro":7316,"Ġsubstance":7317,"Ġmurd":7318,"Ġpill":7319,"itals":7320,"Ġdv":7321,"Ġstamp":7322,"Ġroof":7323,"Ġ160":7324,"pass":7325,"Ġgn":7326,"Ġregister":7327,"Ġinsurance":7328,"Ġblues":7329,"Ġsubsc":7330,"Ġboundary":7331,"ratic":7332,"Ġshirt":7333,"Ġdiscussion":7334,"Ġperceived":7335,"Ġretail":7336,"Ġeconomics":7337,"Ġfindings":7338,"Ġruler":7339,"Ġtempor":7340,"Ġracing":7341,"Ġnorwe":7342,"Ġcharacteristic":7343,"Ġcroat":7344,"Ã§":7345,"ova":7346,"Ġdeliver":7347,"Ġoffering":7348,"Ġrecre":7349,"Ġhearing":7350,"Ġfib":7351,"Ġhired":7352,"Ġprove":7353,"Ġwarfare":7354,"Ġheaven":7355,"Ġimplementation":7356,"ovak":7357,"Ġethan":7358,"Ġphotos":7359,"Ġinvited":7360,"Ġchildhood":7361,"Ġstalin":7362,"Ġrenaissance":7363,"uns":7364,"Ġbry":7365,"ears":7366,"Ġdenied":7367,"Ġemphasis":7368,"romagn":7369,"Ġcorruption":7370,"Ġcontinuing":7371,"47":7372,"lan":7373,"Ġoffensive":7374,"Ġshopp":7375,"Ġyourself":7376,"Ġcrystal":7377,"Ġpseud":7378,"Ġadams":7379,"Ġmarc":7380,"shire":7381,"Ġmud":7382,"Ġ95":7383,"ashed":7384,"Ġconsistent":7385,"Ġannex":7386,"eenth":7387,"ilation":7388,"Ġpeek":7389,"Ġpreserved":7390,"net":7391,"sk":7392,"Ġtheater":7393,"Ġopponents":7394,"Ġpromised":7395,"Ġprofession":7396,"Ġfrederick":7397,"rant":7398,"Ġtired":7399,"Ġrhod":7400,"Ġcarrier":7401,"Ġmetall":7402,"Ġjuda":7403,"Ġessay":7404,"Ġsymmet":7405,"unction":7406,"Ġbalt":7407,"Ġnapole":7408,"Ġequations":7409,"Ġharmon":7410,"Ġseventh":7411,"Ġvic":7412,"Ġpartially":7413,"Ġgotta":7414,"Ġtunnel":7415,"Ġintellectual":7416,"Ġvariation":7417,"Ġyield":7418,"Ġpartial":7419,"Ġmongol":7420,"Ġvaries":7421,"Ġorganisation":7422,"Ġsolo":7423,"Ġmeetings":7424,"Ġcuis":7425,"Ġtropical":7426,"Ġbite":7427,"Ġbrook":7428,"Ġsoccer":7429,"Ġmatrix":7430,"Ġoverseas":7431,"Ġsorry":7432,"anth":7433,"Ġjoh":7434,"Ġenl":7435,"phal":7436,"Ġcotton":7437,"Ġguinea":7438,"kh":7439,"Ġabund":7440,"Ġadmitted":7441,"Ġlegit":7442,"Ġdated":7443,"Ġusual":7444,"then":7445,"vious":7446,"wich":7447,"Ġabb":7448,"Ġwhoa":7449,"Ġtournament":7450,"Ġattracted":7451,"Ġbinary":7452,"Ġpersu":7453,"oom":7454,"Ġinstructions":7455,"Ġraces":7456,"Ġcamps":7457,"rical":7458,"Ġ600":7459,"Ġmechanics":7460,"Ġdebut":7461,"Ġchannels":7462,"Ġbonds":7463,"western":7464,"Ġrelat":7465,"Ġinflation":7466,"Ġbuddhist":7467,"Ġcircumstances":7468,"Ġble":7469,"ilton":7470,"Ġjet":7471,"Ġconstitu":7472,"bage":7473,"mes":7474,"Ġsimon":7475,"Ġharry":7476,"Ġconquest":7477,"Ġcous":7478,"Ġprovision":7479,"Ġromantic":7480,"Ġdescribing":7481,"Ġfaces":7482,"Ġregulations":7483,"Ġreflected":7484,"hal":7485,"Ġdanish":7486,"Ġscheduled":7487,"Ġvenez":7488,"Ġtrend":7489,"active":7490,"Ġ1954":7491,"Ä«":7492,"Ġdisorder":7493,"35":7494,"eline":7495,"Ġsurve":7496,"Ġcutting":7497,"Ġmessages":7498,"osing":7499,"Ġnortheast":7500,"Ġpicked":7501,"Ġbyzantine":7502,"Ġfinds":7503,"arn":7504,"Ġhou":7505,"Ġexclud":7506,"real":7507,"Ġpeas":7508,"Ġclothing":7509,"mouth":7510,"Ġ1938":7511,"Ġcomposer":7512,"Ġownership":7513,"Ġvictoria":7514,"Ġbits":7515,"Ġresemb":7516,"Ġfunctional":7517,"Ġsamples":7518,"Ġansw":7519,"Ġ42":7520,"Ġpreval":7521,"90":7522,"Ġmarks":7523,"oons":7524,"Ġcig":7525,"Ġmainstream":7526,"Ġrolling":7527,"irect":7528,"Ġsocieties":7529,"Ġmississ":7530,"Ġfamiliar":7531,"Ġrestaurant":7532,"Ġdust":7533,"Ġintent":7534,"Ġfacult":7535,"Ġconnections":7536,"Ġdick":7537,"Ġdonald":7538,"Ġ1952":7539,"ml":7540,"Ġpant":7541,"Ġrevers":7542,"Ġshr":7543,"Ġepic":7544,"Ġphilosopher":7545,"bish":7546,"Ġconven":7547,"Ġimprison":7548,"Ġairplane":7549,"Ġidentical":7550,"Ġnaim":7551,"Ġont":7552,"Ġ46":7553,"Ġpasses":7554,"Ã±":7555,"Ġtheology":7556,"Ġoak":7557,"Ġdiction":7558,"osexual":7559,"Ġremem":7560,"Ġencod":7561,"Ġabsence":7562,"Ġexecuted":7563,"ache":7564,"aga":7565,"Ġsinging":7566,"iop":7567,"Ġtrick":7568,"Ġcarn":7569,"Ġcray":7570,"Ġeverybody":7571,"Ġcleveland":7572,"Ġinteresting":7573,"Ġcertainly":7574,"Ġoptical":7575,"Ġparticipate":7576,"Ġnewspapers":7577,"Ġgoddess":7578,"ails":7579,"Ġmississipp":7580,"Ġestablishing":7581,"Ġfighter":7582,"Ġinterface":7583,"Ġfiles":7584,"Ġturns":7585,"Ġjudges":7586,"Ġsic":7587,"Ġdisk":7588,"Ġcardinal":7589,"Ġrecommend":7590,"Ġbriefly":7591,"Ġvessels":7592,"rehens":7593,"Ġdozen":7594,"Ġnathan":7595,"Ġdrama":7596,"Ġreun":7597,"ifies":7598,"atever":7599,"Ġtribe":7600,"Ġallen":7601,"Ġbrid":7602,"Ġfarms":7603,"Ġreaders":7604,"Ġreligions":7605,"Ġcolorado":7606,"sm":7607,"Ġfict":7608,"Ġcovering":7609,"Ġdanger":7610,"Ġexplanation":7611,"Ġpoems":7612,"Ġoption":7613,"uter":7614,"Ġrecon":7615,"Ġextract":7616,"uv":7617,"Ġslide":7618,"Ġseparation":7619,"Ġrecovery":7620,"Ġfranklin":7621,"cas":7622,"ping":7623,"pet":7624,"Ġcad":7625,"Ġbases":7626,"Ġtemporary":7627,"Ġrabbit":7628,"dam":7629,"iac":7630,"iral":7631,"Ġcathedral":7632,"Ġinjury":7633,"Ġunemployment":7634,"ev":7635,"Ġhob":7636,"Ġcomics":7637,"Ġmetaph":7638,"Ġnaturally":7639,"Ġraw":7640,"Ġparticipation":7641,"Ġseattle":7642,"Ġcomplicated":7643,"Ġnaima":7644,"oli":7645,"Ġfacing":7646,"Ġmirror":7647,"mont":7648,"Ġflex":7649,"Ġtwin":7650,"Ġrav":7651,"Ġjr":7652,"Ġcharter":7653,"Ġdirty":7654,"99":7655,"Ġted":7656,"ules":7657,"Ġpool":7658,"Ġgenerations":7659,"Ġsouthwest":7660,"Ġfarming":7661,"Ġmounted":7662,"Ġrecognize":7663,"Ġdies":7664,"olis":7665,"ami":7666,"Ġwhatever":7667,"Ġunsu":7668,"Ġjudaism":7669,"Ġkat":7670,"Ġmargin":7671,"Ġcounties":7672,"Ġsmooth":7673,"chester":7674,"Ġpowered":7675,"Ġnomi":7676,"Ġactors":7677,"Ġprinting":7678,"Ġinteraction":7679,"Ġsuccession":7680,"Ġtested":7681,"Ġasking":7682,"fc":7683,"Ġwinner":7684,"Ġtestament":7685,"Ġ1919":7686,"Ġcaval":7687,"Ġgosp":7688,"Ġjenn":7689,"Ġfollowers":7690,"Ġbasin":7691,"Ġproportion":7692,"Ġstructural":7693,"Ġmagnet":7694,"Ġstarts":7695,"Ġvacc":7696,"Ġariz":7697,"Ġoops":7698,"Ġchile":7699,"Ġantib":7700,"Ġindicates":7701,"point":7702,"Ġclay":7703,"olve":7704,"Ġbutton":7705,"Ġbelt":7706,"Ġhybr":7707,"Ġrebellion":7708,"Ġhighway":7709,"Ġinjuries":7710,"Ġconson":7711,"Ġsnake":7712,"Ġduties":7713,"Ġties":7714,"Ġhide":7715,"Ġcommod":7716,"Ġraising":7717,"Ġlebanon":7718,"Ġdollar":7719,"Ġhond":7720,"Ġlaure":7721,"iolet":7722,"Ġstronger":7723,"Ġassistant":7724,"Ġranks":7725,"ugoslav":7726,"Ġfill":7727,"Ġcomputing":7728,"Ġlifetime":7729,"Ġnich":7730,"imore":7731,"Ġshop":7732,"Ġswiss":7733,"Ġmanufacturers":7734,"Ġnorwegian":7735,"64":7736,"Ġconcerning":7737,"Ġpsychological":7738,"Ġstruck":7739,"Ġinvolvement":7740,"Ġein":7741,"Ġcommem":7742,"Ġvarieties":7743,"Ġnegotiations":7744,"Ġyugoslav":7745,"Ġ1936":7746,"Ġjurisdiction":7747,"phones":7748,"Ġsmoke":7749,"Ġpros":7750,"Ġnoble":7751,"Ġterritorial":7752,"father":7753,"standing":7754,"Ġdrones":7755,"roc":7756,"Ġisa":7757,"Ġgoodness":7758,"Ġevening":7759,"Ġsettlers":7760,"donald":7761,"uable":7762,"sts":7763,"Ġshock":7764,"Ġrestored":7765,"Ġstayed":7766,"Ġsettlements":7767,"Ġframework":7768,"Ġalaska":7769,"Ġrailroad":7770,"Ã¡n":7771,"Ġarranged":7772,"Ġchallenges":7773,"Ġnewton":7774,"Ġfossil":7775,"Å¡":7776,"overed":7777,"Ġtraveled":7778,"Ġheli":7779,"Ġcompens":7780,"Ġjudicial":7781,"Ġfluid":7782,"Ġdramatic":7783,"acent":7784,"Ġinterpreted":7785,"Ġongoing":7786,"Ġpermitted":7787,"Ġupgr":7788,"Ġpregn":7789,"Ġdepicted":7790,"Ġbarn":7791,"Ġprosp":7792,"Ġnotice":7793,"Ġcontinent":7794,"Ġ1933":7795,"nom":7796,"orted":7797,"Ġadvice":7798,"Ġtelec":7799,"Ġtargets":7800,"Ġadvertising":7801,"Ġrescue":7802,"include":7803,"Ġaccurate":7804,"Ġebola":7805,"Ġpublishing":7806,"esters":7807,"Ġpremi":7808,"Ġsierra":7809,"Ġonlyinclude":7810,"Ġacids":7811,"Ġcongreg":7812,"ogle":7813,"Ġhunt":7814,"Ġdrivers":7815,"Ġmixture":7816,"Ġphilippines":7817,"Ġalive":7818,"illery":7819,"Ġobvious":7820,"Ġoperational":7821,"Ġmississippi":7822,"hr":7823,"Ġbeng":7824,"Ġworried":7825,"Ġcompound":7826,"Ġcompact":7827,"Ġpapal":7828,"Ġsiege":7829,"Ġstatistical":7830,"Ġgab":7831,"acle":7832,"Ġsyll":7833,"Ġtransmit":7834,"Ġibn":7835,"Ġterminal":7836,"Ġportugal":7837,"Ġcattle":7838,"Ġsecular":7839,"Ġfacilit":7840,"Ġprocedure":7841,"bu":7842,"Ġvegetables":7843,"Ġrestricted":7844,"Ġbaltimore":7845,"Ġcoverage":7846,"Ġshakes":7847,"Ġshorter":7848,"Ġconcrete":7849,"Ġairlines":7850,"Ġspell":7851,"Ġevangel":7852,"Ġpole":7853,"Ġ68":7854,"Ġcourses":7855,"Ġnomination":7856,"Ġexcell":7857,"Ġscored":7858,"Ġapproaches":7859,"Ġcomplexity":7860,"Ġkaz":7861,"Ġintense":7862,"Ġmatthe":7863,"Ġgri":7864,"Ġload":7865,"Ġceremon":7866,"Ġobservations":7867,"Ġranges":7868,"olithic":7869,"Ġattorney":7870,"Ġcyl":7871,"Ġforth":7872,"Ġalk":7873,"Ġefficiency":7874,"Ġbelg":7875,"Ġprogressive":7876,"fs":7877,"Ġpatient":7878,"Ġmembr":7879,"Ġ1937":7880,"Ġuranium":7881,"Ġom":7882,"Ġlis":7883,"Ġcommissioned":7884,"Ġboundaries":7885,"ded":7886,"fit":7887,"Ġresign":7888,"Ġ54":7889,"Ġdiversity":7890,"oen":7891,"heas":7892,"Ġstability":7893,"Ġholes":7894,"Ġcompete":7895,"Ġsurrounded":7896,"Ġarmies":7897,"haust":7898,"rimination":7899,"otype":7900,"Ġinqu":7901,"Ġgeography":7902,"Ġkilomet":7903,"urg":7904,"Ġkos":7905,"Ġintention":7906,"Ġflour":7907,"Ġpatent":7908,"Ġtab":7909,"Ġgap":7910,"Ġspark":7911,"ocent":7912,"Ġestimate":7913,"Ġmeth":7914,"Ġbabies":7915,"Ġstones":7916,"Ġgregory":7917,"roph":7918,"Ġchip":7919,"Ġcance":7920,"Ġsubt":7921,"Ġ250":7922,"Ġadaptation":7923,"Ġsha":7924,"gery":7925,"Ġdrag":7926,"Ġstatue":7927,"Ġnurs":7928,"Ġarabia":7929,"Ġbottle":7930,"Ġdioxide":7931,"herent":7932,"rection":7933,"Ġturb":7934,"Ġmaxim":7935,"Ġvoltage":7936,"Ġunity":7937,"Ġsudan":7938,"Ġenjoyed":7939,"Ġpocket":7940,"Ġlikes":7941,"Ġtelling":7942,"Ġlunar":7943,"Ġgravity":7944,"Ġnaming":7945,"Ġrecovered":7946,"Ġtribal":7947,"Ġbinding":7948,"Ġtat":7949,"Ġwheat":7950,"ixon":7951,"Ġbesides":7952,"Ġmerely":7953,"Ġtied":7954,"Ġaware":7955,"Ġguest":7956,"Ġlesser":7957,"Ġcats":7958,"Ġmi":7959,"Ġcomprom":7960,"Ġfault":7961,"Ġsession":7962,"Ġmold":7963,"Ġdefensive":7964,"Ġdod":7965,"Ġrings":7966,"Ġsymp":7967,"Ġbishops":7968,"Ġhoped":7969,"Ġreviews":7970,"Ġjam":7971,"Ġpotentially":7972,"athered":7973,"fr":7974,"Ġbeer":7975,"Ġpitts":7976,"Ġcord":7977,"Ġpartnership":7978,"Ġmaced":7979,"Ġoutl":7980,"Ġintermed":7981,"Ġnato":7982,"Ġpraised":7983,"Ġpaying":7984,"Ġregistered":7985,"equ":7986,"ĠâĢ¦":7987,"Ġrealized":7988,"Ġsuitable":7989,"Ġmaur":7990,"Ġalfred":7991,"Ġwage":7992,"Ġjury":7993,"Ġlob":7994,"Ġkeys":7995,"Ġcompetitive":7996,"Ġcreative":7997,"Ġwish":7998,"Ġexhaust":7999,"Ġstrings":8000,"Ġgraphics":8001,"wart":8002,"Ġsending":8003,"Ġmarry":8004,"Ġelectromagn":8005,"Ġmt":8006,"omous":8007,"Ġky":8008,"Ġmatches":8009,"Ġelabor":8010,"Ġ1951":8011,"iami":8012,"Ġliberty":8013,"Ġcustoms":8014,"Ġcyp":8015,"acc":8016,"Ġrecorder":8017,"Ġbh":8018,"Ġbrush":8019,"Ġartistic":8020,"Ġahm":8021,"Ġoperator":8022,"Ġlegislature":8023,"Ġoriented":8024,"Ġhouston":8025,"Ġantiqu":8026,"Ġdolph":8027,"Ġconflicts":8028,"Ġsynthesis":8029,"Ġoral":8030,"Ġmarit":8031,"Ġstudios":8032,"Ġgrammar":8033,"Ġromania":8034,"Ġmammals":8035,"Ġabstract":8036,"fts":8037,"Ġresidence":8038,"Ġsyd":8039,"Ġassign":8040,"Ġguys":8041,"Ġexecution":8042,"Ġreplacement":8043,"Ġnutrit":8044,"75":8045,"Ġark":8046,"Ġtaylor":8047,"zed":8048,"Ġcau":8049,"Ġmiami":8050,"that":8051,"Ġ1917":8052,"Ġmathematic":8053,"Ġnotation":8054,"Ġindians":8055,"Ġminnes":8056,"Ġswing":8057,"Ġvarying":8058,"Ġjoy":8059,"Ġparticipated":8060,"Ġarizona":8061,"Ġbibl":8062,"Ġdatab":8063,"Ġworn":8064,"ĠâĢĻ":8065,"Ġdisaster":8066,"Ġrequiring":8067,"Ġpairs":8068,"Ġindonesia":8069,"Ġcuisine":8070,"Ġpont":8071,"eters":8072,"Ġmanip":8073,"Ġdistinguish":8074,"Ġchris":8075,"Ġcarter":8076,"Ġwider":8077,"Ġri":8078,"Ġplural":8079,"Ġ800":8080,"Ġequipped":8081,"Ġevolutionary":8082,"gue":8083,"Ġlev":8084,"Ġpermit":8085,"Ġopportunities":8086,"Ġnur":8087,"Ġflash":8088,"cho":8089,"Ġeighth":8090,"oto":8091,"Ġdeliber":8092,"Ġdougl":8093,"Ġphotograph":8094,"Ġjefferson":8095,"Ġconsequences":8096,"bell":8097,"alf":8098,"Ġemissions":8099,"Ġeru":8100,"Ġfingers":8101,"Ġtelecommun":8102,"night":8103,"Ġscrew":8104,"Ġrecalled":8105,"Ġanglic":8106,"Ġholiday":8107,"Ġrebu":8108,"heastern":8109,"mble":8110,"Ġfed":8111,"Ġdall":8112,"roit":8113,"Ġjane":8114,"Ġproducers":8115,"Ġfinance":8116,"Ġbiology":8117,"Ġmaryland":8118,"Ġaver":8119,"Ġcoat":8120,"Ġhanded":8121,"Ġwealthy":8122,"ĠÃ©":8123,"era":8124,"Ġnest":8125,"Ġswit":8126,"Ġcitizen":8127,"Ġkitchen":8128,"Ġsleeping":8129,"Ġbare":8130,"uras":8131,"Ġenorm":8132,"Ġroger":8133,"Ġvaluable":8134,"Ġoptim":8135,"Ġinitiative":8136,"Ġtriangle":8137,"ailand":8138,"Ġpredecess":8139,"Ġburned":8140,"Ġcambridge":8141,"Ġunsuccess":8142,"bar":8143,"stic":8144,"Ġthereby":8145,"Ġangry":8146,"exp":8147,"Ġsig":8148,"Ġportra":8149,"Ġhamilton":8150,"Ġthailand":8151,"Ġcontrols":8152,"Ġtibet":8153,"ductor":8154,"Ġwooden":8155,"Ġiranian":8156,"gie":8157,"Ġgau":8158,"str":8159,"Ġspecialized":8160,"Ġelectronics":8161,"Ġnarrative":8162,"Ġetymology":8163,"uated":8164,"Ġroy":8165,"ika":8166,"Ġwings":8167,"Ġ41":8168,"Ġdiscrimination":8169,"Ġvariant":8170,"secution":8171,"inder":8172,"Ġsuicide":8173,"Ġglad":8174,"Ġtourists":8175,"Ġhungry":8176,"graph":8177,"ulous":8178,"una":8179,"Ġpermission":8180,"Ġdistribut":8181,"Ġhappening":8182,"Ġcorporate":8183,"Ġ1914":8184,"Ġregardless":8185,"Ġquantities":8186,"Ġshares":8187,"atherine":8188,"Ġweekly":8189,"Ġsacred":8190,"Ġjup":8191,"Ġtrucks":8192,"Ġregul":8193,"Ġcorp":8194,"Ġproport":8195,"Ġburning":8196,"Ġdescendants":8197,"Ġmatt":8198,"Ġsuspended":8199,"Ġminnesota":8200,"Ġconsidering":8201,"Ġbarack":8202,"aki":8203,"Ġ2021":8204,"Ġmonaster":8205,"Ġhighlight":8206,"Ġ1929":8207,"Ġhosts":8208,"Ġcaesar":8209,"Ġintervention":8210,"Ġhockey":8211,"alo":8212,"Ġseeds":8213,"Ġcriter":8214,"Ġwalter":8215,"200":8216,"rium":8217,"Ġsmoking":8218,"peare":8219,"Ġmarshall":8220,"Ġhip":8221,"Ġaged":8222,"Ġpatron":8223,"Ġvertical":8224,"Ġsamuel":8225,"68":8226,"iga":8227,"Ġusa":8228,"Ġmineral":8229,"Ġshakespeare":8230,"Ġninet":8231,"Ġdishes":8232,"Ġaviation":8233,"Ġcampaigns":8234,"itt":8235,"orus":8236,"Ġreagan":8237,"Ġnov":8238,"Ġzh":8239,"Ġrotation":8240,"Ġrhythm":8241,"Ġpittsburgh":8242,"Ġbiblical":8243,"38":8244,"Ġfusion":8245,"Ġranking":8246,"Ġshopping":8247,"37":8248,"Ġprincess":8249,"Ġtough":8250,"erb":8251,"Ġ85":8252,"Ġdirectors":8253,"Ġpossession":8254,"Ġdefinite":8255,"Ġtiger":8256,"ipher":8257,"Ġdemands":8258,"Ġarchbish":8259,"Ġcookies":8260,"Ġbug":8261,"Ġentering":8262,"Ġrevival":8263,"Ġski":8264,"Ġinitiated":8265,"Ġmarketing":8266,"ijing":8267,"Ġsydney":8268,"Ġches":8269,"Ġobst":8270,"Ġbabyl":8271,"Ġindependently":8272,"Ġpilots":8273,"stan":8274,"iang":8275,"Ġdragon":8276,"Ġtip":8277,"Ġvin":8278,"aved":8279,"Ġlaser":8280,"heric":8281,"Ġvital":8282,"Ġcrossing":8283,"Ġmicrophone":8284,"Ġdecrease":8285,"Ġcm":8286,"Ġspons":8287,"Ġvariables":8288,"Ġprovinc":8289,"ng":8290,"Ġartillery":8291,"Ġvillages":8292,"Ġrubber":8293,"Ġcinema":8294,"Ġjupiter":8295,"Ġwore":8296,"Ġstatements":8297,"Ġpunishment":8298,"Ġpyth":8299,"Ġextrem":8300,"Ġdetroit":8301,"Ġclaiming":8302,"Ġperm":8303,"Ġscores":8304,"Ġ58":8305,"Ġconcentrated":8306,"Ġbuddhism":8307,"zing":8308,"inced":8309,"Ġenact":8310,"Ġmines":8311,"Ġsharing":8312,"Ġastronaut":8313,"Ġlieuten":8314,"Ġbrian":8315,"Ġkur":8316,"Ġspeaker":8317,"Ġdc":8318,"Ġgathered":8319,"Ġtransit":8320,"Ġeducated":8321,"osy":8322,"Ġsphere":8323,"Ġmeasurement":8324,"Ġhierarch":8325,"mat":8326,"Ġlip":8327,"Ġconclusion":8328,"Ġseed":8329,"andy":8330,"keley":8331,"Ġreportedly":8332,"Ġorchestra":8333,"Ġmile":8334,"Ġcurve":8335,"Ġbusy":8336,"Ġcake":8337,"Ġstack":8338,"Ġhurric":8339,"Ġadjacent":8340,"Ġwelcome":8341,"Ġarchaeological":8342,"bro":8343,"arth":8344,"Ġlandscape":8345,"Ġay":8346,"Ġbicy":8347,"Ġ175":8348,"Ġparticipants":8349,"45":8350,"arians":8351,"Ġcloud":8352,"Ġimprovements":8353,"Ġjohann":8354,"gas":8355,"Ġdefinitions":8356,"Ġlayers":8357,"ulsion":8358,"Ġnitrogen":8359,"Ġoutbreak":8360,"Ġbeijing":8361,"Ġundert":8362,"Ġradar":8363,"adesh":8364,"Ġhammer":8365,"Ġconvinced":8366,"station":8367,"iph":8368,"Ġgrey":8369,"Ġcodes":8370,"Ġcasual":8371,"Ġmoore":8372,"athy":8373,"Ġ51":8374,"Ġros":8375,"Ġhoward":8376,"Ġcargo":8377,"sex":8378,"load":8379,"Ġfinnish":8380,"66":8381,"hl":8382,"isy":8383,"Ġ99":8384,"Ġdeputy":8385,"bin":8386,"Ġlibert":8387,"Ġdescent":8388,"Ġdelta":8389,"Ġberg":8390,"Ġgoogle":8391,"Ġprey":8392,"Ġpersonality":8393,"Ġpronounced":8394,"Ġoblig":8395,"Ġanch":8396,"Ġspecified":8397,"Ġconfidence":8398,"Ġnigeria":8399,"Ġfictional":8400,"Ġinaug":8401,"Ġhidden":8402,"essions":8403,"ourse":8404,"Ġprotesters":8405,"Ġberkeley":8406,"Ġinhib":8407,"Ġvisiting":8408,"Ġvulner":8409,"Ġpand":8410,"Ġprost":8411,"atus":8412,"Ġvib":8413,"emed":8414,"Ġwheels":8415,"Ġ52":8416,"Ġsolve":8417,"oval":8418,"Ġintegral":8419,"Ġexhibit":8420,"Ġdoubt":8421,"Ġlanded":8422,"Ġchampionships":8423,"Ġsituations":8424,"Ġotto":8425,"rating":8426,"uce":8427,"imb":8428,"Ġencoun":8429,"Ġcooking":8430,"Ġatlanta":8431,"Ġinfection":8432,"Ġconsciousness":8433,"Ġcomfort":8434,"Ġabuse":8435,"ommod":8436,"alia":8437,"Ġnbc":8438,"othe":8439,"Ġliby":8440,"tenance":8441,"Ġtrials":8442,"Ġharder":8443,"Ġmissiles":8444,"Ġobservation":8445,"Ġearthquake":8446,"Ġbelgium":8447,"Ġfiled":8448,"Ġoperators":8449,"wing":8450,"Ġpredicted":8451,"Ġfrog":8452,"Ġthermal":8453,"Ġexile":8454,"berry":8455,"Ġloose":8456,"Ġbiography":8457,"Ġsensitive":8458,"Ġjunior":8459,"Ġaccommod":8460,"Ġrecognised":8461,"Ġaristot":8462,"Ġportrayed":8463,"Ġou":8464,"Ġmaintenance":8465,"Ġhorror":8466,"roid":8467,"ithms":8468,"Ġmonop":8469,"Ġdifficulty":8470,"Ġdisplayed":8471,"Ġwag":8472,"Ġdad":8473,"illes":8474,"Ġflower":8475,"Ġchemicals":8476,"Ġdj":8477,"Ġhans":8478,"Ġcomprehens":8479,"Ġrelatives":8480,"Ġmalaysia":8481,"Ġcia":8482,"Ġseal":8483,"Ã©e":8484,"american":8485,"ho":8486,"Ġost":8487,"Ġlamb":8488,"Ġgenerate":8489,"Ġenthus":8490,"Ġlights":8491,"Ġethiop":8492,"Ġthreats":8493,"Ġpuer":8494,"Ġintegration":8495,"Ġinjured":8496,"Ġhamp":8497,"Ġrou":8498,"terday":8499,"Ġworry":8500,"Ġsaints":8501,"Ġplut":8502,"Ġperspective":8503,"48":8504,"wick":8505,"Ġdense":8506,"Ġhars":8507,"Ġgates":8508,"Ġsingap":8509,"Ġpetro":8510,"Ġprivile":8511,"Ġpuzzle":8512,"Ġtorn":8513,"Ġov":8514,"Ġsri":8515,"Ġmonster":8516,"Ġ1934":8517,"Ġmeasurements":8518,"Ġdistinctive":8519,"Ġconsequently":8520,"mel":8521,"Ġ1000":8522,"Ġeleven":8523,"Ġconstantin":8524,"uct":8525,"Ġoreg":8526,"Ġbrus":8527,"Ġextend":8528,"Ġemotional":8529,"65":8530,"Ġsans":8531,"Ġpunk":8532,"isition":8533,"Ġarray":8534,"Ġcontrad":8535,"Ġrecover":8536,"Ġdemanded":8537,"Ġencourage":8538,"Ġsword":8539,"Ġerrors":8540,"Ġvariants":8541,"Ġadventure":8542,"Ġvolunteers":8543,"Ġforgot":8544,"Ġmatthew":8545,"Ġmaritime":8546,"bow":8547,"Ġdor":8548,"olas":8549,"Ġspoon":8550,"Ġcoin":8551,"Ġactress":8552,"Ġlawyer":8553,"Ġdiscipline":8554,"Ġbehaviour":8555,"Ġloop":8556,"Ġpulled":8557,"Ġcommemor":8558,"Ġpyr":8559,"Ġenemies":8560,"Ġdallas":8561,"icious":8562,"Ġprecip":8563,"sch":8564,"Ġpharm":8565,"cycl":8566,"Ġreplacing":8567,"Ġsignificance":8568,"Ġverb":8569,"Ġbills":8570,"Ġll":8571,"Ġaccum":8572,"Ġaustrian":8573,"Ġyesterday":8574,"Ġwavel":8575,"Ġpagan":8576,"Ġchim":8577,"Ġbrad":8578,"Ġeditions":8579,"Ġpredict":8580,"Ġlogo":8581,"Ġsurprise":8582,"iology":8583,"Ġdancing":8584,"Ġnu":8585,"Ġalien":8586,"Ġshah":8587,"Ġresigned":8588,"Ġcoins":8589,"Ġregulation":8590,"Ġwes":8591,"itis":8592,"Ġinject":8593,"Ġreception":8594,"rene":8595,"Ġanymore":8596,"Ġvienna":8597,"Ġliberation":8598,"Ġchronic":8599,"Ġarctic":8600,"Ġcuban":8601,"Ġfbi":8602,"Ġflights":8603,"Ġlithuania":8604,"Ġmonkey":8605,"Ġsumm":8606,"Ġoregon":8607,"erce":8608,"omic":8609,"Ġconsumers":8610,"Ġexclusively":8611,"Ġtie":8612,"itative":8613,"orship":8614,"Ġembra":8615,"Ġtransformation":8616,"Ġsimultaneously":8617,"Ġcock":8618,"Ġchi":8619,"Ġbombing":8620,"erts":8621,"Ġpist":8622,"Ġabroad":8623,"Ġfuneral":8624,"Ġhumanity":8625,"Ġtraveling":8626,"Ġexhibition":8627,"uan":8628,"Ġkra":8629,"umed":8630,"Ġboost":8631,"Ġgenet":8632,"Ġimposed":8633,"rator":8634,"ardo":8635,"Ġknock":8636,"Ġrobot":8637,"Ġlyrics":8638,"Ġpuerto":8639,"rell":8640,"Ġreverse":8641,"Ġcollections":8642,"Ġcameras":8643,"orrow":8644,"Ġvirtually":8645,"Ġmonarchy":8646,"Ġcort":8647,"Ġcric":8648,"Ġcbs":8649,"icts":8650,"rage":8651,"Ġ1932":8652,"Ġ1935":8653,"Ġpants":8654,"Ġmaps":8655,"Ġriding":8656,"Ġcamb":8657,"Ġcitizenship":8658,"33":8659,"Ġate":8660,"ibilities":8661,"Ġsard":8662,"Ġanywhere":8663,"Ġsilicon":8664,"Ġadoption":8665,"Ġdocumented":8666,"Ġmomentum":8667,"Ġbak":8668,"Ġathe":8669,"Ġquot":8670,"Ġmetab":8671,"ensively":8672,"Ġears":8673,"Ġhomeless":8674,"Ġlinguistic":8675,"uma":8676,"Ġ130":8677,"Ġmiller":8678,"Ġpolynom":8679,"Ġambass":8680,"Ġlieutenant":8681,"Ġbened":8682,"Ġmeg":8683,"Ġemit":8684,"Ġyours":8685,"Ġmichel":8686,"Ġproperly":8687,"Ġcavalry":8688,"Ġlily":8689,"Ġcoinc":8690,"Ġwarning":8691,"iscons":8692,"Ġaxi":8693,"Ġconsequence":8694,"Ġhybrid":8695,"ycl":8696,"Ġlaugh":8697,"Ġrober":8698,"Ġmoreover":8699,"Ġreserves":8700,"Ġmaintaining":8701,"Ġbroadcasting":8702,"oming":8703,"pled":8704,"Ġmoderate":8705,"Ġnationwide":8706,"Ġresource":8707,"Ġrooms":8708,"Ġamate":8709,"Ġteens":8710,"rible":8711,"Ġdevelopments":8712,"Ġdistant":8713,"Ġcuts":8714,"Ġvowel":8715,"Ġaber":8716,"Ġplayoff":8717,"Ġ170":8718,"Ġgrace":8719,"Ġoptions":8720,"din":8721,"Ġrely":8722,"ocene":8723,"Ġepist":8724,"Ġdifficulties":8725,"Ġmerged":8726,"Ġwavelength":8727,"Ġrays":8728,"rac":8729,"Ġstarred":8730,"Ġhook":8731,"Ġinteractions":8732,"Ġextinction":8733,"Ġae":8734,"Ġamph":8735,"Ġpresents":8736,"Ġreceiver":8737,"Ġtourist":8738,"Ġrequirement":8739,"Ġfriendly":8740,"Ġsubmarine":8741,"Ġingred":8742,"Ġeinstein":8743,"ean":8744,"noon":8745,"Ġconsecut":8746,"acher":8747,"Ġdoors":8748,"Ġinvention":8749,"Ġ77":8750,"Ġ1922":8751,"Ġautonomous":8752,"Ġexplicitly":8753,"Ġfaculty":8754,"Ġcem":8755,"Ġshan":8756,"asses":8757,"avian":8758,"Ġprophe":8759,"Ġloud":8760,"Ġtalks":8761,"Ġdarwin":8762,"Ġacknowledged":8763,"Ġsid":8764,"Ġdiameter":8765,"Ġfo":8766,"Ġcapita":8767,"Ġplanes":8768,"Ġcollaps":8769,"Ġpoliticians":8770,"Ġcricket":8771,"isconsin":8772,"mates":8773,"Ġbeam":8774,"Ġalumin":8775,"Ġathens":8776,"Ġhispan":8777,"Ġsomewhere":8778,"Ġafternoon":8779,"Ġcreates":8780,"Ġrulers":8781,"Ġobjective":8782,"Å«":8783,"Ġwool":8784,"Ġphoen":8785,"Ġsupplement":8786,"Ġinspect":8787,"Ġrobinson":8788,"ĠÃĹ":8789,"Ġtongue":8790,"Ġboun":8791,"izers":8792,"Ġexcav":8793,"Ġconquered":8794,"Ġbump":8795,"Ġairports":8796,"Ġtermed":8797,"Ġwolves":8798,"Ġextinct":8799,"Ġrugby":8800,"Ġannouncement":8801,"Ġsingapore":8802,"fire":8803,"foot":8804,"Ġorg":8805,"Ġrecordings":8806,"Ġbaltic":8807,"Ġtomorrow":8808,"urb":8809,"Ġmonument":8810,"Ġsurgery":8811,"Ġweekend":8812,"chell":8813,"Ġdressed":8814,"idal":8815,"Ġcontribution":8816,"Ġcoron":8817,"Ġactivists":8818,"Ġfraction":8819,"Ġbeauty":8820,"Ġrepeatedly":8821,"Ġreconstruction":8822,"Ġpounds":8823,"Ġequally":8824,"Ġnorman":8825,"sky":8826,"ationally":8827,"ateral":8828,"avia":8829,"Ġwarri":8830,"Ġsloven":8831,"Ġmuseums":8832,"Ġgoverning":8833,"Ġpredominantly":8834,"Ġchoo":8835,"Ġcivilians":8836,"Ġadmiral":8837,"Ġcognitive":8838,"85":8839,"Ġcoe":8840,"Ġdiffer":8841,"Ġbattery":8842,"Ġretirement":8843,"krit":8844,"Ġsang":8845,"Ġwisconsin":8846,"Ġcompeting":8847,"Ġarchbishop":8848,"Ġfurn":8849,"Ġabra":8850,"Ġloan":8851,"dum":8852,"hard":8853,"Ġpublications":8854,"ologically":8855,"Ġfulf":8856,"Ġdump":8857,"Ġhits":8858,"phy":8859,"Ġvaried":8860,"Ġradi":8861,"Ġdealing":8862,"Ġapproxim":8863,"Ġlibraries":8864,"Ġreich":8865,"Ġalan":8866,"Ġ1928":8867,"Ġsque":8868,"Ġproductions":8869,"Ġliterally":8870,"67":8871,"Ġjama":8872,"Ġconsens":8873,"Ġlogical":8874,"Ġanthony":8875,"nia":8876,"Ġwitch":8877,"Ġbav":8878,"iture":8879,"sters":8880,"Ġcliff":8881,"Ġoverw":8882,"Ġproto":8883,"Ġappearances":8884,"wall":8885,"Ġsoup":8886,"Ġcommerce":8887,"Ġapprec":8888,"Ġ53":8889,"Ġpencil":8890,"Ġgalaxy":8891,"Ġgig":8892,"Ġvideos":8893,"Ġhomosexual":8894,"forced":8895,"Ġaddressed":8896,"Ġnathaniel":8897,"ophers":8898,"Ġpreserve":8899,"eping":8900,"Ġzones":8901,"Ġopponent":8902,"Ġrebels":8903,"Ġpanel":8904,"Ġdynamic":8905,"Ġmetric":8906,"Ġreleases":8907,"Ġrestoration":8908,"Ġfallen":8909,"Ġteachings":8910,"Ġbruce":8911,"rolled":8912,"izer":8913,"Ġoverl":8914,"Ġlouisiana":8915,"Ġphenomena":8916,"eared":8917,"Ġquart":8918,"Ġ1931":8919,"Ġdeeply":8920,"Ġgeometry":8921,"Ġanx":8922,"Ġgases":8923,"Ġrect":8924,"ellar":8925,"Ġauthen":8926,"Ġmechanisms":8927,"Ġmargaret":8928,"hyd":8929,"Ġcum":8930,"Ġvl":8931,"Ġmanufactured":8932,"Ġtasks":8933,"Ġprovincial":8934,"lem":8935,"owa":8936,"uson":8937,"Ġcivilization":8938,"Ġwatched":8939,"Ġcardin":8940,"Ġ1890":8941,"Ġsaxon":8942,"Ġtennes":8943,"Ġdisagre":8944,"Ġtig":8945,"Ġconsol":8946,"Ġharrison":8947,"Ġdepartments":8948,"Ġguil":8949,"zes":8950,"Ġperception":8951,"Ġdesk":8952,"Ġ1912":8953,"Ġdimensions":8954,"onymous":8955,"Ġenormous":8956,"ori":8957,"Ġbless":8958,"Ġlikewise":8959,"Ġghost":8960,"Ġveterans":8961,"Ġstabil":8962,"Ġbeta":8963,"Ġlawmakers":8964,"Ġconsecutive":8965,"Ġalc":8966,"Ġlegally":8967,"Ġcomments":8968,"Ġunified":8969,"Ġ57":8970,"Ġballs":8971,"Ġmorris":8972,"Ġcolombia":8973,"fel":8974,"Ġpup":8975,"Ġmoz":8976,"Ġminerals":8977,"Ġtriple":8978,"Ġeaster":8979,"Ġquantity":8980,"Ġharvard":8981,"Ġindirect":8982,"Ġgiants":8983,"Ġlt":8984,"Ġgrain":8985,"Ġmolecule":8986,"Ġmanifest":8987,"Ġtennessee":8988,"Ġions":8989,"Ġcree":8990,"Ġpiz":8991,"uran":8992,"etheless":8993,"Ġchips":8994,"quit":8995,"Ġoxide":8996,"Ġprosper":8997,"cos":8998,"Ġgly":8999,"olar":9000,"Ġalloc":9001,"Ġafterwards":9002,"Ġequality":9003,"Ġreferendum":9004,"Ġnintend":9005,"Ġnixon":9006,"cha":9007,"Ġnonetheless":9008,"Ġphilosophers":9009,"Ġadopt":9010,"Ġhospitals":9011,"Ġnepal":9012,"Ġferg":9013,"Ġmigrants":9014,"Ġeis":9015,"Ġnintendo":9016,"eded":9017,"Ġgam":9018,"Ġverte":9019,"Ġflew":9020,"Ġwels":9021,"Ġdevast":9022,"Ġautomatic":9023,"Ġcalculated":9024,"ender":9025,"Ġanderson":9026,"Ġdesired":9027,"Ġcrypt":9028,"Ġtony":9029,"Ġms":9030,"Ġconsole":9031,"teries":9032,"Ġtech":9033,"Ġendang":9034,"Ġsequences":9035,"bel":9036,"Ġplas":9037,"Ġfunded":9038,"Ġpierre":9039,"pie":9040,"Ġhein":9041,"Ġnev":9042,"Ġsaved":9043,"Ġchristopher":9044,"Ġsovereignty":9045,"iast":9046,"Ġerect":9047,"Ġreds":9048,"Ġamericas":9049,"iary":9050,"Ġaside":9051,"Ġzo":9052,"Ġspeeds":9053,"Ġminimal":9054,"Ġ1923":9055,"Ġodd":9056,"Ġprocedures":9057,"'\"":9058,"Ġ56":9059,"Ġsupern":9060,"Ġinspiration":9061,"Ġdictionary":9062,"Ġoverwhel":9063,"inus":9064,"Ġkam":9065,"Ġattribut":9066,"Ġvs":9067,"Ġshoe":9068,"Ġarrow":9069,"Ġremoval":9070,"Ġamongst":9071,"Ġ1910":9072,"Ġmorocco":9073,"Ġcatherine":9074,"weight":9075,"anas":9076,"Ġni":9077,"Ġgord":9078,"Ġug":9079,"olk":9080,"iban":9081,"inated":9082,"Ġmete":9083,"Ġinvaded":9084,"Ġdevoted":9085,"ymes":9086,"Ġchancell":9087,"Ġcollaboration":9088,"Ġunclear":9089,"Ġdeployed":9090,"Ġoccasions":9091,"Ġargentina":9092,"ulum":9093,"Ġelite":9094,"bey":9095,"Ġdaughters":9096,"Ġarrangement":9097,"Ġtum":9098,"inians":9099,"Ġlamp":9100,"Ġheir":9101,"Ġrush":9102,"Ġjar":9103,"Ġgoverned":9104,"Ġopinions":9105,"Ġauthentic":9106,"Ġnerv":9107,"Ġdeli":9108,"Ġfairly":9109,"Ġhorizont":9110,"Ġgift":9111,"ante":9112,"Ġraf":9113,"Ġconfederate":9114,"rough":9115,"Ġwik":9116,"Ġscan":9117,"Ġexploration":9118,"Ġbehalf":9119,"coming":9120,"Ġstrengthen":9121,"Ġexclusive":9122,"enburg":9123,"Ġdwar":9124,"apor":9125,"Ġwarned":9126,"Ġneutron":9127,"Ġalab":9128,"Ġbuying":9129,"Ġtransc":9130,"Ġcapit":9131,"Ġequil":9132,"Ġoccurring":9133,"Ġtut":9134,"Ġdak":9135,"Ġlift":9136,"Ġresid":9137,"Ġlords":9138,"Ġmystery":9139,"Ġelectromagnetic":9140,"Ġgamb":9141,"Ġyan":9142,"Ġsegment":9143,"Ġunn":9144,"Ġbacked":9145,"pes":9146,"itable":9147,"Ġmg":9148,"Ġbeings":9149,"Ġquack":9150,"Ġultimate":9151,"Ġconstantinople":9152,"100":9153,"32":9154,"Ġpad":9155,"Ġbee":9156,"Ġjay":9157,"Ġovert":9158,"Ġ66":9159,"Ġsingles":9160,"Ġindiana":9161,"Ġexpanding":9162,"Ġshipping":9163,"Ġjuan":9164,"restrial":9165,"Ġgallery":9166,"Ġalgorithms":9167,"Ġenterprise":9168,"Ġverse":9169,"Ġseriously":9170,"pack":9171,"Ġbil":9172,"Ġmall":9173,"Ġ1925":9174,"Ġkingdoms":9175,"after":9176,"Ġmillennium":9177,"Ġpor":9178,"Ġpled":9179,"Ġencl":9180,"Ġcataly":9181,"Ġyup":9182,"Ġdeck":9183,"Ġneo":9184,"Ġnamely":9185,"Ġiceland":9186,"Ġmutual":9187,"Ġshapes":9188,"Ġfract":9189,"Ġjail":9190,"Ġoutdo":9191,"Ġencomp":9192,"Ġmaintains":9193,"Ġdvd":9194,"44":9195,"Ġhart":9196,"Ġspelling":9197,"Ġclient":9198,"Ġinterrupt":9199,"Ġrelevant":9200,"Ġsubstances":9201,"zens":9202,"Ġgest":9203,"Ġspider":9204,"Ġmanh":9205,"Ġdisorders":9206,"Ġfrust":9207,"Ġreturns":9208,"Ġ1924":9209,"Ġprevented":9210,"Ġclinical":9211,"Ġnapoleon":9212,"Ġdouglas":9213,"Ġheter":9214,"igible":9215,"Ġcarp":9216,"Ġ1921":9217,"Ġroutine":9218,"Ġabraham":9219,"Ġtooth":9220,"Ġsho":9221,"Ġmanage":9222,"Ġpremier":9223,"Ġmercury":9224,"bes":9225,"hu":9226,"Ġeli":9227,"agers":9228,"Ġrevised":9229,"Ġmassac":9230,"Ġnucleus":9231,"Ã«":9232,"amation":9233,"kee":9234,"Ġmeters":9235,"Ġposit":9236,"Ġdublin":9237,"Ġpushing":9238,"Ġhorm":9239,"Ġalter":9240,"Ġminim":9241,"Ġsoldier":9242,"Ġgarbage":9243,"Ġpeng":9244,"Ġuss":9245,"Ġrend":9246,"Ġatmospheric":9247,"Ġpenalty":9248,"á¹":9249,"eller":9250,"Ġeverywhere":9251,"Ġprevalent":9252,"atoes":9253,"ingly":9254,"Ġclause":9255,"Ġapartment":9256,"Ġtheor":9257,"Ġshield":9258,"Ġcontribute":9259,"Ġunderlying":9260,"olds":9261,"Ġmonetary":9262,"Ġstarring":9263,"Ġneighboring":9264,"Ġceltic":9265,"Ġbenedict":9266,"Ġrevel":9267,"ulu":9268,"rians":9269,"Ġgenus":9270,"Ġdefines":9271,"Ġstrange":9272,"Ġpalm":9273,"Ġbenj":9274,"esty":9275,"Ġsurvival":9276,"Ġcollective":9277,"Ġclosest":9278,"cca":9279,"Ġwarner":9280,"Ġproven":9281,"amese":9282,"Ġremainder":9283,"Ġassociate":9284,"Ġwelfare":9285,"eration":9286,"Ġdeemed":9287,"Ġpla":9288,"Ġreloc":9289,"attered":9290,"Ġgardens":9291,"Ġdecreased":9292,"related":9293,"36":9294,"inos":9295,"Ġhandling":9296,"Ġadministered":9297,"Ġpenet":9298,"Ġconvert":9299,"Ġsurfaces":9300,"Ġnina":9301,"ovo":9302,"Ġanimated":9303,"Ġ1927":9304,"Ġwelsh":9305,"Ġdying":9306,"ressive":9307,"Ġbore":9308,"aly":9309,"Ġlank":9310,"imir":9311,"Ġassy":9312,"Ġinteger":9313,"Ġtaliban":9314,"Ġgravit":9315,"Ġrevolt":9316,"idelines":9317,"Ġritual":9318,"Ġgothic":9319,"49":9320,"Ġcompletion":9321,"Ġimported":9322,"Ġglobe":9323,"Ġgospel":9324,"chron":9325,"Ġdozens":9326,"Ġsingular":9327,"anny":9328,"Ġrespective":9329,"Ġshadow":9330,"Ġtransmitted":9331,"Ġdimension":9332,"Ġorganised":9333,"Ġbreeding":9334,"Ġpeaceful":9335,"Ġfifty":9336,"Ġpilgr":9337,"Ġconsensus":9338,"Ġlocally":9339,"Ġimmun":9340,"Ġbenjamin":9341,"Ġhull":9342,"amine":9343,"Ġexplains":9344,"aws":9345,"Ġdrives":9346,"Ġhawaii":9347,"Ġguilty":9348,"Ġdelivery":9349,"Ġkeyboard":9350,"Ġtargeted":9351,"van":9352,"when":9353,"Ġwins":9354,"Ġmck":9355,"Ġdish":9356,"Ġgym":9357,"Ġstere":9358,"Ġchains":9359,"Ġlig":9360,"Ġrepair":9361,"odynam":9362,"Ġpsychiat":9363,"Ġdisputed":9364,"Ġhiding":9365,"teenth":9366,"Ġcircular":9367,"Ġwalked":9368,"Ġbulgar":9369,"Ġculmin":9370,"ridge":9371,"Ġappearing":9372,"Ġagreements":9373,"Ġfacebook":9374,"bourg":9375,"Ġdubbed":9376,"Ġtren":9377,"Ġleaf":9378,"Ġ1800":9379,"Ġkeeps":9380,"Ġconnecting":9381,"Ġbangl":9382,"Ġny":9383,"Ġrussell":9384,"Ġwounded":9385,"Ġgm":9386,"Ġscr":9387,"Ġbuses":9388,"Ġarose":9389,"itic":9390,"Ġryan":9391,"Ġmans":9392,"Ġurged":9393,"Ġbulk":9394,"attan":9395,"Ġdisputes":9396,"Ġconfiguration":9397,"Ġferguson":9398,"Ġthomp":9399,"rett":9400,"Ġtribute":9401,"Ġunlikely":9402,"Ġaar":9403,"Ġsalmon":9404,"Ġvolumes":9405,"Ġrisks":9406,"Ġkentucky":9407,").":9408,"Ġbroadway":9409,"Ġemerging":9410,"Ġfranco":9411,"Ġthompson":9412,"Ġgear":9413,"Ġscandin":9414,"fly":9415,"gle":9416,"Ġvatic":9417,"Ġattempting":9418,"Ã¼r":9419,"Ġmythology":9420,"Ġbombs":9421,"Ġchromos":9422,"Ġinherited":9423,"Ġcob":9424,"Ġdrought":9425,"Ġ1870":9426,"Ġfestivals":9427,"Ġalexandria":9428,"ints":9429,"Ġgand":9430,"Ġshake":9431,"Ġreson":9432,"Ġnavig":9433,"Ġancestors":9434,"Ġvowels":9435,"Ġintermediate":9436,"Ġconstell":9437,"Ġanimation":9438,"Ġcraft":9439,"Ġlatv":9440,"Ġtouchdown":9441,"Ġspokesman":9442,"Ġforget":9443,"Ġmilan":9444,"Ġtelegraph":9445,"Ġarguing":9446,"Ġidentification":9447,"Ġviolin":9448,"Ġmotorcy":9449,"Ġinstrumental":9450,"Ġaccuracy":9451,"nie":9452,"sely":9453,"Ġvig":9454,"Ġsurge":9455,"Ġextensively":9456,"Ġawaren":9457,"Ġkarl":9458,"Ġdeposits":9459,"Ġenabled":9460,"Ġvenezuela":9461,"Ġunw":9462,"Ġethics":9463,"Ġcrossed":9464,"Ġflows":9465,"Ġrobin":9466,"Ġawareness":9467,"Ġencycl":9468,"Ġdischar":9469,"anged":9470,"phony":9471,"Ġoz":9472,"Ġsink":9473,"Ġlying":9474,"Ġpriority":9475,"Ġpalestine":9476,"Ġvenice":9477,"Ġproclaimed":9478,"Ġscope":9479,"Ġpars":9480,"Ġdistances":9481,"Ġlawrence":9482,"Ġcounsel":9483,"Ġeccles":9484,"Ġutah":9485,"Ġvatican":9486,"Ġfisc":9487,"Ġlex":9488,"Ġacted":9489,"Ġgreeks":9490,"Ġcopyright":9491,"Ġsituated":9492,"Ġconsolid":9493,"Ġseas":9494,"dering":9495,"Ġfeelings":9496,"Ġrainfall":9497,"Ġdialogue":9498,"Ġoscill":9499,"Ġcompatible":9500,"arr":9501,"Ġlod":9502,"Ġiso":9503,"ige":9504,"Ġwarming":9505,"Ġpromise":9506,"unciation":9507,"reck":9508,"itter":9509,"Ġkle":9510,"Ġtrek":9511,"Ġexceptions":9512,"Ġscholarship":9513,"Ġcousin":9514,"Ãº":9515,"estone":9516,"Ġclark":9517,"Ġ67":9518,"Ġsodium":9519,"Ġequilib":9520,"hist":9521,"hev":9522,"Ġsikh":9523,"Ġbars":9524,"isations":9525,"Ġsmell":9526,"Ġeuropeans":9527,"math":9528,"Ġnam":9529,"iva":9530,"Ġprest":9531,"Ġentity":9532,"Ġ700":9533,"Ġromanian":9534,"Ġsummit":9535,"Ġprepare":9536,"Ġabolished":9537,"case":9538,"Ġboot":9539,"Ġattitude":9540,"bors":9541,"dd":9542,"Ġward":9543,"Ġhera":9544,"Ġdrone":9545,"Ġmarvel":9546,"Ġregiment":9547,"Ġartif":9548,"Ġimmigr":9549,"Ġimprovement":9550,"Ġcounterpart":9551,"Ġmembrane":9552,"Ġdatabase":9553,"Ġamateur":9554,"Ġrick":9555,"aboo":9556,"Ġconspir":9557,"Ġaristotle":9558,"Ġplasma":9559,"olics":9560,"irts":9561,"aco":9562,"Ġbattal":9563,"Ġseized":9564,"Ġneur":9565,"Ġpresidents":9566,"iov":9567,"thetic":9568,"Ġnad":9569,"Ġbike":9570,"Ġdigit":9571,"Ġcommissioner":9572,"Ġnicar":9573,"Ġschedule":9574,"Ġgentle":9575,"Ġharsh":9576,"Ġprox":9577,"Ġkay":9578,"oca":9579,"Ġmuscle":9580,"Ġpretend":9581,"Ġterrorism":9582,"Ġdismissed":9583,"osystem":9584,"Ġ00":9585,"Ġhamm":9586,"ista":9587,"Ġtransact":9588,"Ġclimb":9589,"Ġachievement":9590,"Ġpromoting":9591,"Ġavenue":9592,"Ġvern":9593,"Ġdestination":9594,"Ġilleg":9595,"Ġshifted":9596,"encing":9597,"Ġnationalist":9598,"Ġfilmed":9599,"Ġ87":9600,"Ġharold":9601,"Ġconsiderably":9602,"Ġtransformed":9603,"Ġorientation":9604,"Ġalabama":9605,"Ġsket":9606,"Ġ1911":9607,"Ġaugustus":9608,"Ġcartoon":9609,"lah":9610,"Ġpour":9611,"Ġhex":9612,"Ġmetro":9613,"Ġauto":9614,"Ġskill":9615,"Ġproposals":9616,"Ġsophistic":9617,"Ġanglican":9618,"Ġsanskrit":9619,"Ġmanhattan":9620,"Ġbald":9621,"Ġforcing":9622,"Ġkg":9623,"osaurus":9624,"Ġplates":9625,"Ġgraduated":9626,"Ġsurprised":9627,"Ġdivorce":9628,"wald":9629,"Ġcher":9630,"owed":9631,"Ġclergy":9632,"Ġinduct":9633,"Ġhud":9634,"Ġjoining":9635,"Ġ1913":9636,"oids":9637,"Ġwis":9638,"Ġdum":9639,"ods":9640,"Ġworker":9641,"Ġfloren":9642,"Ġthrust":9643,"Ġretreat":9644,"Ġmartial":9645,"Ġbalk":9646,"Ġguer":9647,"Ġgluc":9648,"Ġprofile":9649,"Ġtopic":9650,"34":9651,"gate":9652,"star":9653,"aux":9654,"obi":9655,"Ġenvironments":9656,"Ġuniforms":9657,"Ġadvocates":9658,"Ġchallenged":9659,"ovakia":9660,"odia":9661,"Ġabu":9662,"Ġcentered":9663,"Ġeucl":9664,"Ġcomplement":9665,"Ġlasting":9666,"Ġeveryday":9667,"Ġgrandfather":9668,"she":9669,"yll":9670,"Ġsessions":9671,"Ġabbre":9672,"Ġdioc":9673,"Ġorbital":9674,"Ã¸":9675,"Ġcapabilities":9676,"Ġ78":9677,"Ã©s":9678,"Ġacceptance":9679,"Ġticket":9680,"Ġmerchant":9681,"Ġaired":9682,"Ġhut":9683,"Ġgosh":9684,"Ġenlight":9685,"Ġinterst":9686,"Ġclosing":9687,"39":9688,"Ġmild":9689,"erman":9690,"Ġdefended":9691,"Ġsupplied":9692,"Ġprocessor":9693,"Ġcatholics":9694,"Ġjournalist":9695,"Ġartifact":9696,"Ġlud":9697,"Ġkl":9698,"Ġsectors":9699,"Ġ59":9700,"ieth":9701,"Ġinterc":9702,"Ġbanana":9703,"Ġphoto":9704,"Ġgif":9705,"Ġkenn":9706,"Ġspecim":9707,"Ġgeographic":9708,"Ġharbor":9709,"Ġlessons":9710,"Ġengage":9711,"Ġ1916":9712,"Ġhoping":9713,"Ġnavigation":9714,"die":9715,"Ġbog":9716,"Ġweigh":9717,"ostic":9718,"Ġconfused":9719,"Ġalternate":9720,"Ġcarefully":9721,"Ġexcellent":9722,"rators":9723,"Ġentrance":9724,"div":9725,"raid":9726,"ghai":9727,"erences":9728,"Ġskull":9729,"Ġvisits":9730,"Ġfruits":9731,"Ġinhabited":9732,"Ġpatriarch":9733,"Ġhemisp":9734,"Ġsli":9735,"Ġproud":9736,"Ġfarmer":9737,"Ġepid":9738,"Ġwedding":9739,"Ġoxidation":9740,"onsored":9741,"Ġpeekaboo":9742,"atra":9743,"itary":9744,"Ġlac":9745,"Ġgur":9746,"Ġarsen":9747,"Ġentities":9748,"Ġore":9749,"Ġbutt":9750,"Ġinsisted":9751,"Ġimproving":9752,"Ġsuffer":9753,"Ġprompted":9754,"rous":9755,"Ġtales":9756,"Ġcn":9757,"Ġmp":9758,"Ġnash":9759,"Ġ62":9760,"Ġadvances":9761,"Ġempir":9762,"Ġcute":9763,"Ġloved":9764,"Ġdifferently":9765,"Ġrequested":9766,"Ġreceives":9767,"Ġaltitude":9768,"Ġdisappear":9769,"Ġtack":9770,"Ġunic":9771,"Ġleap":9772,"Ġbour":9773,"Ġruth":9774,"Ġammon":9775,"Ġfacts":9776,"Ġnervous":9777,"gun":9778,"Ġfoster":9779,"conn":9780,"Ġcongressional":9781,"Ġsuddenly":9782,"Ġstroke":9783,"Ġreliable":9784,"Ġsubmitted":9785,"aneous":9786,"Ġcelebration":9787,"Ġslavic":9788,"Ġcrucial":9789,"xx":9790,"Ġguidelines":9791,"Ġinternationally":9792,"Ġequator":9793,"Ġprohibited":9794,"Ġdelayed":9795,"Ġpengu":9796,"awn":9797,"Ġevident":9798,"Ġsacrament":9799,"Ġgordon":9800,"vens":9801,"Ġcheap":9802,"Ġtrium":9803,"Ġfragment":9804,"Ġdinosaurs":9805,"Ġhurricane":9806,"Ġdoo":9807,"Ġtrace":9808,"Ġedited":9809,"Ġ165":9810,"Ġcraw":9811,"Ġignored":9812,"Ġknights":9813,"fa":9814,"Ġabc":9815,"Ġbugs":9816,"Ġputin":9817,"Ġ1926":9818,"Ġfabric":9819,"Ġontario":9820,"Ġmeteor":9821,"bus":9822,"tr":9823,"Ġtyr":9824,"Ġinch":9825,"elson":9826,"Ġjos":9827,"pler":9828,"Ġdetected":9829,"Ġsuggesting":9830,"Ġdisappeared":9831,"Ġinsects":9832,"Ġcomprehensive":9833,"jab":9834,"etery":9835,"enda":9836,"Ġrestore":9837,"Ġindicating":9838,"Ġobserver":9839,"Ġcolumbus":9840,"Ġcemetery":9841,"Ġbaker":9842,"Ġmanchester":9843,"Ġguid":9844,"Ġposted":9845,"Ġpoorly":9846,"..":9847,"acles":9848,"Ġhunter":9849,"Ġinformed":9850,"Ġ1880":9851,"Ġexcited":9852,"Ġbridges":9853,"Ġtale":9854,"hew":9855,"Ġfm":9856,"ilst":9857,"Ġconfusion":9858,"Ġsmallest":9859,"Ġcircles":9860,"Ġmissed":9861,"Ġcommitment":9862,"vised":9863,"Ġcontra":9864,"Ġmemor":9865,"Ġconform":9866,"Ġsuspected":9867,"Ġterrorist":9868,"Ġequilibrium":9869,"nings":9870,"Ġbip":9871,"Ġreef":9872,"Ġwhites":9873,"Ġunions":9874,"uda":9875,"Ġenz":9876,"Ġnorse":9877,"Ġroberts":9878,"Ġabbrev":9879,"iates":9880,"Ġbou":9881,"esian":9882,"Ġpriests":9883,"Ġ1860":9884,"Ġdissolved":9885,"Ġsisters":9886,"Ġconce":9887,"Ġmini":9888,"Ġsurviv":9889,"based":9890,"Ġoath":9891,"Ġlag":9892,"Ġaffir":9893,"Ġautomob":9894,"hd":9895,"Ġstol":9896,"Ġpolitically":9897,"Ġconservatives":9898,"Ġconventions":9899,"Ġendangered":9900,"gel":9901,"ashes":9902,"estyle":9903,"Ġleo":9904,"ĠâĤ":9905,"Ġguards":9906,"Ġ1905":9907,"Ġnutrition":9908,"Äĩ":9909,"Ġsack":9910,"Ġmant":9911,"ether":9912,"Ġplains":9913,"Ġbeneath":9914,"Ġhack":9915,"Ġschem":9916,"Ġquoted":9917,"Ġdiag":9918,"Ġ1915":9919,"world":9920,"Î±":9921,"inks":9922,"Ġfrequencies":9923,"Ġjen":9924,"Ġleone":9925,"Ġ155":9926,"Ġ98":9927,"Ġcommercially":9928,"Ġremoving":9929,"Ġafraid":9930,"Ġnobody":9931,"Ġ72":9932,"Ġdisplays":9933,"Ġpackage":9934,"Ġkazakh":9935,"Ġpomp":9936,"Ġcompression":9937,"Ġdevelopers":9938,"Ġpersist":9939,"aware":9940,"amma":9941,"Ġhend":9942,"Ġbullet":9943,"eda":9944,"Ġecl":9945,"Ġspar":9946,"Ġcoined":9947,"Ġmeasuring":9948,"Ġukrainian":9949,"Ġresur":9950,"pling":9951,"Ġceo":9952,"Ġembed":9953,"Ġembass":9954,"62":9955,"aver":9956,"run":9957,"Ġlomb":9958,"Ġarithm":9959,"Ġplug":9960,"Ġmanual":9961,"Ġamino":9962,"leum":9963,"Ġforty":9964,"anted":9965,"Ġpassion":9966,"Ġaustin":9967,"Ġstrikes":9968,"Ġstraw":9969,"Ġheating":9970,"Ġassassination":9971,"Ġliz":9972,"Ġthrew":9973,"stairs":9974,"Ġoverth":9975,"Ġchest":9976,"Ġblacks":9977,"Ġpreparation":9978,"Ġhabitat":9979,"fri":9980,"je":9981,"Ġrio":9982,"Ġunst":9983,"Ġthereafter":9984,"Ġsystematic":9985,"Ġecosystem":9986,"Ġcompromise":9987,"31":9988,"Ġrelax":9989,"Ġviewers":9990,"Ġapplies":9991,"Ġbangladesh":9992,"Ġnag":9993,"Ġcommons":9994,"books":9995,"Ġorchest":9996,"maker":9997,"Ġsib":9998,"Ġhes":9999,"ountered":10000,"Ġearl":10001,"Ġencountered":10002,"Ġcardinals":10003,"Ġtin":10004,"rooms":10005,"Ġkan":10006,"Ġnumer":10007,"affe":10008,"Ġwithdrawal":10009,"Ġlav":10010,"Ġsponsored":10011,"Ġinfl":10012,"Ġaffair":10013,"Ġpromotion":10014,"Ġpuppy":10015,"Ġliked":10016,"Ġunsuccessful":10017,"Ġgravitational":10018,"iler":10019,"Ġevac":10020,"Ġdrove":10021,"Ġappointment":10022,"Ġtelecommunications":10023,"cod":10024,"leton":10025,"ulus":10026,"Ġperu":10027,"Ġrecycl":10028,"Ġcarriers":10029,"Ġadds":10030,"Ġtopics":10031,"Ġsocialism":10032,"Ġconfirm":10033,"Ġrico":10034,"Ġtemporarily":10035,"lings":10036,"Ġforum":10037,"Ġfiring":10038,"Ġpresby":10039,"Ġdecis":10040,"Ġsigning":10041,"Ġmultiplic":10042,"Ġcondemned":10043,"Ġarithmetic":10044,"alus":10045,"icing":10046,"ppers":10047,"apolis":10048,"ipel":10049,"Ġadhe":10050,"Ġcarries":10051,"Ġundergrad":10052,"Ġfloating":10053,"Ġcomposers":10054,"Ġprefix":10055,"boy":10056,"omon":10057,"Ġrna":10058,"ulates":10059,"kyo":10060,"Ġathletic":10061,"Ġlicensed":10062,"pool":10063,"Ġconcentrations":10064,"Ġtensions":10065,"Ġcentres":10066,"Ġsenators":10067,"Ġcreatures":10068,"Ġbuddha":10069,"lock":10070,"Ġtables":10071,"Ġdot":10072,"Ġspy":10073,"Ġphill":10074,"Ġgeographical":10075,"Ġclement":10076,"Ġcandy":10077,"Ġfifa":10078,"Ġdimin":10079,"Ġautonomy":10080,"Ġrifle":10081,"Ġproportional":10082,"Ġtension":10083,"Ġrecall":10084,"Ġethical":10085,"Ġmcdonald":10086,"Ġbrazilian":10087,"yers":10088,"Ġphysically":10089,"Ġintroduce":10090,"Ġgrandma":10091,"atem":10092,"agger":10093,"Ġguests":10094,"Ġaudiences":10095,"Ġcruz":10096,"Ġcorrespondence":10097,"Ġrelativity":10098,"gent":10099,"ht":10100,"oan":10101,"rea":10102,"Ġsignature":10103,"Ġdifferential":10104,"Ġcolonel":10105,"Ġinnocent":10106,"Ġtent":10107,"icut":10108,"Ġsteady":10109,"Ġcomparative":10110,"Ġtries":10111,"atin":10112,"amas":10113,"osa":10114,"Ġintercept":10115,"Ġrocky":10116,"Ġimplies":10117,"Ġdramatically":10118,"Ġisolation":10119,"Ġhelicopter":10120,"Ġsulfur":10121,"Ġchess":10122,"ifier":10123,"Ġgenome":10124,"Ġobsc":10125,"helm":10126,"Ġvolunt":10127,"Ġshanghai":10128,"Ġchancellor":10129,"flow":10130,"Ġfires":10131,"Ġgem":10132,"Ġpatrick":10133,"Ġpersonally":10134,"Ġperiodic":10135,"Ġaims":10136,"Ġopposing":10137,"Ġcoordinates":10138,"Ġgolf":10139,"eton":10140,"achment":10141,"Ġserial":10142,"Ġaccus":10143,"Ġdefining":10144,"Ġaltered":10145,"Ġinequ":10146,"Ġsyndrome":10147,"oro":10148,"Ġster":10149,"Ġoutcome":10150,"Ġupset":10151,"Ġantonio":10152,"wan":10153,"Ġml":10154,"Ġmonte":10155,"Ġaffects":10156,"Ġyugoslavia":10157,"41":10158,"Ġimports":10159,"Ġmanuscripts":10160,"Ġwhilst":10161,"Ġcolleagues":10162,"Ġdeparture":10163,"Ġhelium":10164,"Ġpetroleum":10165,"Ġsemin":10166,"Ġmelting":10167,"Ġhouseholds":10168,"Ġcriteria":10169,"Ġnevada":10170,"Ġlil":10171,"Ġfever":10172,"Ġarchipel":10173,"Ġserbia":10174,"Ġshots":10175,"Ġbloom":10176,"Ġacou":10177,"Ġoklah":10178,"Ġ79":10179,"Ġdisappo":10180,"Ġtonight":10181,"Ġbaptist":10182,"Ġneighborhoods":10183,"Ġwy":10184,"otte":10185,"Ġrating":10186,"Ġninth":10187,"Ġfeels":10188,"Ġautumn":10189,"Ġcrying":10190,"Ġcereal":10191,"Ġskept":10192,"Ġescaped":10193,"Ġambassador":10194,"Ġsizes":10195,"Ġdos":10196,"Ġunre":10197,"Ġaftermath":10198,"Ġassert":10199,"Ġcalvin":10200,"Ġfriedrich":10201,"Ġsut":10202,"omed":10203,"Ġplato":10204,"feld":10205,"zh":10206,"Ġfart":10207,"arus":10208,"asi":10209,"Ġgrades":10210,"Ġovers":10211,"Ġrhine":10212,"Ġjonathan":10213,"Ġdil":10214,"okes":10215,"Ġimpression":10216,"Ġmasses":10217,"Ġdetermining":10218,"Ġquestioned":10219,"Ġencyclop":10220,"Ġroc":10221,"actic":10222,"Ġprimitive":10223,"Ġexamined":10224,"Ġfastest":10225,"Ġbulgaria":10226,"Ġsony":10227,"Ġtokyo":10228,"Ġplacing":10229,"Ġmarath":10230,"arest":10231,"Ġpopulated":10232,"Ġeaten":10233,"Ġfraud":10234,"Ġseverely":10235,"Ġaristoc":10236,"Ġpublisher":10237,"iii":10238,"Ġsemicon":10239,"Ġtennis":10240,"namese":10241,"Ġwages":10242,"isons":10243,"Ġnik":10244,"Ġabbey":10245,"Ġnewer":10246,"Ġsoap":10247,"Ġelephants":10248,"Ġcalcium":10249,"Ġisotopes":10250,"300":10251,"42":10252,"leys":10253,"Ġstops":10254,"Ġtours":10255,"Ġdiscussions":10256,"Ġcommented":10257,"Ġtrigger":10258,"Ġblanket":10259,"mun":10260,"unct":10261,"Ġreli":10262,"sels":10263,"Ġ88":10264,"Ġboxes":10265,"Ġinterference":10266,"Ġhorizontal":10267,"rising":10268,"Ġwra":10269,"Ġrhet":10270,"Ġshark":10271,"Ġengag":10272,"Ġgrave":10273,"Ġburg":10274,"Ġvietnamese":10275,"Ġlenin":10276,"Ġgon":10277,"Ġconve":10278,"osc":10279,"Ġtranspa":10280,"Ġdesigner":10281,"Ġtechnological":10282,"Ġvii":10283,"Ġ1908":10284,"69":10285,"Ġfi":10286,"Ġattendance":10287,"Ġlan":10288,"Ġmeal":10289,"group":10290,"Ġprovisions":10291,"Ġminorities":10292,"Ġmadison":10293,"bourne":10294,"Ġoklahoma":10295,"Ġwrest":10296,"Ġbam":10297,"Ġdale":10298,"Ġgel":10299,"Ġcontrary":10300,"Ġbasil":10301,"Ġrailways":10302,"Ġduchy":10303,"Ġhughes":10304,"Ġbernard":10305,"Ġcc":10306,"Ġfier":10307,"ulin":10308,"Ġkelly":10309,"Ġva":10310,"Ġrecur":10311,"Ġforever":10312,"Ġpracticed":10313,"ĠgÃ¶":10314,"omer":10315,"Ġcaps":10316,"Ġliteracy":10317,"Ġconversation":10318,"Ġdolphins":10319,"Ġscout":10320,"Ġfirms":10321,"Ġfocusing":10322,"Ġwithdrew":10323,"Ġtactics":10324,"Ġvolcanic":10325,"Ġtruly":10326,"sl":10327,"Ġdave":10328,"Ġconsiders":10329,"Ġmotors":10330,"Ġsatan":10331,"Ġmentions":10332,"Ġassessment":10333,"Ġparadox":10334,"escope":10335,"Ġpound":10336,"Ġivory":10337,"Ġpropaganda":10338,"Î¿":10339,"Ġstir":10340,"Ġideology":10341,"Ġpeters":10342,"Ġsilent":10343,"alism":10344,"aser":10345,"Ġviolet":10346,"Ġpoles":10347,"Ġassume":10348,"Ġguatem":10349,"Ġharbour":10350,"lectric":10351,"Ġcircuits":10352,"Ġteaches":10353,"Ġbelongs":10354,"Ġamazon":10355,"Ġswitched":10356,"woman":10357,"oria":10358,"Ġalp":10359,"Ġposts":10360,"Ġconsistently":10361,"Ġarchitectural":10362,"Ġoscar":10363,"aters":10364,"Ġfate":10365,"Ġloren":10366,"Ġpreserv":10367,"Ġextends":10368,"Ġconnecticut":10369,"Ġvlad":10370,"opot":10371,"abul":10372,"Ġnoticed":10373,"Ġiowa":10374,"assic":10375,"Ġmarie":10376,"Ġvalued":10377,"Ġstanford":10378,"top":10379,"Ġcolored":10380,"Ġdivide":10381,"Ġsanct":10382,"Ġpanama":10383,"Ġacquisition":10384,"Ġtelescope":10385,"Ġaest":10386,"aro":10387,"Ġnelson":10388,"ello":10389,"Ġconsent":10390,"Ġcurt":10391,"Ġalbania":10392,"Ġpowder":10393,"Ġfifteen":10394,"Ġeliminated":10395,"dish":10396,"Ġbeef":10397,"Ġcounted":10398,"Ġradius":10399,"Ġversus":10400,"Ġauthorized":10401,"Ġpotato":10402,"Ġvert":10403,"Ġglasses":10404,"Ġmitchell":10405,"ĠâĤ¬":10406,"vid":10407,"rels":10408,"Ġstu":10409,"Ġdisrupt":10410,"Ġsecured":10411,"Ġapproached":10412,"Ġsoviets":10413,"Ġinherent":10414,"Ġdemocrat":10415,"how":10416,"Ġwright":10417,"Ġdirt":10418,"eck":10419,"Ġbrut":10420,"Ġinterse":10421,"Ġknowing":10422,"Ġromance":10423,"Ġdirections":10424,"Ġcrystall":10425,"Ġenhance":10426,"Ġsalvador":10427,"Ġpolynomial":10428,"Ġcapitol":10429,"Ġtus":10430,"Ġreward":10431,"Ġuz":10432,"Ġbohem":10433,"Ġangels":10434,"Ġjudgment":10435,"46":10436,"adi":10437,"Ġintr":10438,"Ġeug":10439,"Ġcapability":10440,"Ġfavored":10441,"Ġsubset":10442,"Ġquarterback":10443,"Ġancestry":10444,"Ġabsorbed":10445,"Ġhispanic":10446,"Ġaids":10447,"Ġciting":10448,"itus":10449,"Ġnord":10450,"Ġgaming":10451,"Ġsaturn":10452,"Ġcelebrate":10453,"Ġgaining":10454,"Ġgathering":10455,"Ġemission":10456,"Ġ1850":10457,"Ġburial":10458,"Ġupdated":10459,"Ġarbitrary":10460,"Ġdakota":10461,"Ġdeals":10462,"Ġkang":10463,"Ġfilming":10464,"Ġassisted":10465,"writer":10466,"Ġvulnerable":10467,"oard":10468,"vals":10469,"Ġhab":10470,"Ġattending":10471,"Ġmilitia":10472,"Ġfactories":10473,"Ġerupt":10474,"hetic":10475,"Ġng":10476,"Ġediting":10477,"Ġautobi":10478,"Ġturtle":10479,"Ġcommentary":10480,"Ġcroatia":10481,"88":10482,"food":10483,"Ġreporting":10484,"Ġexamination":10485,"Ġ1901":10486,"Ġsymbolic":10487,"Ġfriendship":10488,"Ġjumping":10489,"ĠÃ¦":10490,"Ġastronomical":10491,"Ġresidential":10492,"Ġtends":10493,"riages":10494,"Ġinches":10495,"Ġbias":10496,"Ġderives":10497,"Ġdispers":10498,"Ġtorped":10499,"Ġmagazines":10500,"Ġdoubled":10501,"Ġblamed":10502,"Ġtravels":10503,"Ġsolely":10504,"cribed":10505,"Ġ69":10506,"Ġcompetitions":10507,"Ġmurray":10508,"Ġgaza":10509,"held":10510,"oned":10511,"illo":10512,"Ġplague":10513,"iev":10514,"Ġdiscontin":10515,"Ġundergo":10516,"Ġsurren":10517,"Ġattacking":10518,"Ġdominican":10519,"Ġicon":10520,"Ġsicily":10521,"Ġcylinder":10522,"Ġhemisphere":10523,"gence":10524,"Ġbeans":10525,"Ġdear":10526,"Ġscales":10527,"Ġassets":10528,"Ġautomatically":10529,"opotam":10530,"rod":10531,"Ġwhis":10532,"Ġfeared":10533,"Ġstanley":10534,"Ġfossils":10535,"Ġisaac":10536,"Ġoink":10537,"rah":10538,"Ġenable":10539,"Ġmodes":10540,"Ġradioactive":10541,"people":10542,"Ġtalent":10543,"Ġmanufacturer":10544,"Ġinherit":10545,"Ġcollapsed":10546,"Ġig":10547,"Ġtheological":10548,"oni":10549,"Ġanger":10550,"Ġreaches":10551,"aining":10552,"odies":10553,"ogene":10554,"Ġprophet":10555,"Ġanticip":10556,"Ġaccessible":10557,"Ġemergence":10558,"Ġprussia":10559,"Ġevangelical":10560,"Ġartifacts":10561,"isers":10562,"Ġmrs":10563,"ropy":10564,"Ġbrigade":10565,"pm":10566,"Ġmyself":10567,"Ġcrust":10568,"Ġterrible":10569,"sche":10570,"Ġgreenhouse":10571,"Ġillustrated":10572,"Ã¢":10573,"onal":10574,"arms":10575,"ifice":10576,"Ġperpet":10577,"ugg":10578,"Ġnationalism":10579,"anni":10580,"Ġballoon":10581,"Ġsupers":10582,"hor":10583,"Ġbund":10584,"Ġplent":10585,"Ġweren":10586,"Ġfees":10587,"Ġsecre":10588,"Ġbearing":10589,"Ġprecisely":10590,"Ġhampshire":10591,"icting":10592,"Ġdean":10593,"Ġfeather":10594,"Ġprehist":10595,"Ġextending":10596,"Ġecu":10597,"Ġlimitations":10598,"Ġmh":10599,"Ġfilter":10600,"Ġbarrier":10601,"Ġfocuses":10602,"Ġtalked":10603,"Ġcategor":10604,"Ġthirds":10605,"Ġelaborate":10606,"Ġarchipelago":10607,"Ġdop":10608,"Ġemer":10609,"Ġcarth":10610,"Ġmedian":10611,"Ġfragments":10612,"Ġfeeding":10613,"lyn":10614,"Ġdeer":10615,"Ġfeud":10616,"Ġcharity":10617,"Ġdrinks":10618,"Ġarrive":10619,"Ġbadly":10620,"Ġsharks":10621,"criptions":10622,"Ġinterviews":10623,"cus":10624,"Ġhaiti":10625,"Ġcounting":10626,"Ġinterval":10627,"Ġcombust":10628,"Ġgrandpa":10629,"Ġreformation":10630,"Ġcomparable":10631,"Ġdetection":10632,"Ġstrictly":10633,"Ġtreasury":10634,"Ġsophisticated":10635,"Ġ...":10636,"Ġbenn":10637,"Ġsear":10638,"Ġexpelled":10639,"onto":10640,"Ġ110":10641,"Ġceased":10642,"Ġseparately":10643,"Ġthirteen":10644,"Ġduration":10645,"ĠbahÃ¡":10646,"Ġharvest":10647,"Ġlecture":10648,"Ġprospect":10649,"Ġgrid":10650,"Ġloves":10651,"Ġbrings":10652,"Ġactively":10653,"Ġconsumed":10654,"Ġgeneva":10655,"Ġinnovation":10656,"Ġlithuanian":10657,"Ġpizza":10658,"Ġmate":10659,"Ġpride":10660,"Ġstrat":10661,"Ġaccounting":10662,"Ġdemonstrate":10663,"Ġtubes":10664,"Ġexplosion":10665,"Ġsquadron":10666,"Ġnineteenth":10667,"abulary":10668,"orian":10669,"Ġunrest":10670,"Ġinfected":10671,"Ġarabs":10672,"Ġpayment":10673,"Ġlawsuit":10674,"Ġtwentieth":10675,"inery":10676,"Ġdys":10677,"Ġyam":10678,"Ġdestro":10679,"Ġwilhelm":10680,"Ġkenya":10681,"Ġghana":10682,"Ġpronunciation":10683,"Ġpursue":10684,"Ġremembered":10685,"nt":10686,"ico":10687,"ician":10688,"imony":10689,"Ġrally":10690,"Ġalice":10691,"Ġbillboard":10692,"ttes":10693,"Ġcontracts":10694,"Ġbuffalo":10695,"gement":10696,"Ġcolum":10697,"Ġrealm":10698,"Ġneighbors":10699,"Ġsurprising":10700,"heimer":10701,"Ġeagle":10702,"Ġmeals":10703,"Ġreluct":10704,"Ġmosque":10705,"gart":10706,"Ġbart":10707,"Ġfence":10708,"Ġstyl":10709,"Ġkash":10710,"Ġdonated":10711,"Ġcampbell":10712,"Ġcapitalism":10713,"Ġmonastery":10714,"Ġcasualties":10715,"nas":10716,"Ġowns":10717,"Ġdiesel":10718,"Ġgauge":10719,"Ġmack":10720,"asp":10721,"Ġemail":10722,"Ġorganisations":10723,"Ġmonthly":10724,"Ġcoordinate":10725,"Ġcluster":10726,"Ġbik":10727,"pton":10728,"Ġterrain":10729,"Ġavailability":10730,"Ġlinux":10731,"Ġcongo":10732,"Ġseaw":10733,"Ġtwe":10734,"Ġwinners":10735,"Ġlacked":10736,"Ġcharlie":10737,"Ġhelicopters":10738,"Ġnm":10739,"Ġspots":10740,"Ġadequ":10741,"Ġbio":10742,"Ġkel":10743,"Ġmaine":10744,"âĢĶ":10745,"Ġvitamin":10746,"Ġnurse":10747,"Ġfiber":10748,"Ġvag":10749,"Ġarn":10750,"Ġtraits":10751,"Ġprotecting":10752,"Ġexpressions":10753,"Ġprevention":10754,"Ġspreading":10755,"Ġbelonging":10756,"Ġterminology":10757,"Ġsuburbs":10758,"Ġavoided":10759,"Ġorgans":10760,"ski":10761,"Ġdiaper":10762,"Ġmoments":10763,"tered":10764,"à¦":10765,"Ġfet":10766,"Ġgamma":10767,"Ġdism":10768,"Ġgenres":10769,"Ġwells":10770,"Ġorganism":10771,"Ġsnap":10772,"Ġsynthetic":10773,"Ġintegers":10774,"ourage":10775,"Ġclaud":10776,"Ġmortality":10777,"Ġvolunteer":10778,"Ġrenewed":10779,"Ġdenomination":10780,"hop":10781,"aca":10782,"Ġintensity":10783,"Ġphases":10784,"Ġgovernors":10785,"Ġdolly":10786,"Ġbanking":10787,"Ġmunich":10788,"Ġpace":10789,"Ġamster":10790,"Ġbrows":10791,"Ġhumid":10792,"Ġvictim":10793,"Ġiraqi":10794,"Ġcs":10795,"Ġding":10796,"Ġovercome":10797,"Ġremind":10798,"Ġchoices":10799,"Ġgalile":10800,"Ġmerchants":10801,"Ġtoll":10802,"Ġadject":10803,"Ġnumbered":10804,"Ġterrestrial":10805,"Ġaddresses":10806,"Ġconvicted":10807,"Ġaggressive":10808,"Ġlibya":10809,"Ġstolen":10810,"mother":10811,"Ġinland":10812,"Ġexter":10813,"Ġpee":10814,"boys":10815,"Ġtreaties":10816,"Ġfrozen":10817,"Ġderivative":10818,"Ġbengal":10819,"mud":10820,"onium":10821,"Ġinverse":10822,"Ġbatman":10823,"Ġdetermin":10824,"regular":10825,"Ġvenus":10826,"Ġtickle":10827,"Ġmunicipality":10828,"Ġshells":10829,"Ġportrait":10830,"Ġtear":10831,"Ġcement":10832,"Ġlighter":10833,"Ġunderwater":10834,"Ġlawyers":10835,"Ġmickey":10836,"track":10837,"oop":10838,"Ġmask":10839,"Ġthai":10840,"Ġnba":10841,"Ġyemen":10842,"Ġwhist":10843,"estock":10844,"Ġleagues":10845,"Ġsheet":10846,"Ġtransist":10847,"Ġantar":10848,"Ġassembled":10849,"Ġshuttle":10850,"Ġamsterdam":10851,"uch":10852,"Ġmakers":10853,"umen":10854,"agua":10855,"oker":10856,"Ġnova":10857,"Ġinfra":10858,"Ġdiagnosis":10859,"Ġmonitoring":10860,"Ġdreams":10861,"Ġnickname":10862,"Ġenzymes":10863,"imm":10864,"Ġsubdiv":10865,"Ġputs":10866,"Ġprototype":10867,"Ġanthem":10868,"Ġcombining":10869,"Ġreduces":10870,"Ġjulius":10871,"Ġadvocated":10872,"Ġkuwa":10873,"Ġgeometric":10874,"Ġlegitimate":10875,"aic":10876,"fted":10877,"jack":10878,"Ġferm":10879,"Ġhann":10880,"Ġridge":10881,"Ġdecomp":10882,"Ġassociations":10883,"Ġpreventing":10884,"Ġtranslations":10885,"Ġenhanced":10886,"Ġboss":10887,"roe":10888,"oded":10889,"Ġresolved":10890,"Ġjerry":10891,"Ġantiquity":10892,"Ġimmigrant":10893,"Ġmason":10894,"Ġjets":10895,"Ġmothers":10896,"Ġmerger":10897,"Ġinert":10898,"Ġjosh":10899,"Ġamid":10900,"Ġreflection":10901,"Ġappeals":10902,"Ġferry":10903,"Ġtill":10904,"Ġgael":10905,"Ġleop":10906,"Ġpersecution":10907,"fficient":10908,"Ġtemples":10909,"Ġfatal":10910,"Ġphotographs":10911,"63":10912,"Ġsr":10913,"Ġry":10914,"anto":10915,"Ġleather":10916,"Ġreporters":10917,"Ġeditors":10918,"Ġcheaper":10919,"Ġmusician":10920,"Ġcannon":10921,"Ġracism":10922,"Ġlesb":10923,"Ġpleasure":10924,"Ġguidance":10925,"hy":10926,"Ġvas":10927,"Ġapples":10928,"Ġuprising":10929,"Ġ1909":10930,"Ġprecision":10931,"Ġastronomy":10932,"Ġpearl":10933,"Ġlutheran":10934,"Ġfertility":10935,"Ġingredients":10936,"power":10937,"Ġhate":10938,"Ġtol":10939,"Ġregulated":10940,"Ġ63":10941,"Ġdenver":10942,"Ġarriving":10943,"Ġtendency":10944,"Ġnickel":10945,"Ġelevation":10946,"Ġneighbouring":10947,"bard":10948,"uting":10949,"Ġrack":10950,"keys":10951,"Ġirr":10952,"Ġcouncils":10953,"Ġallegedly":10954,"Ġdelegates":10955,"Ġattributes":10956,"dr":10957,"pc":10958,"Ġwhig":10959,"Ġnoting":10960,"Ġscrat":10961,"Ġbreed":10962,"Ġabolition":10963,"Ġgy":10964,"adic":10965,"Ġket":10966,"Ġatari":10967,"oyd":10968,"minster":10969,"Ã©t":10970,"Ġbankrupt":10971,"Ġpigs":10972,"Ġemphasized":10973,"Ġbutterfly":10974,"Ġthorough":10975,"Ġpresbyter":10976,"Ġsurrender":10977,"Ġtheolog":10978,"Ġbrick":10979,"lete":10980,"Ġfee":10981,"Ġtoronto":10982,"Ġchapel":10983,"Ġthrowing":10984,"92":10985,"gio":10986,"Ġshops":10987,"Ġbrass":10988,"Ġgrab":10989,"Ġmalay":10990,"Ġprevail":10991,"Ġreformed":10992,"Ġpermanently":10993,"Ġwireless":10994,"Ġinduced":10995,"Ġalgebraic":10996,"95":10997,"Ġtoast":10998,"Ġnode":10999,"oline":11000,"child":11001,"Ġkub":11002,"ripp":11003,"Ġworlds":11004,"Ġinstances":11005,"Ġfrontier":11006,"Ġluxem":11007,"Ġlivestock":11008,"Ġaccomplished":11009,"Ġmetabol":11010,"Ġfiscal":11011,"Ġcaves":11012,"Ġpipe":11013,"otive":11014,"Ġorle":11015,"Ġscoring":11016,"Ġrelied":11017,"issa":11018,"Ġstrait":11019,"Ġsculpture":11020,"aa":11021,"enders":11022,"Ġfeast":11023,"Ġanyway":11024,"Ġstriking":11025,"Ġsettings":11026,"Ġhonorary":11027,"Ġfacto":11028,"Ġmethodist":11029,"Ġgandhi":11030,"Ġink":11031,"Ġalger":11032,"Ġedin":11033,"Ġpractition":11034,"Ġfreely":11035,"Ġinformal":11036,"Ġballot":11037,"Ġtrem":11038,"Ġrebel":11039,"Ġconstantly":11040,"Ġmasters":11041,"Ġscandal":11042,"uz":11043,"Ġá":11044,"Ġnerve":11045,"ahl":11046,"Ġimmune":11047,"Ġdawn":11048,"Ġadvocate":11049,"Ġecuador":11050,"400":11051,"fi":11052,"pat":11053,"rill":11054,"Ġtended":11055,"Ġsap":11056,"Ġclown":11057,"Ġscouts":11058,"Ġthoughts":11059,"Ġirregular":11060,"Ġdrain":11061,"Ġcellular":11062,"Ġbroader":11063,"Ġreveal":11064,"Ġbelonged":11065,"rams":11066,"idae":11067,"Ġmodule":11068,"covered":11069,"Ġcheer":11070,"Ġ97":11071,"Ġreader":11072,"Ġhunters":11073,"Ġmorgan":11074,"Ġactivist":11075,"Ġlung":11076,"Ġcustomer":11077,"Ġgrocer":11078,"Ġorleans":11079,"mus":11080,"Ġwreck":11081,"Ġbent":11082,"Ġasym":11083,"Ġbatteries":11084,"Ġcommunicate":11085,"Ġbubbles":11086,"Ġastronauts":11087,"Äį":11088,"Ġpi":11089,"Ġpine":11090,"imp":11091,"Ġcollins":11092,"Ġ1896":11093,"Ġexplosive":11094,"Ġmend":11095,"Ġanten":11096,"ashing":11097,"ilian":11098,"Ġchry":11099,"Ġemir":11100,"Ġrelating":11101,"Ġkiller":11102,"Ġwallace":11103,"Ġ1906":11104,"Ġprussian":11105,"Ġwagner":11106,"Ġenlighten":11107,"arded":11108,"Ġscared":11109,"Ġ125":11110,"Ġstead":11111,"Ġlabels":11112,"enz":11113,"Ġboeing":11114,"Ġpoets":11115,"Ġportions":11116,"Ġpainter":11117,"Ġfathers":11118,"Ġbreaks":11119,"Ġambig":11120,"Ġnobility":11121,"Ġpreparing":11122,"Ġvoyage":11123,"eries":11124,"kees":11125,"Ġoutstanding":11126,"Ġabsent":11127,"Ġassumption":11128,"Ġaccompany":11129,"Ġphysician":11130,"Ġbuzz":11131,"Ġbrew":11132,"Ġfailing":11133,"Ġplatforms":11134,"ishers":11135,"Ġthrown":11136,"Ġjava":11137,"Ġrefr":11138,"ullah":11139,"Ġantip":11140,"Ġsimilarities":11141,"Ġcease":11142,"Ġbitter":11143,"Ġkitty":11144,"Ġcleaning":11145,"Ġpurely":11146,"Ġmunicipalities":11147,"Ġresignation":11148,"Ġamphib":11149,"Ġlanka":11150,"atar":11151,"Ġfrict":11152,"Ġbees":11153,"Ġstom":11154,"Ġlib":11155,"ilda":11156,"Ġimpressed":11157,"Ġinterven":11158,"Ġheroes":11159,"Ġsubstantially":11160,"Ġcolumns":11161,"care":11162,"Ġabilities":11163,"achi":11164,"Ġbicycle":11165,"Ġtigers":11166,"Ġtes":11167,"Ġturing":11168,"Ġaboard":11169,"Ġstatute":11170,"Ġdiscrete":11171,"Ġepit":11172,"Ġdevil":11173,"Ġdetermination":11174,"Ġfern":11175,"Ġbulg":11176,"Ġquarters":11177,"Ġchambers":11178,"Ġsemit":11179,"Ġarena":11180,"Ġcoaches":11181,"Ġshoulder":11182,"Ġlighting":11183,"Ġtravelled":11184,"Ġprecurs":11185,"Ġjournalists":11186,"Ġdiscoveries":11187,"Ġcpu":11188,"chers":11189,"far":11190,"Ġvil":11191,"Ġresponses":11192,"Ġreflects":11193,"wig":11194,"Ġcole":11195,"Ġapplying":11196,"Ġskilled":11197,"Ġpetition":11198,"Ġearthquakes":11199,"Ġedinburgh":11200,"Ġved":11201,"Ġunexp":11202,"Ġresort":11203,"arettes":11204,"Ġincomp":11205,"othy":11206,"Ġremar":11207,"Ġbackpack":11208,"atories":11209,"Ġ140":11210,"Ġintroducing":11211,"Ġstreams":11212,"Ġ1904":11213,"Ġcollectively":11214,"Ġconfederation":11215,"Ġsacrifice":11216,"Ġbacon":11217,"Ġreservoir":11218,"Ġenacted":11219,"Ġenlightenment":11220,"dale":11221,"mund":11222,"Ġtram":11223,"ouses":11224,"oxide":11225,"Ġpunjab":11226,"Ġcontributing":11227,"isa":11228,"Ġvanc":11229,"Ġpoore":11230,"Ġunderw":11231,"Ġdecree":11232,"Ġopenly":11233,"Ġtopology":11234,"Ġhellen":11235,"Ġpredecessor":11236,"Ġherald":11237,"Ġchurchill":11238,"iscop":11239,"atch":11240,"itated":11241,"Ġgains":11242,"Ġtrash":11243,"owned":11244,"Ġacres":11245,"Ġinstant":11246,"Ġblocked":11247,"Ġprivacy":11248,"Ġmoses":11249,"Ġancestor":11250,"Ġkosovo":11251,"Ġflorence":11252,"Ġinfrared":11253,"Ġune":11254,"Ġpartition":11255,"Ġscattered":11256,"Ġimprisoned":11257,"Ġembedded":11258,"eu":11259,"thood":11260,"idean":11261,"Ġdemographic":11262,"Ġnazis":11263,"Ġrefugee":11264,"Ġwick":11265,"Ġfou":11266,"ouver":11267,"ochem":11268,"Ġaccounted":11269,"Ġclimbing":11270,"Ġplateau":11271,"Ġphysicist":11272,"Ġventure":11273,"Ġanxiety":11274,"yon":11275,"rer":11276,"Ġyout":11277,"Ġconfront":11278,"Ġdemol":11279,"Ġsubmarines":11280,"Ġeagles":11281,"Ġabundant":11282,"Ġpreservation":11283,"Ġbout":11284,"Ġonwards":11285,"Ġitem":11286,"Ġcompiled":11287,"Ġconstitute":11288,"Ġsynchron":11289,"Ġmacro":11290,"Ġcorresponds":11291,"Ġrefriger":11292,"oning":11293,"Ġnope":11294,"Ġumb":11295,"semble":11296,"Ġpean":11297,"Ġserge":11298,"Ġinsight":11299,"Ġxen":11300,"Ġangles":11301,"osphere":11302,"Ġparker":11303,"Ġnights":11304,"Ġhallow":11305,"yard":11306,"anim":11307,"Ġspat":11308,"Ġcruise":11309,"Ġutility":11310,"Ġaux":11311,"iating":11312,"reen":11313,"Ġpam":11314,"Ġmig":11315,"Ġlub":11316,"Ġspill":11317,"Ġmobil":11318,"Ġqualities":11319,"Ġsprings":11320,"burn":11321,"Ġsized":11322,"isan":11323,"anges":11324,"Ġquit":11325,"Ġcran":11326,"Ġtransported":11327,"Ġchiefs":11328,"Ġ1898":11329,"Ġconstantine":11330,"Ġsally":11331,"Ġwipe":11332,"Ġmorm":11333,"Ġnsa":11334,"Ġgut":11335,"oths":11336,"Ġconcerts":11337,"Ġwoods":11338,"comes":11339,"Ġguardian":11340,"Ġdh":11341,"Ġtraced":11342,"Ġparish":11343,"Ġ61":11344,"Ġreadily":11345,"Ġcyber":11346,"Ġadvantages":11347,"Ġinterpretations":11348,"Ġbaptism":11349,"Ġreconstruct":11350,"Ġarkansas":11351,"Ġdwarf":11352,"43":11353,"Ġmd":11354,"boards":11355,"Ġmicroscop":11356,"Ġacceptable":11357,"Ġplanetary":11358,"Ġstretch":11359,"Ġeliminate":11360,"Ġmonopoly":11361,"Ġwikip":11362,"Ġpact":11363,"Ġairline":11364,"Ġpatrol":11365,"Ġyoungest":11366,"Ġdrawings":11367,"Ġcreator":11368,"Ġsubscrib":11369,"Ġnicholas":11370,"atural":11371,"Ġconclus":11372,"Ġvocabulary":11373,"Ġadventures":11374,"Ġsiber":11375,"Ġinver":11376,"Ġtwitter":11377,"Ġ157":11378,"bek":11379,"Ġ1830":11380,"Ġcarlos":11381,"Ġchaos":11382,"vet":11383,"Ġuc":11384,"Ġally":11385,"Ġiber":11386,"Ġchallenging":11387,"oppy":11388,"Ġstorms":11389,"Ġlectures":11390,"Ġoverwhelming":11391,"Ġsurpass":11392,"Ġbelieving":11393,"tax":11394,"Ġconsideration":11395,"naments":11396,"Ġimagine":11397,"Ġvancouver":11398,"Ġcf":11399,"Ġmice":11400,"Ġgust":11401,"Ġincidents":11402,"Ġrevision":11403,"Ġgreenland":11404,"Ġmontana":11405,"Ġnephew":11406,"Ġbrussels":11407,"Ġundergraduate":11408,"Ġtenth":11409,"Ġfission":11410,"Ġsto":11411,"Ġexempt":11412,"Ġblade":11413,"Ġtraged":11414,"Ġswift":11415,"Ġmodest":11416,"Ġsnack":11417,"Ġreactor":11418,"Ġquran":11419,"Ġobservers":11420,"Ġcharts":11421,"Ġjurisdictions":11422,"Ġqueens":11423,"Ġjamaica":11424,"Ġsne":11425,"Ġhiv":11426,"Ġclassroom":11427,"Ġholland":11428,"Ġcoding":11429,"Ġoccasional":11430,"oque":11431,"Ġease":11432,"ctive":11433,"Ġsegreg":11434,"ounced":11435,"Ġpresentation":11436,"Ġpolymer":11437,"Ġparticipating":11438,"Ġmotorcycle":11439,"Ġrous":11440,"Ġenrolled":11441,"Ġcoven":11442,"Ġedges":11443,"Ġartic":11444,"Ġviii":11445,"Ġepiscop":11446,"Ġtreasure":11447,"Ġaccordance":11448,"Ġyoutube":11449,"ÅĦ":11450,"Ġht":11451,"Ġgarc":11452,"Ġcler":11453,"Ġpeer":11454,"ilding":11455,"zyme":11456,"Ġarmenian":11457,"atis":11458,"Ġgum":11459,"Ġvapor":11460,"Ġreserved":11461,"ificate":11462,"Ġzinc":11463,"Ġsolomon":11464,"Ġprocessors":11465,"Ġfortress":11466,"Ġrecruit":11467,"Ã°":11468,"orious":11469,"ocy":11470,"Ġdiscl":11471,"hedron":11472,"Ġzimb":11473,"Ġwatson":11474,"Ġpredators":11475,"Ġresistant":11476,"Ġreflecting":11477,"Ġstrategies":11478,"Ġtrends":11479,"Ã£":11480,"Ġthunder":11481,"olving":11482,"Ġposthum":11483,"Ġlistening":11484,"Ġheavier":11485,"Ġpointing":11486,"Ġellip":11487,"Ġliverpool":11488,"strong":11489,"Ġecclesiast":11490,"onn":11491,"Ġheated":11492,"acular":11493,"illance":11494,"grade":11495,"Ġcommunism":11496,"Ġmarky":11497,"Ġcrazy":11498,"Ġhamas":11499,"Ġvoices":11500,"Ġdeadly":11501,"Ġexcessive":11502,"Ġtetra":11503,"zi":11504,"Ġpm":11505,"Ġspray":11506,"Ġboards":11507,"Ġexpense":11508,"Ġfoundations":11509,"Ġtreatments":11510,"Ġpete":11511,"Ġnicaragua":11512,"Ġunexpected":11513,"bled":11514,"Ġsadd":11515,"Ġlane":11516,"Ġpose":11517,"haus":11518,"Ġraj":11519,"holm":11520,"Ġqualified":11521,"Ġshelter":11522,"gb":11523,"iological":11524,"Ġaj":11525,"Ġbord":11526,"Ġrounds":11527,"ppe":11528,"ogan":11529,"Ġclap":11530,"Ġmonks":11531,"Ġretro":11532,"Ġwayne":11533,"Ġsnakes":11534,"Ġ1840":11535,"Ġparameters":11536,"ographers":11537,"Ġwidth":11538,"Ġprofessionals":11539,"inum":11540,"Ġlor":11541,"Ġisle":11542,"Ġmood":11543,"abwe":11544,"ppy":11545,"arer":11546,"otherap":11547,"Ġdeterior":11548,"Ġ135":11549,"Ġidentifying":11550,"Ġborough":11551,"Ġultra":11552,"Ġcredits":11553,"Ġfitted":11554,"Ġcorporations":11555,"iji":11556,"Ġquebec":11557,"Ġtotally":11558,"Ġluxembourg":11559,"Ġwart":11560,"Ġpanc":11561,"isible":11562,"ght":11563,"Ġsox":11564,"Ġblu":11565,"Ġmuscles":11566,"Ġhelm":11567,"Ġpatriots":11568,"Ġdefinitely":11569,"Ġeuclidean":11570,"icia":11571,"ader":11572,"Ġgenoc":11573,"Ġcounts":11574,"Ġgeological":11575,"Ġeffectiveness":11576,"Ġgotten":11577,"Ġcirculation":11578,"Ġ1903":11579,"Ġsymphony":11580,"Ġintelligent":11581,"Ġcrystals":11582,"Ġconspiracy":11583,"97":11584,"eo":11585,"cht":11586,"Ġaggreg":11587,"Ġmemoir":11588,"Ġcorrupt":11589,"Ġnorthwestern":11590,"Ġbats":11591,"Ġprocessed":11592,"ylum":11593,"Ġmccl":11594,"Ġrifles":11595,"Ġnouns":11596,"Ġhierarchy":11597,"Ġprecipitation":11598,"Ġcombustion":11599,"Ġzimbabwe":11600,"elle":11601,"Ġrecession":11602,"iley":11603,"Ġmao":11604,"Ġsleepy":11605,"Ġcooling":11606,"Ġpioneer":11607,"orate":11608,"Ġyang":11609,"Ġunix":11610,"Ġlean":11611,"Ġstrang":11612,"Ġeconomies":11613,"Ġazerb":11614,"Ġallegations":11615,"Ġsits":11616,"Ġdair":11617,"Ġamp":11618,"icking":11619,"Ġdefault":11620,"Ġstewart":11621,"Ġraids":11622,"Ġcomprises":11623,"Ġcontrolling":11624,"Ġmassacre":11625,"Ġrevelation":11626,"Ġazerbai":11627,"61":11628,"eg":11629,"mn":11630,"Ġgren":11631,"ulk":11632,"Ġconceived":11633,"Ġherb":11634,"Ġharris":11635,"Ġcombine":11636,"Ġ1907":11637,"ÃŃa":11638,"Ġprisoner":11639,"Ġowing":11640,"Ġtribut":11641,"Ġthumb":11642,"Ġyale":11643,"Ġyummy":11644,"Ġaspir":11645,"Ġsteep":11646,"Ġsuffix":11647,"Ġwitnesses":11648,"Ġtowers":11649,"Ġanswers":11650,"Ġconstellation":11651,"Ġhabs":11652,"Ġgram":11653,"Ġsentences":11654,"Ġcalculations":11655,"ogenic":11656,"Ġfinals":11657,"ups":11658,"Ġantis":11659,"Ġexplored":11660,"Ġstruggled":11661,"Ġcouples":11662,"Ġbomber":11663,"Ġacoustic":11664,"Ġeugene":11665,"Ġtoes":11666,"Ġreed":11667,"Ġbeaches":11668,"ifiers":11669,"Ġcommanded":11670,"Ġbarbara":11671,"Ġsurveillance":11672,"Ġknife":11673,"Ġeligible":11674,"Ġirre":11675,"lected":11676,"Ġcycles":11677,"Ġincorrect":11678,"Ġstruggling":11679,"Ġyoga":11680,"!\"":11681,"orf":11682,"Ġnem":11683,"Ġperipher":11684,"Ġconfident":11685,"ĠÎ±":11686,"Ġwebsites":11687,"Ġexplorer":11688,"Ġforbidden":11689,"Ġgilbert":11690,"98":11691,"Ġlenn":11692,"iry":11693,"Ġchin":11694,"Ġuncon":11695,"Ġsolved":11696,"Ġbench":11697,"Ġinvestigations":11698,"Ġwarsaw":11699,"Ġtriumph":11700,"Ġtac":11701,"Ġtant":11702,"itution":11703,"Ġdart":11704,"Ġtodd":11705,"ando":11706,"Ġparade":11707,"Ġmeter":11708,"Ġzeus":11709,"Ġcontinuously":11710,"Ġfears":11711,"Ġolive":11712,"Ġbachel":11713,"Ġhalloween":11714,"hara":11715,"Ġbols":11716,"org":11717,"Ġsteven":11718,"Ġprofound":11719,"Ġprofits":11720,"rolog":11721,"ocaust":11722,"Ġstomach":11723,"bone":11724,"mate":11725,"Ġbilly":11726,"Ġpix":11727,"rocess":11728,"eted":11729,"abad":11730,"Ġwarren":11731,"Ġasserted":11732,"Ġinsist":11733,"Ã³w":11734,"Ġflags":11735,"Ġbeatles":11736,"Ġgaul":11737,"Ġdrums":11738,"Ġglucose":11739,"Ġembassy":11740,"Ġbever":11741,"Ġmarriages":11742,"Ġguild":11743,"Ġentrep":11744,"Ġrevived":11745,"Ġpto":11746,"Ġspont":11747,"ĠâĢĺ":11748,"auer":11749,"Ġguided":11750,"Ġpatch":11751,"Ġhenri":11752,"Ġpreceding":11753,"Ġaffiliated":11754,"non":11755,"Ġå":11756,"Ġwig":11757,"Ġadmit":11758,"Ġhandled":11759,"Ġchristie":11760,"Ġcaf":11761,"Ġliberia":11762,"ĠÎ²":11763,"Ġsatellites":11764,"Ġinfections":11765,"Ġswitching":11766,"Ġcrayons":11767,"Ġoli":11768,"Ġcontents":11769,"Ġcombinations":11770,"Ġvictories":11771,"Ġdominance":11772,"ascar":11773,"Ġcelest":11774,"Ġrivalry":11775,"Ġborrowed":11776,"Ġcreek":11777,"Ġoutdoor":11778,"Ġdried":11779,"Ġlens":11780,"ayan":11781,"Ġclan":11782,"assium":11783,"Ġtraces":11784,"Ġcaliph":11785,"Ġcyt":11786,"Ġnominal":11787,"Ġdemonstration":11788,"Ġfeedback":11789,"Ġerected":11790,"hand":11791,"iant":11792,"word":11793,"Ġhil":11794,"Ġtril":11795,"Ġnowiki":11796,"rosc":11797,"Ġlegion":11798,"Ġstein":11799,"Ġholocaust":11800,"Ġpraise":11801,"Ġneutrons":11802,"Ġnutri":11803,"Ġunfair":11804,"Ġjacques":11805,"Ġremarkable":11806,"Ġencoding":11807,"ĠÅ":11808,"aders":11809,"Ġrats":11810,"Ġmeets":11811,"Ġgriff":11812,"Ġ93":11813,"obe":11814,"Ġnonpro":11815,"Ġferdin":11816,"Ġcorrectly":11817,"Ġtamil":11818,"Ġmathematician":11819,"Ġethiopia":11820,"Ġkazakhstan":11821,"rimin":11822,"Ġfda":11823,"Ġdenn":11824,"stad":11825,"advant":11826,"Ġrip":11827,"Ġmoo":11828,"ivia":11829,"clamation":11830,"Ġhighways":11831,"Ġdescended":11832,"Ġbarry":11833,"Ġcowboys":11834,"ĠfranÃ§":11835,"Ġparamount":11836,"Ġexcluded":11837,"Ġincl":11838,"Ġmim":11839,"Ġhood":11840,"asa":11841,"Ġalign":11842,"Ġfourteen":11843,"Ġtradem":11844,"Ġsuccessive":11845,"Ġxi":11846,"Ġcommands":11847,"Ġtenure":11848,"Ġsustainable":11849,"uine":11850,"arin":11851,"Ġhag":11852,"Ġstatic":11853,"Ġstressed":11854,"Ġafl":11855,"Ġcarb":11856,"Ġtrips":11857,"Ġdenoted":11858,"Ġarrangements":11859,"Ġcomprising":11860,"Ġfarther":11861,"Ġuru":11862,"olo":11863,"assed":11864,"Ġrecurs":11865,"Ġaccidents":11866,"Ġdecimal":11867,"Ġbelgian":11868,"Ġchew":11869,"Ġpotassium":11870,"Ġhostile":11871,"Ġfinishing":11872,"Ġhazard":11873,"Ġmurdered":11874,"ener":11875,"armed":11876,"olia":11877,"Ġira":11878,"Ġantio":11879,"Ġordin":11880,"Ġcalculus":11881,"Ġbryan":11882,"Ġmetaphys":11883,"gm":11884,"Ġbach":11885,"Ġinclusion":11886,"Ġkr":11887,"Ġbarrel":11888,"Ġcriticised":11889,"Ġluke":11890,"Ġtracking":11891,"Ġpursued":11892,"Ġkabul":11893,"Ġrectang":11894,"lon":11895,"inite":11896,"Ġyields":11897,"Ġattraction":11898,"ometric":11899,"Ġcurric":11900,"Ġversa":11901,"borne":11902,"Ġsymmetry":11903,"Ġreversed":11904,"Ġkuwait":11905,"esco":11906,"Ġdw":11907,"Ġecho":11908,"Ġsaving":11909,"Ġwhenever":11910,"onds":11911,"Ġrelay":11912,"Ġlacking":11913,"Ġsandwich":11914,"Ġratified":11915,"Ġmacedonia":11916,"Ġbavaria":11917,"Ġbust":11918,"Ġthy":11919,"igious":11920,"Ġpresum":11921,"Ġvolks":11922,"Ġsporting":11923,"Ġconjunction":11924,"Ġengagement":11925,"Ġ{":11926,"asive":11927,"Ġcollo":11928,"Ġherbert":11929,"Ġinterch":11930,"Ġangular":11931,"Ġteenagers":11932,"Ġelderly":11933,"Ġdairy":11934,"eb":11935,"sd":11936,"Ġpod":11937,"lev":11938,"ayer":11939,"Ġservers":11940,"Ġtrapped":11941,"Ġcommunists":11942,"Ġcurrents":11943,"Ġreleasing":11944,"Ġbreast":11945,"Ġcompetitors":11946,"Ġcastro":11947,"Ġvoiced":11948,"Ġsandy":11949,"Ġemotion":11950,"Ġbreathing":11951,"Ġconsonants":11952,"Ġentreprene":11953,"Ġwo":11954,"Ġfirearms":11955,"Ġgenesis":11956,"Ġasteroid":11957,"eur":11958,"Ġramp":11959,"Ġbeck":11960,"Ġouts":11961,"Ġpowell":11962,"Ġ1848":11963,"Ġprayers":11964,"Ġpermits":11965,"600":11966,"Ã´":11967,"Ġlanc":11968,"Ġgary":11969,"Ġprosecut":11970,"tha":11971,"osl":11972,"ordination":11973,"Ġdiffers":11974,"Ġanybody":11975,"Ġmarking":11976,"Ġgrows":11977,"Ġtreating":11978,"Ġmalta":11979,"Ġassuming":11980,"Ġfriction":11981,"Ġaunt":11982,"Ġwip":11983,"uli":11984,"Ġunt":11985,"Ġwarrant":11986,"Ġdesigners":11987,"Ġsentenced":11988,"Ġsuggestion":11989,"Ġsustained":11990,"Ġcosmic":11991,"Ġrecreational":11992,"Ġaluminium":11993,"Ġcros":11994,"Ġproc":11995,"Ġhandful":11996,"Ġbaroque":11997,"Ġeros":11998,"Ġkinda":11999,"Ġmelbourne":12000,"Ġcontempor":12001,"Ġpumpkin":12002,"Ġflavor":12003,"Ġmtv":12004,"Ġregulatory":12005,"vo":12006,"enberg":12007,"Ġdwell":12008,"Ġspecification":12009,"Ġvectors":12010,"Ġchapters":12011,"Ġinequality":12012,"Ġchase":12013,"Ġaden":12014,"Ġcorre":12015,"Ġprivately":12016,"Ġpyram":12017,"lie":12018,"Ġpadd":12019,"ours":12020,"Ġoverlo":12021,"Ġloaded":12022,"Ġphones":12023,"Ġsupper":12024,"Ġlimiting":12025,"Ġharmony":12026,"lia":12027,"Ġtt":12028,"Ġearning":12029,"Ġsubc":12030,"Ġarmor":12031,"Ġ73":12032,"Ġapoc":12033,"Ġfreud":12034,"Ġsung":12035,"Ġturtles":12036,"Ġhomeland":12037,"Ġhitting":12038,"Ġcollecting":12039,"Ġarchaeologists":12040,"Ġelevated":12041,"Ġcyprus":12042,"Ġguatemala":12043,"55":12044,"uh":12045,"Ġcows":12046,"Ġâī":12047,"Ġknee":12048,"ormal":12049,"Ġgovernance":12050,"Ġpaths":12051,"Ġcompositions":12052,"Ġcrews":12053,"Ġclusters":12054,"esity":12055,"Ġasks":12056,"Ġchal":12057,"Ġblast":12058,"Ġblame":12059,"Ġautism":12060,"racted":12061,"iko":12062,"Ġtribune":12063,"Ġtorah":12064,"americans":12065,"87":12066,"Ġrivals":12067,"Ġrope":12068,"ulture":12069,"iffs":12070,"Ġgovernmental":12071,"Ġparking":12072,"Ġinvestigated":12073,"Ġjimmy":12074,"Ġbubble":12075,"Ġeisenh":12076,"Ġlum":12077,"Ġreorgan":12078,"Ġ74":12079,"spec":12080,"Ġconnects":12081,"Ġreasoning":12082,"Ġsusan":12083,"Ġfeminist":12084,"Ġceremonial":12085,"Ġdeliberately":12086,"Ġmock":12087,"Ġhasn":12088,"Ġammun":12089,"Ġendors":12090,"Ġarmstrong":12091,"haw":12092,"Ġwestminster":12093,"Ġcompanion":12094,"Ġspeaks":12095,"Ġsufficiently":12096,"Ġvladimir":12097,"bat":12098,"à¤":12099,"Ġnile":12100,"Ġkant":12101,"Ġoffsh":12102,"Ġsuppress":12103,"Ġ92":12104,"Ġinvestors":12105,"Ġ1902":12106,"Ġmesopotam":12107,"Ġarmenia":12108,"Ġwisdom":12109,"Ġrag":12110,"Ġdeeper":12111,"Ġproton":12112,"Ġmoh":12113,"Ġspart":12114,"Ġdisadvant":12115,"Ġformats":12116,"Ġextant":12117,"Ġhumor":12118,"Ġ96":12119,"Ġurs":12120,"Ġinvestigate":12121,"Ġdescriptions":12122,"Ġeisenhower":12123,"ea":12124,"Ġsauce":12125,"Ġeventual":12126,"Ġmanagers":12127,"Ġchoosing":12128,"Ġqa":12129,"Ġembry":12130,"Ã¶r":12131,"Ġrabb":12132,"Ġhinduism":12133,"Ġbosnia":12134,"Ġmetallic":12135,"Ġbarely":12136,"Ġtc":12137,"ulative":12138,"Ġshaw":12139,"Ġsocks":12140,"Ġreplied":12141,"Ġpayments":12142,"Ġfortune":12143,"Ġacquire":12144,"Ġtibetan":12145,"days":12146,"Ġanna":12147,"icism":12148,"Ġlone":12149,"Ġrept":12150,"iller":12151,"ardi":12152,"Ġdesper":12153,"Ġcoral":12154,"Ġfrogs":12155,"Ġweakness":12156,"Ġrevenues":12157,"Ġreinforce":12158,"Ġronald":12159,"Ġbuttons":12160,"irable":12161,"Ġacute":12162,"Ġaugustine":12163,"Ġmixing":12164,"Ġmadrid":12165,"Ġabsolutely":12166,"Ġphoenix":12167,"),":12168,"lies":12169,"Ġenroll":12170,"Ġfloppy":12171,"Ġzion":12172,"Ġsometime":12173,"spring":12174,"Ġsyntax":12175,"Ġfiref":12176,"Ġprague":12177,"Ġalgae":12178,"Ġimaging":12179,"Ġtonnes":12180,"Ġcomplained":12181,"Ġexplaining":12182,"89":12183,"Ġmum":12184,"Ġdada":12185,"Ġ350":12186,"Ġ71":12187,"Ġeconomically":12188,"Ġrussians":12189,"Ġoceans":12190,"Ġcontinuity":12191,"Ġconsonant":12192,"Ġahmed":12193,"Ġencounter":12194,"Ġgambling":12195,"Ġmhz":12196,"ÏĤ":12197,"Ġlucky":12198,"aza":12199,"Ġreads":12200,"Ġmachinery":12201,"Ġ1865":12202,"Ġlegendary":12203,"Ġaccomplish":12204,"Ġpremiered":12205,"Ġbachelor":12206,"Ġpud":12207,"orig":12208,"Ġgrants":12209,"Ġcarved":12210,"Ġconducting":12211,"Ġlebanese":12212,"Ġindonesian":12213,"Ġdenominations":12214,"Ġdecisive":12215,"mir":12216,"Ġft":12217,"Ġrah":12218,"Ġsega":12219,"Ġ86":12220,"Ġfootage":12221,"Ġprotective":12222,"Ġshallow":12223,"Ġcambodia":12224,"Ġ}":12225,"Ġgill":12226,"Ġseals":12227,"Ġlocom":12228,"Ġkills":12229,"Ġdigits":12230,"Ġgarage":12231,"Ġ1871":12232,"Ġspotted":12233,"Ġamazing":12234,"Ġmotivated":12235,"bach":12236,"Ġupl":12237,"Ġyah":12238,"assing":12239,"Ġgenuine":12240,"awed":12241,"Ġgrandson":12242,"Ġgraphic":12243,"Ġtickets":12244,"Ġczechosl":12245,"Ġussr":12246,"Ã£o":12247,"Ġptole":12248,"Ġstake":12249,"sea":12250,"Ġrated":12251,"usa":12252,"Ġunve":12253,"ogl":12254,"ogether":12255,"insky":12256,"Ġdebated":12257,"Ġ1895":12258,"Ġ1897":12259,"Ġbenz":12260,"Ġlabeled":12261,"Ġammunition":12262,"Ġcrom":12263,"Ġpd":12264,"Ġdock":12265,"aman":12266,"Ġneat":12267,"Ġspur":12268,"Ġwelles":12269,"Ġobesity":12270,"Ġcalm":12271,"Ġinsuff":12272,"Ġstrongest":12273,"Ġdisplace":12274,"Ġsequel":12275,"cock":12276,"Ġbold":12277,"Ġresolve":12278,"Ġbelly":12279,"Ġinscriptions":12280,"Ġguitarist":12281,"Ġtorture":12282,"Ġcancelled":12283,"Ġgaelic":12284,"erving":12285,"olph":12286,"Ġdesignation":12287,"Ġstatues":12288,"Ġrockets":12289,"Ġhanging":12290,"dri":12291,"uri":12292,"Ġtract":12293,"Ġhighlands":12294,"Ġprix":12295,"Ġfreight":12296,"aughter":12297,"Ġalbanian":12298,"Ġtunis":12299,"Ġjumped":12300,"Ġdemanding":12301,"Ġcompensation":12302,"Ġmaurit":12303,"Ġluck":12304,"Ġeul":12305,"elin":12306,"Ġprose":12307,"Ġmoist":12308,"agne":12309,"Ġcommunion":12310,"Ġgrapes":12311,"Ġachieving":12312,"Ġsuspension":12313,"Ġfrost":12314,"Ġpreference":12315,"ked":12316,"Ġaus":12317,"arity":12318,"usted":12319,"Ġxx":12320,"Ġgraham":12321,"Ġlucas":12322,"every":12323,"Ġanime":12324,"Ġbrun":12325,"Ġbrands":12326,"Ġtouring":12327,"Ġrachel":12328,"Ġintegrity":12329,"Ġvirtue":12330,"Ġmandate":12331,"Ġmistake":12332,"Ġprohibition":12333,"Ġvincent":12334,"Ġhast":12335,"ados":12336,"atern":12337,"Ġedwards":12338,"Ġmyan":12339,"Ġvalent":12340,"ophy":12341,"Ġcondens":12342,"Ġaddressing":12343,"Ġdoctr":12344,"Ġconcur":12345,"Ġaerial":12346,"Ġabsorption":12347,"Ġsuburban":12348,"Ġpolitician":12349,"Ġbattalion":12350,"Ġgenocide":12351,"800":12352,"Ġthri":12353,"Ġeager":12354,"Ġhered":12355,"Ġunesco":12356,"Ġspite":12357,"Ġremn":12358,"Ġmonroe":12359,"Ġhumanitarian":12360,"Ġemployee":12361,"Ġthreatening":12362,"Ġtimber":12363,"Ġlifestyle":12364,"Ġodys":12365,"Ġvictorian":12366,"Ġguarantee":12367,"arthy":12368,"Ġferdinand":12369,"Ã¦":12370,"Ġnaked":12371,"Ġalumn":12372,"Ġja":12373,"Ġsheets":12374,"Ġblog":12375,"Ġkeyn":12376,"ussion":12377,"Ġfaction":12378,"Ġbiographer":12379,"Ġanalys":12380,"ĠÎ¼":12381,"Ġstuart":12382,"Ġmyanmar":12383,"ci":12384,"icular":12385,"Ġaligned":12386,"Ġnortheastern":12387,"borough":12388,"Ġsacrific":12389,"Ġcomfortable":12390,"gered":12391,"irth":12392,"Ġconception":12393,"Ġgradual":12394,"Ġferment":12395,"Ġdealt":12396,"Ġsearching":12397,"otypes":12398,"Ġastronomers":12399,"Ġpregnant":12400,"Ġoliver":12401,"tan":12402,"alid":12403,"Ġarise":12404,"Ġenzyme":12405,"Ġcompass":12406,"Ġarmour":12407,"Ġ167":12408,"Ġcosta":12409,"Ġsoundtrack":12410,"Ġwalker":12411,"Ġwoof":12412,"Ġkilometers":12413,"piece":12414,"Ġsurvivors":12415,"Ê¼":12416,"ingham":12417,"Ġkon":12418,"Ġchop":12419,"quet":12420,"Ġframes":12421,"Ġpassive":12422,"Ġtaj":12423,"iciary":12424,"Ġtolerance":12425,"Ġreconcil":12426,"Ġaaron":12427,"pow":12428,"Äĵ":12429,"Ġvine":12430,"Ġenerg":12431,"Ġacet":12432,"Ġexpend":12433,"Ġsanctions":12434,"Ġemperors":12435,"Ġcups":12436,"Ġspectral":12437,"Ġaided":12438,"esis":12439,"Ġchat":12440,"Ġscots":12441,"Ġkevin":12442,"Ġtraded":12443,"Ġunfortun":12444,"Ġsubsidiary":12445,"Ġoy":12446,"Ġming":12447,"Ġmak":12448,"Ġseiz":12449,"Ġfris":12450,"Ġcontainer":12451,"Ġdeclining":12452,"Ġcircus":12453,"Ġbeds":12454,"Ġslower":12455,"Ġinteractive":12456,"Ġcomplaints":12457,"Ġpersuaded":12458,"81":12459,"Ġsull":12460,"Ġcic":12461,"nae":12462,"Ġbelarus":12463,"Ġrealize":12464,"Ġpressures":12465,"Ġsnowden":12466,"Ġsomalia":12467,"Ġsummary":12468,"Ġgifts":12469,"Ġplenty":12470,"cence":12471,"omple":12472,"Ġdose":12473,"Ġtrinity":12474,"Ġoutcomes":12475,"Ġadvised":12476,"Ġclosure":12477,"Ġcontacts":12478,"Ġreproduction":12479,"Ġdestroying":12480,"emann":12481,"ordinary":12482,"Ġartwork":12483,"Ġconfuc":12484,"Ġmicrow":12485,"Ġpottery":12486,"Ġprinceton":12487,"Ġphotography":12488,"backs":12489,"Ġdynamics":12490,"zig":12491,"Ġsends":12492,"Ġpon":12493,"Ġstap":12494,"Ġhed":12495,"acht":12496,"Ġdefending":12497,"Ġballet":12498,"Ġchairs":12499,"Ġratings":12500,"Ġtanz":12501,"Ġacceleration":12502,"ÅĤaw":12503,"Ġfacilitate":12504,"Ġhd":12505,"Ġgast":12506,"ilia":12507,"Ġcompare":12508,"Ġgenerating":12509,"Ġ105":12510,"Ġshouldn":12511,"Ġspirits":12512,"Ġresearcher":12513,"Ġruby":12514,"Ġyogurt":12515,"Ġpremiere":12516,"mal":12517,"erred":12518,"olly":12519,"oka":12520,"Ġgrains":12521,"Ġhoover":12522,"Ġstrain":12523,"Ġdemonstrations":12524,"Ġaltogether":12525,"Ġadaptations":12526,"Ġheights":12527,"Ġmccarthy":12528,"Ġunstable":12529,"Ġuzbek":12530,"wid":12531,"chool":12532,"Ġriot":12533,"berries":12534,"Ġboots":12535,"Ġhamburg":12536,"Ã¶n":12537,"Ġdropping":12538,"Ġwikipedia":12539,"bul":12540,"izz":12541,"Ġscal":12542,"Ġoffspring":12543,"phan":12544,"Ġbrist":12545,"Ġlegends":12546,"Ġvalleys":12547,"Ġplatinum":12548,"Ġdissolution":12549,"Ġrigid":12550,"Ġbulgarian":12551,"cott":12552,"Ġhire":12553,"Ġsafer":12554,"Ġpropell":12555,"Ġheading":12556,"Ġvermont":12557,"Ġaccepting":12558,"Ġwidow":12559,"Ġpandemic":12560,"Ġrendered":12561,"ouds":12562,"Ġunch":12563,"Ġian":12564,"uble":12565,"Ġgeneric":12566,"erent":12567,"Ġlatitude":12568,"Ġhitch":12569,"cular":12570,"kel":12571,"Î½":12572,"esia":12573,"Ġasylum":12574,"Ġrut":12575,"Ġseab":12576,"through":12577,"ivan":12578,"Ġperformers":12579,"Ġjourn":12580,"Ġproceedings":12581,"Ġevaluation":12582,"omorphism":12583,"Ġpasc":12584,"Ġplum":12585,"Ġclients":12586,"ecd":12587,"Ġkepler":12588,"Ġ1500":12589,"Ġbatt":12590,"Ġmanaging":12591,"Ġdupl":12592,"Ġgraduates":12593,"Ġsoutheastern":12594,"Ġalcoh":12595,"Ġrituals":12596,"oves":12597,"Ġwound":12598,"Ġeh":12599,"Ġkb":12600,"Ġarmoured":12601,"Ġ900":12602,"Ġbarcel":12603,"Ġhomo":12604,"Ġtrophy":12605,"apping":12606,"Ġsanders":12607,"Ġencouraging":12608,"Ġnegotiated":12609,"Ġuncertainty":12610,"giving":12611,"Ġora":12612,"Ġnp":12613,"Ġvend":12614,"Ġresumed":12615,"Ġdelhi":12616,"Ġpalestinians":12617,"Ġderivatives":12618,"Ġhonduras":12619,"Ġsemiconductor":12620,"Ġfierce":12621,"icity":12622,"chs":12623,"uba":12624,"Ġmemories":12625,"Ġprotoc":12626,"aea":12627,"Ġhopkins":12628,"Ġrent":12629,"Ġcrocod":12630,"Ġplayoffs":12631,"Ġtune":12632,"heres":12633,"irds":12634,"Ġaborig":12635,"Ġrogers":12636,"ometer":12637,"Ġstevens":12638,"Ġsixteen":12639,"Ġcomputational":12640,"Ġtiming":12641,"Ġtactical":12642,"Ġaxiom":12643,"Î¹":12644,"Ġmul":12645,"Ġhee":12646,"term":12647,"uman":12648,"Ġwax":12649,"Ġ1861":12650,"Ġ1863":12651,"Ġobserve":12652,"Ġtalmud":12653,"enhagen":12654,"Ġpeasants":12655,"Ġozone":12656,"Ġjournals":12657,"kary":12658,"Ġsock":12659,"Ġdent":12660,"Ġdeuter":12661,"Ġkath":12662,"Ġskating":12663,"Ġraiders":12664,"Ġemployers":12665,"Ġsalvation":12666,"Ġloyalty":12667,"Ġpublishers":12668,"Ġsubscribers":12669,"roads":12670,"Ġnin":12671,"Ġchand":12672,"Ġathen":12673,"Ġspear":12674,"ianism":12675,"Ġdisab":12676,"Ġplaystation":12677,"Ġsupporter":12678,"Ġreasonable":12679,"Ġpicking":12680,"Ġenterprises":12681,"Ġceremonies":12682,"pin":12683,"Ġww":12684,"Ġdeport":12685,"Ġopens":12686,"Ġbaron":12687,"ophone":12688,"Ġcalculation":12689,"aud":12690,"Ġaquar":12691,"Ġmam":12692,"Ġloans":12693,"Ġflown":12694,"Ġparagu":12695,"Ġtechnically":12696,"Ġportland":12697,"Ġgraves":12698,"Ġsticky":12699,"Ġprovisional":12700,"Ġcommodore":12701,"Ġchrys":12702,"with":12703,"Ġain":12704,"inting":12705,"Ġswall":12706,"Ġturbo":12707,"Ġrenowned":12708,"Ġescal":12709,"Ġwise":12710,"Ġfool":12711,"Ġandy":12712,"Ġree":12713,"Ġunanim":12714,"Ġsailing":12715,"Ġmaz":12716,"Ġpassages":12717,"Ġstandardized":12718,"Ġlifted":12719,"Ġwonderful":12720,"Ġempirical":12721,"furt":12722,"front":12723,"storm":12724,"Ġdeity":12725,"Ġchances":12726,"Ġwhereby":12727,"Ġassim":12728,"Ġtreatise":12729,"Ġtribun":12730,"Ġextraordinary":12731,"Ġscripts":12732,"Ġsimpler":12733,"Ġpregnancy":12734,"gam":12735,"Ġoop":12736,"Ġfake":12737,"Ġshipped":12738,"Ġlawn":12739,"Ġwarmer":12740,"Ġmush":12741,"Ġcrimin":12742,"Ġ76":12743,"Ġpropri":12744,"Ġpropulsion":12745,"Ġjohnny":12746,"Ġsalary":12747,"Ġjuven":12748,"Ġsuperman":12749,"Ġrenov":12750,"Ġ1899":12751,"Ġrobots":12752,"Ġtheatrical":12753,"Ġwarriors":12754,"Ġnonprofit":12755,"Ġurugu":12756,"bie":12757,"jud":12758,"Ġfare":12759,"Ġandre":12760,"aments":12761,"Ġcompilation":12762,"Ġevans":12763,"Ġproviders":12764,"Ġdiabet":12765,"Ġencry":12766,"Ġalternatively":12767,"Ġisotope":12768,"Ġvikings":12769,"Ġimprisonment":12770,"Ġprosperity":12771,"Ġecclesiastical":12772,"Ãł":12773,"Ġnodes":12774,"Ġbeet":12775,"Ġuv":12776,"Ġsegments":12777,"Ġoverview":12778,"Ġfrances":12779,"Ġdemograph":12780,"Ġeconomist":12781,"Ġsalad":12782,"Ġarchives":12783,"Ġcopenhagen":12784,"Ġcabin":12785,"Ġrecruited":12786,"cd":12787,"Ġdess":12788,"Ġdome":12789,"asters":12790,"Ġeternal":12791,"race":12792,"Ġchad":12793,"Ġcube":12794,"Ġaffecting":12795,"Ġbotan":12796,"otherapy":12797,"atical":12798,"izable":12799,"Ġrepet":12800,"Ġtempl":12801,"Ġgrape":12802,"Ġbrotherhood":12803,"Ġpacked":12804,"Ġcoupled":12805,"idays":12806,"Ġiod":12807,"Ġaging":12808,"Ġaccent":12809,"Ġretrie":12810,"Ġmidnight":12811,"Ġraid":12812,"ashi":12813,"Ġchronicle":12814,"Ġbombers":12815,"Ġconjug":12816,"Ġaccommodate":12817,"Ġbounce":12818,"Ġpilgrim":12819,"Ġinheritance":12820,"iors":12821,"Ġthesis":12822,"Ġsurn":12823,"Ġdign":12824,"Ġalm":12825,"eli":12826,"ivism":12827,"Ġscat":12828,"Ġ81":12829,"Ġdaisy":12830,"Ġmandatory":12831,"Ġkidna":12832,"Ġharmful":12833,"Ġhorizon":12834,"Ġcigarettes":12835,"Ġgiov":12836,"omal":12837,"acetime":12838,"Ġpeers":12839,"Ġpopulous":12840,"Ġparas":12841,"Ġaccordingly":12842,"Ġprojected":12843,"Ġseasonal":12844,"Ġviruses":12845,"Ġdolls":12846,"Ġmammal":12847,"Ġinnovative":12848,"Ġenlar":12849,"bius":12850,"Ġware":12851,"Ġpian":12852,"Ġcong":12853,"Ġclouds":12854,"Ġconsort":12855,"Ġattitudes":12856,"Ġyeh":12857,"Ġextensions":12858,"Ġesper":12859,"Ġ1889":12860,"Ġimplementations":12861,"Ġattractive":12862,"Ġachievements":12863,"Ġaccurately":12864,"Ġinstitutional":12865,"Ġinsufficient":12866,"ais":12867,"Ġjoke":12868,"Ġincred":12869,"Ġbritann":12870,"Ġnuclei":12871,"Ġlinking":12872,"Ġ1888":12873,"Ġlithium":12874,"Ġpirates":12875,"Ġillegally":12876,"Ġrhetoric":12877,"lore":12878,"Ġcis":12879,"encer":12880,"Ġnull":12881,"Ġral":12882,"Ġafterward":12883,"Ġeman":12884,"Ġrequests":12885,"Ġfactions":12886,"Ġlayout":12887,"Ġreviewed":12888,"Ġthermodynam":12889,"Ġveteran":12890,"cia":12891,"just":12892,"Ġdough":12893,"Ġlocked":12894,"Ġsue":12895,"Ġcents":12896,"Ġrelie":12897,"Ġsubordin":12898,"Ġarmored":12899,"bye":12900,"Ġflowing":12901,"Ġdraws":12902,"Ġlynch":12903,"Ġabundance":12904,"Ġconvenient":12905,"Ġrecommendations":12906,"uity":12907,"Ġdaw":12908,"amic":12909,"Ġyor":12910,"Ġarama":12911,"Ġperce":12912,"lier":12913,"Ġconfined":12914,"Ġchen":12915,"Ġ82":12916,"Ġinvestments":12917,"Ġgrandmother":12918,"Ġpuppet":12919,"Ġorbits":12920,"Ġenabling":12921,"Ġlegitim":12922,"hs":12923,"Ġneb":12924,"Ġintra":12925,"keeping":12926,"aho":12927,"Ġdeficit":12928,"Ġcorrid":12929,"Ġwinters":12930,"Ġdeclare":12931,"Ġarabian":12932,"Ġsuprem":12933,"Ġinterchange":12934,"reated":12935,"Ġpall":12936,"Ġthread":12937,"Ġstaged":12938,"Ġhash":12939,"neath":12940,"Ġcrude":12941,"Ġideals":12942,"Ġsquares":12943,"Ġcoastline":12944,"Ġernest":12945,"Ġgenetically":12946,"Ġwartime":12947,"tar":12948,"Ġdug":12949,"Ġdeities":12950,"Ġix":12951,"ogens":12952,"Ġbacking":12953,"Ġ83":12954,"Ġ84":12955,"Ġhardly":12956,"Ġpromising":12957,"gener":12958,"Ġ1893":12959,"Ġrotating":12960,"Ġstockholm":12961,"Ġdiagnosed":12962,"away":12963,"jah":12964,"ozo":12965,"Ġneolithic":12966,"plus":12967,"Ġmarched":12968,"Ġpatents":12969,"Ġnormandy":12970,"owski":12971,"Ġweakened":12972,"Ġlinguistics":12973,"Ġdeclaring":12974,"Ġbureauc":12975,"Ġdecorated":12976,"Ġmarcus":12977,"Ġsteadily":12978,"making":12979,"Ġwished":12980,"Ġpaved":12981,"igo":12982,"Ġunderneath":12983,"Ġsubgroup":12984,"ipper":12985,"Ġturks":12986,"Ġstopping":12987,"Ġrises":12988,"Ġsafely":12989,"Ġscholarly":12990,"Ġannexed":12991,"Ġmultiplication":12992,"gger":12993,"Ġreporter":12994,"Ġlarry":12995,"Ġtao":12996,"Ġsummers":12997,"Ġcornwall":12998,"Ġkidney":12999,"Ġundertaken":13000,"Ġprotocols":13001,"Ġdemographics":13002,"Ġtheft":13003,"Ġply":13004,"Ġshout":13005,"Ġcoy":13006,"Ġjoan":13007,"Ġzen":13008,"Ġlatino":13009,"Ġordering":13010,"Ġnationally":13011,"Ġcomplexes":13012,"Ġfellows":13013,"omorphic":13014,"Ġflexible":13015,"Ġauxili":13016,"Ġdens":13017,"Ġsilence":13018,"Ġgarrison":13019,"Ġdarkness":13020,"Ġconcord":13021,"Ġsaxony":13022,"Ġemotions":13023,"Ġbrooks":13024,"Ġdischarge":13025,"Ġsacramento":13026,"Ġmast":13027,"Ġtoile":13028,"Ġns":13029,"Ġrides":13030,"Ġsuited":13031,"unning":13032,"Ġspawn":13033,"Ġcrashed":13034,"Ġrespected":13035,"Ġinsert":13036,"Ġstaying":13037,"Ġflee":13038,"Ġdisciplines":13039,"Ġreceptors":13040,"Ġhudson":13041,"ĠbahÃ¡Ê¼":13042,"Ġcurriculum":13043,"width":13044,"Ġrealistic":13045,"Ġstepped":13046,"Ġsummar":13047,"Ġfunctioning":13048,"Ġglobally":13049,"Ġdisplaced":13050,"Ġecological":13051,"Ġfluor":13052,"Ġtrademark":13053,"kind":13054,"Ġwives":13055,"Ġ360":13056,"Ġrelies":13057,"Ġcalories":13058,"Ġvalve":13059,"Ġbrack":13060,"Ġoccurrence":13061,"Ġhotels":13062,"Ġcatholicism":13063,"Ġtoyota":13064,"Ġserbian":13065,"Ġadvisory":13066,"Ġproxim":13067,"Ġepiscopal":13068,"Ġnept":13069,"Ġcompuls":13070,"Ġbloc":13071,"Ġmaid":13072,"Ġentropy":13073,"Ġoperas":13074,"anche":13075,"Ġterry":13076,"Ġpostal":13077,"Ġtaxon":13078,"Ġmills":13079,"Ġwitt":13080,"Ġanalyzed":13081,"Ġdiabetes":13082,"nik":13083,"ulas":13084,"osity":13085,"ocl":13086,"Ġsailed":13087,"Ġmonuments":13088,"Ġmetres":13089,"Ġcompleting":13090,"Ġcairo":13091,"Ġsunni":13092,"Ġdomains":13093,"Ġanthropology":13094,"Ġschemes":13095,"Ġbarcelona":13096,"hell":13097,"Ġbiod":13098,"Ġstance":13099,"Ġpepper":13100,"Ġincent":13101,"Ġincons":13102,"Ġcareers":13103,"Ġimmense":13104,"Ġgrammy":13105,"Ġtissues":13106,"Ġwitnessed":13107,"Ġclinic":13108,"Ġpython":13109,"Ġthro":13110,"Ġprefect":13111,"Ġcarriage":13112,"Ġslot":13113,"Ġrepresentations":13114,"Ġvolta":13115,"Ġpressed":13116,"Ġviolation":13117,"Ġcreature":13118,"Ġexcluding":13119,"Ġrebuilt":13120,"Ġfurniture":13121,"leted":13122,"ido":13123,"Ġsolving":13124,"Ġembark":13125,"Ġdefeating":13126,"Ġhorsie":13127,"Ġtriggered":13128,"Ġriots":13129,"Ġtragedy":13130,"aton":13131,"Ġpes":13132,"Ġkem":13133,"Ġjason":13134,"Ġmeow":13135,"ype":13136,"Ġtraders":13137,"Ġdiving":13138,"Ġcommanders":13139,"Ġlogar":13140,"Ġanalogous":13141,"Ġcure":13142,"itian":13143,"Ġnets":13144,"Ġincomple":13145,"Ġirving":13146,"Ġqing":13147,"Ġpulling":13148,"Ġvegetation":13149,"athetic":13150,"Ġgalaxies":13151,"Ġnicknamed":13152,"Ġstamps":13153,"Ġvaccine":13154,"Ġaramaic":13155,"ju":13156,"kk":13157,"Ïģ":13158,"orp":13159,"Ġupside":13160,"Ġpoetic":13161,"Ġtranscription":13162,"space":13163,"Ġsatir":13164,"Ġpoliceman":13165,"Ġcrab":13166,"Ġstruggles":13167,"Ġreceptor":13168,"Ġtorpedo":13169,"Ġtrilogy":13170,"py":13171,"Ġtrunk":13172,"Ġknocked":13173,"grounds":13174,"Ġprotagon":13175,"Ġbunch":13176,"Ġmongolia":13177,"ĠjosÃ©":13178,"96":13179,"Ġfraser":13180,"Ġdepri":13181,"Ġpulse":13182,"Ġnomine":13183,"Ġcanonical":13184,"Ġmarxist":13185,"Ġazerbaijan":13186,"Ġpuls":13187,"Ġfalk":13188,"Ġmour":13189,"Ġgul":13190,"enter":13191,"Ġkas":13192,"Ġambit":13193,"Ġindies":13194,"Ġspeculation":13195,"these":13196,"Ġstreaming":13197,"Ġdebates":13198,"Ġhonored":13199,"Ġcrafts":13200,"Ġwilder":13201,"Ġprinces":13202,"Ġimplications":13203,"Ġcrusade":13204,"Ġlatvia":13205,"Ġproximity":13206,"bons":13207,"mod":13208,"inte":13209,"Ġsz":13210,"Ġmister":13211,"Ġdebr":13212,"Ġworm":13213,"Ġpeel":13214,"Ġportable":13215,"Ġmenu":13216,"Ġviewing":13217,"Ġmicrop":13218,"Ġmarketed":13219,"Ġforeigners":13220,"Ġdigest":13221,"Ġessence":13222,"Ġminds":13223,"Ġrejection":13224,"Ġperfectly":13225,"Ġautobiography":13226,"Ġbend":13227,"Ġvest":13228,"Ġcanter":13229,"thel":13230,"Ġdevised":13231,"Ġcivic":13232,"Ġmalt":13233,"Ġstrips":13234,"Ġbirths":13235,"Ġgasoline":13236,"Ġrhy":13237,"Ġhawaiian":13238,"Ġviking":13239,"Ġtire":13240,"Ġpets":13241,"Ġsurrend":13242,"Ġlandmark":13243,"Ġmeanings":13244,"beit":13245,"Ġrepublics":13246,"Ġmotif":13247,"Ġtaxation":13248,"heads":13249,"Ġ1867":13250,"Ġvenue":13251,"Ġadvertis":13252,"Ġriders":13253,"Ġcaucas":13254,"Ġunderwent":13255,"gov":13256,"Ġyum":13257,"Ġrt":13258,"Ġcoordination":13259,"Ġende":13260,"Ġhelen":13261,"Ġchecks":13262,"Ġtopological":13263,"Ġprivat":13264,"Ġexciting":13265,"Ġpakistani":13266,"Ġfuels":13267,"Ġflooding":13268,"Ġcontroller":13269,"Ġvoluntary":13270,"itivity":13271,"Ġreper":13272,"Ġscrap":13273,"Ġimf":13274,"Ġzamb":13275,"Ġlongtime":13276,"Ġresponsibilities":13277,"Ġvenues":13278,"etti":13279,"Ġcatalog":13280,"Ġprolong":13281,"Ġlicensing":13282,"bath":13283,"comp":13284,"mans":13285,"Ġoman":13286,"iper":13287,"Ġmarines":13288,"Ġroma":13289,"Ġforecast":13290,"Ġrede":13291,"Ġsimilarity":13292,"Ġlimestone":13293,"Ġhealthcare":13294,"Ġbroadly":13295,"Ġtravelling":13296,"Ġbuddy":13297,"Ġexercises":13298,"Ġdietary":13299,"Ġhomosexuality":13300,"Ġpractitioners":13301,"lements":13302,"Ġrepr":13303,"ommon":13304,"Ġsalts":13305,"Ġmalaria":13306,"Ġboxing":13307,"Ġpanels":13308,"Ġprominence":13309,"Ġdrummer":13310,"Ġteenager":13311,"Ġharmonic":13312,"Ġenthusi":13313,"Ġnashville":13314,"Ġnumerical":13315,"Ġgiovanni":13316,"cin":13317,"rans":13318,"Ġmv":13319,"Ġthres":13320,"Ġniet":13321,"lysis":13322,"Ġsued":13323,"Ġpopul":13324,"Ġmodification":13325,"Ġjewel":13326,"Ġholder":13327,"Ġliberals":13328,"Ġstationed":13329,"Ġhearts":13330,"Ġrainbow":13331,"Ġcomposite":13332,"Ġtroubles":13333,"Ġdefendant":13334,"Ġcanceled":13335,"Ġambitious":13336,"Ġconcess":13337,"Ġorganize":13338,"oba":13339,"Ġcostume":13340,"Ġmistaken":13341,"Ġpossessed":13342,"Ġrodrig":13343,"Ġneurons":13344,"imo":13345,"quin":13346,"Ġmann":13347,"Ġcontested":13348,"Ġverses":13349,"Ġjudiciary":13350,"Ġ1885":13351,"Ġfolklore":13352,"Ġspatial":13353,"Ġcanterbury":13354,"Ġsticks":13355,"imon":13356,"imid":13357,"Ġconstrain":13358,"Ġmature":13359,"Ġinvestigators":13360,"Ġbroadcasts":13361,"Ġcensorship":13362,"Ġsupposedly":13363,"Ġexpectations":13364,"Ġcolours":13365,"Ġrenewable":13366,"Ġcongregation":13367,"Ġautomobile":13368,"Ġadequate":13369,"53":13370,"Ġsene":13371,"Ġandr":13372,"Ġpooh":13373,"Ġhelmet":13374,"Ġinscription":13375,"Ġ1892":13376,"Ġmissionary":13377,"Ġmissionaries":13378,"Ġrolls":13379,"Ġcomparing":13380,"Ġdictators":13381,"si":13382,"wana":13383,"orum":13384,"Ġhealing":13385,"Ġverbs":13386,"Ġbanner":13387,"Ġcompeted":13388,"Ġtroy":13389,"Ġhoused":13390,"Ġcultivation":13391,"Ġcroatian":13392,"elian":13393,"Ġkurt":13394,"Ġintensive":13395,"rup":13396,"eches":13397,"Ġtransf":13398,"Ġbasically":13399,"Ã©n":13400,"Ġafricans":13401,"Ġdelaware":13402,"Ġbandwidth":13403,"ascular":13404,"marks":13405,"Ġbaghd":13406,"Ġodds":13407,"haran":13408,"Ġluxury":13409,"Ġtheodore":13410,"77":13411,"Ġtidal":13412,"Ġmasc":13413,"Ġdiana":13414,"Ġreass":13415,"Ġadrian":13416,"Ġcontex":13417,"Ġgenius":13418,"Ġgeoff":13419,"Ġmorality":13420,"Ġpunch":13421,"Ġfavorable":13422,"Ġtheaters":13423,"Ġmascul":13424,"Ġcorpus":13425,"Ġpresbyterian":13426,"gom":13427,"rained":13428,"Ġads":13429,"Ġreconna":13430,"Ġattested":13431,"Ġintervals":13432,"Ġtestimony":13433,"Ġplanted":13434,"ÃŃn":13435,"writing":13436,"Ġcontexts":13437,"oge":13438,"Ġfles":13439,"iri":13440,"Ġadoles":13441,"Ġenters":13442,"Ġdestinations":13443,"Ġbreakthrough":13444,"Ġhijack":13445,"Ġsuspect":13446,"Ġjulia":13447,"Ġexhibits":13448,"Ġrabbi":13449,"Ġmigrated":13450,"Ġpipeline":13451,"Ġconstituent":13452,"Ġpeasant":13453,"Ġbabylonian":13454,"inia":13455,"Ġbum":13456,"Ġpter":13457,"Ġrust":13458,"tech":13459,"Ġinferior":13460,"Ġinvari":13461,"Ġfamine":13462,"Ġsingers":13463,"Ġconversely":13464,"Ġnobles":13465,"Ġowl":13466,"Ġcrowned":13467,"Ġsimplified":13468,"pher":13469,"Ġtense":13470,"Ġsul":13471,"Ġwiz":13472,"Ġconrad":13473,"Ġvand":13474,"Ġdiffering":13475,"awi":13476,"Ġverd":13477,"Ġderive":13478,"Ġdamasc":13479,"Ġslee":13480,"Ġ1876":13481,"Ġvolcano":13482,"Ġlennon":13483,"Ġendeav":13484,"Ġreconnaissance":13485,"Ġenvelop":13486,"Ġsoy":13487,"Ġmonk":13488,"Ġmilton":13489,"Ġmyst":13490,"Ġglas":13491,"faction":13492,"Ġprotestants":13493,"Ġ1894":13494,"Ġtoured":13495,"Ġmistakes":13496,"Ġinconsist":13497,"found":13498,"folk":13499,"Ġwond":13500,"Ġdances":13501,"omi":13502,"Ġstall":13503,"ulator":13504,"Ġmarble":13505,"Ġfrig":13506,"Ġcountryside":13507,"Ġmultim":13508,"Ġ1864":13509,"Ġdependence":13510,"rology":13511,"Ġinnovations":13512,"Ġguaranteed":13513,"Ġmarginal":13514,"Ġdebris":13515,"nut":13516,"alon":13517,"Ġalbeit":13518,"Ġunoff":13519,"ogne":13520,"Ġperc":13521,"Ġdisse":13522,"Ġviolations":13523,"comed":13524,"Ġethnicity":13525,"Ġalberta":13526,"Ġpreceded":13527,"Ġprehistoric":13528,"Ġremarks":13529,"Ġtajik":13530,"vol":13531,"Ġsd":13532,"anus":13533,"Ġmcl":13534,"Ġduc":13535,"Ġrex":13536,"ptions":13537,"Ġconting":13538,"Ġmapping":13539,"neys":13540,"Ġmodifications":13541,"Ġnecessity":13542,"Ġcubic":13543,"Ġoccupy":13544,"Ġgiul":13545,"Ġinev":13546,"Ġphosphate":13547,"Ġslovenia":13548,"mart":13549,"Ġsag":13550,"Ġtoled":13551,"Ġadela":13552,"Ġemma":13553,"Ġquake":13554,"Ġestates":13555,"Ġslope":13556,"Ġessays":13557,"Ġreveals":13558,"caa":13559,"Ġincorporate":13560,"colm":13561,"Ġoakland":13562,"Ġprivileges":13563,"Ġerosion":13564,"ao":13565,"wagen":13566,"Ġlumin":13567,"Ġcarson":13568,"Ġsocio":13569,"Ġbritt":13570,"Ġgraff":13571,"Ġauction":13572,"Ġcharlotte":13573,"Ġmysterious":13574,"Ġprolifer":13575,"Ġalumni":13576,"Ġcage":13577,"Ġfork":13578,"Ġtractor":13579,"Ġbackwards":13580,"Ġmedals":13581,"Ġsuperf":13582,"Ġ1869":13583,"Ġoceanic":13584,"Ġimpacts":13585,"Ġpursuit":13586,"Ġabdul":13587,"Ġresurrection":13588,"Ġcolloqu":13589,"Ġpascal":13590,"Ġwishes":13591,"Ġfits":13592,"Ġhik":13593,"Ġubi":13594,"opol":13595,"Ġneil":13596,"Ġpercept":13597,"Ġformations":13598,"Ġpotatoes":13599,"Ġburst":13600,"Ġselective":13601,"Ġeditorial":13602,"Ġassyrian":13603,"Ġsurrendered":13604,"hered":13605,"Ġct":13606,"Ġnt":13607,"Ġnab":13608,"Ġrhe":13609,"Ġconductor":13610,"Ġunification":13611,"ema":13612,"uster":13613,"Ġadmission":13614,"avier":13615,"lla":13616,"Ġjustified":13617,"azi":13618,"Ġhunger":13619,"Ġassociates":13620,"Ġtablets":13621,"Ġsharply":13622,"Ġscreens":13623,"ochond":13624,"holders":13625,"93":13626,"atile":13627,"Ġmk":13628,"Ġank":13629,"Ġjelly":13630,"onscious":13631,"Ġanno":13632,"Ġredes":13633,"Ġmalcolm":13634,"Ġdominate":13635,"Ġsensors":13636,"Ġwalt":13637,"Ġjumps":13638,"Ġshifts":13639,"Ġapostolic":13640,"Ġteddy":13641,"Ġjohannes":13642,"Ġcater":13643,"Ġgps":13644,"Ġappar":13645,"Ġgenerals":13646,"Ġhomework":13647,"Ġturner":13648,"Ġvenet":13649,"Ġnaples":13650,"Ġinquiry":13651,"Ġbankruptcy":13652,"Ġsake":13653,"Ġpav":13654,"Ġshrine":13655,"Ġentries":13656,"Ġ1891":13657,"Ġgarfield":13658,"Ġfranz":13659,"Ġshelf":13660,"Ġtide":13661,"Ġkap":13662,"Ġseism":13663,"unch":13664,"Ġtrim":13665,"Ġunderm":13666,"Ġtrap":13667,"Ġinterim":13668,"Ġproposition":13669,"Ġveto":13670,"Ġwelcomed":13671,"Ġcertified":13672,"Ġcrayon":13673,"Ġahmad":13674,"Ġemerge":13675,"Ġwand":13676,"Ġrams":13677,"Ġcomet":13678,"Ġspo":13679,"Ġadul":13680,"Ġworkforce":13681,"Ġglory":13682,"Ġstructured":13683,"Ġinvested":13684,"Ġburden":13685,"Ġjacket":13686,"Ġdecreasing":13687,"Ġcollaborated":13688,"Ġtsar":13689,"Ġthanksgiving":13690,"Ġsurveys":13691,"Ġhabsburg":13692,"Ġdisabled":13693,"Ġralph":13694,"words":13695,"Ġmb":13696,"urated":13697,"urgy":13698,"Ġabortion":13699,"oko":13700,"Ġdepicting":13701,"ovich":13702,"Ġlightning":13703,"Ġsuperhe":13704,"Ġidentifies":13705,"Ġhomer":13706,"Ġgraduation":13707,"Ġburns":13708,"Ġidaho":13709,"Ġmatching":13710,"Ġspecimens":13711,"friend":13712,"Ġunveiled":13713,"Ġsara":13714,"Ġlact":13715,"Ġjak":13716,"Ġoffense":13717,"Ġbros":13718,"Ġinserted":13719,"Ġcurs":13720,"Ġbarriers":13721,"Ġdelicious":13722,"Ġholidays":13723,"Ġmobility":13724,"Ġvacation":13725,"Ġfatty":13726,"Ġmontreal":13727,"Ġparameter":13728,"Ã¨re":13729,"Ġkenneth":13730,"Ġ_":13731,"Ġlevant":13732,"Ġenforced":13733,"Ġswords":13734,"Ġdenote":13735,"Ġillumin":13736,"Ġpeaked":13737,"Ġreciproc":13738,"Ġconclusions":13739,"Ġoo":13740,"Ġants":13741,"leep":13742,"rawn":13743,"acon":13744,"astics":13745,
[...]
