{
  "version": "1.0",
  "truncation": {
    "max_length": 128,
    "strategy": "LongestFirst",
    "stride": 0
  },
  "padding": {
    "strategy": "BatchLongest",
    "direction": "Right",
    "pad_to_multiple_of": null,
    "pad_id": 1,
    "pad_type_id": 0,
    "pad_token": "<pad>"
  },
  "added_tokens": [
    {
      "id": 0,
      "special": true,
      "content": "<mask>",
      "single_word": false,
      "lstrip": true,
      "rstrip": false,
      "normalized": false
    },
    {
      "id": 1,
      "special": true,
      "content": "<pad>",
      "single_word": false,
      "lstrip": false,
      "rstrip": false,
      "normalized": false
    },
    {
      "id": 2,
      "special": true,
      "content": "<unk>",
      "single_word": false,
      "lstrip": false,
      "rstrip": false,
      "normalized": false
    },
    {
      "id": 3,
      "special": true,
      "content": "<s>",
      "single_word": false,
      "lstrip": false,
      "rstrip": false,
      "normalized": false
    },
    {
      "id": 4,
      "special": true,
      "content": "</s>",
      "single_word": false,
      "lstrip": false,
      "rstrip": false,
      "normalized": false
    }
  ],
  "normalizer": {
    "type": "Lowercase"
  },
  "pre_tokenizer": {
    "type": "ByteLevel",
    "add_prefix_space": true,
    "trim_offsets": true
  },
  "post_processor": {
    "type": "RobertaProcessing",
    "sep": [
      "</s>",
      4
    ],
    "cls": [
      "<s>",
      3
    ],
    "trim_offsets": true,
    "add_prefix_space": true
  },
  "decoder":{"type":"ByteLevel","add_prefix_space":true,"trim_offsets":true},
  "model": {
    "type": "BPE",
    "dropout": null,
    "unk_token": "<unk>",
    "continuing_subword_prefix": null,
    "end_of_word_suffix": null,
    "fuse_unk": false,
    "vocab": {
      "<mask>": 0,
      "<pad>": 1,
      "<unk>": 2,
      "<s>": 3,
      "</s>": 4,
      "!": 5,
      "\"": 6,
      "#": 7,
      "$": 8,
      "%": 9,
      "&": 10,
      "'": 11,
      "(": 12,
      ")": 13,
      "*": 14,
      "+": 15,
      ",": 16,
      "-": 17,
      ".": 18,
      "/": 19,
      "0": 20,
      "1": 21,
      "2": 22,
      "3": 23,
      "4": 24,
      "5": 25,
      "6": 26,
      "7": 27,
      "8": 28,
      "9": 29,
      ":": 30,
      ";": 31,
      "<": 32,
      "=": 33,
      ">": 34,
      "?": 35,
      "@": 36,
      "[": 37,
      "\\": 38,
      "]": 39,
      "^": 40,
      "_": 41,
      "`": 42,
      "a": 43,
      "b": 44,
      "c": 45,
      "d": 46,
      "e": 47,
      "f": 48,
      "g": 49,
      "h": 50,
      "i": 51,
      "j": 52,
      "k": 53,
      "l": 54,
      "m": 55,
      "n": 56,
      "o": 57,
      "p": 58,
      "q": 59,
      "r": 60,
      "s": 61,
      "t": 62,
      "u": 63,
      "v": 64,
      "w": 65,
      "x": 66,
      "y": 67,
      "z": 68,
      "{": 69,
      "|": 70,
      "}": 71,
      "~": 72,
      "¡": 73,
      "¢": 74,
      "£": 75,
      "¤": 76,
      "¥": 77,
      "¦": 78,
      "§": 79,
      "¨": 80,
      "©": 81,
      "ª": 82,
      "«": 83,
      "¬": 84,
      "®": 85,
      "¯": 86,
      "°": 87,
      "±": 88,
      "²": 89,
      "³": 90,
      "´": 91,
      "µ": 92,
      "¶": 93,
      "·": 94,
      "¸": 95,
      "¹": 96,
      "º": 97,
      "»": 98,
      "¼": 99,
      "½": 100,
      "¾": 101,
      "¿": 102,
      "Â": 103,
      "Ã": 104,
      "Ä": 105,
      "Å": 106,
      "Æ": 107,
      "Ç": 108,
      "È": 109,
      "É": 110,
      "Ê": 111,
      "Ë": 112,
      "Ì": 113,
      "Í": 114,
      "Î": 115,
      "Ï": 116,
      "Ð": 117,
      "Ñ": 118,
      "Ò": 119,
      "Ó": 120,
      "Õ": 121,
      "Ö": 122,
      "×": 123,
      "Ø": 124,
      "Ù": 125,
      "Ú": 126,
      "Û": 127,
      "Ü": 128,
      "ß": 129,
      "à": 130,
      "á": 131,
      "â": 132,
      "ã": 133,
      "ä": 134,
      "å": 135,
      "æ": 136,
      "ç": 137,
      "è": 138,
      "é": 139,
      "ê": 140,
      "ë": 141,
      "ì": 142,
      "í": 143,
      "ï": 144,
      "ð": 145,
      "Ĉ": 146,
      "Ċ": 147,
      "Ġ": 148,
      "Ģ": 149,
      "ģ": 150,
      "Ĥ": 151,
      "ĥ": 152,
      "Ħ": 153,
      "ħ": 154,
      "Ĩ": 155,
      "ĩ": 156,
      "Ī": 157,
      "ī": 158,
      "Ĭ": 159,
      "ĭ": 160,
      "Į": 161,
      "į": 162,
      "İ": 163,
      "ı": 164,
      "Ĳ": 165,
      "ĳ": 166,
      "Ĵ": 167,
      "ĵ": 168,
      "Ķ": 169,
      "ķ": 170,
      "ĸ": 171,
      "Ĺ": 172,
      "ĺ": 173,
      "Ļ": 174,
      "ļ": 175,
      "Ľ": 176,
      "ľ": 177,
      "Ŀ": 178,
      "ŀ": 179,
      "Ł": 180,
      "ł": 181,
      "Ń": 182,
      "Ġt": 183,
      "Ġa": 184,
      "he": 185,
      "in": 186,
      "Ġthe": 187,
      "re": 188,
      "Ġo": 189,
      "Ġs": 190,
      "Ġ.": 191,
      "er": 192,
      "Ġw": 193,
      "Ġc": 194,
      "on": 195,
      "at": 196,
      "Ġ,": 197,
      "Ġb": 198,
      "an": 199,
      "en": 200,
      "Ġp": 201,
      "it": 202,
      "is": 203,
      "ed": 204,
      "Ġf": 205,
      "Ġin": 206,
      "Ġm": 207,
      "es": 208,
      "or": 209,
      "Ġan": 210,
      "Ġof": 211,
      "al": 212,
      "ar": 213,
      "Ġd": 214,
      "ou": 215,
      "ing": 216,
      "Ġh": 217,
      "ic": 218,
      "Ġand": 219,
      "Ġto": 220,
      "Ġl": 221,
      "as": 222,
      "ion": 223,
      "ro": 224,
      "Ġ\"": 225,
      "Ġth": 226,
      "Ġn": 227,
      "Ġg": 228,
      "Ġe": 229,
      "le": 230,
      "Ġre": 231,
      "ent": 232,
      "om": 233,
      "il": 234,
      "st": 235,
      "Ġbe": 236,
      "ve": 237,
      "ly": 238,
      "ct": 239,
      "Ġu": 240,
      "id": 241,
      "ol": 242,
      "Ġis": 243,
      "am": 244,
      "Ġon": 245,
      "Ġst": 246,
      "et": 247,
      "Ġfor": 248,
      "ad": 249,
      "im": 250,
      "Ġy": 251,
      "ot": 252,
      "Ġhe": 253,
      "Ġ1": 254,
      "ig": 255,
      "ut": 256,
      "Ġwh": 257,
      "ch": 258,
      "ation": 259,
      "ow": 260,
      "ce": 261,
      "Ġthat": 262,
      "Ġas": 263,
      "Ġit": 264,
      "ur": 265,
      "se": 266,
      "'s": 267,
      "ay": 268,
      "ver": 269,
      "ir": 270,
      "Ġr": 271,
      "Ġwas": 272,
      "Ġal": 273,
      "Ġ-": 274,
      "Ġ?": 275,
      "ith": 276,
      "el": 277,
      "ul": 278,
      "Ġcon": 279,
      "Ġwith": 280,
      "ter": 281,
      "her": 282,
      "Ġde": 283,
      "Ġpro": 284,
      "Ġk": 285,
      "ist": 286,
      "Ġby": 287,
      "Ġyou": 288,
      "Ġ(": 289,
      "Ġ)": 290,
      "Ġsu": 291,
      "Ġse": 292,
      "Ġj": 293,
      "Ġcom": 294,
      "ere": 295,
      "ra": 296,
      "Ġv": 297,
      "Ġmo": 298,
      "Ġare": 299,
      "us": 300,
      "th": 301,
      "Ġch": 302,
      "op": 303,
      "if": 304,
      "and": 305,
      "Ġor": 306,
      "ers": 307,
      "Ġat": 308,
      "ri": 309,
      "rom": 310,
      "um": 311,
      "Ġun": 312,
      "ac": 313,
      "oun": 314,
      "Ġ2": 315,
      "ag": 316,
      "ld": 317,
      "em": 318,
      "est": 319,
      "Ġex": 320,
      "Ġ19": 321,
      "ate": 322,
      "ain": 323,
      "un": 324,
      "Ġne": 325,
      "os": 326,
      "od": 327,
      "ant": 328,
      "Ġfrom": 329,
      "res": 330,
      "Ġha": 331,
      "ies": 332,
      "igh": 333,
      "ab": 334,
      "qu": 335,
      "pp": 336,
      "ill": 337,
      "ity": 338,
      "ak": 339,
      "Ġsp": 340,
      "ud": 341,
      "ment": 342,
      "iv": 343,
      "oc": 344,
      "ive": 345,
      "Ġhis": 346,
      "art": 347,
      "00": 348,
      "ort": 349,
      "ess": 350,
      "Ġthis": 351,
      "all": 352,
      "ich": 353,
      "Ġnot": 354,
      "Ġsh": 355,
      "Ġi": 356,
      "Ġar": 357,
      "Ġle": 358,
      "ial": 359,
      "Ġpl": 360,
      "Ġen": 361,
      "Ġgo": 362,
      "ian": 363,
      "Ġhave": 364,
      "gh": 365,
      "Ġwor": 366,
      "Ġdo": 367,
      "ight": 368,
      "ap": 369,
      "ical": 370,
      "Ġwhe": 371,
      "ect": 372,
      "Ġwere": 373,
      "ther": 374,
      "red": 375,
      "ard": 376,
      "ated": 377,
      "Ġwhich": 378,
      "Ġthey": 379,
      "ia": 380,
      "ge": 381,
      "Ġcan": 382,
      "ome": 383,
      "ber": 384,
      "ast": 385,
      "Ġsa": 386,
      "ie": 387,
      "Ġus": 388,
      "ear": 389,
      "Ġab": 390,
      "ould": 391,
      "ough": 392,
      "ell": 393,
      "ust": 394,
      "ame": 395,
      "Ġwhat": 396,
      "Ġtr": 397,
      "Ġcomp": 398,
      "our": 399,
      "der": 400,
      "Ġone": 401,
      "ok": 402,
      "ine": 403,
      "ions": 404,
      "cl": 405,
      "ip": 406,
      "ary": 407,
      "Ġad": 408,
      "Ġhas": 409,
      "og": 410,
      "ure": 411,
      "ound": 412,
      "Ġcl": 413,
      "pt": 414,
      "Ġbut": 415,
      "Ġall": 416,
      "Ġint": 417,
      "ong": 418,
      "so": 419,
      "Ġman": 420,
      "Ġaf": 421,
      "Ġwe": 422,
      "ous": 423,
      "Ġthere": 424,
      "per": 425,
      "Ġâ": 426,
      "ish": 427,
      "Ġwho": 428,
      "Ġro": 429,
      "ide": 430,
      "cc": 431,
      "Ġcont": 432,
      "out": 433,
      "Ġtheir": 434,
      "end": 435,
      "ans": 436,
      "Ġother": 437,
      "ke": 438,
      "Ġhad": 439,
      "Ġme": 440,
      "Ġalso": 441,
      "ĠâĢ": 442,
      "Ġam": 443,
      "iz": 444,
      "ack": 445,
      "Ġno": 446,
      "ore": 447,
      "Ġpart": 448,
      "ry": 449,
      "ub": 450,
      "Ġsc": 451,
      "Ġte": 452,
      "rit": 453,
      "ally": 454,
      "Ġli": 455,
      "Ġper": 456,
      "ations": 457,
      "du": 458,
      "Ġim": 459,
      "Ġ20": 460,
      "ign": 461,
      "ice": 462,
      "ass": 463,
      "Ġnew": 464,
      "Ġgr": 465,
      "Ġmore": 466,
      "Ġres": 467,
      "age": 468,
      "Ġsaid": 469,
      "Ġbec": 470,
      "Ġcomm": 471,
      "ult": 472,
      "act": 473,
      "Ġyear": 474,
      "Ġsome": 475,
      "ater": 476,
      "Ġits": 477,
      "ren": 478,
      "Ġso": 479,
      "Ġfir": 480,
      "Ġco": 481,
      "pl": 482,
      "ime": 483,
      "Ġag": 484,
      "av": 485,
      "Ġdis": 486,
      "ang": 487,
      "ount": 488,
      "Ġtw": 489,
      "Ġform": 490,
      "own": 491,
      "Ġpe": 492,
      "Ġfirst": 493,
      "ition": 494,
      "ction": 495,
      "vel": 496,
      "Ġbo": 497,
      "Ġout": 498,
      "ates": 499,
      "ence": 500,
      "Ġbeen": 501,
      "ire": 502,
      "Ġind": 503,
      "Ġapp": 504,
      "ue": 505,
      "Ġup": 506,
      "ord": 507,
      "Ġkn": 508,
      "one": 509,
      "Ġ:": 510,
      "au": 511,
      "Ġmar": 512,
      "Ġcol": 513,
      "'t": 514,
      "ree": 515,
      "ff": 516,
      "Ġshe": 517,
      "ru": 518,
      "Ġsy": 519,
      "ory": 520,
      "clud": 521,
      "ib": 522,
      "ace": 523,
      "Ġev": 524,
      "Ġover": 525,
      "Ġoff": 526,
      "Ġpo": 527,
      "ance": 528,
      "Ġrec": 529,
      "Ġlo": 530,
      "ec": 531,
      "Ġwhen": 532,
      "ach": 533,
      "Ġafter": 534,
      "ks": 535,
      "Ġcent": 536,
      "ake": 537,
      "Ġ;": 538,
      "erm": 539,
      "orm": 540,
      "Ġhow": 541,
      "Ġtwo": 542,
      "Ġthan": 543,
      "hed": 544,
      "Ġbl": 545,
      "able": 546,
      "Ġinclud": 547,
      "ile": 548,
      "ph": 549,
      "Ġpres": 550,
      "ens": 551,
      "ents": 552,
      "we": 553,
      "ors": 554,
      "vers": 555,
      "ric": 556,
      "Ġrep": 557,
      "Ġmost": 558,
      "Ġ201": 559,
      "tern": 560,
      "Ġwould": 561,
      "ose": 562,
      "Ġser": 563,
      "ond": 564,
      "Ġdes": 565,
      "Ġlike": 566,
      "Ġsuch": 567,
      "Ġ200": 568,
      "Ġabout": 569,
      "Ġfe": 570,
      "Ġpre": 571,
      "Ġem": 572,
      "Ġher": 573,
      "ts": 574,
      "Ġthem": 575,
      "ced": 576,
      "ind": 577,
      "Ġpr": 578,
      "Ġele": 579,
      "Ġtime": 580,
      "Ġgen": 581,
      "ah": 582,
      "Ġpol": 583,
      "ll": 584,
      "Ġwhere": 585,
      "lic": 586,
      "Ġear": 587,
      "ces": 588,
      "ite": 589,
      "Ġwill": 590,
      "Ġ3": 591,
      "Ġqu": 592,
      "are": 593,
      "ade": 594,
      "Ġmay": 595,
      "Ġbet": 596,
      "very": 597,
      "ational": 598,
      "Ġbr": 599,
      "Ġph": 600,
      "land": 601,
      "Ġinto": 602,
      "ved": 603,
      "ase": 604,
      "Ġcons": 605,
      "Ġmany": 606,
      "ited": 607,
      "wn": 608,
      "te": 609,
      "Ġrel": 610,
      "Ġpeop": 611,
      "Ġ18": 612,
      "uring": 613,
      "Ġacc": 614,
      "low": 615,
      "Ġthese": 616,
      "Ġused": 617,
      "ild": 618,
      "Ġcar": 619,
      "Ġplay": 620,
      "Ġwork": 621,
      "Ġimp": 622,
      "Ġpeople": 623,
      "amp": 624,
      "Ġla": 625,
      "ĠâĢĵ": 626,
      "reat": 627,
      "Ġ'": 628,
      "Ġwar": 629,
      "ck": 630,
      "ied": 631,
      "ings": 632,
      "Ġonly": 633,
      "ism": 634,
      "Ġsch": 635,
      "Ġreg": 636,
      "Ġcount": 637,
      "Ġatt": 638,
      "Ġdid": 639,
      "les": 640,
      "ep": 641,
      "ered": 642,
      "Ġunder": 643,
      "Ġstud": 644,
      "ular": 645,
      "ays": 646,
      "olog": 647,
      "ress": 648,
      "ted": 649,
      "ail": 650,
      "Ġact": 651,
      "iff": 652,
      "old": 653,
      "na": 654,
      "vern": 655,
      "Ġoh": 656,
      "ath": 657,
      "eric": 658,
      "ons": 659,
      "Ġsec": 660,
      "Ġinf": 661,
      "rib": 662,
      "Ġpop": 663,
      "Ġworld": 664,
      "als": 665,
      "ious": 666,
      "Ġhim": 667,
      "Ġcall": 668,
      "iss": 669,
      "Ġfl": 670,
      "Ġduring": 671,
      "ased": 672,
      "Ġyears": 673,
      "Ġsee": 674,
      "ood": 675,
      "Ġref": 676,
      "Ġgovern": 677,
      "Ġjo": 678,
      "rop": 679,
      "Ġprodu": 680,
      "eren": 681,
      "Ġright": 682,
      "ause": 683,
      "Ġtra": 684,
      "Ġsub": 685,
      "Ġac": 686,
      "Ġnum": 687,
      "Ġif": 688,
      "gan": 689,
      "ident": 690,
      "tle": 691,
      "ink": 692,
      "Ġlar": 693,
      "Ġthr": 694,
      "ative": 695,
      "Ġfr": 696,
      "Ġpar": 697,
      "Ġwell": 698,
      "Ġinc": 699,
      "oth": 700,
      "Ġexp": 701,
      "ween": 702,
      "Ġbetween": 703,
      "Ġbu": 704,
      "oup": 705,
      "ific": 706,
      "ft": 707,
      "stem": 708,
      "gr": 709,
      "Ġma": 710,
      "urn": 711,
      "Ġeng": 712,
      "Ġmin": 713,
      "Ġrem": 714,
      "Ġdiff": 715,
      "ten": 716,
      "ics": 717,
      "Ġmon": 718,
      "Ġnow": 719,
      "Ġ4": 720,
      "ool": 721,
      "Ġsystem": 722,
      "Ġthen": 723,
      "Ġok": 724,
      "Ġpub": 725,
      "ick": 726,
      "Ġthrough": 727,
      "Ġass": 728,
      "ities": 729,
      "Ġdef": 730,
      "Ġdon": 731,
      "ists": 732,
      "Ġtrans": 733,
      "Ġameric": 734,
      "ject": 735,
      "ys": 736,
      "Ġsm": 737,
      "Ġyour": 738,
      "Ġget": 739,
      "Ġgener": 740,
      "Ġinst": 741,
      "Ġany": 742,
      "Ġsupp": 743,
      "ual": 744,
      "Ġob": 745,
      "Ġwant": 746,
      "Ġhere": 747,
      "Ġuse": 748,
      "ĠâĢĶ": 749,
      "Ġmet": 750,
      "Ġstates": 751,
      "Ġokay": 752,
      "Ġ199": 753,
      "Ġchar": 754,
      "Ġmu": 755,
      "ient": 756,
      "ating": 757,
      "Ġspec": 758,
      "Ġwhile": 759,
      "Ġ5": 760,
      ",\"": 761,
      "orn": 762,
      "Ġjust": 763,
      "ince": 764,
      "Ġed": 765,
      "Ġcould": 766,
      "Ġstate": 767,
      "Ġgovernment": 768,
      "Ġfound": 769,
      "iet": 770,
      "Ġz": 771,
      "Ġschool": 772,
      "Ġfol": 773,
      "Ġinv": 774,
      "other": 775,
      "Ġhigh": 776,
      "ution": 777,
      "ury": 778,
      "ix": 779,
      "Ġbecause": 780,
      "Ġagain": 781,
      "Ġgroup": 782,
      "Ġpos": 783,
      "ting": 784,
      "Ġinter": 785,
      "Ġlit": 786,
      "hes": 787,
      "Ġ%": 788,
      "velop": 789,
      "io": 790,
      "Ġdec": 791,
      "yp": 792,
      "ines": 793,
      "Ġhist": 794,
      "Ġmem": 795,
      "Ġcalled": 796,
      "ict": 797,
      "Ġset": 798,
      "ily": 799,
      "Ġadd": 800,
      "Ġthree": 801,
      "Ġmade": 802,
      "Ġdevelop": 803,
      "Ġfin": 804,
      "uc": 805,
      "Ġmus": 806,
      "Ġsou": 807,
      "ever": 808,
      "ished": 809,
      "Ġback": 810,
      "Ġlet": 811,
      "ward": 812,
      "fore": 813,
      "Ġlook": 814,
      "ivers": 815,
      "Ġsur": 816,
      "Ġcity": 817,
      "Ġend": 818,
      "Ġbro": 819,
      "Ġair": 820,
      "Ġeu": 821,
      "Ġdist": 822,
      "ower": 823,
      "Ġelect": 824,
      "ise": 825,
      "Ġfollow": 826,
      "Ġknown": 827,
      "Ġ!": 828,
      "Ġhowever": 829,
      "Ġsim": 830,
      "Ġlater": 831,
      "Ġput": 832,
      "Ġfil": 833,
      "Ġunited": 834,
      "ures": 835,
      "Ġboth": 836,
      "row": 837,
      "Ġprov": 838,
      "ually": 839,
      "sel": 840,
      "Ġfun": 841,
      "'re": 842,
      "Ġgu": 843,
      "Ġbeing": 844,
      "Ġdep": 845,
      "ife": 846,
      "ock": 847,
      "int": 848,
      "Ġgood": 849,
      "tain": 850,
      "li": 851,
      "Ġlong": 852,
      "ving": 853,
      "Ġcap": 854,
      "cept": 855,
      "000": 856,
      "Ġnor": 857,
      "Ġknow": 858,
      "ty": 859,
      "Ġwrit": 860,
      "Ġeff": 861,
      "Ġdifferen": 862,
      "Ġmil": 863,
      "ins": 864,
      "Ġvar": 865,
      "Ġmed": 866,
      "hip": 867,
      "Ġ/": 868,
      "Ġent": 869,
      "Ġ6": 870,
      "Ġsign": 871,
      "Ġest": 872,
      "ized": 873,
      "Ġsince": 874,
      "Ġye": 875,
      "Ġlaw": 876,
      "Ġbel": 877,
      "Ġconst": 878,
      "Ġthose": 879,
      "Ġart": 880,
      "its": 881,
      "ters": 882,
      "ost": 883,
      "Ġext": 884,
      "omet": 885,
      "Ġloc": 886,
      "ather": 887,
      "ble": 888,
      "Ġdown": 889,
      "Ġarm": 890,
      "Ġincluding": 891,
      "ug": 892,
      "Ġearly": 893,
      "ange": 894,
      "Ġ198": 895,
      "Ġnational": 896,
      "Ġhel": 897,
      "Ġsoc": 898,
      "Ġfam": 899,
      "ral": 900,
      "Ġnumber": 901,
      "ning": 902,
      "ically": 903,
      "Ġaut": 904,
      "Ġmy": 905,
      "con": 906,
      "imes": 907,
      "cess": 908,
      "Ġmain": 909,
      "ful": 910,
      "ments": 911,
      "Ġcre": 912,
      ".\"": 913,
      "Ġlead": 914,
      "ton": 915,
      "iel": 916,
      "cy": 917,
      "ne": 918,
      "ible": 919,
      "ined": 920,
      "man": 921,
      "Ġke": 922,
      "ract": 923,
      "Ġmake": 924,
      "Ġcentury": 925,
      "Ġshow": 926,
      "Ġpers": 927,
      "Ġdoes": 928,
      "Ġyeah": 929,
      "illion": 930,
      "Ġbefore": 931,
      "led": 932,
      "Ġop": 933,
      "Ġown": 934,
      "ants": 935,
      "Ġintern": 936,
      "Ġbecame": 937,
      "ale": 938,
      "Ġgerm": 939,
      "co": 940,
      "Ġhum": 941,
      "ros": 942,
      "bers": 943,
      "Ġsecond": 944,
      "ium": 945,
      "Ġmat": 946,
      "Ġbook": 947,
      "day": 948,
      "Ġconf": 949,
      "ron": 950,
      "Ġ197": 951,
      "Ġvery": 952,
      "any": 953,
      "Ġfilm": 954,
      "hing": 955,
      "Ġdire": 956,
      "ural": 957,
      "ank": 958,
      "gest": 959,
      "Ġcal": 960,
      "Ġeven": 961,
      "ames": 962,
      "Ġthough": 963,
      "Ġoper": 964,
      "Ġel": 965,
      "Ġpa": 966,
      "til": 967,
      "Ġlang": 968,
      "Ġterm": 969,
      "aking": 970,
      "Ġfour": 971,
      "Ġunivers": 972,
      "Ġmaj": 973,
      "Ġeurop": 974,
      "ds": 975,
      "Ġeach": 976,
      "Ġsame": 977,
      "Ġprot": 978,
      "way": 979,
      "ouse": 980,
      "Ġrom": 981,
      "ially": 982,
      "Ġoffic": 983,
      "Ġstr": 984,
      "Ġthink": 985,
      "ves": 986,
      "Ġeurope": 987,
      "Ġret": 988,
      "Ġdem": 989,
      "Ġsl": 990,
      "Ġcr": 991,
      "Ġsay": 992,
      "ork": 993,
      "Ġgre": 994,
      "Ġmuch": 995,
      "ision": 996,
      "Ġchild": 997,
      "Ġlangu": 998,
      "ues": 999,
      "Ġclass": 1000,
      "Ġ7": 1001,
      "ians": 1002,
      "Ġleg": 1003,
      "Ġanother": 1004,
      "ger": 1005,
      "ology": 1006,
      "Ġtyp": 1007,
      "Ġaround": 1008,
      "ages": 1009,
      "Ġhelp": 1010,
      "form": 1011,
      "Ġorig": 1012,
      "Ġpartic": 1013,
      "Ġmajor": 1014,
      "Ġcontin": 1015,
      "get": 1016,
      "arch": 1017,
      "ave": 1018,
      "Ġwater": 1019,
      "Ġsever": 1020,
      "Ġcor": 1021,
      "Ġbrit": 1022,
      "Ġcolle": 1023,
      "Ġlarge": 1024,
      "Ġche": 1025,
      "Ġ196": 1026,
      "uss": 1027,
      "Ġking": 1028,
      "ility": 1029,
      "Ġoften": 1030,
      "ives": 1031,
      "Ġday": 1032,
      "Ġ8": 1033,
      "ven": 1034,
      "Ġamerican": 1035,
      "Ġpublic": 1036,
      "Ġcommun": 1037,
      "Ġdifferent": 1038,
      "osed": 1039,
      "ared": 1040,
      "Ġresp": 1041,
      "Ġneed": 1042,
      "Ġins": 1043,
      "Ġlittle": 1044,
      "ulation": 1045,
      "Ġseveral": 1046,
      "Ġcountry": 1047,
      "Ġsmall": 1048,
      "xt": 1049,
      "erg": 1050,
      "Ġpresident": 1051,
      "Ġresult": 1052,
      "Ġold": 1053,
      "gram": 1054,
      "iew": 1055,
      "Ġcommon": 1056,
      "Ġsw": 1057,
      "Ġcur": 1058,
      "ording": 1059,
      "Ġcontro": 1060,
      "Ġagainst": 1061,
      "lished": 1062,
      "lish": 1063,
      "Ġdesc": 1064,
      "Ġname": 1065,
      "ature": 1066,
      "Ġway": 1067,
      "Ġ17": 1068,
      "Ġsomet": 1069,
      "Ġnorth": 1070,
      "Ġ10": 1071,
      "Ġincre": 1072,
      "Ġgl": 1073,
      "Ġsupport": 1074,
      "Ġlife": 1075,
      "ars": 1076,
      "Ġcomple": 1077,
      "Ġpri": 1078,
      "Ġsouth": 1079,
      "Ġdirect": 1080,
      "Ġlast": 1081,
      "ired": 1082,
      "cer": 1083,
      "ina": 1084,
      "Ġprogram": 1085,
      "ruct": 1086,
      "ived": 1087,
      "Ġorigin": 1088,
      "Ġval": 1089,
      "Ġplan": 1090,
      "Ġap": 1091,
      "up": 1092,
      "Ġir": 1093,
      "Ġevery": 1094,
      "ula": 1095,
      "Ġcour": 1096,
      "Ġgreat": 1097,
      "Ġpower": 1098,
      "Ġmod": 1099,
      "az": 1100,
      "Ġorgan": 1101,
      "Ġstill": 1102,
      "Ġstart": 1103,
      "Ġhand": 1104,
      "Ġequ": 1105,
      "Ġland": 1106,
      "oy": 1107,
      "Ġocc": 1108,
      "Ġdet": 1109,
      "Ġ15": 1110,
      "rist": 1111,
      "ries": 1112,
      "Ġpolit": 1113,
      "air": 1114,
      "Ġspe": 1115,
      "Ġimport": 1116,
      "Ġconsid": 1117,
      "ample": 1118,
      "ull": 1119,
      "Ġstand": 1120,
      "Ġ>": 1121,
      "Ġuntil": 1122,
      "Ġserv": 1123,
      "Ġsing": 1124,
      "Ġfar": 1125,
      "vent": 1126,
      "Ġtake": 1127,
      "Ġtrad": 1128,
      "Ġ9": 1129,
      "Ġge": 1130,
      "Ġmark": 1131,
      "Ġcome": 1132,
      "Ġdesign": 1133,
      "Ġ$": 1134,
      "ute": 1135,
      "Ġecon": 1136,
      "Ġeconom": 1137,
      "Ġexper": 1138,
      "ised": 1139,
      "Ġbased": 1140,
      "cent": 1141,
      "ier": 1142,
      "Ġaccording": 1143,
      "chn": 1144,
      "Ġread": 1145,
      "Ġopen": 1146,
      "though": 1147,
      "Ġallow": 1148,
      "hn": 1149,
      "Ġchrist": 1150,
      "Ġremain": 1151,
      "Ġdr": 1152,
      "Ġnear": 1153,
      "anc": 1154,
      "ason": 1155,
      "Ġalthough": 1156,
      "rent": 1157,
      "ided": 1158,
      "Ġrele": 1159,
      "Ġrequ": 1160,
      "Ġ<": 1161,
      "Ġpass": 1162,
      "Ġteam": 1163,
      "Ġpat": 1164,
      "Ġmillion": 1165,
      "Ġca": 1166,
      "ob": 1167,
      "Ġhouse": 1168,
      "raph": 1169,
      "Ġrese": 1170,
      "Ġrun": 1171,
      "iod": 1172,
      "Ġbas": 1173,
      "Ġann": 1174,
      "Ġbus": 1175,
      "Ġbar": 1176,
      "Ġprop": 1177,
      "Ġbig": 1178,
      "ience": 1179,
      "Ġhome": 1180,
      "Ġhead": 1181,
      "br": 1182,
      "Ġuniversity": 1183,
      "Ġexample": 1184,
      "read": 1185,
      "Ġisland": 1186,
      "ued": 1187,
      "Ġsol": 1188,
      "Ġes": 1189,
      "Ġrev": 1190,
      "ital": 1191,
      "Ġmoder": 1192,
      "Ġgeneral": 1193,
      "Ġ16": 1194,
      "ross": 1195,
      "hen": 1196,
      "atic": 1197,
      "Ġshould": 1198,
      "self": 1199,
      "Ġamong": 1200,
      "Ġeffect": 1201,
      "iver": 1202,
      "Ġsk": 1203,
      "Ġtechn": 1204,
      "Ġmusic": 1205,
      "Ġwom": 1206,
      "Ġperson": 1207,
      "Ġrecord": 1208,
      "Ġmid": 1209,
      "ets": 1210,
      "son": 1211,
      "ional": 1212,
      "Ġant": 1213,
      "Ġtoo": 1214,
      "Ġmilit": 1215,
      "Ġhistory": 1216,
      "urch": 1217,
      "orts": 1218,
      "Ġrad": 1219,
      "Ġer": 1220,
      "ody": 1221,
      "ccess": 1222,
      "Ġbelie": 1223,
      "min": 1224,
      "Ġjohn": 1225,
      "Ġ194": 1226,
      "Ġcult": 1227,
      "Ġrest": 1228,
      "mber": 1229,
      "Ġperiod": 1230,
      "Ġnon": 1231,
      "ides": 1232,
      "Ġfact": 1233,
      "ik": 1234,
      "Ġav": 1235,
      "Ġexpl": 1236,
      "Ġfre": 1237,
      "Ġinclude": 1238,
      "ield": 1239,
      "Ġposs": 1240,
      "Ġbegan": 1241,
      "Ġdiv": 1242,
      "Ġter": 1243,
      "onna": 1244,
      "ner": 1245,
      "Ġcharact": 1246,
      "Ġturn": 1247,
      "Ġmag": 1248,
      "alth": 1249,
      "omm": 1250,
      "els": 1251,
      "Ġtri": 1252,
      "Ġusing": 1253,
      "Ġfollowing": 1254,
      "Ġhar": 1255,
      "Ġgoing": 1256,
      "Ġbat": 1257,
      "Ġfore": 1258,
      "aim": 1259,
      "oney": 1260,
      "Ġprocess": 1261,
      "Ġopp": 1262,
      "Ġhun": 1263,
      "ene": 1264,
      "Ġvis": 1265,
      "Ġappro": 1266,
      "Ġbuild": 1267,
      "akes": 1268,
      "ified": 1269,
      "Ġmodern": 1270,
      "Ġparty": 1271,
      "Ġmove": 1272,
      "ned": 1273,
      "'ll": 1274,
      "Ġadv": 1275,
      "inc": 1276,
      "ov": 1277,
      "itions": 1278,
      "lu": 1279,
      "ha": 1280,
      "Ġsuccess": 1281,
      "ently": 1282,
      "alk": 1283,
      "omin": 1284,
      "Ġx": 1285,
      "ices": 1286,
      "ement": 1287,
      "imate": 1288,
      "Ġgiv": 1289,
      "Ġinternational": 1290,
      "Ġ12": 1291,
      "Ġgame": 1292,
      "Ġgonna": 1293,
      "ission": 1294,
      "Ġarea": 1295,
      "Ġ195": 1296,
      "Ġje": 1297,
      "Ġdeath": 1298,
      "Ġless": 1299,
      "Ġchildren": 1300,
      "Ġperform": 1301,
      "ected": 1302,
      "Ġreal": 1303,
      "ret": 1304,
      "Ġformula": 1305,
      "Ġpopulation": 1306,
      "Ġhuman": 1307,
      "ote": 1308,
      "ms": 1309,
      "Ġwithin": 1310,
      "mb": 1311,
      "the": 1312,
      "Ġste": 1313,
      "ases": 1314,
      "Ġbritish": 1315,
      "ize": 1316,
      "Ġdra": 1317,
      "Ġsit": 1318,
      "oot": 1319,
      "ird": 1320,
      "Ġauth": 1321,
      "Ġrepres": 1322,
      "Ġve": 1323,
      "ended": 1324,
      "Ġcamp": 1325,
      "Ġlanguage": 1326,
      "ization": 1327,
      "Ġcrit": 1328,
      "Ġide": 1329,
      "Ġseries": 1330,
      "Ġeas": 1331,
      "Ã©": 1332,
      "Ġta": 1333,
      "Ġwest": 1334,
      "Ġtem": 1335,
      "ness": 1336,
      "Ġport": 1337,
      "Ġlat": 1338,
      "Ġmilitary": 1339,
      "bs": 1340,
      "Ġgot": 1341,
      "Ġbre": 1342,
      "Ġstat": 1343,
      "eng": 1344,
      "Ġrece": 1345,
      "ley": 1346,
      "ense": 1347,
      "used": 1348,
      "Ġcle": 1349,
      "Ġdue": 1350,
      "Ġestab": 1351,
      "Ġblack": 1352,
      "Ġfamily": 1353,
      "me": 1354,
      "iation": 1355,
      "Ġmembers": 1356,
      "Ġcat": 1357,
      "Ġfew": 1358,
      "ured": 1359,
      "Ġra": 1360,
      "ying": 1361,
      "Ġplace": 1362,
      "Ġang": 1363,
      "ark": 1364,
      "Ġcoun": 1365,
      "amed": 1366,
      "Ġscient": 1367,
      "Ġpopular": 1368,
      "Ġdescrib": 1369,
      "Ġhistor": 1370,
      "Ġanim": 1371,
      "ont": 1372,
      "Ġsal": 1373,
      "Ġfind": 1374,
      "Ġalong": 1375,
      "Ġproble": 1376,
      "Ġwin": 1377,
      "Ġled": 1378,
      "Ġgerman": 1379,
      "Ġstudents": 1380,
      "Ġimportant": 1381,
      "Ġphil": 1382,
      "ane": 1383,
      "Ġcare": 1384,
      "Ġdisc": 1385,
      "ilar": 1386,
      "Ġmen": 1387,
      "Ġtele": 1388,
      "Ġred": 1389,
      "Ġpolitical": 1390,
      "ator": 1391,
      "Ġmean": 1392,
      "Ġchang": 1393,
      "Ġafric": 1394,
      "Ġii": 1395,
      "gin": 1396,
      "Ġgrow": 1397,
      "Ġprof": 1398,
      "erv": 1399,
      "ency": 1400,
      "ids": 1401,
      "Ġsimilar": 1402,
      "por": 1403,
      "Ġinflu": 1404,
      "ought": 1405,
      "Ġaff": 1406,
      "iam": 1407,
      "Ġtest": 1408,
      "Ġlab": 1409,
      "bo": 1410,
      "ged": 1411,
      "Ġfive": 1412,
      "Ġleft": 1413,
      "Ġenglish": 1414,
      "Ġtook": 1415,
      "ash": 1416,
      "Ġhig": 1417,
      "Ġarg": 1418,
      "Ġassoc": 1419,
      "Ġhal": 1420,
      "Ġtop": 1421,
      "Ġreturn": 1422,
      "Ġhu": 1423,
      "be": 1424,
      "Ġtradition": 1425,
      "ama": 1426,
      "rench": 1427,
      "Ġchurch": 1428,
      "Ġlevel": 1429,
      "Ġlim": 1430,
      "mer": 1431,
      "Ġorder": 1432,
      "ament": 1433,
      "sp": 1434,
      "Ġaddition": 1435,
      "Ġsocial": 1436,
      "Ġwithout": 1437,
      "que": 1438,
      "Ġrelig": 1439,
      "Ġfood": 1440,
      "ember": 1441,
      "Ġdel": 1442,
      "Ġwhite": 1443,
      "Ġtimes": 1444,
      "Ġreport": 1445,
      "une": 1446,
      "Ġrepresent": 1447,
      "ration": 1448,
      "Ġju": 1449,
      "Ġ193": 1450,
      "Ġcontrol": 1451,
      "Ġlight": 1452,
      "Ġnet": 1453,
      "Ġmonth": 1454,
      "Ġspace": 1455,
      "Ġeduc": 1456,
      "rodu": 1457,
      "Ġnat": 1458,
      "ograph": 1459,
      "aced": 1460,
      "Ġ11": 1461,
      "gress": 1462,
      "Ġwee": 1463,
      "Ġiss": 1464,
      "Ġvi": 1465,
      "ann": 1466,
      "Ġparticular": 1467,
      "Ġfrench": 1468,
      "Ġofficial": 1469,
      "Ġgod": 1470,
      "ories": 1471,
      "ister": 1472,
      "Ġcountries": 1473,
      "iety": 1474,
      "Ġcompany": 1475,
      "ats": 1476,
      "Ġaust": 1477,
      "Ġeast": 1478,
      "Ġroman": 1479,
      "ius": 1480,
      "Ġlate": 1481,
      "Ġsuper": 1482,
      "yl": 1483,
      "ards": 1484,
      "Ġwomen": 1485,
      "par": 1486,
      "Ġvol": 1487,
      "Ġvers": 1488,
      "Ġwon": 1489,
      "Ġline": 1490,
      "Ġimm": 1491,
      "Ġindust": 1492,
      "Ġlow": 1493,
      "Ġsix": 1494,
      "Ġsug": 1495,
      "Ġshort": 1496,
      "ling": 1497,
      "Ġhapp": 1498,
      "Ġtreat": 1499,
      "Ġcomput": 1500,
      "'m": 1501,
      "Ġbecome": 1502,
      "ony": 1503,
      "Ġdevelopment": 1504,
      "Ġmust": 1505,
      "aw": 1506,
      "eder": 1507,
      "Ġrepub": 1508,
      "lect": 1509,
      "Ġcame": 1510,
      "Ġpract": 1511,
      "ison": 1512,
      "Ġyoun": 1513,
      "Ġpresent": 1514,
      "by": 1515,
      "Ġfree": 1516,
      "Ġcontain": 1517,
      "Ġpost": 1518,
      "Ġpoint": 1519,
      "Ġrepublic": 1520,
      "Ġlocal": 1521,
      "Ġcomb": 1522,
      "Ġep": 1523,
      "Ġattack": 1524,
      "Ġ14": 1525,
      "ior": 1526,
      "Ġauthor": 1527,
      "ones": 1528,
      "Ġ13": 1529,
      "Ġrul": 1530,
      "Ġdev": 1531,
      "Ġstudy": 1532,
      "ried": 1533,
      "Ġfur": 1534,
      "Ġpur": 1535,
      "Ġarch": 1536,
      "oph": 1537,
      "Ġciv": 1538,
      "Ġview": 1539,
      "Ġbra": 1540,
      "Ġmass": 1541,
      "yn": 1542,
      "Ġbeh": 1543,
      "ots": 1544,
      "ably": 1545,
      "Ġnever": 1546,
      "Ġpercent": 1547,
      "olution": 1548,
      "Ġruss": 1549,
      "ata": 1550,
      "Ġhard": 1551,
      "Ġsun": 1552,
      "oss": 1553,
      "enn": 1554,
      "Ġhy": 1555,
      "Ġcharacter": 1556,
      "Ġgiven": 1557,
      "hod": 1558,
      "Ġproject": 1559,
      "to": 1560,
      "Ġappear": 1561,
      "ese": 1562,
      "ering": 1563,
      "Ġcourt": 1564,
      "Ġclaim": 1565,
      "Ġothers": 1566,
      "estern": 1567,
      "Ġdecl": 1568,
      "Ġcir": 1569,
      "Ġevent": 1570,
      "let": 1571,
      "ript": 1572,
      "Ġconsidered": 1573,
      "Ġformer": 1574,
      "Ġnext": 1575,
      "iness": 1576,
      "Ġkill": 1577,
      "ops": 1578,
      "Ġinform": 1579,
      "Ġcentral": 1580,
      "port": 1581,
      "Ġsays": 1582,
      "Ġbab": 1583,
      "ival": 1584,
      "Ġphys": 1585,
      "Ġeuropean": 1586,
      "Ġhealth": 1587,
      "Ġarmy": 1588,
      "Ġresearch": 1589,
      "ither": 1590,
      "Ġspecial": 1591,
      "side": 1592,
      "augh": 1593,
      "Ġcer": 1594,
      "Ġgra": 1595,
      "Ġident": 1596,
      "Ġsn": 1597,
      "Ġball": 1598,
      "Ġbi": 1599,
      "ode": 1600,
      "epend": 1601,
      "Ġbest": 1602,
      "Ġcivil": 1603,
      "Ġpublished": 1604,
      "rote": 1605,
      "Ġprom": 1606,
      "ball": 1607,
      "uck": 1608,
      "Ġindepend": 1609,
      "Ġour": 1610,
      "Ġhold": 1611,
      "Ġcond": 1612,
      "ipp": 1613,
      "Ġforce": 1614,
      "Ġservice": 1615,
      "Ġprim": 1616,
      "Ġcase": 1617,
      "Ġdri": 1618,
      "Ġmult": 1619,
      "Ġproduct": 1620,
      "Ġband": 1621,
      "anna": 1622,
      "ining": 1623,
      "ze": 1624,
      "Ġage": 1625,
      "erc": 1626,
      "Ġyes": 1627,
      "Ġsum": 1628,
      "Ġusually": 1629,
      "Ġexist": 1630,
      "Ġinvol": 1631,
      "Ġmot": 1632,
      "ctor": 1633,
      "Ġwhy": 1634,
      "ends": 1635,
      "less": 1636,
      "cil": 1637,
      "Ġmic": 1638,
      "ological": 1639,
      "Ġ192": 1640,
      "Ġworks": 1641,
      "Ġchange": 1642,
      "Ġearth": 1643,
      "ality": 1644,
      "Ġrepl": 1645,
      "ened": 1646,
      "ively": 1647,
      "Ġsour": 1648,
      "Ġwrote": 1649,
      "ler": 1650,
      "ument": 1651,
      "Ġinit": 1652,
      "Ġheld": 1653,
      "Ġconn": 1654,
      "iving": 1655,
      "tal": 1656,
      "Ġhaving": 1657,
      "Ġmal": 1658,
      "Ġsingle": 1659,
      "hers": 1660,
      "Ġyork": 1661,
      "ove": 1662,
      "ploy": 1663,
      "work": 1664,
      "Ġcurrent": 1665,
      "Ġtoday": 1666,
      "Ġmor": 1667,
      "Ġpap": 1668,
      "amm": 1669,
      "Ġprev": 1670,
      "ribut": 1671,
      "Ġvarious": 1672,
      "Ġalb": 1673,
      "Ġlargest": 1674,
      "ump": 1675,
      "ilt": 1676,
      "Ġstar": 1677,
      "sc": 1678,
      "Ġunion": 1679,
      "Ġfurther": 1680,
      "bert": 1681,
      "Ġmaking": 1682,
      "Ġintrodu": 1683,
      "ances": 1684,
      "Ġlist": 1685,
      "empt": 1686,
      "Ġproper": 1687,
      "aces": 1688,
      "Ġaug": 1689,
      "Ġmiss": 1690,
      "Ġdoing": 1691,
      "Ġpet": 1692,
      "Ġactiv": 1693,
      "gg": 1694,
      "Ġmight": 1695,
      "Ġdeveloped": 1696,
      "Ġreleased": 1697,
      "Ġpress": 1698,
      "Ġredu": 1699,
      "mit": 1700,
      "Ġsignific": 1701,
      "Ġaway": 1702,
      "Ġgroups": 1703,
      "Ġsea": 1704,
      "Ġrock": 1705,
      "Ġstre": 1706,
      "Ġjan": 1707,
      "Ġwestern": 1708,
      "Ġincluded": 1709,
      "Ġmethod": 1710,
      "wards": 1711,
      "Ġwat": 1712,
      "Ġstruct": 1713,
      "Ġemp": 1714,
      "Ġpot": 1715,
      "gen": 1716,
      "Ġcost": 1717,
      "Ġmoney": 1718,
      "Ġcirc": 1719,
      "erest": 1720,
      "Ġsat": 1721,
      "ention": 1722,
      "Ġpal": 1723,
      "Ġpain": 1724,
      "ination": 1725,
      "Ġho": 1726,
      "apan": 1727,
      "ae": 1728,
      "ways": 1729,
      "Ġsometimes": 1730,
      "Ġoct": 1731,
      "Ġfeat": 1732,
      "ogn": 1733,
      "most": 1734,
      "Ġstrong": 1735,
      "Ġgive": 1736,
      "Ġtour": 1737,
      "istic": 1738,
      "Ġgames": 1739,
      "Ġnort": 1740,
      "Ġ[": 1741,
      "Ġtit": 1742,
      "Ġoccur": 1743,
      "ien": 1744,
      "ched": 1745,
      "Ġfield": 1746,
      "Ġmeas": 1747,
      "Ġjapan": 1748,
      "ivid": 1749,
      "Ġ]": 1750,
      "ges": 1751,
      "Ġfri": 1752,
      "Ġmount": 1753,
      "Ġengine": 1754,
      "ple": 1755,
      "hem": 1756,
      "Ġital": 1757,
      "ergy": 1758,
      "iated": 1759,
      "Ġbir": 1760,
      "Ġtell": 1761,
      "Ġregion": 1762,
      "Ġur": 1763,
      "Ġthird": 1764,
      "ring": 1765,
      "Ġsystems": 1766,
      "Ġwanna": 1767,
      "Ġinterest": 1768,
      "Ġseason": 1769,
      "Ġgree": 1770,
      "Ġareas": 1771,
      "ster": 1772,
      "Ġclose": 1773,
      "Ġsent": 1774,
      "Ġconstit": 1775,
      "Ġhalf": 1776,
      "Ġtoget": 1777,
      "Ġtogether": 1778,
      "Ġsong": 1779,
      "Ġdi": 1780,
      "Ġtur": 1781,
      "Ġsomething": 1782,
      "Ġbetter": 1783,
      "Ġindivid": 1784,
      "add": 1785,
      "Ġpolic": 1786,
      "Ġesp": 1787,
      "osp": 1788,
      "Ġvir": 1789,
      "Ġproduction": 1790,
      "Ġbusiness": 1791,
      "Ġcell": 1792,
      "Ġsuggest": 1793,
      "Ġ191": 1794,
      "Ġrefer": 1795,
      "Ġrelations": 1796,
      "Ġwent": 1797,
      "dom": 1798,
      "Ġtre": 1799,
      "Ġbody": 1800,
      "ising": 1801,
      "idence": 1802,
      "Ġmater": 1803,
      "Ġmarch": 1804,
      "Ġver": 1805,
      "Ġanc": 1806,
      "Ġanal": 1807,
      "ending": 1808,
      "Ġwide": 1809,
      "Ġjew": 1810,
      "Ġden": 1811,
      "Ġdays": 1812,
      "Ġside": 1813,
      "here": 1814,
      "Ġfeder": 1815,
      "rict": 1816,
      "raft": 1817,
      "Ġforces": 1818,
      "Ġnamed": 1819,
      "Ġpark": 1820,
      "Ġson": 1821,
      "Ġfall": 1822,
      "Ġfoot": 1823,
      "Ġconcer": 1824,
      "Ġword": 1825,
      "ead": 1826,
      "Ġaugust": 1827,
      "Ġriver": 1828,
      "Ġce": 1829,
      "uary": 1830,
      "dle": 1831,
      "Ġsold": 1832,
      "Ġoriginal": 1833,
      "Ġobject": 1834,
      "Ġchina": 1835,
      "ott": 1836,
      "Ġber": 1837,
      "Ġsignificant": 1838,
      "Ġjud": 1839,
      "Ġtheory": 1840,
      "ored": 1841,
      "Ġrole": 1842,
      "ox": 1843,
      "Ġdisco": 1844,
      "Ġeconomic": 1845,
      "itive": 1846,
      "Ġscience": 1847,
      "Ġprofess": 1848,
      "ape": 1849,
      "Ġeducation": 1850,
      "Ġsil": 1851,
      "Ġattempt": 1852,
      "ruction": 1853,
      "Ġthus": 1854,
      "Ġkind": 1855,
      "Ġonce": 1856,
      "lo": 1857,
      "Ġblock": 1858,
      "Ġhen": 1859,
      "Ġsept": 1860,
      "ential": 1861,
      "Ġfather": 1862,
      "ai": 1863,
      "ators": 1864,
      "Ġhop": 1865,
      "Ġtown": 1866,
      "Ġnav": 1867,
      "Ġyoung": 1868,
      "Ġkeep": 1869,
      "Ġru": 1870,
      "Ġinstit": 1871,
      "Ġsepar": 1872,
      "Ġthought": 1873,
      "Ġfull": 1874,
      "Ġobs": 1875,
      "etic": 1876,
      "ague": 1877,
      "Ġinvest": 1878,
      "Ġdece": 1879,
      "Ġlear": 1880,
      "Ġgir": 1881,
      "Ġsound": 1882,
      "Ġestablished": 1883,
      "ada": 1884,
      "Ġenergy": 1885,
      "Ġcolor": 1886,
      "Ġwilliam": 1887,
      "Ġnight": 1888,
      "Ġbur": 1889,
      "Ġtotal": 1890,
      "Ġstory": 1891,
      "Ġ30": 1892,
      "Ġenc": 1893,
      "ming": 1894,
      "Ġwritten": 1895,
      "Ġheav": 1896,
      "Ġinformation": 1897,
      "Ġcenter": 1898,
      "Ġspecies": 1899,
      "Ġmaterial": 1900,
      "Ġmomm": 1901,
      "Ġdest": 1902,
      "gy": 1903,
      "Ġseen": 1904,
      "Ġearli": 1905,
      "Ġnatural": 1906,
      "Ġeither": 1907,
      "Ġdata": 1908,
      "aster": 1909,
      "aken": 1910,
      "Ġrather": 1911,
      "Ġinstead": 1912,
      "Ġlive": 1913,
      "Ġeth": 1914,
      "Ġcreated": 1915,
      "ability": 1916,
      "Ġcouncil": 1917,
      "Ġgreen": 1918,
      "iate": 1919,
      "Ġhol": 1920,
      "Ġalmost": 1921,
      "Ġagre": 1922,
      "Ġproduced": 1923,
      "Ġpriv": 1924,
      "Ġdeb": 1925,
      "Ġwind": 1926,
      "Ġwa": 1927,
      "Ġstandard": 1928,
      "Ġchristian": 1929,
      "Ġask": 1930,
      "Ġban": 1931,
      "ls": 1932,
      "Ġbegin": 1933,
      "Ġsyn": 1934,
      "Ġenv": 1935,
      "Ġcompet": 1936,
      "Ġbuilt": 1937,
      "Ġfire": 1938,
      "Ġeat": 1939,
      "Ġjune": 1940,
      "Ġfunction": 1941,
      "hm": 1942,
      "Ġadmin": 1943,
      "Ġmanag": 1944,
      "Ġcalif": 1945,
      "lin": 1946,
      "Ġthings": 1947,
      "acy": 1948,
      "ril": 1949,
      "Ġrights": 1950,
      "ps": 1951,
      "ches": 1952,
      "Ġ0": 1953,
      "sequ": 1954,
      "Ġdemoc": 1955,
      "Ġsen": 1956,
      "Ġprotect": 1957,
      "Ġschools": 1958,
      "asing": 1959,
      "Ġjanuary": 1960,
      "Ġcop": 1961,
      "bit": 1962,
      "Ġpossible": 1963,
      "Ġcy": 1964,
      "Ġbor": 1965,
      "Ġacross": 1966,
      "Ġbroad": 1967,
      "Ġmommy": 1968,
      "val": 1969,
      "Ġamerica": 1970,
      "Ġleast": 1971,
      "Ġara": 1972,
      "sh": 1973,
      "Ġsty": 1974,
      "Ġsov": 1975,
      "ecially": 1976,
      "Ġespecially": 1977,
      "cing": 1978,
      "Ġcollege": 1979,
      "Ġ25": 1980,
      "line": 1981,
      "Ġimpro": 1982,
      "Ġdescribed": 1983,
      "Ġsan": 1984,
      "Ġcertain": 1985,
      "Ġsoviet": 1986,
      "oms": 1987,
      "Ġgermany": 1988,
      "Ġship": 1989,
      "go": 1990,
      "craft": 1991,
      "Ġvict": 1992,
      "Ġder": 1993,
      "Ġnorm": 1994,
      "ober": 1995,
      "Ġmiddle": 1996,
      "erence": 1997,
      "ware": 1998,
      "Ġpay": 1999,
      "Ġgold": 2000,
      "Ġappe": 2001,
      "Ġweek": 2002,
      "hern": 2003,
      "Ġkingdom": 2004,
      "Ġoctober": 2005,
      "Ġdecember": 2006,
      "Ġseptember": 2007,
      "Ġjuly": 2008,
      "Ġgeor": 2009,
      "Ġdepart": 2010,
      "Ġadminist": 2011,
      "Ġannoun": 2012,
      "Ġord": 2013,
      "Ġhom": 2014,
      "Ġliter": 2015,
      "Ġmarket": 2016,
      "Ġpast": 2017,
      "Ġplayed": 2018,
      "Ġpen": 2019,
      "Ġsuff": 2020,
      "Ġcam": 2021,
      "Ġprinc": 2022,
      "rew": 2023,
      "Ġgrand": 2024,
      "Ġrecogn": 2025,
      "Ġreceived": 2026,
      "gs": 2027,
      "Ġexpress": 2028,
      "Ġaustral": 2029,
      "Ġsqu": 2030,
      "Ġworking": 2031,
      "Ġreally": 2032,
      "Ġtype": 2033,
      "ush": 2034,
      "ta": 2035,
      "right": 2036,
      "yal": 2037,
      "Ġmeans": 2038,
      "ief": 2039,
      "Ġfrequ": 2040,
      "ades": 2041,
      "vered": 2042,
      "Ġable": 2043,
      "Ġtravel": 2044,
      "Ġforeign": 2045,
      "ification": 2046,
      "Ġdied": 2047,
      "ma": 2048,
      "Ġcoast": 2049,
      "lex": 2050,
      "thern": 2051,
      "Ġviol": 2052,
      "Ġmother": 2053,
      "ana": 2054,
      "Ġhit": 2055,
      "Ġprevious": 2056,
      "Ġsel": 2057,
      "sy": 2058,
      "iron": 2059,
      "Ġfrance": 2060,
      "Ġfail": 2061,
      "Ġcaliforn": 2062,
      "uel": 2063,
      "Ġdou": 2064,
      "Ġill": 2065,
      "Ġterrit": 2066,
      "Ġpred": 2067,
      "Ġspan": 2068,
      "fer": 2069,
      "Ġhuh": 2070,
      "Ġnorthern": 2071,
      "cle": 2072,
      "Ġhigher": 2073,
      "ctions": 2074,
      "Ġcommit": 2075,
      "Ġgenerally": 2076,
      "Ġempire": 2077,
      "Ġcommand": 2078,
      "ucle": 2079,
      "bur": 2080,
      "Ġground": 2081,
      "Ġchem": 2082,
      "Ġbase": 2083,
      "che": 2084,
      "Ġstarted": 2085,
      "Ġbaby": 2086,
      "ald": 2087,
      "ney": 2088,
      "Ġcut": 2089,
      "verage": 2090,
      "ensive": 2091,
      "oo": 2092,
      "olic": 2093,
      "Ġelse": 2094,
      "Ġcommunity": 2095,
      "Ġapril": 2096,
      "Ġquest": 2097,
      "Ġoutside": 2098,
      "Ġprob": 2099,
      "Ġnove": 2100,
      "Ġenviron": 2101,
      "Ġpie": 2102,
      "Ġsouthern": 2103,
      "Ġstop": 2104,
      "Ġavail": 2105,
      "Ġsaw": 2106,
      "Ġcontinued": 2107,
      "vision": 2108,
      "Ġnovember": 2109,
      "Ġbuilding": 2110,
      "Ġneg": 2111,
      "ille": 2112,
      "Ġcalifornia": 2113,
      "inese": 2114,
      "Ġoffice": 2115,
      "Ġparts": 2116,
      "Ġox": 2117,
      "Ġhour": 2118,
      "Ġfish": 2119,
      "20": 2120,
      "Ġenough": 2121,
      "stand": 2122,
      "Ġhm": 2123,
      "Ġrich": 2124,
      "Ġcapital": 2125,
      "Ġdav": 2126,
      "Ġborn": 2127,
      "Ġprincip": 2128,
      "Ġposition": 2129,
      "Ġtar": 2130,
      "ino": 2131,
      "Ġalbum": 2132,
      "Ġfac": 2133,
      "Ġfig": 2134,
      "Ġfederal": 2135,
      "Ġpolice": 2136,
      "Ġradio": 2137,
      "Ġtemper": 2138,
      "Ġbattle": 2139,
      "Ġlanguages": 2140,
      "Ġnucle": 2141,
      "xic": 2142,
      "ached": 2143,
      "Ġbud": 2144,
      "Ġchinese": 2145,
      "Ġ2010": 2146,
      "Ġmovement": 2147,
      "ready": 2148,
      "ained": 2149,
      "Ġmeet": 2150,
      "Ġ100": 2151,
      "Ġaccept": 2152,
      "Ġtrade": 2153,
      "Ġcoll": 2154,
      "Ġengland": 2155,
      "Ġmember": 2156,
      "Ġtax": 2157,
      "Ġsubject": 2158,
      "tic": 2159,
      "Ġren": 2160,
      "und": 2161,
      "Ġfem": 2162,
      "Ġtro": 2163,
      "Ġversion": 2164,
      "Ġlower": 2165,
      "ains": 2166,
      "Ġproblem": 2167,
      "Ġpoin": 2168,
      "iting": 2169,
      "Ġlost": 2170,
      "Ġalready": 2171,
      "omp": 2172,
      "Ġscientists": 2173,
      "Ġdomin": 2174,
      "Ġhor": 2175,
      "Ġmach": 2176,
      "Ġfinal": 2177,
      "Ġblue": 2178,
      "Ġthroughout": 2179,
      "Ġdone": 2180,
      "osition": 2181,
      "Ġexec": 2182,
      "Ġdeterm": 2183,
      "Ġreligious": 2184,
      "Ġemploy": 2185,
      "Ġcompan": 2186,
      "Ġexam": 2187,
      "Ġrange": 2188,
      "Ġboy": 2189,
      "Ġsociety": 2190,
      "Ġdam": 2191,
      "Ġcomplete": 2192,
      "iction": 2193,
      "face": 2194,
      "Ġuk": 2195,
      "Ġdesp": 2196,
      "Ġmodel": 2197,
      "Ġfav": 2198,
      "Ġnumbers": 2199,
      "Ġsaf": 2200,
      "Ġhimself": 2201,
      "Ġreact": 2202,
      "Ġwashing": 2203,
      "Ġleague": 2204,
      "Ġfund": 2205,
      "Ġphilos": 2206,
      "istan": 2207,
      "aves": 2208,
      "Ġsam": 2209,
      "ude": 2210,
      "reme": 2211,
      "Ġcast": 2212,
      "thing": 2213,
      "Ġmonths": 2214,
      "Ġanimals": 2215,
      "Ġdidn": 2216,
      "Ġsex": 2217,
      "Ġconnect": 2218,
      "Ġaha": 2219,
      "ales": 2220,
      "Ġliber": 2221,
      "Ġhost": 2222,
      "Ġvot": 2223,
      "Ġtraditional": 2224,
      "Ġroad": 2225,
      "Ġbreak": 2226,
      "Ġfoc": 2227,
      "Ġconcept": 2228,
      "Ġcomputer": 2229,
      "Ġaccount": 2230,
      "iding": 2231,
      "Ġfa": 2232,
      "Ġgave": 2233,
      "Ġtelevision": 2234,
      "Ġculture": 2235,
      "Ġabove": 2236,
      "omb": 2237,
      "arily": 2238,
      "Ġwhose": 2239,
      "aur": 2240,
      "Ġanti": 2241,
      "Ġmagn": 2242,
      "Ġtaken": 2243,
      "Ġnation": 2244,
      "rael": 2245,
      "icult": 2246,
      "Ġrail": 2247,
      "Ġach": 2248,
      "Ġbit": 2249,
      "Ġpict": 2250,
      "umb": 2251,
      "Ġleaders": 2252,
      "Ġregard": 2253,
      "Ġfront": 2254,
      "Ġcomplex": 2255,
      "Ġavailable": 2256,
      "Ġeastern": 2257,
      "Ġdoc": 2258,
      "Ġlove": 2259,
      "Ġdig": 2260,
      "Ġbal": 2261,
      "Ġvide": 2262,
      "Ġcross": 2263,
      "Ġenvironment": 2264,
      "Ġ2011": 2265,
      "Ġhon": 2266,
      "Ġwhether": 2267,
      "Ġcath": 2268,
      "inal": 2269,
      "Ġlaun": 2270,
      "ror": 2271,
      "addy": 2272,
      "Ġten": 2273,
      "Ġdu": 2274,
      "erous": 2275,
      "Ġrate": 2276,
      "Ġfight": 2277,
      "Ġidea": 2278,
      "ery": 2279,
      "aps": 2280,
      "cul": 2281,
      "Ġbill": 2282,
      "Ġkey": 2283,
      "Ġupon": 2284,
      "Ġcongress": 2285,
      "Ġfut": 2286,
      "Ġyet": 2287,
      "Ġcann": 2288,
      "Ġsecret": 2289,
      "af": 2290,
      "Ġliving": 2291,
      "Ġlou": 2292,
      "fact": 2293,
      "aign": 2294,
      "lam": 2295,
      "Ġdol": 2296,
      "iment": 2297,
      "Ġcho": 2298,
      "Ġ2012": 2299,
      "ples": 2300,
      "arc": 2301,
      "Ġlond": 2302,
      "Ġbrother": 2303,
      "ands": 2304,
      "Ġaward": 2305,
      "Ġwashington": 2306,
      "Ġevidence": 2307,
      "Ġallowed": 2308,
      "Ġwords": 2309,
      "Ġgreek": 2310,
      "Ġtechnology": 2311,
      "Ġtalk": 2312,
      "hib": 2313,
      "Ġterms": 2314,
      "Ġlondon": 2315,
      "Ġlog": 2316,
      "Ġcampaign": 2317,
      "Ġconstitution": 2318,
      "arian": 2319,
      "Ġever": 2320,
      "Ġ21": 2321,
      "Ġbox": 2322,
      "icle": 2323,
      "put": 2324,
      "rents": 2325,
      "Ġfeb": 2326,
      "Ġdaddy": 2327,
      "Ġitself": 2328,
      "Ġafrica": 2329,
      "Ġ50": 2330,
      "Ġminister": 2331,
      "Ġdespite": 2332,
      "Ġalways": 2333,
      "ban": 2334,
      "Ġabs": 2335,
      "Ġflow": 2336,
      "aries": 2337,
      "imately": 2338,
      "ique": 2339,
      "Ġcause": 2340,
      "Ġ1990": 2341,
      "Ġstep": 2342,
      "igr": 2343,
      "Ġwall": 2344,
      "Ġsoft": 2345,
      "Ġaccess": 2346,
      "Ġglob": 2347,
      "Ġmill": 2348,
      "duct": 2349,
      "Ġlot": 2350,
      "Ġfollowed": 2351,
      "Ġelection": 2352,
      "Ġindustry": 2353,
      "Ġhyd": 2354,
      "Ġformed": 2355,
      "Ġreported": 2356,
      "Ã¡": 2357,
      "Ġestim": 2358,
      "Ġisrael": 2359,
      "Ġrecent": 2360,
      "Ġq": 2361,
      "Ġopt": 2362,
      "Ġpow": 2363,
      "Ġnetwork": 2364,
      "Ġentire": 2365,
      "Ġcritic": 2366,
      "Ġmer": 2367,
      "Ġadded": 2368,
      "ites": 2369,
      "Ġgrad": 2370,
      "Ġamount": 2371,
      "Ġdifficult": 2372,
      "Ġcities": 2373,
      "Ġsoon": 2374,
      "ols": 2375,
      "Ġevents": 2376,
      "Ġstri": 2377,
      "Ġseven": 2378,
      "Ġproblems": 2379,
      "Ġdemocr": 2380,
      "Ġancient": 2381,
      "Ġschol": 2382,
      "Ġhot": 2383,
      "Ġindia": 2384,
      "ruary": 2385,
      "Ġapplic": 2386,
      "Ġris": 2387,
      "ria": 2388,
      "Ġtex": 2389,
      "Ġstra": 2390,
      "Ġfebruary": 2391,
      "Ġadop": 2392,
      "Ġbring": 2393,
      "Ġintroduced": 2394,
      "Ġislands": 2395,
      "Ġinte": 2396,
      "Ġacad": 2397,
      "Ġfer": 2398,
      "pped": 2399,
      "Ġafrican": 2400,
      "Ġey": 2401,
      "Ġaud": 2402,
      "Ġeight": 2403,
      "Ġstyle": 2404,
      "Ġtrib": 2405,
      "Ġpsy": 2406,
      "Ġindic": 2407,
      "chan": 2408,
      "eth": 2409,
      "ef": 2410,
      "Ġclub": 2411,
      "Ġrespect": 2412,
      "lim": 2413,
      "Ġexcept": 2414,
      "Ġservices": 2415,
      "Ġroyal": 2416,
      "Ġfell": 2417,
      "Ġmuse": 2418,
      "Ġcompanies": 2419,
      "uses": 2420,
      "Ġrelative": 2421,
      "Ġ1980": 2422,
      "Ġdise": 2423,
      "Ġcolon": 2424,
      "Ġseem": 2425,
      "Ġbirth": 2426,
      "Ġlaws": 2427,
      "ows": 2428,
      "Ġself": 2429,
      "Ġplayers": 2430,
      "Ġrespons": 2431,
      "Ġ2008": 2432,
      "Ġrule": 2433,
      "Ġannounced": 2434,
      "Ġparticularly": 2435,
      "den": 2436,
      "Ġlos": 2437,
      "Ġpoly": 2438,
      "Ġdom": 2439,
      "Ġbooks": 2440,
      "Ġmultip": 2441,
      "iers": 2442,
      "Ġprivate": 2443,
      "Ġforms": 2444,
      "Ġmoved": 2445,
      "Ġcases": 2446,
      "Ġ2009": 2447,
      "Ġarab": 2448,
      "Ġrelated": 2449,
      "Ġdraw": 2450,
      "selves": 2451,
      "Ġaverage": 2452,
      "urity": 2453,
      "Ġcook": 2454,
      "Ġspeed": 2455,
      "Ġsubst": 2456,
      "idge": 2457,
      "Ġincreased": 2458,
      "Ġcreat": 2459,
      "Ġchanges": 2460,
      "Ġple": 2461,
      "Ġphot": 2462,
      "Ġpolicy": 2463,
      "Ġeventually": 2464,
      "Ġsurv": 2465,
      "rian": 2466,
      "Ġmuseum": 2467,
      "Ġvari": 2468,
      "aff": 2469,
      "Ġ2000": 2470,
      "Ġinfluence": 2471,
      "Ġacadem": 2472,
      "Ġtransport": 2473,
      "Ġindian": 2474,
      "onst": 2475,
      "Ġgas": 2476,
      "Ġoil": 2477,
      "Ġarri": 2478,
      "Ġprovide": 2479,
      "Ġconsist": 2480,
      "Ġcit": 2481,
      "Ġmac": 2482,
      "key": 2483,
      "Ġul": 2484,
      "ceed": 2485,
      "ham": 2486,
      "Ġnovel": 2487,
      "Ġcand": 2488,
      "Ġpaul": 2489,
      "Ġincreasing": 2490,
      "ĠÂ": 2491,
      "Ġparli": 2492,
      "med": 2493,
      "Ġ190": 2494,
      "Ġ2013": 2495,
      "Ġmhm": 2496,
      "Ġmakes": 2497,
      "ago": 2498,
      "Ġsuccessful": 2499,
      "Ġsize": 2500,
      "uments": 2501,
      "Ġlikely": 2502,
      "Ġbrought": 2503,
      "rown": 2504,
      "ateg": 2505,
      "Ġmix": 2506,
      "Ġstudies": 2507,
      "Ġwood": 2508,
      "ara": 2509,
      "mon": 2510,
      "Ġface": 2511,
      "Ġ2007": 2512,
      "Ġislam": 2513,
      "Ġgun": 2514,
      "Ġdispl": 2515,
      "Ġpun": 2516,
      "Ġnearly": 2517,
      "Ġdeg": 2518,
      "pr": 2519,
      "atory": 2520,
      "ee": 2521,
      "ength": 2522,
      "Ġast": 2523,
      "Ġmedia": 2524,
      "Ġsource": 2525,
      "ky": 2526,
      "Ġjour": 2527,
      "rest": 2528,
      "pect": 2529,
      "Ġclear": 2530,
      "Ġfuture": 2531,
      "Ġmicro": 2532,
      "Ġkilled": 2533,
      "Ġworkers": 2534,
      "ography": 2535,
      "Ġbank": 2536,
      "Ġnations": 2537,
      "Ġrequired": 2538,
      "Ġindividual": 2539,
      "Ġconsider": 2540,
      "Ġdeal": 2541,
      "Ġpsych": 2542,
      "Ġreform": 2543,
      "Ġdefin": 2544,
      "Ġnature": 2545,
      "Ġparliament": 2546,
      "Ġmaintain": 2547,
      "Ġvalue": 2548,
      "Ġspanish": 2549,
      "Ġachie": 2550,
      "Ġmess": 2551,
      "Ġ1970": 2552,
      "aut": 2553,
      "atives": 2554,
      "Ġaction": 2555,
      "Ġlay": 2556,
      "Ġbecom": 2557,
      "Ġelements": 2558,
      "Ġearlier": 2559,
      "Ġbeginning": 2560,
      "Ġmart": 2561,
      "rap": 2562,
      "Ġbow": 2563,
      "Ġcard": 2564,
      "Ġexecut": 2565,
      "Ġwriting": 2566,
      "Ġincrease": 2567,
      "Ġlatin": 2568,
      "Ġpaper": 2569,
      "Ġlocated": 2570,
      "Ġfeel": 2571,
      "Ġconserv": 2572,
      "oid": 2573,
      "Ġthemselves": 2574,
      "Ġeconomy": 2575,
      "Ġchief": 2576,
      "Ġlegal": 2577,
      "Ġtold": 2578,
      "Ġstructure": 2579,
      "ny": 2580,
      "Ġdoesn": 2581,
      "ires": 2582,
      "Ġbillion": 2583,
      "bon": 2584,
      "lation": 2585,
      "inted": 2586,
      "itor": 2587,
      "Ġlin": 2588,
      "for": 2589,
      "Ġenter": 2590,
      "Ġago": 2591,
      "Ġtaking": 2592,
      "Ġunderstand": 2593,
      "Ġcapt": 2594,
      "hest": 2595,
      "Ġmeaning": 2596,
      "bor": 2597,
      "Ġprotest": 2598,
      "Ġspecific": 2599,
      "Ġtext": 2600,
      "Ġess": 2601,
      "Ġdut": 2602,
      "Ġfamil": 2603,
      "ica": 2604,
      "Ġalex": 2605,
      "Ġmechan": 2606,
      "Ġassociated": 2607,
      "Ġ189": 2608,
      "Ġremained": 2609,
      "Ġplaying": 2610,
      "mp": 2611,
      "Ġlack": 2612,
      "Ġ2014": 2613,
      "Ġhall": 2614,
      "Ġdepartment": 2615,
      "Ġspok": 2616,
      "Ġreason": 2617,
      "Ġwalk": 2618,
      "ex": 2619,
      "Ġregular": 2620,
      "tt": 2621,
      "Ġvideo": 2622,
      "Ġ40": 2623,
      "Ġ&": 2624,
      "Ġmanu": 2625,
      "Ġsecurity": 2626,
      "Ġmajority": 2627,
      "Ġbad": 2628,
      "of": 2629,
      "Ġpeace": 2630,
      "Ġquick": 2631,
      "Ġgoes": 2632,
      "anch": 2633,
      "Ġofficials": 2634,
      "Ġnecess": 2635,
      "Ġconvent": 2636,
      "Ġemerg": 2637,
      "Ġaircraft": 2638,
      "Ġkh": 2639,
      "Ġtry": 2640,
      "Ġpoor": 2641,
      "Ġparticip": 2642,
      "apt": 2643,
      "Ġrelationship": 2644,
      "Ġreb": 2645,
      "Ġcommerc": 2646,
      "Ġstay": 2647,
      "Ġmax": 2648,
      "Ġrob": 2649,
      "Ġlonger": 2650,
      "Ġmel": 2651,
      "Ġjer": 2652,
      "Ġoce": 2653,
      "Ġrules": 2654,
      "Ġmexic": 2655,
      "Ġrevolution": 2656,
      "Ġtable": 2657,
      "Ġbelieved": 2658,
      "Ġrussian": 2659,
      "Ġemb": 2660,
      "Ġleading": 2661,
      "ibility": 2662,
      "Ġsymb": 2663,
      "Ġtypically": 2664,
      "Ġapprox": 2665,
      "rast": 2666,
      "ams": 2667,
      "ns": 2668,
      "Ġcommission": 2669,
      "Ġprovided": 2670,
      "Ġincludes": 2671,
      "Ġpersonal": 2672,
      "Ġcaused": 2673,
      "Ġelectron": 2674,
      "Ġboard": 2675,
      "Ġmm": 2676,
      "ka": 2677,
      "Ġprevent": 2678,
      "ores": 2679,
      "Ġhur": 2680,
      "Ġtypes": 2681,
      "Ġpractice": 2682,
      "lement": 2683,
      "Ġdistin": 2684,
      "Ġcust": 2685,
      "50": 2686,
      "Ġcra": 2687,
      "Ġpick": 2688,
      "Ġnews": 2689,
      "Ġuses": 2690,
      "Ġsurface": 2691,
      "Ġindependent": 2692,
      "Ġstation": 2693,
      "Ġmanufact": 2694,
      "Ġswe": 2695,
      "Ġfix": 2696,
      "Ġbc": 2697,
      "Ġbene": 2698,
      "urs": 2699,
      "Ġpret": 2700,
      "Ġprime": 2701,
      "ify": 2702,
      "Ġ2006": 2703,
      "Ġconsum": 2704,
      "Ġplant": 2705,
      "ingu": 2706,
      "wh": 2707,
      "Ġwanted": 2708,
      "Ġsle": 2709,
      "Ġgrowth": 2710,
      "Ġdirector": 2711,
      "Ġstreet": 2712,
      "Ġaltern": 2713,
      "Ġ24": 2714,
      "ift": 2715,
      "Ġthreat": 2716,
      "Ġham": 2717,
      "ises": 2718,
      "Ġbrown": 2719,
      "Ġplayer": 2720,
      "Ġteac": 2721,
      "Ġnative": 2722,
      "Ġdesigned": 2723,
      "rial": 2724,
      "Ġchamp": 2725,
      "Ġinstr": 2726,
      "Ġparents": 2727,
      "Ġsummer": 2728,
      "Ġneigh": 2729,
      "Ġroom": 2730,
      "ax": 2731,
      "Ġcode": 2732,
      "Ġlink": 2733,
      "Ġreferred": 2734,
      "ties": 2735,
      "Ġ1960": 2736,
      "ert": 2737,
      "Ġwatch": 2738,
      "Ġcollect": 2739,
      "ption": 2740,
      "Ġspeak": 2741,
      "Ġwild": 2742,
      "clus": 2743,
      "Ġlibr": 2744,
      "Ġchair": 2745,
      "aching": 2746,
      "itch": 2747,
      "Ġgeorge": 2748,
      "Ġlimited": 2749,
      "Ġdefe": 2750,
      "lying": 2751,
      "Ġsell": 2752,
      "Ġquant": 2753,
      "Ġcod": 2754,
      "isc": 2755,
      "Ġpu": 2756,
      "Ġcanada": 2757,
      "Ġwhole": 2758,
      "Ġrank": 2759,
      "Ġbehind": 2760,
      "Ġcommunic": 2761,
      "uation": 2762,
      "Ġjames": 2763,
      "Ġmc": 2764,
      "Ġhydro": 2765,
      "Ġmich": 2766,
      "ences": 2767,
      "Ġsite": 2768,
      "Ġthing": 2769,
      "Ġassociation": 2770,
      "Ġ2015": 2771,
      "Ġgar": 2772,
      "Ġrussia": 2773,
      "ilities": 2774,
      "head": 2775,
      "Ġappo": 2776,
      "Ġmathem": 2777,
      "Ġlarger": 2778,
      "Ġrequire": 2779,
      "Ġice": 2780,
      "Ġsubsequ": 2781,
      "Ġspir": 2782,
      "Ġletter": 2783,
      "Ġcatholic": 2784,
      "Ġprobably": 2785,
      "gypt": 2786,
      "Ġinvolved": 2787,
      "pe": 2788,
      "ounds": 2789,
      "Ġeffects": 2790,
      "Ġserved": 2791,
      "ania": 2792,
      "Ġmostly": 2793,
      "Ġfle": 2794,
      "Ġthous": 2795,
      "uries": 2796,
      "Ġphysical": 2797,
      "utes": 2798,
      "Ġfilms": 2799,
      "Ġcounty": 2800,
      "Ġcry": 2801,
      "Ġappeared": 2802,
      "Ġnames": 2803,
      "'ve": 2804,
      "Ġdavid": 2805,
      "Ġmuslim": 2806,
      "Ġvo": 2807,
      "Ġfarm": 2808,
      "hel": 2809,
      "Ġalright": 2810,
      "Ġrout": 2811,
      "Ġminor": 2812,
      "oon": 2813,
      "idents": 2814,
      "Ġfif": 2815,
      "Ġegypt": 2816,
      "cast": 2817,
      "Ġwear": 2818,
      "Ġconstruction": 2819,
      "Ġfootball": 2820,
      "Ġ2005": 2821,
      "oura": 2822,
      "app": 2823,
      "een": 2824,
      "Ġ2016": 2825,
      "Ġorganization": 2826,
      "Ġec": 2827,
      "wor": 2828,
      "Ġpan": 2829,
      "Ġloss": 2830,
      "reg": 2831,
      "Ġsequ": 2832,
      "Ġcub": 2833,
      "Ġcannot": 2834,
      "Ġbed": 2835,
      "Ġ186": 2836,
      "Ġelectric": 2837,
      "ray": 2838,
      "Ġnuclear": 2839,
      "Ġrap": 2840,
      "Ġkids": 2841,
      "Ġvisit": 2842,
      "Ġhighest": 2843,
      "Ġinterp": 2844,
      "Ġbear": 2845,
      "Ġestablish": 2846,
      "Ġhoney": 2847,
      "Ġasked": 2848,
      "Ġbelow": 2849,
      "hood": 2850,
      "Ġlegis": 2851,
      "Ġresults": 2852,
      "Ġlabor": 2853,
      "Ġphilosoph": 2854,
      "Ġnice": 2855,
      "Ġreturned": 2856,
      "Ġweap": 2857,
      "Ġflo": 2858,
      "Ġworked": 2859,
      "Ġmatter": 2860,
      "Ġrac": 2861,
      "Ġangel": 2862,
      "Ġelected": 2863,
      "Ġfeatures": 2864,
      "Ġbritain": 2865,
      "Ġobser": 2866,
      "ributed": 2867,
      "Ġera": 2868,
      "Ġgreater": 2869,
      "Ġcitiz": 2870,
      "vere": 2871,
      "ford": 2872,
      "Ġshows": 2873,
      "icient": 2874,
      "Ġjapanese": 2875,
      "wer": 2876,
      "icles": 2877,
      "Ġdan": 2878,
      "Ġoccup": 2879,
      "Ġpurp": 2880,
      "Ġlength": 2881,
      "itude": 2882,
      "Ġcomes": 2883,
      "ston": 2884,
      "Ġ23": 2885,
      "Ġemper": 2886,
      "Ġaddress": 2887,
      "Ġpressure": 2888,
      "Ġconstant": 2889,
      "Ġgal": 2890,
      "Ġproduce": 2891,
      "Ġconduct": 2892,
      "Ġsure": 2893,
      "Ġvill": 2894,
      "Ġseparate": 2895,
      "Ġtarget": 2896,
      "Ġtherefore": 2897,
      "roy": 2898,
      "Ġunit": 2899,
      "Ġpoints": 2900,
      "semb": 2901,
      "Ġquestion": 2902,
      "Ġinside": 2903,
      "Ġcorn": 2904,
      "Ġsand": 2905,
      "Ġjack": 2906,
      "Ġconver": 2907,
      "lled": 2908,
      "Ġprograms": 2909,
      "Ġfounded": 2910,
      "ari": 2911,
      "Ġconditions": 2912,
      "Ġdiscuss": 2913,
      "asion": 2914,
      "ume": 2915,
      "'d": 2916,
      "Ġprimary": 2917,
      "ope": 2918,
      "Ġdru": 2919,
      "Ġcareer": 2920,
      "Ġrat": 2921,
      "Ġbul": 2922,
      "Ġtitle": 2923,
      "Ġproducts": 2924,
      "Ġremains": 2925,
      "Ġglobal": 2926,
      "Ġtrue": 2927,
      "Ġlines": 2928,
      "Ã¶": 2929,
      "Ġelement": 2930,
      "Ġspread": 2931,
      "nes": 2932,
      "Ġfast": 2933,
      "asc": 2934,
      "Ġult": 2935,
      "Ġjewish": 2936,
      "Ġet": 2937,
      "Ġjob": 2938,
      "Ġchanged": 2939,
      "Ġmur": 2940,
      "Ġstated": 2941,
      "Ġprec": 2942,
      "Ġdefined": 2943,
      "Ġwidely": 2944,
      "Ġcommercial": 2945,
      "Ġtou": 2946,
      "aged": 2947,
      "Ġslow": 2948,
      "Ġfinanc": 2949,
      "outh": 2950,
      "Ġbehav": 2951,
      "utions": 2952,
      "Ġdyn": 2953,
      "enced": 2954,
      "Ġrelease": 2955,
      "nal": 2956,
      "Ġmom": 2957,
      "Ġfort": 2958,
      "Ġ188": 2959,
      "Ġfriends": 2960,
      "Ġperformance": 2961,
      "Ġdead": 2962,
      "Ġben": 2963,
      "Ġmov": 2964,
      "Ġchemical": 2965,
      "Ġgetting": 2966,
      "Ġintegr": 2967,
      "Ġblood": 2968,
      "Ġfamous": 2969,
      "Ġchall": 2970,
      "Ġsmaller": 2971,
      "Ġhear": 2972,
      "Ġproposed": 2973,
      "burg": 2974,
      "Ġcreate": 2975,
      "Ġhours": 2976,
      "Ġocean": 2977,
      "Ġ187": 2978,
      "Ġdim": 2979,
      "com": 2980,
      "Ġdivision": 2981,
      "Ġaustralia": 2982,
      "Ġchic": 2983,
      "Ġpack": 2984,
      "Ġshar": 2985,
      "izing": 2986,
      "Ġkore": 2987,
      "aint": 2988,
      "Ġagric": 2989,
      "Ġleader": 2990,
      "Ġcultural": 2991,
      "Ġ=": 2992,
      "Ġcup": 2993,
      "Ġactually": 2994,
      "Ġmeasure": 2995,
      "Ġtraining": 2996,
      "Ġoriginally": 2997,
      "ulated": 2998,
      "Ġgirl": 2999,
      "isions": 3000,
      "Ġ22": 3001,
      "mar": 3002,
      "Ġhous": 3003,
      "rated": 3004,
      "Ġmedical": 3005,
      "men": 3006,
      "Ġissue": 3007,
      "ss": 3008,
      "Ġdaugh": 3009,
      "Ġkit": 3010,
      "Ġprior": 3011,
      "ulf": 3012,
      "ables": 3013,
      "quote": 3014,
      "Ġthank": 3015,
      "Ġdeep": 3016,
      "Ġ2017": 3017,
      "Ġrecorded": 3018,
      "ills": 3019,
      "Ġblockquote": 3020,
      "pper": 3021,
      "Ġappl": 3022,
      "ael": 3023,
      "Ġassist": 3024,
      "Ġcommonly": 3025,
      "Ġlouis": 3026,
      "Ġdistrict": 3027,
      "Ġcarry": 3028,
      "anded": 3029,
      "Ġclimate": 3030,
      "Ġze": 3031,
      "Ġstudent": 3032,
      "Ġdecided": 3033,
      "oted": 3034,
      "ii": 3035,
      "like": 3036,
      "Ġitalian": 3037,
      "Ġagricult": 3038,
      "my": 3039,
      "Ġconflic": 3040,
      "Ġsports": 3041,
      "Ġcharles": 3042,
      "Ġsoftware": 3043,
      "Ġtrying": 3044,
      "Ġcommitte": 3045,
      "ension": 3046,
      "Ġinvestig": 3047,
      "Ġterritory": 3048,
      "Ġdisease": 3049,
      "Ġobama": 3050,
      "Ġcover": 3051,
      "Ġcontinu": 3052,
      "Ġassemb": 3053,
      "Ġhung": 3054,
      "Ġscientific": 3055,
      "cks": 3056,
      "Ġhund": 3057,
      "Ġfranc": 3058,
      "anced": 3059,
      "oh": 3060,
      "Ġsup": 3061,
      "Ġsnow": 3062,
      "Ġflight": 3063,
      "uals": 3064,
      "Ġnar": 3065,
      "Ġgrowing": 3066,
      "onse": 3067,
      "Ġamericans": 3068,
      "Ġheart": 3069,
      "Ġclos": 3070,
      "Ġhelped": 3071,
      "amb": 3072,
      "Ġfriend": 3073,
      "Ġgrant": 3074,
      "Ġthom": 3075,
      "Ġuh": 3076,
      "Ġhundred": 3077,
      "Ġresearc": 3078,
      "ields": 3079,
      "Ġpil": 3080,
      "ental": 3081,
      "Ġcele": 3082,
      "Ġlun": 3083,
      "fl": 3084,
      "Ġwil": 3085,
      "Ġ2018": 3086,
      "Ġanimal": 3087,
      "inary": 3088,
      "Ġlevels": 3089,
      "Ġscholars": 3090,
      "Ġwife": 3091,
      "Ġmission": 3092,
      "riage": 3093,
      "Ġleave": 3094,
      "Ġitaly": 3095,
      "itect": 3096,
      "Ġneeded": 3097,
      "Ġreview": 3098,
      "Ġbelieve": 3099,
      "zz": 3100,
      "Ġlooking": 3101,
      "ners": 3102,
      "Ġveh": 3103,
      "Ġquar": 3104,
      "ole": 3105,
      "Ġreligion": 3106,
      "Ġscre": 3107,
      "sec": 3108,
      "Ġhistorical": 3109,
      "Ġdocument": 3110,
      "Ġrunning": 3111,
      "Ġlived": 3112,
      "ysis": 3113,
      "Ġdiscovered": 3114,
      "Ġresponse": 3115,
      "Ġ2001": 3116,
      "cript": 3117,
      "Ġreplaced": 3118,
      "uth": 3119,
      "Ġhi": 3120,
      "Ġemperor": 3121,
      "Ġarchitect": 3122,
      "istics": 3123,
      "Ġround": 3124,
      "Ġrh": 3125,
      "Ġresist": 3126,
      "Ġmetal": 3127,
      "Ġexperience": 3128,
      "ening": 3129,
      "mi": 3130,
      "Ġfamilies": 3131,
      "Ġestimated": 3132,
      "itz": 3133,
      "Ġcandid": 3134,
      "Ġindependence": 3135,
      "Ġhenry": 3136,
      "Ġcharacters": 3137,
      "Ġdirectly": 3138,
      "Ġsupported": 3139,
      "Ġ2004": 3140,
      "Ġlu": 3141,
      "Ġfel": 3142,
      "Ġrome": 3143,
      "Ġstarting": 3144,
      "Ġdecision": 3145,
      "antic": 3146,
      "Ġcold": 3147,
      "lands": 3148,
      "rs": 3149,
      "Ġic": 3150,
      "Ġsense": 3151,
      "Ġacqu": 3152,
      "ris": 3153,
      "Ġreached": 3154,
      "Ġcoming": 3155,
      "Ġplat": 3156,
      "Ġvariety": 3157,
      "Ġforest": 3158,
      "Ġremember": 3159,
      "rect": 3160,
      "oes": 3161,
      "ola": 3162,
      "Ġimmed": 3163,
      "Ġfemale": 3164,
      "Ġhappened": 3165,
      "Ġsleep": 3166,
      "Ġrobert": 3167,
      "mitted": 3168,
      "uit": 3169,
      "ech": 3170,
      "Ġwoman": 3171,
      "istry": 3172,
      "Ġtom": 3173,
      "Ġissues": 3174,
      "Ġtv": 3175,
      "Ġvote": 3176,
      "Ġunits": 3177,
      "Ġimmediate": 3178,
      "asons": 3179,
      "Ġesc": 3180,
      "Ġlad": 3181,
      "Ġtrain": 3182,
      "Ġvia": 3183,
      "Ġoperation": 3184,
      "Ġinternet": 3185,
      "Ġborder": 3186,
      "ribution": 3187,
      "Ġhell": 3188,
      "Ġinsp": 3189,
      "imum": 3190,
      "Ġethn": 3191,
      "Ġpath": 3192,
      "Ġfreed": 3193,
      "Ġstru": 3194,
      "Ġlargely": 3195,
      "where": 3196,
      "Ġheavy": 3197,
      "Ġdog": 3198,
      "Ġ26": 3199,
      "Ġparis": 3200,
      "Ġ2019": 3201,
      "ym": 3202,
      "ero": 3203,
      "Ġfra": 3204,
      "Ġsources": 3205,
      "ques": 3206,
      "resp": 3207,
      "Ġadministration": 3208,
      "use": 3209,
      "Ġtal": 3210,
      "Ġlake": 3211,
      "Ġimplement": 3212,
      "Ġpope": 3213,
      "Ġoperations": 3214,
      "Ġdestroy": 3215,
      "ledge": 3216,
      "Ġnumerous": 3217,
      "Ġrare": 3218,
      "Ġmedic": 3219,
      "Ġrace": 3220,
      "ply": 3221,
      "Ġven": 3222,
      "Ġprogress": 3223,
      "Ġbenef": 3224,
      "Ġtrack": 3225,
      "Ġcred": 3226,
      "Ġrecords": 3227,
      "ket": 3228,
      "Ġcere": 3229,
      "Ġpac": 3230,
      "Ġexc": 3231,
      "Ġtemperature": 3232,
      "Ġsett": 3233,
      "Ġchann": 3234,
      "ÃŃ": 3235,
      "Ġhosp": 3236,
      "wood": 3237,
      "ivity": 3238,
      "Ġapproximately": 3239,
      "Ġopened": 3240,
      "hab": 3241,
      "Ġpassed": 3242,
      "Ġcompared": 3243,
      "Ġforced": 3244,
      "Ġimprove": 3245,
      "Ġrain": 3246,
      "Ġroll": 3247,
      "Ġready": 3248,
      "ga": 3249,
      "Ġdemocratic": 3250,
      "over": 3251,
      "Ġasia": 3252,
      "Ġlives": 3253,
      "Ġsusp": 3254,
      "Ġfest": 3255,
      "Ġrecently": 3256,
      "Ġdial": 3257,
      "Ġactive": 3258,
      "Ġbay": 3259,
      "Ġcommittee": 3260,
      "Ġmathemat": 3261,
      "Ġhumans": 3262,
      "Ġcelebr": 3263,
      "wide": 3264,
      "ida": 3265,
      "Ġadditional": 3266,
      "Ġgovernor": 3267,
      "Ġtree": 3268,
      "Ġepis": 3269,
      "Ġtun": 3270,
      "Ġbound": 3271,
      "Ġstage": 3272,
      "Ġhair": 3273,
      "Ġdisp": 3274,
      "Ġexperiment": 3275,
      "Ġcarbon": 3276,
      "Ġtor": 3277,
      "Ġquickly": 3278,
      "Ġnine": 3279,
      "Ġpeter": 3280,
      "Ġpra": 3281,
      "Ġmaybe": 3282,
      "uff": 3283,
      "Ġsettle": 3284,
      "oe": 3285,
      "Ġran": 3286,
      "Ġfavor": 3287,
      "off": 3288,
      "berg": 3289,
      "Ġsens": 3290,
      "Ġspirit": 3291,
      "ging": 3292,
      "Ġdisplay": 3293,
      "Ġauthority": 3294,
      "Ġmind": 3295,
      "iences": 3296,
      "Ġdetail": 3297,
      "Ġindustrial": 3298,
      "Ġyell": 3299,
      "Ġrisk": 3300,
      "Ġsaying": 3301,
      "Ġthomas": 3302,
      "Ġlibrary": 3303,
      "att": 3304,
      "Ġmole": 3305,
      "Ġchicago": 3306,
      "Ġnomin": 3307,
      "Ġscale": 3308,
      "Ġnavy": 3309,
      "Ġhyp": 3310,
      "porary": 3311,
      "Ġrot": 3312,
      "Ġdrink": 3313,
      "Ġclaimed": 3314,
      "Ġdark": 3315,
      "Ġtowards": 3316,
      "Ġcentre": 3317,
      "using": 3318,
      "agn": 3319,
      "Ġmagaz": 3320,
      "Ġburn": 3321,
      "Ġtreatment": 3322,
      "Ġ28": 3323,
      "Ġbasic": 3324,
      "Ġresour": 3325,
      "Ġhighly": 3326,
      "Ġcontract": 3327,
      "Ġhands": 3328,
      "Ġalle": 3329,
      "aught": 3330,
      "Ġproperty": 3331,
      "Ġjoined": 3332,
      "Ġens": 3333,
      "Ġextreme": 3334,
      "Ġcourse": 3335,
      "Ġmad": 3336,
      "Ġreflect": 3337,
      "Ġtreaty": 3338,
      "ulations": 3339,
      "Ġ27": 3340,
      "ini": 3341,
      "Ġsym": 3342,
      "Ġexamples": 3343,
      "Ġteams": 3344,
      "Ġstatus": 3345,
      "Ġwol": 3346,
      "Ġisn": 3347,
      "Ġmun": 3348,
      "Ġturned": 3349,
      "Ġ60": 3350,
      "Ġimper": 3351,
      "Ġdro": 3352,
      "Ġwrite": 3353,
      "astic": 3354,
      "Ġdemonst": 3355,
      "aled": 3356,
      "iger": 3357,
      "Ġperformed": 3358,
      "Ġtroops": 3359,
      "Ġfrank": 3360,
      "Ġconcent": 3361,
      "Ġsimple": 3362,
      "Ġcru": 3363,
      "Ġadopted": 3364,
      "ients": 3365,
      "Ġregions": 3366,
      "Ġresearchers": 3367,
      "Ġgi": 3368,
      "Ġstars": 3369,
      "Ġah": 3370,
      "Ġfinancial": 3371,
      "Ġpotential": 3372,
      "Ġfair": 3373,
      "Ġ2003": 3374,
      "Ġrichard": 3375,
      "Ġmultiple": 3376,
      "view": 3377,
      "Ġwhom": 3378,
      "iverse": 3379,
      "Ġshare": 3380,
      "respond": 3381,
      "Ġsac": 3382,
      "Ġmary": 3383,
      "Ġdin": 3384,
      "Ġcorrespond": 3385,
      "Ġcitizens": 3386,
      "Ġparties": 3387,
      "Ġpicture": 3388,
      "body": 3389,
      "de": 3390,
      "Ã¼": 3391,
      "Ġagreement": 3392,
      "aq": 3393,
      "Ġjose": 3394,
      "Ġended": 3395,
      "Ġplaced": 3396,
      "ems": 3397,
      "ression": 3398,
      "Ġatl": 3399,
      "Ġbudd": 3400,
      "Ġdoll": 3401,
      "back": 3402,
      "erson": 3403,
      "Ġelectr": 3404,
      "Ġways": 3405,
      "Ġ2020": 3406,
      "phone": 3407,
      "Ġstories": 3408,
      "ander": 3409,
      "Ġwinter": 3410,
      "Ġcells": 3411,
      "nam": 3412,
      "Ġexpected": 3413,
      "Ġmachine": 3414,
      "Ġbelief": 3415,
      "ios": 3416,
      "Ġdang": 3417,
      "ste": 3418,
      "ream": 3419,
      "Äģ": 3420,
      "Ġshowed": 3421,
      "Ġnoted": 3422,
      "Ġfinally": 3423,
      "Ġcustom": 3424,
      "Ġolder": 3425,
      "Ġbasis": 3426,
      "ously": 3427,
      "Ġ80": 3428,
      "Ġones": 3429,
      "Ġconstruct": 3430,
      "Ġtheat": 3431,
      "Ġmexico": 3432,
      "nel": 3433,
      "igned": 3434,
      "Ġwars": 3435,
      "Ġinn": 3436,
      "Ġprote": 3437,
      "ips": 3438,
      "ground": 3439,
      "Ġcounter": 3440,
      "Ġpretty": 3441,
      "Ġsquare": 3442,
      "Ġinj": 3443,
      "cles": 3444,
      "Ġreject": 3445,
      "Ġobtain": 3446,
      "Ġrapid": 3447,
      "Ġtakes": 3448,
      "ety": 3449,
      "Ġpiece": 3450,
      "Ġmethods": 3451,
      "ken": 3452,
      "Ã³": 3453,
      "Ġcenturies": 3454,
      "Ġtransl": 3455,
      "Ġconv": 3456,
      "Ġplants": 3457,
      "cies": 3458,
      "yr": 3459,
      "Ġshown": 3460,
      "Ġtim": 3461,
      "Ġwal": 3462,
      "Ġapple": 3463,
      "Ġanalysis": 3464,
      "itation": 3465,
      "Ġexch": 3466,
      "Ġcontem": 3467,
      "Ġ184": 3468,
      "airs": 3469,
      "Ġinitially": 3470,
      "round": 3471,
      "Ġimpact": 3472,
      "onents": 3473,
      "Ġfit": 3474,
      "Ġspent": 3475,
      "Ġmarriage": 3476,
      "Ġdistinct": 3477,
      "Ġrise": 3478,
      "Ġmainly": 3479,
      "Ġreve": 3480,
      "Ġdaughter": 3481,
      "Ġserious": 3482,
      "Ġplaces": 3483,
      "Ġknowledge": 3484,
      "Ġsigned": 3485,
      "Ġdoct": 3486,
      "Ġdegree": 3487,
      "aper": 3488,
      "Ġ2002": 3489,
      "Ġrepublican": 3490,
      "Ġapart": 3491,
      "Ġprison": 3492,
      "Ġselect": 3493,
      "ki": 3494,
      "Ġmale": 3495,
      "Ġlif": 3496,
      "Ġautom": 3497,
      "Ġchampions": 3498,
      "Ġegg": 3499,
      "Ġarticle": 3500,
      "Ġcorpor": 3501,
      "aded": 3502,
      "illed": 3503,
      "Ġjournal": 3504,
      "oke": 3505,
      "ura": 3506,
      "Ġlatter": 3507,
      "isation": 3508,
      "Ġcamer": 3509,
      "Ġclean": 3510,
      "Ġangeles": 3511,
      "Ġcateg": 3512,
      "Ġinstitute": 3513,
      "year": 3514,
      "ider": 3515,
      "Ġprin": 3516,
      "Ġshot": 3517,
      "iance": 3518,
      "Ġax": 3519,
      "iter": 3520,
      "Ġbird": 3521,
      "Ġmob": 3522,
      "wise": 3523,
      "Ġlord": 3524,
      "bour": 3525,
      "oses": 3526,
      "Ġremo": 3527,
      "Ġspect": 3528,
      "Ġsimply": 3529,
      "aches": 3530,
      "Ġmos": 3531,
      "ped": 3532,
      "Ġswed": 3533,
      "Ġapproach": 3534,
      "Ġos": 3535,
      "Ġmarried": 3536,
      "Ġclassical": 3537,
      "Ġactivity": 3538,
      "Ġmilk": 3539,
      "Ġunlike": 3540,
      "Ġvan": 3541,
      "Ġdivided": 3542,
      "Ġsuggested": 3543,
      "Ġtheore": 3544,
      "Ġability": 3545,
      "Ġfigure": 3546,
      "hol": 3547,
      "Ġ1950": 3548,
      "Ġplans": 3549,
      "Ġmemory": 3550,
      "ressed": 3551,
      "Ġtransfer": 3552,
      "Ġgiving": 3553,
      "reng": 3554,
      "Ġpattern": 3555,
      "Ġpreviously": 3556,
      "Ġanything": 3557,
      "lor": 3558,
      "Ġamb": 3559,
      "Ġdefense": 3560,
      "Ġdate": 3561,
      "Ġhat": 3562,
      "Ġweight": 3563,
      "Ġletters": 3564,
      "Ġspeech": 3565,
      "Ġinteract": 3566,
      "Ġiron": 3567,
      "Ġrelatively": 3568,
      "Ġspain": 3569,
      "sey": 3570,
      "Ġweeks": 3571,
      "ask": 3572,
      "Ġmention": 3573,
      "Ġdie": 3574,
      "iles": 3575,
      "Ġfourth": 3576,
      "ortun": 3577,
      "Ġwait": 3578,
      "Ġstore": 3579,
      "ellig": 3580,
      "Ġcontains": 3581,
      "aving": 3582,
      "Ġflu": 3583,
      "Ġcontinue": 3584,
      "Ġbroadcast": 3585,
      "izations": 3586,
      "Ġorth": 3587,
      "Ġum": 3588,
      "Ġneut": 3589,
      "Ġcollection": 3590,
      "Ġideas": 3591,
      "Ġextra": 3592,
      "Ġyellow": 3593,
      "Ġfeet": 3594,
      "Ġargued": 3595,
      "vey": 3596,
      "Ġseat": 3597,
      "Ġmusical": 3598,
      "da": 3599,
      "Ġspl": 3600,
      "Ġarr": 3601,
      "Ġcurrently": 3602,
      "Ġaw": 3603,
      "Ġefforts": 3604,
      "Ġcoal": 3605,
      "Ġtransform": 3606,
      "abor": 3607,
      "Ġaim": 3608,
      "Ġstaff": 3609,
      "Ġsection": 3610,
      "Ġpig": 3611,
      "Ġmountain": 3612,
      "can": 3613,
      "Ġlic": 3614,
      "Ġvac": 3615,
      "bc": 3616,
      "Ġflor": 3617,
      "Ġjul": 3618,
      "Ġrepe": 3619,
      "Ġ1999": 3620,
      "olved": 3621,
      "Ġmoon": 3622,
      "Ġdip": 3623,
      "Ġcalend": 3624,
      "Ġprimarily": 3625,
      "fect": 3626,
      "isms": 3627,
      "Ġalg": 3628,
      "bi": 3629,
      "Ġcontrast": 3630,
      "Ġiv": 3631,
      "Ġchap": 3632,
      "Ġexecutive": 3633,
      "Ġoly": 3634,
      "Ġpoll": 3635,
      "Ġstreng": 3636,
      "Ġsurround": 3637,
      "mission": 3638,
      "Ġarts": 3639,
      "Ġcontact": 3640,
      "Ġbuy": 3641,
      "Ġmir": 3642,
      "Ġthousands": 3643,
      "Ġpromin": 3644,
      "Ġdiss": 3645,
      "Ġurban": 3646,
      "Ġcart": 3647,
      "Ġcompar": 3648,
      "Ġlooks": 3649,
      "Ġfunctions": 3650,
      "Ġolymp": 3651,
      "Ġwr": 3652,
      "Ġpit": 3653,
      "Ġmis": 3654,
      "Ġgard": 3655,
      "Ġquality": 3656,
      "Ġpowers": 3657,
      "Ġneeds": 3658,
      "Ġattention": 3659,
      "Ġregional": 3660,
      "Ġdrive": 3661,
      "Ġgoal": 3662,
      "Ġcontrovers": 3663,
      "Ġ31": 3664,
      "Ġattract": 3665,
      "Ġsar": 3666,
      "Ġsaint": 3667,
      "Ġdoctor": 3668,
      "Ġwants": 3669,
      "Ġbomb": 3670,
      "Ġdistance": 3671,
      "Ġfat": 3672,
      "Ġintellig": 3673,
      "Ġattacks": 3674,
      "Ġalt": 3675,
      "Ġassum": 3676,
      "Ġnormal": 3677,
      "Ġlaunched": 3678,
      "Ġmoving": 3679,
      "Ġprofessional": 3680,
      "field": 3681,
      "pa": 3682,
      "Ġacid": 3683,
      "Ġmotor": 3684,
      "Ġweapons": 3685,
      "Ġcarried": 3686,
      "Ġbeg": 3687,
      "Ġbey": 3688,
      "Ġincor": 3689,
      "Ġshoot": 3690,
      "Ġprofessor": 3691,
      "Ġcharge": 3692,
      "Ġscott": 3693,
      "Ġcab": 3694,
      "Ġsongs": 3695,
      "Ġsexual": 3696,
      "Ġmut": 3697,
      "Ġmichael": 3698,
      "Ġ29": 3699,
      "Ġagreed": 3700,
      "Ġbecoming": 3701,
      "Ġthrow": 3702,
      "ĠÎ": 3703,
      "othes": 3704,
      "Ġelections": 3705,
      "phas": 3706,
      "Ġcompleted": 3707,
      "well": 3708,
      "Ġliterature": 3709,
      "Ġfrancis": 3710,
      "igration": 3711,
      "Ġfailed": 3712,
      "Ġmorn": 3713,
      "Ġiii": 3714,
      "Ġdouble": 3715,
      "Ġguard": 3716,
      "Ġethnic": 3717,
      "Ġhey": 3718,
      "Ġencoura": 3719,
      "Ġislamic": 3720,
      "Ġpoet": 3721,
      "estic": 3722,
      "Ġadult": 3723,
      "Ġactivities": 3724,
      "Ġkar": 3725,
      "Ġstone": 3726,
      "Ġglass": 3727,
      "Ġannual": 3728,
      "aker": 3729,
      "Ġdigital": 3730,
      "Ġinitial": 3731,
      "Ġscript": 3732,
      "Ġobserv": 3733,
      "Ġ183": 3734,
      "Ġcars": 3735,
      "Ġprovides": 3736,
      "Ġsoldiers": 3737,
      "Ġapplied": 3738,
      "Ġtried": 3739,
      "Ġresponsible": 3740,
      "Ġappointed": 3741,
      "Ġjustice": 3742,
      "ession": 3743,
      "ey": 3744,
      "Ġjews": 3745,
      "Ġjump": 3746,
      "Ġproperties": 3747,
      "Ġcoup": 3748,
      "Ġbod": 3749,
      "Ġclosed": 3750,
      "otic": 3751,
      "Ġjes": 3752,
      "Ġire": 3753,
      "Ġbuildings": 3754,
      "Ġ+": 3755,
      "Ġbish": 3756,
      "Ġrang": 3757,
      "Ġalternative": 3758,
      "Ġhorse": 3759,
      "rative": 3760,
      "Ġbond": 3761,
      "Ġpak": 3762,
      "Ġpositive": 3763,
      "Ġbrain": 3764,
      "aming": 3765,
      "och": 3766,
      "ibly": 3767,
      "Ġobjects": 3768,
      "ements": 3769,
      "Ġvirt": 3770,
      "Ġinfluenced": 3771,
      "Ġath": 3772,
      "Ġupper": 3773,
      "Ġpacific": 3774,
      "Ġshall": 3775,
      "Ġnewsp": 3776,
      "bed": 3777,
      "Ġdeclared": 3778,
      "kes": 3779,
      "Ġreduced": 3780,
      "Ġships": 3781,
      "ocks": 3782,
      "Ġnecessary": 3783,
      "Ġsweet": 3784,
      "Ġequip": 3785,
      "Ġful": 3786,
      "Ġtexas": 3787,
      "inian": 3788,
      "Ġsmith": 3789,
      "Ġiran": 3790,
      "Ġequal": 3791,
      "Ġresulting": 3792,
      "Ġastron": 3793,
      "Ġphilosophy": 3794,
      "hold": 3795,
      "Ġminutes": 3796,
      "inet": 3797,
      "Ġpush": 3798,
      "Ġdirection": 3799,
      "Ġheat": 3800,
      "Ġmouth": 3801,
      "ects": 3802,
      "Ġlocation": 3803,
      "Ġmeeting": 3804,
      "Ġmagazine": 3805,
      "Ġairport": 3806,
      "Ġthir": 3807,
      "Ġconvention": 3808,
      "Ġaccepted": 3809,
      "Ġfreedom": 3810,
      "Ġindividuals": 3811,
      "Ġplanet": 3812,
      "uls": 3813,
      "Ġiraq": 3814,
      "orial": 3815,
      "Ġib": 3816,
      "oper": 3817,
      "Ġdefinition": 3818,
      "Ġireland": 3819,
      "Ġcompos": 3820,
      "Ġclasses": 3821,
      "Ġsafety": 3822,
      "Ġgirls": 3823,
      "Ġda": 3824,
      "Ġreach": 3825,
      "Ġbag": 3826,
      "âĢ": 3827,
      "Ġnothing": 3828,
      "ij": 3829,
      "Ġcalendar": 3830,
      "Ġonline": 3831,
      "Ġ1998": 3832,
      "iber": 3833,
      "tical": 3834,
      "Ġmanagement": 3835,
      "Ġcritical": 3836,
      "Ġmorning": 3837,
      "Ġappears": 3838,
      "Ġbell": 3839,
      "Ġassembly": 3840,
      "Ġdecades": 3841,
      "Ġopposition": 3842,
      "board": 3843,
      "erve": 3844,
      "Ġnotable": 3845,
      "Ġwave": 3846,
      "Ġvirgin": 3847,
      "Ġod": 3848,
      "Ġequival": 3849,
      "Ġimage": 3850,
      "light": 3851,
      "Ġken": 3852,
      "Ġartists": 3853,
      "za": 3854,
      "Ġfields": 3855,
      "Ġsport": 3856,
      "bre": 3857,
      "Ġconc": 3858,
      "ya": 3859,
      "10": 3860,
      "anta": 3861,
      "Ġoffered": 3862,
      "ees": 3863,
      "ville": 3864,
      "Ġbeyond": 3865,
      "Ġbun": 3866,
      "Ġevolution": 3867,
      "Ġpresidential": 3868,
      "Ġexact": 3869,
      "Ġhope": 3870,
      "Ġafgh": 3871,
      "adian": 3872,
      "Ġarmed": 3873,
      "Ġcomment": 3874,
      "Ġdna": 3875,
      "Ġequipment": 3876,
      "rupt": 3877,
      "Ġrough": 3878,
      "Ġcrew": 3879,
      "ils": 3880,
      "ests": 3881,
      "Ġbri": 3882,
      "Ġnic": 3883,
      "atures": 3884,
      "Ġbowl": 3885,
      "uk": 3886,
      "met": 3887,
      "Ġexhib": 3888,
      "Ġly": 3889,
      "Ġcens": 3890,
      "Ġfuel": 3891,
      "book": 3892,
      "Ġcro": 3893,
      "Ġconflict": 3894,
      "Ġpurch": 3895,
      "ads": 3896,
      "onic": 3897,
      "Ġlegisl": 3898,
      "Ġfloor": 3899,
      "ba": 3900,
      "Ġfro": 3901,
      "Ġjun": 3902,
      "Ġintended": 3903,
      "Ġprotection": 3904,
      "Ġgives": 3905,
      "la": 3906,
      "Ġring": 3907,
      "Ġgrew": 3908,
      "Ġbehavior": 3909,
      "Ġrub": 3910,
      "Ġneighbor": 3911,
      "Ġhill": 3912,
      "Ġfighting": 3913,
      "Ġjoseph": 3914,
      "Ġconsequ": 3915,
      "Ġtouch": 3916,
      "Ġgall": 3917,
      "Ġsubs": 3918,
      "Ġpakistan": 3919,
      "stein": 3920,
      "Ġpair": 3921,
      "Ġsafe": 3922,
      "Ġcalcul": 3923,
      "Ġhospital": 3924,
      "Ġcool": 3925,
      "Ġcolumb": 3926,
      "Ġemphas": 3927,
      "Ġnap": 3928,
      "Ġcontent": 3929,
      "iform": 3930,
      "Ġoffer": 3931,
      "Ġoperating": 3932,
      "Ġhaw": 3933,
      "Ġfeature": 3934,
      "Ġpresence": 3935,
      "Ġimperial": 3936,
      "Ġsymbol": 3937,
      "Ġstock": 3938,
      "Ġeverything": 3939,
      "va": 3940,
      "Ġallows": 3941,
      "Ġdifference": 3942,
      "king": 3943,
      "Ġfear": 3944,
      "Ġdecre": 3945,
      "Ġcreation": 3946,
      "Ġfrequently": 3947,
      "Ġvalues": 3948,
      "Ġflag": 3949,
      "Ġfeatured": 3950,
      "Ġenvironmental": 3951,
      "Ġmaterials": 3952,
      "Ġ185": 3953,
      "Ġjobs": 3954,
      "Ġans": 3955,
      "alled": 3956,
      "Ġsecretary": 3957,
      "Ġbelong": 3958,
      "Ġtwent": 3959,
      "Ġcas": 3960,
      "inger": 3961,
      "Ġadj": 3962,
      "Ġhonor": 3963,
      "Ġapplications": 3964,
      "Ġgraph": 3965,
      "Ġlimit": 3966,
      "Ġnegative": 3967,
      "Ġconference": 3968,
      "Ġcarol": 3969,
      "Ġaspect": 3970,
      "Ġvalley": 3971,
      "Ġclaims": 3972,
      "iled": 3973,
      "Ġscot": 3974,
      "Ġgeneration": 3975,
      "Ġdutch": 3976,
      "Ġpage": 3977,
      "Ġportug": 3978,
      "Ġ1997": 3979,
      "Ġidentified": 3980,
      "Ġtoward": 3981,
      "Ġspring": 3982,
      "Ġstrugg": 3983,
      "hips": 3984,
      "omen": 3985,
      "uge": 3986,
      "onent": 3987,
      "Ġresources": 3988,
      "akers": 3989,
      "Ġconfir": 3990,
      "Ġpowerful": 3991,
      "Ġmodels": 3992,
      "Ġinterview": 3993,
      "Ġafghan": 3994,
      "Ġlie": 3995,
      "Ġformal": 3996,
      "Ġcombined": 3997,
      "Ġhero": 3998,
      "Ġengineering": 3999,
      "iny": 4000,
      "Ġwed": 4001,
      "Ġmovie": 4002,
      "Ġcommunities": 4003,
      "Ġderived": 4004,
      "Ġphen": 4005,
      "eter": 4006,
      "usion": 4007,
      "gal": 4008,
      "Ġcow": 4009,
      "Ġclim": 4010,
      "Ġexpans": 4011,
      "Ġkept": 4012,
      "Ġcrime": 4013,
      "Ġfelt": 4014,
      "icted": 4015,
      "Ġnob": 4016,
      "Ġinternal": 4017,
      "Ġalone": 4018,
      "Ġfocus": 4019,
      "Ġconqu": 4020,
      "Ġnaz": 4021,
      "Ġdepend": 4022,
      "Ġsearch": 4023,
      "more": 4024,
      "ented": 4025,
      "Ġreference": 4026,
      "Ġcris": 4027,
      "ett": 4028,
      "Ġchance": 4029,
      "Ġacademy": 4030,
      "Ġrab": 4031,
      "Ġalph": 4032,
      "Ġagency": 4033,
      "ek": 4034,
      "west": 4035,
      "Ġwit": 4036,
      "Ġlearn": 4037,
      "Ġwel": 4038,
      "Ġded": 4039,
      "Ġwriter": 4040,
      "Ġdistribution": 4041,
      "osh": 4042,
      "Ġunique": 4043,
      "Ġraised": 4044,
      "Ġid": 4045,
      "Ġpolish": 4046,
      "Ġtend": 4047,
      "Ġsuit": 4048,
      "osaur": 4049,
      "Ġeffort": 4050,
      "encies": 4051,
      "izes": 4052,
      "imin": 4053,
      "Ġ1996": 4054,
      "Ġprovince": 4055,
      "Ġarrest": 4056,
      "Ġgradu": 4057,
      "Ġrepresented": 4058,
      "Ġfaith": 4059,
      "Ġmand": 4060,
      "Ġcomposed": 4061,
      "Ġfres": 4062,
      "Ġextended": 4063,
      "Ġeyes": 4064,
      "Ġresidents": 4065,
      "Ġfiction": 4066,
      "Ġremaining": 4067,
      "Ġpurpose": 4068,
      "Ġserve": 4069,
      "Ġopportun": 4070,
      "Ġexchange": 4071,
      "Ġmeant": 4072,
      "Ġdemand": 4073,
      "Ġinstrument": 4074,
      "Ġsolar": 4075,
      "Ġvoc": 4076,
      "dp": 4077,
      "Ġtub": 4078,
      "Ġhus": 4079,
      "Ġmatch": 4080,
      "Ġprice": 4081,
      "Ġfoundation": 4082,
      "Ġachieve": 4083,
      "Ġsignal": 4084,
      "Ġofficers": 4085,
      "icip": 4086,
      "Ġincome": 4087,
      "Ġcondition": 4088,
      "Ġfeed": 4089,
      "Ġjur": 4090,
      "Ġsupreme": 4091,
      "Ġchannel": 4092,
      "Ġconclud": 4093,
      "ately": 4094,
      "Ġreferen": 4095,
      "Ġoccurred": 4096,
      "mark": 4097,
      "ew": 4098,
      "Ġprep": 4099,
      "rad": 4100,
      "Ġsin": 4101,
      "ala": 4102,
      "Ġatm": 4103,
      "Ġstandards": 4104,
      "ĠÃ": 4105,
      "Ġbott": 4106,
      "ensity": 4107,
      "icated": 4108,
      "igrants": 4109,
      "Ġminute": 4110,
      "Ġspeaking": 4111,
      "ike": 4112,
      "ota": 4113,
      "Ġpaid": 4114,
      "Ġholy": 4115,
      "Ġdomestic": 4116,
      "Ġmont": 4117,
      "Ġowned": 4118,
      "Ġsituation": 4119,
      "band": 4120,
      "Ġ70": 4121,
      "Ġnote": 4122,
      "Ġearliest": 4123,
      "Ġplane": 4124,
      "Ġsales": 4125,
      "Ġplease": 4126,
      "Ġdance": 4127,
      "force": 4128,
      "Ġvolume": 4129,
      "Ġdar": 4130,
      "Ġ1994": 4131,
      "Ġeffective": 4132,
      "Ġdoor": 4133,
      "Ġanth": 4134,
      "Ġmit": 4135,
      "Ġarrived": 4136,
      "Ġallowing": 4137,
      "Ġguit": 4138,
      "Ġadvant": 4139,
      "Ġfinished": 4140,
      "omy": 4141,
      "Ġopposed": 4142,
      "Ġmas": 4143,
      "Ġimmediately": 4144,
      "Ġimag": 4145,
      "Ġirish": 4146,
      "Ġ32": 4147,
      "Ġgh": 4148,
      "Ġoverall": 4149,
      "Ġrefuge": 4150,
      "heast": 4151,
      "ocol": 4152,
      "Ġlearning": 4153,
      "Ġbranch": 4154,
      "haps": 4155,
      "Ġ1991": 4156,
      "Ġol": 4157,
      "Ġcham": 4158,
      "Ġgain": 4159,
      "enth": 4160,
      "Ġcontemporary": 4161,
      "Ġliberal": 4162,
      "Ġcrow": 4163,
      "lection": 4164,
      "Ġarms": 4165,
      "Ġentered": 4166,
      "Ġfestival": 4167,
      "acter": 4168,
      "Ġpolitics": 4169,
      "Ġframe": 4170,
      "Ġimpl": 4171,
      "Ġphase": 4172,
      "Ġreduce": 4173,
      "anda": 4174,
      "Ġreaction": 4175,
      "Ġ1992": 4176,
      "rison": 4177,
      "Ġgro": 4178,
      "Ġund": 4179,
      "Ġperhaps": 4180,
      "ua": 4181,
      "Ġissued": 4182,
      "Ġ1995": 4183,
      "Ġexistence": 4184,
      "zil": 4185,
      "Ġleaving": 4186,
      "Ġquarter": 4187,
      "Ġspecif": 4188,
      "ancy": 4189,
      "Ġweb": 4190,
      "Ġ90": 4191,
      "ordin": 4192,
      "Ġdry": 4193,
      "ca": 4194,
      "ona": 4195,
      "Ġsupply": 4196,
      "Ġviolence": 4197,
      "iques": 4198,
      "Ġruns": 4199,
      "Ġatom": 4200,
      "Ġpoland": 4201,
      "Ġdistingu": 4202,
      "Ġqueen": 4203,
      "Ġconsists": 4204,
      "Ġowners": 4205,
      "Ġpull": 4206,
      "Ġnas": 4207,
      "Ġrecomm": 4208,
      "odox": 4209,
      "Ġweak": 4210,
      "Ġign": 4211,
      "Ġincorpor": 4212,
      "Ġversions": 4213,
      "Ġbye": 4214,
      "ĠÂ°": 4215,
      "Ġmyth": 4216,
      "Ġgreatest": 4217,
      "Ġba": 4218,
      "Ġordered": 4219,
      "Ġpieces": 4220,
      "ita": 4221,
      "Ġdoub": 4222,
      "cher": 4223,
      "Ġcareful": 4224,
      "Ġrates": 4225,
      "Ġadver": 4226,
      "Ġ35": 4227,
      "Ġavoid": 4228,
      "Ġterror": 4229,
      "umn": 4230,
      "Ġadvanced": 4231,
      "Ġcanadian": 4232,
      "Ġfru": 4233,
      "Ġmaster": 4234,
      "Ġdamage": 4235,
      "Ġmartin": 4236,
      "Ġsomeone": 4237,
      "Ġcontribut": 4238,
      "Ġrespond": 4239,
      "Ġperman": 4240,
      "odes": 4241,
      "Ġreading": 4242,
      "Ġsilver": 4243,
      "Ġvoice": 4244,
      "Ġtrees": 4245,
      "Ġplays": 4246,
      "ram": 4247,
      "Ġpaint": 4248,
      "Ġaid": 4249,
      "Ġshap": 4250,
      "Ġsud": 4251,
      "ternal": 4252,
      "Ġuniform": 4253,
      "Ġinstance": 4254,
      "bra": 4255,
      "Ġresulted": 4256,
      "Ġbeat": 4257,
      "Ġvictory": 4258,
      "Ġarrang": 4259,
      "Ġprince": 4260,
      "Ġpresented": 4261,
      "iling": 4262,
      "Ġcooper": 4263,
      "Ġreplace": 4264,
      "Ġscreen": 4265,
      "Ġinhab": 4266,
      "Åį": 4267,
      "Ġcore": 4268,
      "Ġmotion": 4269,
      "rate": 4270,
      "oman": 4271,
      "Ġmoment": 4272,
      "Ġaustralian": 4273,
      "Ġvictor": 4274,
      "Ġsets": 4275,
      "gers": 4276,
      "Ġthin": 4277,
      "Ġviet": 4278,
      "Ġcapac": 4279,
      "Ġcompetition": 4280,
      "Ġsuc": 4281,
      "Ġanaly": 4282,
      "Ġgone": 4283,
      "Ġuns": 4284,
      "Ġdestroyed": 4285,
      "Ġgene": 4286,
      "het": 4287,
      "yth": 4288,
      "Ġcompletely": 4289,
      "Ġatmosp": 4290,
      "Ġacts": 4291,
      "Ġcauses": 4292,
      "Ġrespectively": 4293,
      "Ġeating": 4294,
      "Ġorient": 4295,
      "Ġexpansion": 4296,
      "Ġtan": 4297,
      "Ġdevices": 4298,
      "Ġinterpret": 4299,
      "Ġplanned": 4300,
      "Ġadvoc": 4301,
      "Ġdub": 4302,
      "Ġnotes": 4303,
      "Ġedition": 4304,
      "Ġsenate": 4305,
      "Ġprize": 4306,
      "Ġwow": 4307,
      "Ġremoved": 4308,
      "iday": 4309,
      "asty": 4310,
      "ception": 4311,
      "Ġ180": 4312,
      "pping": 4313,
      "Ġqual": 4314,
      "Ġbrazil": 4315,
      "Ġwrong": 4316,
      "mas": 4317,
      "Ġut": 4318,
      "Ġvary": 4319,
      "Ġretain": 4320,
      "Ġukra": 4321,
      "Ġbrief": 4322,
      "Ġbridge": 4323,
      "Ġparal": 4324,
      "Ġfactors": 4325,
      "ffic": 4326,
      "Ġofficer": 4327,
      "Ġbrand": 4328,
      "Ġray": 4329,
      "ested": 4330,
      "Ġpenn": 4331,
      "iring": 4332,
      "Ġinspired": 4333,
      "Ġworldwide": 4334,
      "Ġslight": 4335,
      "icit": 4336,
      "ares": 4337,
      "Ġcontrolled": 4338,
      "Ġactions": 4339,
      "Ġmiles": 4340,
      "lom": 4341,
      "Ġfully": 4342,
      "Ġtruck": 4343,
      "kn": 4344,
      "Ġconnected": 4345,
      "Ġeye": 4346,
      "elled": 4347,
      "Ġsites": 4348,
      "works": 4349,
      "Ġluc": 4350,
      "Ġdetect": 4351,
      "Ġviews": 4352,
      "uted": 4353,
      "Ġbeaut": 4354,
      "Ġdifferences": 4355,
      "Ġcrisis": 4356,
      "Ġott": 4357,
      "Ġbang": 4358,
      "osis": 4359,
      "Ġpalest": 4360,
      "isters": 4361,
      "Ġkm": 4362,
      "agan": 4363,
      "Ġwinning": 4364,
      "don": 4365,
      "Ġpropos": 4366,
      "Ġprominent": 4367,
      "Ġdisapp": 4368,
      "Ġstatement": 4369,
      "Ġ181": 4370,
      "Ġflorida": 4371,
      "ologist": 4372,
      "Ġsucceed": 4373,
      "Ġcatal": 4374,
      "Ġ1993": 4375,
      "Ġsolution": 4376,
      "21": 4377,
      "oud": 4378,
      "Ġhuge": 4379,
      "eed": 4380,
      "Ġrefused": 4381,
      "Ġopening": 4382,
      "orters": 4383,
      "Ġow": 4384,
      "rick": 4385,
      "Ġcancer": 4386,
      "ipped": 4387,
      "Ġwealth": 4388,
      "Ġchoice": 4389,
      "Ġfal": 4390,
      "Ġrand": 4391,
      "rm": 4392,
      "Ġdirected": 4393,
      "Ġsteel": 4394,
      "ithm": 4395,
      "Ġoppos": 4396,
      "Ġnut": 4397,
      "Ġmountains": 4398,
      "rel": 4399,
      "Ġcreating": 4400,
      "kins": 4401,
      "Ġfigures": 4402,
      "Ġdail": 4403,
      "Ġlaunch": 4404,
      "Ġshut": 4405,
      "Ġenem": 4406,
      "Ġformation": 4407,
      "Ġmedie": 4408,
      "Ġcommunist": 4409,
      "Ġexpressed": 4410,
      "Ġnegot": 4411,
      "Ġ1930": 4412,
      "Ġsevere": 4413,
      "Ġtechniques": 4414,
      "Ġkorea": 4415,
      "Ġmedieval": 4416,
      "Ġincreasingly": 4417,
      "Ġorganizations": 4418,
      "gu": 4419,
      "Ġfrequency": 4420,
      "Ġorthodox": 4421,
      "Ġmarked": 4422,
      "Ġstations": 4423,
      "Ġsubsequently": 4424,
      "Ġpray": 4425,
      "Ġrecognized": 4426,
      "rier": 4427,
      "Ġcheck": 4428,
      "Ġkid": 4429,
      "Ġdiscovery": 4430,
      "racy": 4431,
      "Ġexerc": 4432,
      "Ġfran": 4433,
      "Ġappearance": 4434,
      "Ġquite": 4435,
      "Ġ1989": 4436,
      "Ġtrou": 4437,
      "Ġchron": 4438,
      "Ġga": 4439,
      "Ġopin": 4440,
      "Ġdaily": 4441,
      "Ġweather": 4442,
      "Ġdescript": 4443,
      "Ġmedicine": 4444,
      "Ġchur": 4445,
      "Ġreasons": 4446,
      "Ġintel": 4447,
      "gar": 4448,
      "Ġspot": 4449,
      "Ġsister": 4450,
      "Ġconvers": 4451,
      "Ġfixed": 4452,
      "quar": 4453,
      "Ġcorrect": 4454,
      "Ġlady": 4455,
      "Ġcritics": 4456,
      "agon": 4457,
      "Ġshape": 4458,
      "Ġcombat": 4459,
      "po": 4460,
      "Ġwindows": 4461,
      "Ġfifth": 4462,
      "80": 4463,
      "Ġexperts": 4464,
      "Ġreports": 4465,
      "Ġsupposed": 4466,
      "Ġprojects": 4467,
      "Ġjoint": 4468,
      "Ġauthors": 4469,
      "arent": 4470,
      "har": 4471,
      "Ġdrug": 4472,
      "Ġvolun": 4473,
      "Ġstudied": 4474,
      "Ġ500": 4475,
      "iw": 4476,
      "eral": 4477,
      "sa": 4478,
      "Ġuniversal": 4479,
      "Ġdefeated": 4480,
      "Ġpron": 4481,
      "Ġconservative": 4482,
      "Ġintelligence": 4483,
      "Ġunf": 4484,
      "Ġancest": 4485,
      "Ġfly": 4486,
      "irt": 4487,
      "Ġsector": 4488,
      "Ġmeat": 4489,
      "Ġorange": 4490,
      "entially": 4491,
      "Ġenj": 4492,
      "Ġarchae": 4493,
      "Ġveget": 4494,
      "orter": 4495,
      "igen": 4496,
      "Ġvice": 4497,
      "Ġapparent": 4498,
      "Ġobserved": 4499,
      "Ġbol": 4500,
      "Ġbirds": 4501,
      "adium": 4502,
      "Ġchurches": 4503,
      "Ġguitar": 4504,
      "Ġtowns": 4505,
      "Ġpictures": 4506,
      "Ġcrown": 4507,
      "Ġoxy": 4508,
      "Ġheard": 4509,
      "Ġhydrogen": 4510,
      "Ġusers": 4511,
      "Ġswim": 4512,
      "Ġ1940": 4513,
      "Ġauthorities": 4514,
      "Ġchalleng": 4515,
      "Ġstick": 4516,
      "Ġreign": 4517,
      "Ġapplication": 4518,
      "Ġmarine": 4519,
      "Ġsolid": 4520,
      "Ġstructures": 4521,
      "Ġregarded": 4522,
      "rich": 4523,
      "Ġcalls": 4524,
      "imal": 4525,
      "Ġdogs": 4526,
      "oration": 4527,
      "Ġdetermined": 4528,
      "Ġequivalent": 4529,
      "Ġpolicies": 4530,
      "Ġtheatre": 4531,
      "Ġboys": 4532,
      "ographic": 4533,
      "Ġofficially": 4534,
      "ano": 4535,
      "Ġlith": 4536,
      "Ġ179": 4537,
      "Ġ1920": 4538,
      "orph": 4539,
      "Ġpul": 4540,
      "Ġpromot": 4541,
      "vin": 4542,
      "iments": 4543,
      "Ġves": 4544,
      "Ġperfect": 4545,
      "win": 4546,
      "aland": 4547,
      "Ġadm": 4548,
      "war": 4549,
      "Ġtick": 4550,
      "Ġtape": 4551,
      "Ġmonarch": 4552,
      "Ġturk": 4553,
      "Ġsubsequent": 4554,
      "Ġnick": 4555,
      "Ġstring": 4556,
      "Ġfactor": 4557,
      "ani": 4558,
      "Ġrestaur": 4559,
      "Ġsche": 4560,
      "down": 4561,
      "water": 4562,
      "Ġdrum": 4563,
      "Ġmanufacture": 4564,
      "come": 4565,
      "lines": 4566,
      "Ġuniverse": 4567,
      "Ġteach": 4568,
      "60": 4569,
      "Ġhundreds": 4570,
      "ding": 4571,
      "Ġsurpr": 4572,
      "Ġexpanded": 4573,
      "Ġunderstanding": 4574,
      "Ġbuddh": 4575,
      "Ġbodies": 4576,
      "cell": 4577,
      "teen": 4578,
      "30": 4579,
      "Ġalexander": 4580,
      "Ġcryst": 4581,
      "Ġskin": 4582,
      "Ġcatch": 4583,
      "hens": 4584,
      "Ġyouth": 4585,
      "greg": 4586,
      "time": 4587,
      "Ġconducted": 4588,
      "thes": 4589,
      "Ġentertain": 4590,
      "gl": 4591,
      "Ġdevice": 4592,
      "Ġhurt": 4593,
      "Ġsought": 4594,
      "Ġfundament": 4595,
      "Ġgained": 4596,
      "Ġdrop": 4597,
      "Ġdiam": 4598,
      "andon": 4599,
      "Ġliqu": 4600,
      "Ġnearby": 4601,
      "usal": 4602,
      "Ġjesus": 4603,
      "Ġteachers": 4604,
      "Ġcou": 4605,
      "Ġbroke": 4606,
      "onia": 4607,
      "Ġexisting": 4608,
      "Ġleadership": 4609,
      "Ġfinish": 4610,
      "Ġagriculture": 4611,
      "hi": 4612,
      "Ġdecade": 4613,
      "ulate": 4614,
      "opp": 4615,
      "Ġsplit": 4616,
      "ext": 4617,
      "Ġtail": 4618,
      "illa": 4619,
      "Ġages": 4620,
      "Ġadvent": 4621,
      "Ġathlet": 4622,
      "âĢĻ": 4623,
      "Ġsequence": 4624,
      "ensions": 4625,
      "Ġtemperatures": 4626,
      "gment": 4627,
      "Ġmixed": 4628,
      "Ġille": 4629,
      "Ġadapt": 4630,
      "Ġvillage": 4631,
      "Ġfine": 4632,
      "iations": 4633,
      "Ġwithd": 4634,
      "Ġaffect": 4635,
      "Ġidentity": 4636,
      "Ġreceive": 4637,
      "Ġton": 4638,
      "25": 4639,
      "ado": 4640,
      "Ġartist": 4641,
      "Ġcomed": 4642,
      "Ġcosts": 4643,
      "Ġresistance": 4644,
      "Ġoccurs": 4645,
      "Ġuser": 4646,
      "Ġlabour": 4647,
      "Ġflat": 4648,
      "Ġholding": 4649,
      "Ġawards": 4650,
      "Ġwing": 4651,
      "Ġchick": 4652,
      "Ġpeak": 4653,
      "Ġspecifically": 4654,
      "Ġaccur": 4655,
      "Ġvel": 4656,
      "Ġbacter": 4657,
      "Ġsem": 4658,
      "Ġeasily": 4659,
      "aling": 4660,
      "ogen": 4661,
      "Ġpossibly": 4662,
      "Ġtrip": 4663,
      "Ġboat": 4664,
      "Ġdeveloping": 4665,
      "Ġadam": 4666,
      "Ġdiplom": 4667,
      "Ġorbit": 4668,
      "ici": 4669,
      "Ġscene": 4670,
      "Ġawarded": 4671,
      "ifying": 4672,
      "Ġalgor": 4673,
      "Ġplate": 4674,
      "Ġlearned": 4675,
      "Ġmentioned": 4676,
      "zy": 4677,
      "Ġbasket": 4678,
      "rine": 4679,
      "zen": 4680,
      "Ġgramm": 4681,
      "Ġpus": 4682,
      "rol": 4683,
      "Ġsir": 4684,
      "oring": 4685,
      "Ġsurvey": 4686,
      "Ġabandon": 4687,
      "cont": 4688,
      "Ġdropped": 4689,
      "order": 4690,
      "Ġrequires": 4691,
      "ighter": 4692,
      "Ġfollows": 4693,
      "Ġmap": 4694,
      "Ġwebs": 4695,
      "Ġruled": 4696,
      "Ġzero": 4697,
      "Ġbudget": 4698,
      "Ġrose": 4699,
      "Ġcontaining": 4700,
      "Ġimportance": 4701,
      "Ġhappy": 4702,
      "Ġcos": 4703,
      "Ġforward": 4704,
      "orders": 4705,
      "Ġprem": 4706,
      "Ġdebate": 4707,
      "Ġcovered": 4708,
      "ologists": 4709,
      "Ġelectronic": 4710,
      "Ġgeorg": 4711,
      "Ġmessage": 4712,
      "Ġheight": 4713,
      "Ġbaseball": 4714,
      "Ġdram": 4715,
      "Ġhistorian": 4716,
      "Ġtwenty": 4717,
      "Ġsides": 4718,
      "Ġproved": 4719,
      "Ġbecomes": 4720,
      "Ġyounger": 4721,
      "Ġhello": 4722,
      "Ġsuggests": 4723,
      "Ġphenomen": 4724,
      "Ġrow": 4725,
      "Ġprefer": 4726,
      "Ġstrength": 4727,
      "amin": 4728,
      "Ġepisode": 4729,
      "isher": 4730,
      "room": 4731,
      "Ġisol": 4732,
      "Ġinstitutions": 4733,
      "set": 4734,
      "Ġlands": 4735,
      "Ġattempts": 4736,
      "Ġstorm": 4737,
      "Ġjoin": 4738,
      "Ġcomputers": 4739,
      "Ġdepending": 4740,
      "Ġscen": 4741,
      "arm": 4742,
      "Ġrefers": 4743,
      "Ġpartners": 4744,
      "Ġedward": 4745,
      "Ġ300": 4746,
      "Ġprinciple": 4747,
      "Ġscotland": 4748,
      "Ġpurs": 4749,
      "Ġvehicles": 4750,
      "Ġbon": 4751,
      "Ġcrim": 4752,
      "known": 4753,
      "Ġcycle": 4754,
      "Ġspoken": 4755,
      "Ġfred": 4756,
      "ault": 4757,
      "Ġstraight": 4758,
      "aging": 4759,
      "Ġcoff": 4760,
      "Ġnit": 4761,
      "Ġactual": 4762,
      "kin": 4763,
      "Ġhors": 4764,
      "Ġpure": 4765,
      "itan": 4766,
      "ieties": 4767,
      "Ġdynasty": 4768,
      "Ġtu": 4769,
      "Ġexclus": 4770,
      "Ġeasy": 4771,
      "Ġpric": 4772,
      "Ġlee": 4773,
      "Ġdiscip": 4774,
      "Ġsky": 4775,
      "Ġsort": 4776,
      "Ġenjoy": 4777,
      "Ġarchitecture": 4778,
      "ias": 4779,
      "Ġoldest": 4780,
      "Ġseems": 4781,
      "ung": 4782,
      "Ġorganized": 4783,
      "Ġzealand": 4784,
      "Ġgrav": 4785,
      "Ġasian": 4786,
      "Ġattend": 4787,
      "Ġfu": 4788,
      "Ġcompl": 4789,
      "Ġrailway": 4790,
      "Ġreven": 4791,
      "ern": 4792,
      "Ġextensive": 4793,
      "claim": 4794,
      "Ġsuppl": 4795,
      "Ġinstruments": 4796,
      "Ġhouses": 4797,
      "Ġshared": 4798,
      "Ġzone": 4799,
      "Ġphysics": 4800,
      "Ġberlin": 4801,
      "Ġroughly": 4802,
      "Ġbes": 4803,
      "Ġcontext": 4804,
      "Ġric": 4805,
      "Ġbath": 4806,
      "Ġinvasion": 4807,
      "Ġtesting": 4808,
      "Ġwriters": 4809,
      "lers": 4810,
      "Ġimages": 4811,
      "Ġeld": 4812,
      "Ġattempted": 4813,
      "Ġcensus": 4814,
      "Ġexternal": 4815,
      "Ġlooked": 4816,
      "Ġsyria": 4817,
      "Ġadvantage": 4818,
      "Ġtower": 4819,
      "Ġ45": 4820,
      "Ġtechnical": 4821,
      "Ġstanding": 4822,
      "Ġjohnson": 4823,
      "Ġtrust": 4824,
      "Ġmunicip": 4825,
      "Ġoxygen": 4826,
      "Ġsout": 4827,
      "Ġanne": 4828,
      "Ġnaval": 4829,
      "Ġexperien": 4830,
      "Ġbarb": 4831,
      "Ġclosely": 4832,
      "Ġsettlement": 4833,
      "Ġvirginia": 4834,
      "Ġoccasion": 4835,
      "Ġcaptured": 4836,
      "oral": 4837,
      "Ġquestions": 4838,
      "Ġwides": 4839,
      "Ġexplain": 4840,
      "Ġcombination": 4841,
      "11": 4842,
      "Ġcourts": 4843,
      "Ġdiet": 4844,
      "eds": 4845,
      "Ġstadium": 4846,
      "Ġkil": 4847,
      "Ġrecording": 4848,
      "Ġpainting": 4849,
      "lav": 4850,
      "Ġutil": 4851,
      "Ġproviding": 4852,
      "Ġsignificantly": 4853,
      "Ġsax": 4854,
      "Ġknew": 4855,
      "gon": 4856,
      "ador": 4857,
      "40": 4858,
      "Ġtall": 4859,
      "Ġsubstant": 4860,
      "ortion": 4861,
      "Ġcolonial": 4862,
      "Ġnotably": 4863,
      "Ġoutput": 4864,
      "iced": 4865,
      "Ġworth": 4866,
      "Ġtoy": 4867,
      "Ġtypical": 4868,
      "fare": 4869,
      "Ġrein": 4870,
      "Ġetc": 4871,
      "Ġparalle": 4872,
      "Ġstan": 4873,
      "Ġstudio": 4874,
      "Ġtools": 4875,
      "ipe": 4876,
      "Ġmond": 4877,
      "Ġexpect": 4878,
      "Ġcollabor": 4879,
      "Ġfolk": 4880,
      "Ġvisited": 4881,
      "Ġbeach": 4882,
      "Ġultimately": 4883,
      "Ġmist": 4884,
      "Ġlabel": 4885,
      "Ġuseful": 4886,
      "Ġotherwise": 4887,
      "Ġsom": 4888,
      "Ġranked": 4889,
      "wa": 4890,
      "Ġtherm": 4891,
      "Ġcapacity": 4892,
      "Ġlas": 4893,
      "Ġsuffered": 4894,
      "cop": 4895,
      "tery": 4896,
      "Ġdangerous": 4897,
      "Ġjac": 4898,
      "Ġcircle": 4899,
      "Ġcla": 4900,
      "Ġheavily": 4901,
      "Ġcampus": 4902,
      "Ġpractices": 4903,
      "Ġram": 4904,
      "Ġride": 4905,
      "Ġspin": 4906,
      "Ġtemple": 4907,
      "Ġfarmers": 4908,
      "Ġshel": 4909,
      "Ġfleet": 4910,
      "Ġahead": 4911,
      "Ġrejected": 4912,
      "Ġsecondary": 4913,
      "Ġsunday": 4914,
      "Ġmagnetic": 4915,
      "Ġliterary": 4916,
      "what": 4917,
      "uing": 4918,
      "Ġacademic": 4919,
      "Ġatlantic": 4920,
      "Ġmobile": 4921,
      "Ġafghanistan": 4922,
      "Ġbron": 4923,
      "Ġquantum": 4924,
      "aph": 4925,
      "Ġeveryone": 4926,
      "Ġaffected": 4927,
      "Ġtests": 4928,
      "Ġbishop": 4929,
      "Ġmcc": 4930,
      "Ġgolden": 4931,
      "Ġalco": 4932,
      "Ġgenetic": 4933,
      "Ġbroken": 4934,
      "Ġdescribes": 4935,
      "rees": 4936,
      "Ġwhereas": 4937,
      "Ġbot": 4938,
      "now": 4939,
      "Ġproced": 4940,
      "ule": 4941,
      "Ġteaching": 4942,
      "Ġprogramming": 4943,
      "Ġtel": 4944,
      "Ġ1986": 4945,
      "Ġlingu": 4946,
      "Ġgranted": 4947,
      "Ġnose": 4948,
      "ropri": 4949,
      "Ġfresh": 4950,
      "pread": 4951,
      "itors": 4952,
      "Ġhin": 4953,
      "Ġpositions": 4954,
      "Ġduck": 4955,
      "Ġchain": 4956,
      "Ġaccomp": 4957,
      "Ġroute": 4958,
      "Ġwidespread": 4959,
      "erved": 4960,
      "Ġdescribe": 4961,
      "Ġross": 4962,
      "oles": 4963,
      "icial": 4964,
      "Ġapproved": 4965,
      "Ġmolec": 4966,
      "Ġradiation": 4967,
      "Ġdensity": 4968,
      "Ġrivers": 4969,
      "rie": 4970,
      "house": 4971,
      "Ġcoordin": 4972,
      "Ġ1979": 4973,
      "Ġjim": 4974,
      "Ġnfl": 4975,
      "ih": 4976,
      "Ġaz": 4977,
      "Ġbob": 4978,
      "Ġdetermine": 4979,
      "Ġdur": 4980,
      "Ġnom": 4981,
      "Ġ1945": 4982,
      "Ġcaptain": 4983,
      "Ġmars": 4984,
      "Ġtraffic": 4985,
      "Ġinfin": 4986,
      "rence": 4987,
      "Ġslightly": 4988,
      "Ġrice": 4989,
      "Ġ1975": 4990,
      "Ġnewspaper": 4991,
      "vi": 4992,
      "Ġash": 4993,
      "Ġfailure": 4994,
      "life": 4995,
      "Ġcommunication": 4996,
      "ali": 4997,
      "Ġprohib": 4998,
      "Ġaren": 4999,
      "Ġtransition": 5000,
      "Ġtwice": 5001,
      "Ġchallen": 5002,
      "Ġinstruct": 5003,
      "Ġcards": 5004,
      "Ġexpensive": 5005,
      "Ġopera": 5006,
      "Ġaudience": 5007,
      "Ġstrateg": 5008,
      "Ġphone": 5009,
      "Ġhistoric": 5010,
      "Ġscore": 5011,
      "Ġachieved": 5012,
      "Ġmeasures": 5013,
      "ato": 5014,
      "Ġimproved": 5015,
      "opher": 5016,
      "Ġprincipal": 5017,
      "osen": 5018,
      "Ġparam": 5019,
      "Ġdecline": 5020,
      "Ġsatell": 5021,
      "Ġbah": 5022,
      "Ġgovernments": 5023,
      "ograp": 5024,
      "Ġcel": 5025,
      "Ġtruth": 5026,
      "elling": 5027,
      "Ġstuff": 5028,
      "Ġseats": 5029,
      "Ġsetting": 5030,
      "Ġrestrict": 5031,
      "Ġchanging": 5032,
      "cious": 5033,
      "Ġaffairs": 5034,
      "Ġsimpl": 5035,
      "rations": 5036,
      "Ġwheel": 5037,
      "Ġjuice": 5038,
      "Ġinvolve": 5039,
      "Ġlinear": 5040,
      "Ġtheories": 5041,
      "char": 5042,
      "Ġcausing": 5043,
      "Ġcopy": 5044,
      "Ġfrancisco": 5045,
      "Ġfans": 5046,
      "Ġcriticism": 5047,
      "Ġrepeated": 5048,
      "anes": 5049,
      "Ġpopulations": 5050,
      "Ġharm": 5051,
      "vant": 5052,
      "Ġpermanent": 5053,
      "road": 5054,
      "Ġrus": 5055,
      "Ġpossess": 5056,
      "atically": 5057,
      "Ġcriminal": 5058,
      "Ġfocused": 5059,
      "Ġchart": 5060,
      "ager": 5061,
      "Ġell": 5062,
      "Ġextremely": 5063,
      "Ġgdp": 5064,
      "acing": 5065,
      "Ġsugar": 5066,
      "Ġshortly": 5067,
      "Ġbass": 5068,
      "Ġgreece": 5069,
      "rd": 5070,
      "Ġconfeder": 5071,
      "Ġcandidate": 5072,
      "Ġion": 5073,
      "Ġari": 5074,
      "Ġplatform": 5075,
      "Ġpump": 5076,
      "new": 5077,
      "ading": 5078,
      "Ġpref": 5079,
      "Ġmaximum": 5080,
      "Ġparks": 5081,
      "Ġchristians": 5082,
      "Ġsenior": 5083,
      "Ġconnection": 5084,
      "Ġadvert": 5085,
      "500": 5086,
      "Ġ1987": 5087,
      "Ġdun": 5088,
      "Ġoverse": 5089,
      "Ġfunny": 5090,
      "Ġgoods": 5091,
      "Ġles": 5092,
      "ogue": 5093,
      "Ġdisney": 5094,
      "Ġtrial": 5095,
      "Ġ1984": 5096,
      "Ġteacher": 5097,
      "Ġfundamental": 5098,
      "Ġsevent": 5099,
      "Ġvow": 5100,
      "oll": 5101,
      "Ġwarm": 5102,
      "Ġtraditionally": 5103,
      "Ġchristianity": 5104,
      "Ġamend": 5105,
      "Ġgenes": 5106,
      "Ġprocesses": 5107,
      "Ġmanager": 5108,
      "Ġbirthday": 5109,
      "Ġpatri": 5110,
      "Ġlaura": 5111,
      "Ġterritories": 5112,
      "Ġ1985": 5113,
      "Ġchampionship": 5114,
      "tles": 5115,
      "umin": 5116,
      "azz": 5117,
      "ili": 5118,
      "Ġshell": 5119,
      "Ġcontained": 5120,
      "Ġcircum": 5121,
      "Ġabsol": 5122,
      "Ġpolar": 5123,
      "Ġmah": 5124,
      "Ġoperated": 5125,
      "iana": 5126,
      "Ġchristmas": 5127,
      "ologies": 5128,
      "Ġwolf": 5129,
      "Ġhusband": 5130,
      "Ġsor": 5131,
      "Ġrid": 5132,
      "Ġattended": 5133,
      "Ġtoys": 5134,
      "rend": 5135,
      "Ġinfant": 5136,
      "rid": 5137,
      "Ġ1982": 5138,
      "Ġ1988": 5139,
      "Ġna": 5140,
      "Ġmamm": 5141,
      "Ġsla": 5142,
      "Ġdeclar": 5143,
      "Ġentirely": 5144,
      "Ġexplained": 5145,
      "Ġpopularity": 5146,
      "Ġagricultural": 5147,
      "Ġindex": 5148,
      "Ġcu": 5149,
      "Ġcouple": 5150,
      "Ġped": 5151,
      "Ġmine": 5152,
      "Ġinfect": 5153,
      "Ġbom": 5154,
      "Ġtribes": 5155,
      "Ġuniversities": 5156,
      "Ġlisted": 5157,
      "Ġcomponents": 5158,
      "ansas": 5159,
      "Ġelev": 5160,
      "Ġskills": 5161,
      "Ġonto": 5162,
      "Ġproducing": 5163,
      "Ġbush": 5164,
      "Ġturkey": 5165,
      "Ġchosen": 5166,
      "Ġsoil": 5167,
      "Ġcav": 5168,
      "Ġuncle": 5169,
      "Ġhomes": 5170,
      "Ġanton": 5171,
      "Ġbackground": 5172,
      "miss": 5173,
      "ims": 5174,
      "Ġrod": 5175,
      "Ġeggs": 5176,
      "Ġgets": 5177,
      "Ġ1983": 5178,
      "Ġboston": 5179,
      "Ġphysic": 5180,
      "Ġlinked": 5181,
      "Ġaer": 5182,
      "Ġvon": 5183,
      "Ġbrothers": 5184,
      "Ġarist": 5185,
      "Ġtwel": 5186,
      "Ġhunting": 5187,
      "Ġadministrative": 5188,
      "Ġtaught": 5189,
      "verse": 5190,
      "Ġsynthes": 5191,
      "Ġillust": 5192,
      "Ġregarding": 5193,
      "Ġfox": 5194,
      "roll": 5195,
      "Ġreality": 5196,
      "Ġemot": 5197,
      "Ġparticles": 5198,
      "rem": 5199,
      "leg": 5200,
      "Ġeditor": 5201,
      "Ġtask": 5202,
      "Ġsave": 5203,
      "Ġformat": 5204,
      "eness": 5205,
      "Ġku": 5206,
      "Ġabd": 5207,
      "Ġ150": 5208,
      "Ġcompounds": 5209,
      "Ġbutter": 5210,
      "nd": 5211,
      "Ġliquid": 5212,
      "Ġintroduction": 5213,
      "Ġconcerns": 5214,
      "tie": 5215,
      "icks": 5216,
      "Ġsimilarly": 5217,
      "iful": 5218,
      "Ġjeff": 5219,
      "Ġconfirmed": 5220,
      "Ġtexts": 5221,
      "Ġau": 5222,
      "Ġnewly": 5223,
      "Ġflying": 5224,
      "Ġhug": 5225,
      "Ġvehicle": 5226,
      "rum": 5227,
      "Ġnether": 5228,
      "Ġfirm": 5229,
      "Ġthinking": 5230,
      "Ġsalt": 5231,
      "Ġstopped": 5232,
      "Ġisraeli": 5233,
      "Ġabsor": 5234,
      "Ġvisitors": 5235,
      "Ġbottom": 5236,
      "Ġ1968": 5237,
      "Ġwasn": 5238,
      "Ġunp": 5239,
      "Ġunable": 5240,
      "Ġpublication": 5241,
      "Ġrural": 5242,
      "Ġsurrounding": 5243,
      "Ġministry": 5244,
      "Ġexpression": 5245,
      "rim": 5246,
      "Ġbapt": 5247,
      "Ġunknown": 5248,
      "writ": 5249,
      "Ġcin": 5250,
      "Ġcodice": 5251,
      "hamm": 5252,
      "Ġsust": 5253,
      "Ġfinding": 5254,
      "Ġconcluded": 5255,
      "Ġoccupied": 5256,
      "Ġdegrees": 5257,
      "Ġalbert": 5258,
      "Ġtransportation": 5259,
      "Ġrevealed": 5260,
      "mann": 5261,
      "Ġprinciples": 5262,
      "Ġobtained": 5263,
      "sen": 5264,
      "fast": 5265,
      "Ġdivers": 5266,
      "Ġhappen": 5267,
      "Ġjuris": 5268,
      "Ġts": 5269,
      "Ġwaves": 5270,
      "Ġcoffee": 5271,
      "Ġadding": 5272,
      "Ġcoc": 5273,
      "Ġcrop": 5274,
      "Ġdefeat": 5275,
      "Ġcarolina": 5276,
      "rey": 5277,
      "Ġblocks": 5278,
      "Ġ64": 5279,
      "Ġextin": 5280,
      "chy": 5281,
      "Ġsigns": 5282,
      "Ġportugues": 5283,
      "Ġtherap": 5284,
      "Ġcontinues": 5285,
      "cules": 5286,
      "Ġmental": 5287,
      "Ġgrown": 5288,
      "Ġeleph": 5289,
      "Ġbiggest": 5290,
      "Ġfile": 5291,
      "while": 5292,
      "Ġpoem": 5293,
      "ship": 5294,
      "Ġtreated": 5295,
      "Ġhistorians": 5296,
      "Ġteen": 5297,
      "Ġminimum": 5298,
      "Ġdefend": 5299,
      "Ġflood": 5300,
      "Ġportuguese": 5301,
      "Ġcd": 5302,
      "otyp": 5303,
      "Ġnarrow": 5304,
      "Ġjackson": 5305,
      "igan": 5306,
      "Ġcamera": 5307,
      "Ġbright": 5308,
      "Ġexpand": 5309,
      "Ã¨": 5310,
      "Ġinsur": 5311,
      "Ġsounds": 5312,
      "Ġadvance": 5313,
      "Ġheb": 5314,
      "Ġcastle": 5315,
      "Ġbure": 5316,
      "Ġchrom": 5317,
      "Ġtalking": 5318,
      "Ġfant": 5319,
      "eland": 5320,
      "Ġsend": 5321,
      "Ġdefence": 5322,
      "athan": 5323,
      "Ġ1976": 5324,
      "Ġfewer": 5325,
      "Ġselling": 5326,
      "they": 5327,
      "Ġwet": 5328,
      "Ġmerc": 5329,
      "Ġrival": 5330,
      "Ġmanaged": 5331,
      "Ġconstructed": 5332,
      "Ġtast": 5333,
      "oln": 5334,
      "ricts": 5335,
      "Ġindigen": 5336,
      "Ġabsolute": 5337,
      "Ġinvestment": 5338,
      "Ġaspects": 5339,
      "Ġhistorically": 5340,
      "abeth": 5341,
      "Ġpalace": 5342,
      "Ġcolumbia": 5343,
      "Ġine": 5344,
      "oking": 5345,
      "Ġedge": 5346,
      "Ġrevol": 5347,
      "Ġsitu": 5348,
      "Ġsufficient": 5349,
      "Ġkings": 5350,
      "Ġhypothes": 5351,
      "Ġmort": 5352,
      "Ġcalling": 5353,
      "icon": 5354,
      "Ġarth": 5355,
      "Ġexped": 5356,
      "Ġroads": 5357,
      "ras": 5358,
      "Ġserving": 5359,
      "Ġslavery": 5360,
      "Ġsettled": 5361,
      "Ġmathematics": 5362,
      "Ġ1973": 5363,
      "Ġmassive": 5364,
      "Ġwaters": 5365,
      "Ġcommander": 5366,
      "Ġmaintained": 5367,
      "Ġemployed": 5368,
      "Ġeliz": 5369,
      "Ġvotes": 5370,
      "Ġdocuments": 5371,
      "bac": 5372,
      "Ġimmigrants": 5373,
      "Ġsatur": 5374,
      "Ġbern": 5375,
      "Ġnetherlands": 5376,
      "do": 5377,
      "pan": 5378,
      "Ġdeaths": 5379,
      "Ġindigenous": 5380,
      "Ġrepresentatives": 5381,
      "onym": 5382,
      "Ġalliance": 5383,
      "Ġengines": 5384,
      "Ġsab": 5385,
      "Ġnormally": 5386,
      "anian": 5387,
      "Ġgreg": 5388,
      "Ġvietnam": 5389,
      "rus": 5390,
      "Ġdream": 5391,
      "Ġvast": 5392,
      "Ġneighborhood": 5393,
      "ĠâĢĿ": 5394,
      "ashion": 5395,
      "Ġrapidly": 5396,
      "Ġvisual": 5397,
      "Ġsarah": 5398,
      "Ġsacr": 5399,
      "Ġtank": 5400,
      "Ġjones": 5401,
      "Ġ1969": 5402,
      "Ġjersey": 5403,
      "Ġmr": 5404,
      "Ġmonday": 5405,
      "70": 5406,
      "Ġstable": 5407,
      "yan": 5408,
      "Ġcarl": 5409,
      "Ġexplos": 5410,
      "Ġmedium": 5411,
      "Ġ1974": 5412,
      "Ġtraditions": 5413,
      "Ġitems": 5414,
      "Ġunc": 5415,
      "Ġemerged": 5416,
      "tion": 5417,
      "Ġack": 5418,
      "Ġdress": 5419,
      "igation": 5420,
      "Ġ1972": 5421,
      "Ġwid": 5422,
      "Ġsanta": 5423,
      "verty": 5424,
      "Ġbears": 5425,
      "Ġneither": 5426,
      "Ġholds": 5427,
      "ĠâĢľ": 5428,
      "Ġbusinesses": 5429,
      "Ġdedicated": 5430,
      "Ġprepar": 5431,
      "Ġcompr": 5432,
      "oured": 5433,
      "Ġpoverty": 5434,
      "rain": 5435,
      "Ġtermin": 5436,
      "Ġguns": 5437,
      "Ġvessel": 5438,
      "Ġmes": 5439,
      "Ġsemi": 5440,
      "Ġpersian": 5441,
      "Ġunus": 5442,
      "Ġ33": 5443,
      "Ġputting": 5444,
      "Ġsweden": 5445,
      "unk": 5446,
      "osph": 5447,
      "Ġsupporters": 5448,
      "Ġmachines": 5449,
      "iro": 5450,
      "Ġ1967": 5451,
      "Ġinfluential": 5452,
      "Ġplot": 5453,
      "ena": 5454,
      "Ġdeclined": 5455,
      "Ġmathematical": 5456,
      "Ġspiritual": 5457,
      "Ġprices": 5458,
      "Ġexactly": 5459,
      "Ġentertainment": 5460,
      "Ġexperienced": 5461,
      "Ġlinc": 5462,
      "Ġ1981": 5463,
      "Ġshowing": 5464,
      "Ġargument": 5465,
      "Ġinput": 5466,
      "abet": 5467,
      "Ġnep": 5468,
      "Ġcontributed": 5469,
      "Ġinstitution": 5470,
      "Ġfoss": 5471,
      "Ġtechnique": 5472,
      "Ġproceed": 5473,
      "Ġnoise": 5474,
      "Ġtheme": 5475,
      "Ġduke": 5476,
      "Ġacquired": 5477,
      "Ġselected": 5478,
      "Ġsciences": 5479,
      "Ġhousehold": 5480,
      "Ġcomposition": 5481,
      "Ġplanning": 5482,
      "vis": 5483,
      "Ġrepresents": 5484,
      "Ġdynam": 5485,
      "Ġguy": 5486,
      "Ġideal": 5487,
      "Ġbanks": 5488,
      "Ġorders": 5489,
      "Ġnetworks": 5490,
      "Ġinhabit": 5491,
      "Ġpin": 5492,
      "eless": 5493,
      "Ġconstitutional": 5494,
      "Ġnazi": 5495,
      "utation": 5496,
      "Ġlew": 5497,
      "Ġ1971": 5498,
      "Ġfought": 5499,
      "Ġmayor": 5500,
      "Ġaccounts": 5501,
      "Ġniger": 5502,
      "Ġpatients": 5503,
      "stra": 5504,
      "Ġasc": 5505,
      "Ġleaves": 5506,
      "vereign": 5507,
      "Ġbib": 5508,
      "gian": 5509,
      "Ġhay": 5510,
      "Ġhabit": 5511,
      "Ġwalls": 5512,
      "Ġpenins": 5513,
      "Ġsovereign": 5514,
      "Ġtourism": 5515,
      "Ġmuslims": 5516,
      "Ġsympt": 5517,
      "Ġparallel": 5518,
      "Ġlincoln": 5519,
      "heim": 5520,
      "ione": 5521,
      "Ġresc": 5522,
      "Ġ38": 5523,
      "Ġkiss": 5524,
      "Ġelectro": 5525,
      "Ġgeomet": 5526,
      "rete": 5527,
      "Ġhang": 5528,
      "stone": 5529,
      "ounder": 5530,
      "ĠâĪ": 5531,
      "Ġpurposes": 5532,
      "Ġsole": 5533,
      "Ã¤": 5534,
      "Ġmanufacturing": 5535,
      "Ġtenn": 5536,
      "Ġlion": 5537,
      "ication": 5538,
      "Ġusage": 5539,
      "Ġgreatly": 5540,
      "Ġphilipp": 5541,
      "12": 5542,
      "ropol": 5543,
      "Ġvector": 5544,
      "Ġcandidates": 5545,
      "urt": 5546,
      "Ġwearing": 5547,
      "Ġswitch": 5548,
      "Ġvolunte": 5549,
      "Ġfaster": 5550,
      "raw": 5551,
      "Ġ36": 5552,
      "Ġcorps": 5553,
      "Ġprotein": 5554,
      "ructure": 5555,
      "Ġsick": 5556,
      "Ġacting": 5557,
      "Ġfacilities": 5558,
      "orage": 5559,
      "asy": 5560,
      "Ġ1978": 5561,
      "Ġadap": 5562,
      "Ġottoman": 5563,
      "isted": 5564,
      "ords": 5565,
      "Ġpeoples": 5566,
      "Ġconcerned": 5567,
      "Ġbought": 5568,
      "Ġcorporation": 5569,
      "ceived": 5570,
      "Ġspend": 5571,
      "Ġincreases": 5572,
      "Ġhence": 5573,
      "Ġrecognition": 5574,
      "lets": 5575,
      "Ġstret": 5576,
      "Ġneu": 5577,
      "ancing": 5578,
      "Ġharv": 5579,
      "Ġcommunications": 5580,
      "Ġopportunity": 5581,
      "etime": 5582,
      "Ġdistricts": 5583,
      "iat": 5584,
      "Ġpc": 5585,
      "Ġstrict": 5586,
      "Ġmovements": 5587,
      "Ġherit": 5588,
      "Ġslaves": 5589,
      "Ġbbc": 5590,
      "yer": 5591,
      "Ġfruit": 5592,
      "Ġcircuit": 5593,
      "Ġmeasured": 5594,
      "Ġcycl": 5595,
      "ses": 5596,
      "ishes": 5597,
      "Ġkick": 5598,
      "Ġsav": 5599,
      "Ġmarsh": 5600,
      "Ġelimin": 5601,
      "Ġwilson": 5602,
      "Ġalge": 5603,
      "Ġwonder": 5604,
      "Ġattacked": 5605,
      "Ġcriticized": 5606,
      "iar": 5607,
      "Ġrig": 5608,
      "Ġtranslation": 5609,
      "Ġtelephone": 5610,
      "usalem": 5611,
      "Ġchallenge": 5612,
      "Ġlegend": 5613,
      "15": 5614,
      "Ġteeth": 5615,
      "Ġukraine": 5616,
      "Ġvent": 5617,
      "Ġauton": 5618,
      "Ġchamber": 5619,
      "Ġkilling": 5620,
      "Ġinnov": 5621,
      "Ġpoetry": 5622,
      "Ġinterpre": 5623,
      "Ġjean": 5624,
      "stream": 5625,
      "Ġpreced": 5626,
      "Ġveter": 5627,
      "Ġspoke": 5628,
      "grad": 5629,
      "Ġportray": 5630,
      "Ġbands": 5631,
      "Ġwilliams": 5632,
      "Ġlayer": 5633,
      "quarters": 5634,
      "Ġexists": 5635,
      "Ġspaces": 5636,
      "Ġaccused": 5637,
      "Ġnone": 5638,
      "adel": 5639,
      "Ġdesigns": 5640,
      "Ġjerusalem": 5641,
      "Ġmerch": 5642,
      "Ġatmosphere": 5643,
      "ja": 5644,
      "olf": 5645,
      "Ġstrongly": 5646,
      "Ġske": 5647,
      "Ġmama": 5648,
      "rates": 5649,
      "Ġlegislation": 5650,
      "Ġestablishment": 5651,
      "Ġ1965": 5652,
      "fall": 5653,
      "Ġbce": 5654,
      "Ġresolution": 5655,
      "enger": 5656,
      "Ġbind": 5657,
      "Ġpilot": 5658,
      "Ġbasketball": 5659,
      "Ġcoalition": 5660,
      "Ġtrig": 5661,
      "Ġempt": 5662,
      "Ġproof": 5663,
      "Ġaccident": 5664,
      "itzer": 5665,
      "Ġmail": 5666,
      "Ġopposite": 5667,
      "Ġcapable": 5668,
      "Ġmulti": 5669,
      "Ġcontinuous": 5670,
      "Ġalongside": 5671,
      "Ġfellow": 5672,
      "Ġhorn": 5673,
      "Ġalf": 5674,
      "Ġcolors": 5675,
      "iano": 5676,
      "Ġjudge": 5677,
      "Ġarabic": 5678,
      "Ġtheorem": 5679,
      "Ġagree": 5680,
      "zech": 5681,
      "Ġot": 5682,
      "Ġequation": 5683,
      "Ġhousing": 5684,
      "Ġorche": 5685,
      "Ġsitting": 5686,
      "rane": 5687,
      "Ġsupporting": 5688,
      "Ġnasa": 5689,
      "bing": 5690,
      "Ġwire": 5691,
      "Ġip": 5692,
      "Ġpractical": 5693,
      "Ġ400": 5694,
      "Ġhelps": 5695,
      "Ġdominated": 5696,
      "Ġelizabeth": 5697,
      "Ġiniti": 5698,
      "Ġfilled": 5699,
      "ocked": 5700,
      "Ġegyptian": 5701,
      "Ġkorean": 5702,
      "Ġdates": 5703,
      "Ġessential": 5704,
      "Ġcuba": 5705,
      "Ġtiss": 5706,
      "Ġinfrast": 5707,
      "Ġgender": 5708,
      "oked": 5709,
      "Ġthanks": 5710,
      "Ġdisput": 5711,
      "Ġappropri": 5712,
      "ictions": 5713,
      "Ġ1977": 5714,
      "Ġfashion": 5715,
      "illy": 5716,
      "Ġmoral": 5717,
      "Ġintellect": 5718,
      "Ġcomplic": 5719,
      "Ġrequest": 5720,
      "Ġ178": 5721,
      "Ġjurisd": 5722,
      "Ġczech": 5723,
      "Ġenforce": 5724,
      "uther": 5725,
      "Ġfishing": 5726,
      "Ġrising": 5727,
      "Ġprepared": 5728,
      "zo": 5729,
      "Ġratio": 5730,
      "Ġka": 5731,
      "Ġanalog": 5732,
      "Ġbible": 5733,
      "Ġexpert": 5734,
      "Ġinterests": 5735,
      "Ġdrugs": 5736,
      "Ġabol": 5737,
      "Ġconcert": 5738,
      "Ġcharacteristics": 5739,
      "Ġexport": 5740,
      "Ġwebsite": 5741,
      "Ġboom": 5742,
      "Ġmemorial": 5743,
      "Ġinterested": 5744,
      "gn": 5745,
      "ilit": 5746,
      "Ġdescription": 5747,
      "Ġacknow": 5748,
      "bal": 5749,
      "Ġallies": 5750,
      "Ġexception": 5751,
      "Ġcloth": 5752,
      "Ġproducer": 5753,
      "Ġ65": 5754,
      "Ġprocessing": 5755,
      "Ġextent": 5756,
      "Ġviewed": 5757,
      "Ġak": 5758,
      "Ġphr": 5759,
      "burgh": 5760,
      "Ġlithu": 5761,
      "Ġbull": 5762,
      "Ġclassic": 5763,
      "Ġsucceeded": 5764,
      "Ġstores": 5765,
      "Ġexperiments": 5766,
      "Ġdemocracy": 5767,
      "Ġpunish": 5768,
      "Ġhyper": 5769,
      "this": 5770,
      "Ġinterf": 5771,
      "Ġimmigration": 5772,
      "Ġyep": 5773,
      "Ġatomic": 5774,
      "Ġopinion": 5775,
      "Ġwaste": 5776,
      "soft": 5777,
      "Ġtitled": 5778,
      "Ġcategory": 5779,
      "Ġraise": 5780,
      "Ġdiagn": 5781,
      "Ġmillions": 5782,
      "Ġ75": 5783,
      "Ġtiny": 5784,
      "Ġarc": 5785,
      "Ġgarden": 5786,
      "Ġdir": 5787,
      "Ġdetails": 5788,
      "Ġeb": 5789,
      "Ġensure": 5790,
      "Ġcomedy": 5791,
      "Ġportion": 5792,
      "tes": 5793,
      "Ġanyone": 5794,
      "Ġcharl": 5795,
      "Ġoperate": 5796,
      "Ġalleged": 5797,
      "idel": 5798,
      "Ġgay": 5799,
      "Ġpronoun": 5800,
      "Ġclock": 5801,
      "Ġque": 5802,
      "Ġhole": 5803,
      "Ġsoutheast": 5804,
      "Ġfan": 5805,
      "Ġgrass": 5806,
      "Ġheadquarters": 5807,
      "Ġcaught": 5808,
      "Ġment": 5809,
      "Ġexpos": 5810,
      "Ġolympic": 5811,
      "ĠÏ": 5812,
      "inity": 5813,
      "Ġdinosaur": 5814,
      "stood": 5815,
      "Ġspending": 5816,
      "Ġprotected": 5817,
      "Ġstrate": 5818,
      "Ġgiant": 5819,
      "Ġ34": 5820,
      "isp": 5821,
      "Ġ1964": 5822,
      "Ġsatis": 5823,
      "Ġsie": 5824,
      "Ġty": 5825,
      "Ġoffers": 5826,
      "Ġobl": 5827,
      "Ġconservation": 5828,
      "Ġbeautiful": 5829,
      "Ġpeninsula": 5830,
      "24": 5831,
      "Ġholly": 5832,
      "Ġcolony": 5833,
      "ylv": 5834,
      "Ġwitness": 5835,
      "urally": 5836,
      "Ġohio": 5837,
      "Ġcosm": 5838,
      "ĠÂ£": 5839,
      "Ġtwelve": 5840,
      "athe": 5841,
      "Ġpublish": 5842,
      "Ġheritage": 5843,
      "Ġeasier": 5844,
      "Ġhappens": 5845,
      "Ġindo": 5846,
      "mers": 5847,
      "Ġger": 5848,
      "Ġshif": 5849,
      "Ġending": 5850,
      "Ġcanal": 5851,
      "ran": 5852,
      "celer": 5853,
      "Ġmanner": 5854,
      "Ġinfrastructure": 5855,
      "Ġtong": 5856,
      "Ġphon": 5857,
      "Ġadults": 5858,
      "jo": 5859,
      "Ġtues": 5860,
      "americ": 5861,
      "Ġburied": 5862,
      "Ġdriving": 5863,
      "Ġkent": 5864,
      "Ġamounts": 5865,
      "rot": 5866,
      "Ġhindu": 5867,
      "Ġknight": 5868,
      "Ġ1966": 5869,
      "Ġkinds": 5870,
      "Ġminority": 5871,
      "Ġ49": 5872,
      "illing": 5873,
      "oren": 5874,
      "Ġstreets": 5875,
      "Ġshooting": 5876,
      "tra": 5877,
      "Ġindu": 5878,
      "Ġseparated": 5879,
      "Ġelectrical": 5880,
      "Ġvit": 5881,
      "Ġevolved": 5882,
      "Ġacceler": 5883,
      "clusion": 5884,
      "Ġastronom": 5885,
      "Ġrib": 5886,
      "Ġstorage": 5887,
      "Ġdeploy": 5888,
      "antly": 5889,
      "Ġhebrew": 5890,
      "ople": 5891,
      "fish": 5892,
      "onian": 5893,
      "Ġsurf": 5894,
      "Ġcloser": 5895,
      "Ġgulf": 5896,
      "issance": 5897,
      "Ġslave": 5898,
      "Ġscientist": 5899,
      "Ġselection": 5900,
      "Ġpatterns": 5901,
      "Ġbacteria": 5902,
      "Ġ1939": 5903,
      "Ġprotestant": 5904,
      "Ġcabinet": 5905,
      "Ġhorses": 5906,
      "Ġmode": 5907,
      "Ġcarrying": 5908,
      "itarian": 5909,
      "Ġcolour": 5910,
      "Ġbranc": 5911,
      "no": 5912,
      "Ġfried": 5913,
      "Ġrelation": 5914,
      "Ġelectricity": 5915,
      "Ġtrop": 5916,
      "Ġtool": 5917,
      "Ġstatistics": 5918,
      "Ġstrategy": 5919,
      "Ġpier": 5920,
      "Ġregist": 5921,
      "Ġfinger": 5922,
      "Ġcrus": 5923,
      "Ġcoastal": 5924,
      "Ġstrike": 5925,
      "engers": 5926,
      "Ġlogic": 5927,
      "Ġcomic": 5928,
      "Ġinterpretation": 5929,
      "Ġdrawing": 5930,
      "Ġabandoned": 5931,
      "Ġpupp": 5932,
      "Ġstress": 5933,
      "Ġscand": 5934,
      "Ġwritings": 5935,
      "Ġemergency": 5936,
      "Ġleban": 5937,
      "angel": 5938,
      "enses": 5939,
      "Ġperiods": 5940,
      "Ġrepresentation": 5941,
      "town": 5942,
      "fort": 5943,
      "Ġcable": 5944,
      "Ġvul": 5945,
      "Ġclin": 5946,
      "Ġcoach": 5947,
      "Ġblow": 5948,
      "Ġfunding": 5949,
      "Ġvoted": 5950,
      "Ġtuesday": 5951,
      "inations": 5952,
      "Ġexplan": 5953,
      "Ġemployees": 5954,
      "Ġdrawn": 5955,
      "Ġstephen": 5956,
      "Ġ#": 5957,
      "rix": 5958,
      "akh": 5959,
      "Ġfaced": 5960,
      "theless": 5961,
      "Ġbac": 5962,
      "Ġmicrosoft": 5963,
      "Ġnevertheless": 5964,
      "Ġconcern": 5965,
      "iot": 5966,
      "Ġ1963": 5967,
      "Ġstrip": 5968,
      "but": 5969,
      "Ġker": 5970,
      "Ġplus": 5971,
      "Ġcookie": 5972,
      "Ġalcohol": 5973,
      "Ġeve": 5974,
      "Ġmeanwhile": 5975,
      "Ġinner": 5976,
      "Ġenemy": 5977,
      "ois": 5978,
      "Ġneck": 5979,
      "Ġeffectively": 5980,
      "Ġlaboratory": 5981,
      "Ġbuck": 5982,
      "Ġkin": 5983,
      "ucky": 5984,
      "Ġindeed": 5985,
      "Ġinher": 5986,
      "Ġdat": 5987,
      "inton": 5988,
      "iciency": 5989,
      "Ġmining": 5990,
      "Ġgradually": 5991,
      "Ġillegal": 5992,
      "oven": 5993,
      "Ġatoms": 5994,
      "Ġ1962": 5995,
      "sell": 5996,
      "there": 5997,
      "Ġlimits": 5998,
      "Ġrenew": 5999,
      "Ġindones": 6000,
      "Ġdelay": 6001,
      "Ġbureau": 6002,
      "Ġarticles": 6003,
      "14": 6004,
      "Ġroot": 6005,
      "Ġsteps": 6006,
      "Ġwednes": 6007,
      "outs": 6008,
      "Ġcenters": 6009,
      "Ġsubur": 6010,
      "Ġspeakers": 6011,
      "Ġinhabitants": 6012,
      "Ġsymptoms": 6013,
      "Ġlegacy": 6014,
      "Ġscottish": 6015,
      "Ġshoes": 6016,
      "yle": 6017,
      "cts": 6018,
      "mond": 6019,
      "Ġsons": 6020,
      "Ġmong": 6021,
      "Ġassess": 6022,
      "Ġnobel": 6023,
      "Ġtea": 6024,
      "bury": 6025,
      "Ġmodified": 6026,
      "Ġguess": 6027,
      "Ġroose": 6028,
      "rency": 6029,
      "Ġcharged": 6030,
      "Ġtransmission": 6031,
      "Ġepisodes": 6032,
      "Ġswedish": 6033,
      "ylvania": 6034,
      "Ġvisible": 6035,
      "Ġsed": 6036,
      "Ġmyster": 6037,
      "Ġvalid": 6038,
      "Ġsod": 6039,
      "Ġorigins": 6040,
      "Ġalgebra": 6041,
      "Ġamendment": 6042,
      "chen": 6043,
      "rat": 6044,
      "Ġdominant": 6045,
      "Ġhan": 6046,
      "udes": 6047,
      "Ġgoals": 6048,
      "Ġmere": 6049,
      "Ġ37": 6050,
      "Ġfranch": 6051,
      "Ġrepresentative": 6052,
      "Ġbenefit": 6053,
      "Ġallied": 6054,
      "Ġreconst": 6055,
      "Ġidentify": 6056,
      "Ġbiological": 6057,
      "Ġscholar": 6058,
      "going": 6059,
      "Ġwales": 6060,
      "Ġchlor": 6061,
      "Ġenh": 6062,
      "Ġgenerated": 6063,
      "ker": 6064,
      "Ġtow": 6065,
      "Ġdebt": 6066,
      "Ġindicate": 6067,
      "erves": 6068,
      "Ġtriang": 6069,
      "Ġconsiderable": 6070,
      "Ġshift": 6071,
      "Ġdesert": 6072,
      "Ġincident": 6073,
      "Ġmolecules": 6074,
      "Ġrandom": 6075,
      "Ġhungary": 6076,
      "Ġtact": 6077,
      "velt": 6078,
      "Ġrecru": 6079,
      "Ġsubjects": 6080,
      "Ġestimates": 6081,
      "yd": 6082,
      "Ġhem": 6083,
      "Ġfriday": 6084,
      "Ġmetropol": 6085,
      "Ġoxford": 6086,
      "Ġsuccessfully": 6087,
      "Ġcorresponding": 6088,
      "Ġcinem": 6089,
      "Ġreprodu": 6090,
      "Ġzoo": 6091,
      "Ġleads": 6092,
      "Ġbos": 6093,
      "ighters": 6094,
      "Ġroosevelt": 6095,
      "Ġosc": 6096,
      "Ġrug": 6097,
      "Ġscul": 6098,
      "Ġformally": 6099,
      "Ġ177": 6100,
      "Ġpassage": 6101,
      "Ġconsisting": 6102,
      "Ġwildlife": 6103,
      "ouri": 6104,
      "Ġdecisions": 6105,
      "ko": 6106,
      "ooth": 6107,
      "Ġupd": 6108,
      "ucks": 6109,
      "Ġerror": 6110,
      "Ġelectrons": 6111,
      "Ġdoctors": 6112,
      "Ġarrested": 6113,
      "Ġcha": 6114,
      "Ġbegins": 6115,
      "Ġcultures": 6116,
      "Ġpolitic": 6117,
      "Ġescape": 6118,
      "uled": 6119,
      "Ġconverted": 6120,
      "ranean": 6121,
      "Ġfalse": 6122,
      "Ġearthqu": 6123,
      "Ġhitler": 6124,
      "Ġdiseases": 6125,
      "Ġmurder": 6126,
      "Ġcomponent": 6127,
      "Ġroles": 6128,
      "Ġclassified": 6129,
      "Ġcrack": 6130,
      "Ġcollected": 6131,
      "Ġinvestigation": 6132,
      "Ġthousand": 6133,
      "Ġrefugees": 6134,
      "otes": 6135,
      "Ġaustria": 6136,
      "Ġaudio": 6137,
      "Ġ1948": 6138,
      "Ġrepublicans": 6139,
      "Ġcustomers": 6140,
      "Ġ39": 6141,
      "Ġcheese": 6142,
      "ÅĤ": 6143,
      "Ġroots": 6144,
      "Ġapol": 6145,
      "Ġderiv": 6146,
      "Ġchoose": 6147,
      "Ġprotests": 6148,
      "Ġwednesday": 6149,
      "Ġbread": 6150,
      "Ġpartly": 6151,
      "Ġforming": 6152,
      "Ġcharges": 6153,
      "Ġefficient": 6154,
      "Ġeducational": 6155,
      "Ġinvolving": 6156,
      "Ġtrouble": 6157,
      "iwan": 6158,
      "Ġagents": 6159,
      "Ġfoods": 6160,
      "ctors": 6161,
      "Ġmarg": 6162,
      "ruption": 6163,
      "Ġeval": 6164,
      "Ġlies": 6165,
      "Ġparent": 6166,
      "Ġvision": 6167,
      "Ġbeliefs": 6168,
      "Ġmunicipal": 6169,
      "Ġamaz": 6170,
      "iki": 6171,
      "Ġadditionally": 6172,
      "idden": 6173,
      "Ġcolonies": 6174,
      "Ġsher": 6175,
      "Ġlisten": 6176,
      "Ġphosph": 6177,
      "Ġowner": 6178,
      "Ġtreas": 6179,
      "Ġrum": 6180,
      "Ġlowest": 6181,
      "Ġinvolves": 6182,
      "Ġassumed": 6183,
      "Ġveloc": 6184,
      "Ġapply": 6185,
      "Ġgenre": 6186,
      "Ġcogn": 6187,
      "Ġtitles": 6188,
      "Ġfavorite": 6189,
      "Ġfame": 6190,
      "agu": 6191,
      "Ġimposs": 6192,
      "Ġtrading": 6193,
      "Ġconcepts": 6194,
      "Ġchemistry": 6195,
      "Ġcanon": 6196,
      "Ġproteins": 6197,
      "enh": 6198,
      "Ġattached": 6199,
      "Ġattributed": 6200,
      "Ġunderstood": 6201,
      "Ġsurvived": 6202,
      "Ġgather": 6203,
      "Ġrit": 6204,
      "Ġlocations": 6205,
      "Ġsalv": 6206,
      "pir": 6207,
      "iser": 6208,
      "Ġstal": 6209,
      "Ġreputation": 6210,
      "Ġnorway": 6211,
      "16": 6212,
      "22": 6213,
      "iders": 6214,
      "Ġdoctrine": 6215,
      "iable": 6216,
      "Ġthick": 6217,
      "Ġcalc": 6218,
      "Ġsad": 6219,
      "ribute": 6220,
      "Ġmarkets": 6221,
      "worth": 6222,
      "ava": 6223,
      "Ġarthur": 6224,
      "inces": 6225,
      "Ġcopies": 6226,
      "Ġaccompan": 6227,
      "rics": 6228,
      "Ġexplore": 6229,
      "Ġmembership": 6230,
      "Ġadjust": 6231,
      "ws": 6232,
      "aria": 6233,
      "apse": 6234,
      "Ġgran": 6235,
      "Ġassigned": 6236,
      "Ġsatellite": 6237,
      "Ġaqu": 6238,
      "Ġsubmar": 6239,
      "Ġhub": 6240,
      "ummy": 6241,
      "Ġmanus": 6242,
      "Ġconscious": 6243,
      "Ġbuff": 6244,
      "Ġvolcan": 6245,
      "Ġdriver": 6246,
      "tz": 6247,
      "Ġsoph": 6248,
      "emic": 6249,
      "Ġclassification": 6250,
      "Ġdescend": 6251,
      "Ġtaiwan": 6252,
      "dy": 6253,
      "you": 6254,
      "Ġpione": 6255,
      "Ġprol": 6256,
      "Ġjazz": 6257,
      "Ġhelping": 6258,
      "Ġjon": 6259,
      "Ġpromote": 6260,
      "Ġdriven": 6261,
      "Ġbalance": 6262,
      "Ġ48": 6263,
      "Ġpenal": 6264,
      "Ġyay": 6265,
      "aks": 6266,
      "Ġ1944": 6267,
      "Ġlosing": 6268,
      "ni": 6269,
      "ctic": 6270,
      "Ġorb": 6271,
      "Ġbenefits": 6272,
      "Ġwhales": 6273,
      "Ġsignals": 6274,
      "Ġhotel": 6275,
      "Ġseasons": 6276,
      "Ġmigr": 6277,
      "Ġregime": 6278,
      "Ġexisted": 6279,
      "Ġoccasionally": 6280,
      "Ġtight": 6281,
      "Ġpear": 6282,
      "Ġgross": 6283,
      "Ġthor": 6284,
      "fully": 6285,
      "Ġcontroversial": 6286,
      "Ġ1961": 6287,
      "Ġturning": 6288,
      "Ġsocialist": 6289,
      "Ġcontroversy": 6290,
      "Ġcot": 6291,
      "Ġhardware": 6292,
      "secut": 6293,
      "Ġconcentration": 6294,
      "ture": 6295,
      "Ġwine": 6296,
      "ensional": 6297,
      "Ġlunch": 6298,
      "Ġreaching": 6299,
      "Ġagent": 6300,
      "Ġrevolutionary": 6301,
      "Ġmouse": 6302,
      "Ġsuccessor": 6303,
      "Ġdrew": 6304,
      "ella": 6305,
      "Ġjord": 6306,
      "Ġflav": 6307,
      "Ġairpl": 6308,
      "Ġmissouri": 6309,
      "Ġsilly": 6310,
      "Ġsculpt": 6311,
      "aska": 6312,
      "Ġassistance": 6313,
      "Ġdollars": 6314,
      "Ġpassing": 6315,
      "Ġformerly": 6316,
      "Ġexercise": 6317,
      "Ġalgorithm": 6318,
      "Ġmanuscript": 6319,
      "icy": 6320,
      "Ġpossibility": 6321,
      "Ġreforms": 6322,
      "Ġconsumption": 6323,
      "Ġsweetie": 6324,
      "Ġchose": 6325,
      "Ġparad": 6326,
      "Ġanswer": 6327,
      "Ġkong": 6328,
      "Ġradical": 6329,
      "Ġargues": 6330,
      "Ġrarely": 6331,
      "Ġcrowd": 6332,
      "Ġlewis": 6333,
      "Ġbones": 6334,
      "Ġsoul": 6335,
      "Ġdivine": 6336,
      "Ġsched": 6337,
      "Ġdesignated": 6338,
      "Ġmagic": 6339,
      "ommun": 6340,
      "Ġprotocol": 6341,
      "Ġing": 6342,
      "Ġassass": 6343,
      "Ġmatters": 6344,
      "Ġpaintings": 6345,
      "Ġandrew": 6346,
      "Ġ1941": 6347,
      "Ġmechanical": 6348,
      "erted": 6349,
      "Ġnan": 6350,
      "unt": 6351,
      "Ġdaniel": 6352,
      "issions": 6353,
      "Ġfeaturing": 6354,
      "Ġcaes": 6355,
      "oul": 6356,
      "Ġmosc": 6357,
      "Ġsixth": 6358,
      "Ġbreakfast": 6359,
      "Ġneutral": 6360,
      "anium": 6361,
      "Ġfisher": 6362,
      "Ġhelic": 6363,
      "Ġactor": 6364,
      "Ġcommitted": 6365,
      "Ġpersonnel": 6366,
      "Ġdenomin": 6367,
      "itled": 6368,
      "Ġrif": 6369,
      "Ġdavis": 6370,
      "Ġbringing": 6371,
      "Ġplastic": 6372,
      "Ġbrig": 6373,
      "Ġrenamed": 6374,
      "Ġbunny": 6375,
      "Ġfounder": 6376,
      "Ġdeleg": 6377,
      "Ġsomewhat": 6378,
      "Ġromans": 6379,
      "Ġmales": 6380,
      "Ġprecise": 6381,
      "Ġresident": 6382,
      "Ġmediter": 6383,
      "18": 6384,
      "Ġpent": 6385,
      "Ġprovinces": 6386,
      "Ġpassengers": 6387,
      "Ġweapon": 6388,
      "edia": 6389,
      "agen": 6390,
      "Ġdogg": 6391,
      "eding": 6392,
      "Ġdepos": 6393,
      "inson": 6394,
      "Ġincorporated": 6395,
      "abilities": 6396,
      "Ġconsult": 6397,
      "Ġsi": 6398,
      "Ġcapture": 6399,
      "ati": 6400,
      "Ġparticle": 6401,
      "Ġbranches": 6402,
      "Ġmanif": 6403,
      "Ġnorthwest": 6404,
      "Ġexplicit": 6405,
      "Ġappeal": 6406,
      "Ġviolent": 6407,
      "Ġhind": 6408,
      "eman": 6409,
      "Ġresponsibility": 6410,
      "Ġlegislative": 6411,
      "Ġmediterranean": 6412,
      "Ġlyn": 6413,
      "umes": 6414,
      "Ġshaped": 6415,
      "bl": 6416,
      "aints": 6417,
      "Ġoxid": 6418,
      "Ġgeorgia": 6419,
      "Ġsale": 6420,
      "Ġcert": 6421,
      "Ġrelationships": 6422,
      "Ġserves": 6423,
      "ighth": 6424,
      "Ġhosted": 6425,
      "Ġextension": 6426,
      "Ġargue": 6427,
      "Ġsuperior": 6428,
      "Ġhoriz": 6429,
      "Ġampl": 6430,
      "Ġeric": 6431,
      "Ġsample": 6432,
      "Ġcited": 6433,
      "Ġgoth": 6434,
      "Ġkal": 6435,
      "hammad": 6436,
      "Ġbid": 6437,
      "Ġcontinental": 6438,
      "Ġjulian": 6439,
      "Ġyard": 6440,
      "Ġretired": 6441,
      "iti": 6442,
      "Ġvariable": 6443,
      "udi": 6444,
      "aret": 6445,
      "Ġends": 6446,
      "19": 6447,
      "Ġ*": 6448,
      "Ġsight": 6449,
      "Ġbreat": 6450,
      "Ġtracks": 6451,
      "Ġentry": 6452,
      "rec": 6453,
      "Ġfab": 6454,
      "Ġmusicians": 6455,
      "Ġdraft": 6456,
      "oric": 6457,
      "Ġbyz": 6458,
      "ivals": 6459,
      "ikh": 6460,
      "Ġseek": 6461,
      "mony": 6462,
      "Ġmath": 6463,
      "Ġsynd": 6464,
      "Ġexperimental": 6465,
      "Ġempty": 6466,
      "Ġlose": 6467,
      "Ġpromoted": 6468,
      "Ġalleg": 6469,
      "nament": 6470,
      "Ġss": 6471,
      "Ġclothes": 6472,
      "Ġartific": 6473,
      "Ġdestruction": 6474,
      "Ġchairman": 6475,
      "Ġexcess": 6476,
      "Ġloyal": 6477,
      "Ġmexican": 6478,
      "Ġceremony": 6479,
      "rogen": 6480,
      "ounded": 6481,
      "Ġsaturday": 6482,
      "Ġbub": 6483,
      "Ġspr": 6484,
      "achus": 6485,
      "Ġkeeping": 6486,
      "Ġbyzant": 6487,
      "13": 6488,
      "ila": 6489,
      "Ġheads": 6490,
      "Ġborders": 6491,
      "Ġmonitor": 6492,
      "Ġrepresenting": 6493,
      "Ġpredomin": 6494,
      "Ġcream": 6495,
      "Ġchicken": 6496,
      "Ġcant": 6497,
      "Ġcave": 6498,
      "idency": 6499,
      "Ġperforming": 6500,
      "makers": 6501,
      "aked": 6502,
      "Ġtaxes": 6503,
      "Ġinfantry": 6504,
      "Ġadapted": 6505,
      "rors": 6506,
      "icate": 6507,
      "Ġoccas": 6508,
      "Ġimpossible": 6509,
      "Ġpale": 6510,
      "cel": 6511,
      "raction": 6512,
      "Ġmarx": 6513,
      "Ġmagnitude": 6514,
      "Ġyards": 6515,
      "Ġrational": 6516,
      "Ġsus": 6517,
      "Ġvoters": 6518,
      "Ġapollo": 6519,
      "Ġpitch": 6520,
      "oster": 6521,
      "Ġstim": 6522,
      "Ġrocks": 6523,
      "rones": 6524,
      "Ġturkish": 6525,
      "Ġsail": 6526,
      "Ġsubsid": 6527,
      "ette": 6528,
      "Ġnovels": 6529,
      "Ġwalking": 6530,
      "ario": 6531,
      "Ġgate": 6532,
      "employ": 6533,
      "Ġvoting": 6534,
      "Ġlakes": 6535,
      "Ġdomain": 6536,
      "Ġmoscow": 6537,
      "ez": 6538,
      "apers": 6539,
      "Ġpropag": 6540,
      "Ġreceiving": 6541,
      "cers": 6542,
      "Ġinterior": 6543,
      "Ġwindow": 6544,
      "Ġmechanism": 6545,
      "Ġpink": 6546,
      "opl": 6547,
      "Ġunless": 6548,
      "Ġgrade": 6549,
      "Ġsenator": 6550,
      "mo": 6551,
      "asts": 6552,
      "Ġnecessarily": 6553,
      "Ġtranslated": 6554,
      "Ġprofit": 6555,
      "Ġtas": 6556,
      "Ġruling": 6557,
      "Ġlect": 6558,
      "Ġrebell": 6559,
      "Ġtam": 6560,
      "Ġmedal": 6561,
      "ipping": 6562,
      "Ġrocket": 6563,
      "Ġseeking": 6564,
      "Ġbigger": 6565,
      "inois": 6566,
      "Ġmichigan": 6567,
      "Ġooh": 6568,
      "Ġisot": 6569,
      "ifications": 6570,
      "Ġmillenn": 6571,
      "Ġdistributed": 6572,
      "Ġfalling": 6573,
      "ti": 6574,
      "tering": 6575,
      "Ġindustries": 6576,
      "cription": 6577,
      "Ġexpedition": 6578,
      "Ġearned": 6579,
      "Ġwrites": 6580,
      "adelph": 6581,
      "Ġdating": 6582,
      "Ġbegun": 6583,
      "Ġreferences": 6584,
      "oir": 6585,
      "Ġexceed": 6586,
      "Ġevil": 6587,
      "Ġoffices": 6588,
      "Ġhopes": 6589,
      "Ġlinks": 6590,
      "Ġmovies": 6591,
      "hedral": 6592,
      "Ġcredit": 6593,
      "dule": 6594,
      "Ġseemed": 6595,
      "Ġstruggle": 6596,
      "Ġfired": 6597,
      "uits": 6598,
      "ecess": 6599,
      "Ġ55": 6600,
      "Ġstyles": 6601,
      "Ġfemin": 6602,
      "Ġpip": 6603,
      "Ġmissions": 6604,
      "Ġkittie": 6605,
      "Ġclar": 6606,
      "Ġpubl": 6607,
      "etts": 6608,
      "Ġunemploy": 6609,
      "Ġ44": 6610,
      "Ġfounding": 6611,
      "Ġports": 6612,
      "Ġpersons": 6613,
      "Ġsinger": 6614,
      "Ġclearly": 6615,
      "uous": 6616,
      "Ġgor": 6617,
      "Ġorganic": 6618,
      "Ġcommonwe": 6619,
      "Ġannivers": 6620,
      "Ġfederation": 6621,
      "Ġreturning": 6622,
      "Ġunusual": 6623,
      "Ġhollywood": 6624,
      ".,": 6625,
      "Ġkansas": 6626,
      "ivered": 6627,
      "Ġplain": 6628,
      "Ġreduction": 6629,
      "Ġencouraged": 6630,
      "Ġanthrop": 6631,
      "Ġscenes": 6632,
      "Ġcolleges": 6633,
      "Ġpollution": 6634,
      "Ġprompt": 6635,
      "Ġanarch": 6636,
      "Ġkir": 6637,
      "Ġproduces": 6638,
      "Ġmol": 6639,
      "Ġchapter": 6640,
      "di": 6641,
      "Ġcarib": 6642,
      "Ġsmart": 6643,
      "Ġpassenger": 6644,
      "Ġdemocrats": 6645,
      "Ġcommonwealth": 6646,
      "Ġcul": 6647,
      "Ġgang": 6648,
      "Ġplanets": 6649,
      "Ġexplo": 6650,
      "Ġhealthy": 6651,
      "claimed": 6652,
      "Ġrequirements": 6653,
      "rary": 6654,
      "agues": 6655,
      "Ġfunds": 6656,
      "Ġdepth": 6657,
      "Ġcontroll": 6658,
      "Ġtrained": 6659,
      "bles": 6660,
      "rep": 6661,
      "Ġdelivered": 6662,
      "Ġpuzz": 6663,
      "Ġracial": 6664,
      "Ġhaven": 6665,
      "Ġcolumn": 6666,
      "Ġillinois": 6667,
      "Ġ|": 6668,
      "Ġsees": 6669,
      "Ġfinland": 6670,
      "Ġpenns": 6671,
      "opes": 6672,
      "Ġpruss": 6673,
      "Ġsult": 6674,
      "ela": 6675,
      "Ġcouldn": 6676,
      "Ġangle": 6677,
      "ching": 6678,
      "ishing": 6679,
      "Ġsymbols": 6680,
      "Ġaxis": 6681,
      "?\"": 6682,
      "Ġstem": 6683,
      "Ġ1942": 6684,
      "Ġreducing": 6685,
      "Ġbone": 6686,
      "Ġko": 6687,
      "Ġdiscover": 6688,
      "Ġpock": 6689,
      "Ġclinton": 6690,
      "Ġremark": 6691,
      "Ġacknowled": 6692,
      "Ġfinite": 6693,
      "Ġslowly": 6694,
      "han": 6695,
      "rons": 6696,
      "Ġinvent": 6697,
      "Ġkhan": 6698,
      "Ġcp": 6699,
      "Ġtomb": 6700,
      "Ġ1949": 6701,
      "Ġcharacterized": 6702,
      "Ġtransferred": 6703,
      "Ġkab": 6704,
      "Ġworst": 6705,
      "clude": 6706,
      "ady": 6707,
      "Ġearn": 6708,
      "Ġbin": 6709,
      "Ġpercentage": 6710,
      "Ġfavour": 6711,
      "Ġproposal": 6712,
      "xual": 6713,
      "Ġillness": 6714,
      "Ġhawai": 6715,
      "Ġhelicop": 6716,
      "Ġarbit": 6717,
      "Ġabst": 6718,
      "Ġfled": 6719,
      "Ġgent": 6720,
      "bered": 6721,
      "Ġfactory": 6722,
      "Ġintegrated": 6723,
      "Ġanniversary": 6724,
      "Ġargent": 6725,
      "Ġflowers": 6726,
      "awa": 6727,
      "Ġclubs": 6728,
      "Ġsudden": 6729,
      "Ġpriest": 6730,
      "Ġdivisions": 6731,
      "Ġspokes": 6732,
      "Ġdistinction": 6733,
      "28": 6734,
      "ports": 6735,
      "Ġpel": 6736,
      "Ġrena": 6737,
      "Ġthrone": 6738,
      "Ġsubstantial": 6739,
      "Ġregularly": 6740,
      "enna": 6741,
      "Ġprinted": 6742,
      "Ġgalax": 6743,
      "ji": 6744,
      "Ġjourney": 6745,
      "Ġtons": 6746,
      "Ġfrederic": 6747,
      "asm": 6748,
      "Ġ1959": 6749,
      "Ġpointed": 6750,
      "Ġdependent": 6751,
      "Ġblank": 6752,
      "Ġmissing": 6753,
      "Ġbanned": 6754,
      "Ġenterpr": 6755,
      "ogy": 6756,
      "Ġsurvive": 6757,
      "Ġmetropolitan": 6758,
      "certain": 6759,
      "oa": 6760,
      "Ġtrump": 6761,
      "Ġclust": 6762,
      "Ġgermanic": 6763,
      "contin": 6764,
      "Ġpennsylvania": 6765,
      "Ġdio": 6766,
      "Ġstudying": 6767,
      "born": 6768,
      "olith": 6769,
      "Ġlik": 6770,
      "Ġelsewhere": 6771,
      "Ġdiscussed": 6772,
      "Ġphiladelph": 6773,
      "Ġdepends": 6774,
      "oma": 6775,
      "Ġlaid": 6776,
      "Ġmalays": 6777,
      "Ġwithdraw": 6778,
      "achusetts": 6779,
      "Ġdy": 6780,
      "Ġ47": 6781,
      "Ġfalls": 6782,
      "Ġimplemented": 6783,
      "ĠâĪĴ": 6784,
      "erals": 6785,
      "Ġvoy": 6786,
      "omorph": 6787,
      "xide": 6788,
      "Ġthemes": 6789,
      "Ġmassachusetts": 6790,
      "27": 6791,
      "ux": 6792,
      "Ġtort": 6793,
      "Ġliver": 6794,
      "Ġcontest": 6795,
      "Ġ1956": 6796,
      "Ġbru": 6797,
      "rog": 6798,
      "etary": 6799,
      "elly": 6800,
      "Ġgermans": 6801,
      "Ġcopper": 6802,
      "Ġdemonstrated": 6803,
      "oly": 6804,
      "Ġdual": 6805,
      "Ġwhoops": 6806,
      "oys": 6807,
      "Ġibm": 6808,
      "Ġdecay": 6809,
      "Ġvolt": 6810,
      "Ġguar": 6811,
      "Ġcrimes": 6812,
      "Ġdimensional": 6813,
      "Ġtet": 6814,
      "Ġolympics": 6815,
      "Ġlandsc": 6816,
      "Ġappoint": 6817,
      "Ġbehavi": 6818,
      "Ġswimming": 6819,
      "jan": 6820,
      "Ġboats": 6821,
      "Ġlanding": 6822,
      "bridge": 6823,
      "itudes": 6824,
      "Ġdeput": 6825,
      "onso": 6826,
      "Ġserb": 6827,
      "Ġremote": 6828,
      "Ġheaded": 6829,
      "Ġkenned": 6830,
      "iy": 6831,
      "Ġtang": 6832,
      "Ġjacob": 6833,
      "Ġthurs": 6834,
      "Ġgods": 6835,
      "Ġshore": 6836,
      "Ġlegs": 6837,
      "Ġunderground": 6838,
      "Ġinfinite": 6839,
      "iner": 6840,
      "uten": 6841,
      "Ġleon": 6842,
      "Ġdepression": 6843,
      "Ġapost": 6844,
      "Ġexperiences": 6845,
      "Ġlots": 6846,
      "Ġtanks": 6847,
      "Ġphiladelphia": 6848,
      "Ġinse": 6849,
      "Ġforg": 6850,
      "Ġneighbour": 6851,
      "Ġforb": 6852,
      "esc": 6853,
      "Ġgray": 6854,
      "Ġmotiv": 6855,
      "Ġdinner": 6856,
      "Ġdeclaration": 6857,
      "inn": 6858,
      "Ġquiet": 6859,
      "Ġmainland": 6860,
      "Ġstating": 6861,
      "Ġessentially": 6862,
      "Ġdismiss": 6863,
      "Ġordinary": 6864,
      "Ġprayer": 6865,
      "gments": 6866,
      "Ġalphabet": 6867,
      "Ġcircumst": 6868,
      "Ġouter": 6869,
      "Ġ1947": 6870,
      "Ġvariations": 6871,
      "Ġconsumer": 6872,
      "Ġstood": 6873,
      "23": 6874,
      "zer": 6875,
      "Ġhong": 6876,
      "Ġdisag": 6877,
      "Ġseeing": 6878,
      "Ġ1958": 6879,
      "Ġtap": 6880,
      "Ġluther": 6881,
      "Ġgib": 6882,
      "play": 6883,
      "Ġelder": 6884,
      "aug": 6885,
      "Ġtechnologies": 6886,
      "Ġsustain": 6887,
      "Ġhypothesis": 6888,
      "Ġhipp": 6889,
      "Ġwoo": 6890,
      "Ġreco": 6891,
      "Ġlux": 6892,
      "Ġphilip": 6893,
      "Ġmissile": 6894,
      "Ġparliamentary": 6895,
      "Ġrevenue": 6896,
      "Ġcollapse": 6897,
      "Ġpartner": 6898,
      "Ġdecide": 6899,
      "Ġgil": 6900,
      "Ġtru": 6901,
      "Ġslav": 6902,
      "Ġcorner": 6903,
      "inth": 6904,
      "Ġsecure": 6905,
      "Ġretire": 6906,
      "Ġreactions": 6907,
      "Ġaccord": 6908,
      "cs": 6909,
      "Ġprobability": 6910,
      "Ġalexand": 6911,
      "eing": 6912,
      "Ġknows": 6913,
      "Ġconventional": 6914,
      "abil": 6915,
      "Ġeag": 6916,
      "ulating": 6917,
      "Ġhaz": 6918,
      "aka": 6919,
      "Ġaggress": 6920,
      "Ġinvented": 6921,
      "Ġoriginated": 6922,
      "Ġ1946": 6923,
      "Ġwhit": 6924,
      "Ġhungarian": 6925,
      "sole": 6926,
      "Ġorganisms": 6927,
      "Ġperformances": 6928,
      "Ġsharp": 6929,
      "Ġsulf": 6930,
      "ications": 6931,
      "Ġtells": 6932,
      "Ġfantasy": 6933,
      "29": 6934,
      "Ġstages": 6935,
      "Ġseconds": 6936,
      "Ġlen": 6937,
      "Ġ43": 6938,
      "Ġmetals": 6939,
      "Ġdiverse": 6940,
      "Ġlind": 6941,
      "Ġyog": 6942,
      "chi": 6943,
      "Ġestate": 6944,
      "Ġale": 6945,
      "ima": 6946,
      "aya": 6947,
      "Ġ1900": 6948,
      "ographical": 6949,
      "Ġengineer": 6950,
      "Ġmerg": 6951,
      "Ġenab": 6952,
      "Ġguide": 6953,
      "Ġvocal": 6954,
      "Ġlap": 6955,
      "ira": 6956,
      "Ġdetailed": 6957,
      "Ġremove": 6958,
      "Ġafford": 6959,
      "Ġindicated": 6960,
      "Ġsupplies": 6961,
      "Ġps": 6962,
      "Ġgaz": 6963,
      "Ġinstalled": 6964,
      "Ġbelieves": 6965,
      "Ġengaged": 6966,
      "Ġsteam": 6967,
      "Ġrestaurants": 6968,
      "Ġstrategic": 6969,
      "Ġkennedy": 6970,
      "place": 6971,
      "Ġdefine": 6972,
      "Ġfeeling": 6973,
      "Ġpic": 6974,
      "Ġconfig": 6975,
      "Ġvacu": 6976,
      "Ġagencies": 6977,
      "Ġoutbre": 6978,
      "Ġfemales": 6979,
      "Ġrecommended": 6980,
      "ifer": 6981,
      "Ġgraduate": 6982,
      "Ġreserve": 6983,
      "Ġtrains": 6984,
      "Ġpsychology": 6985,
      "gi": 6986,
      "iah": 6987,
      "Ġalbums": 6988,
      "Ġdre": 6989,
      "Ġguine": 6990,
      "rin": 6991,
      "unc": 6992,
      "Ġcontributions": 6993,
      "Ġaccompanied": 6994,
      "Ġpir": 6995,
      "Ġmigration": 6996,
      "Ġbattles": 6997,
      "Ġmike": 6998,
      "rav": 6999,
      "Ġfertil": 7000,
      "Ġwake": 7001,
      "rose": 7002,
      "Ġtobac": 7003,
      "iration": 7004,
      "Ġcovers": 7005,
      "Ġdesire": 7006,
      "Ġentitled": 7007,
      "Ġern": 7008,
      "Ġarrival": 7009,
      "Ġpreferred": 7010,
      "Ġthursday": 7011,
      "26": 7012,
      "bec": 7013,
      "riers": 7014,
      "Ġappropriate": 7015,
      "Ġtag": 7016,
      "Ġfasc": 7017,
      "Ġpoison": 7018,
      "Ġrecip": 7019,
      "Ġwouldn": 7020,
      "Ġjoe": 7021,
      "Ġvirtual": 7022,
      "ito": 7023,
      "ront": 7024,
      "Ġoccupation": 7025,
      "Ġcategories": 7026,
      "Ġ1918": 7027,
      "Ġfacility": 7028,
      "Ġspectrum": 7029,
      "Ġreserv": 7030,
      "Ġaccom": 7031,
      "Ġglac": 7032,
      "Ġcelebrated": 7033,
      "Ġpalestinian": 7034,
      "Ġtone": 7035,
      "Ġliv": 7036,
      "Ġphilosophical": 7037,
      "Ġcredited": 7038,
      "Ġdialect": 7039,
      "Ġaccompl": 7040,
      "car": 7041,
      "Ġbreaking": 7042,
      "Ġdenmark": 7043,
      "Ġlosses": 7044,
      "Ġvelocity": 7045,
      "hus": 7046,
      "uate": 7047,
      "omes": 7048,
      "Ġali": 7049,
      "Ġsolutions": 7050,
      "Ġdiamond": 7051,
      "Ġdecor": 7052,
      "Ġvictims": 7053,
      "Ġbronze": 7054,
      "Ġrecept": 7055,
      "Ġcivilian": 7056,
      "uts": 7057,
      "Ġarmen": 7058,
      "bean": 7059,
      "uela": 7060,
      "Ġstored": 7061,
      "Ġpurple": 7062,
      "Ġthreatened": 7063,
      "Ġforests": 7064,
      "Ġcolomb": 7065,
      "Ġmolecular": 7066,
      "Ġsultan": 7067,
      "Ġpapers": 7068,
      "Ġpublicly": 7069,
      "Ġgodd": 7070,
      "intend": 7071,
      "Ġtobacco": 7072,
      "Ġsupports": 7073,
      "Ġapproval": 7074,
      "Ġstuck": 7075,
      "aine": 7076,
      "Ġscar": 7077,
      "Ġhandle": 7078,
      "17": 7079,
      "Ġemployment": 7080,
      "Ġenforcement": 7081,
      "iest": 7082,
      "Ġsheep": 7083,
      "Ġartificial": 7084,
      "Ġserver": 7085,
      "Ġministers": 7086,
      "Ġtaste": 7087,
      "Ġcurrency": 7088,
      "ora": 7089,
      "Ġmoves": 7090,
      "Ġsimult": 7091,
      "Ġchocol": 7092,
      "ribed": 7093,
      "Ġroutes": 7094,
      "ethe": 7095,
      "Ġthirty": 7096,
      "Ġsimultane": 7097,
      "Ġboo": 7098,
      "Ġstands": 7099,
      "Ġrestric": 7100,
      "Ġscheme": 7101,
      "Ġelectoral": 7102,
      "Ġengineers": 7103,
      "Ġduty": 7104,
      "Ġdoggie": 7105,
      "Ġfold": 7106,
      "Ġsaudi": 7107,
      "Ġattorn": 7108,
      "Ġswitzer": 7109,
      "Ġstatist": 7110,
      "Ġborrow": 7111,
      "Ġannounce": 7112,
      "Ġathletes": 7113,
      "Ġpas": 7114,
      "Ġpiano": 7115,
      "Ġintervent": 7116,
      "Ġdiplomatic": 7117,
      "Ġtheod": 7118,
      "Ġwilling": 7119,
      "Ġlicense": 7120,
      "Ġalpha": 7121,
      "icide": 7122,
      "Ġnoun": 7123,
      "Ġron": 7124,
      "Ġ120": 7125,
      "Ġaven": 7126,
      "adow": 7127,
      "Ġcompat": 7128,
      "Ġelementary": 7129,
      "Ġcruc": 7130,
      "Ġaster": 7131,
      "Ġhills": 7132,
      "Ġcape": 7133,
      "Ġaffil": 7134,
      "Ġmorph": 7135,
      "Ġswitzerland": 7136,
      "emen": 7137,
      "Ġabe": 7138,
      "Ġfrequent": 7139,
      "Ġtens": 7140,
      "ials": 7141,
      "Ġexposure": 7142,
      "pro": 7143,
      "iveness": 7144,
      "Ġsyrian": 7145,
      "Ġmuhammad": 7146,
      "Ġtoler": 7147,
      "uration": 7148,
      "ube": 7149,
      "Ġinstruction": 7150,
      "Ġgrounds": 7151,
      "Ġwatching": 7152,
      "Ġrestrictions": 7153,
      "Ġ1943": 7154,
      "Ġsatisf": 7155,
      "part": 7156,
      "Ġexposed": 7157,
      "Ġinstall": 7158,
      "Ġcultiv": 7159,
      "Ġwinds": 7160,
      "Ġguarant": 7161,
      "Ġstro": 7162,
      "Ġquad": 7163,
      "Ġprogramme": 7164,
      "Ġannually": 7165,
      "Ġanglo": 7166,
      "Ġcondem": 7167,
      "Ġvirus": 7168,
      "Ġsquad": 7169,
      "pective": 7170,
      "Ġdistinguished": 7171,
      "Ġdict": 7172,
      "ugos": 7173,
      "Ġspacecraft": 7174,
      "Ġprisoners": 7175,
      "Ġmoroc": 7176,
      "Ġsubstit": 7177,
      "Ġcooperation": 7178,
      "Ġherself": 7179,
      "Ġinfluences": 7180,
      "Ġreferring": 7181,
      "hire": 7182,
      "Ġtay": 7183,
      "Ġconversion": 7184,
      "Ġelephant": 7185,
      "under": 7186,
      "Ġlasted": 7187,
      "Ġconsisted": 7188,
      "Ġthinks": 7189,
      "Ġlongest": 7190,
      "Ġpainted": 7191,
      "Ġdispute": 7192,
      "Ġvik": 7193,
      "Ġblind": 7194,
      "Ġsections": 7195,
      "Ġprint": 7196,
      "Ġsuffering": 7197,
      "Ġcash": 7198,
      "Ġnotion": 7199,
      "Ġpresidency": 7200,
      "Ġdowntown": 7201,
      "Ġety": 7202,
      "Ġlicens": 7203,
      "Ġcomparison": 7204,
      "hum": 7205,
      "Ġsomebody": 7206,
      "roscop": 7207,
      "Ġcrops": 7208,
      "Ġhier": 7209,
      "Ġsurviving": 7210,
      "Ġtrail": 7211,
      "Ġexports": 7212,
      "Ġ1953": 7213,
      "Ġfurthermore": 7214,
      "orous": 7215,
      "organ": 7216,
      "Ġsentence": 7217,
      "Ġtissue": 7218,
      "Ġanat": 7219,
      "Ġwhale": 7220,
      "Ġwaiting": 7221,
      "Ġrhyth": 7222,
      "Ġdialects": 7223,
      "Ġdrinking": 7224,
      "Ġcass": 7225,
      "Ġrelief": 7226,
      "Ġassault": 7227,
      "Ġcrash": 7228,
      "box": 7229,
      "Ã³n": 7230,
      "Ġpurchase": 7231,
      "Ġetym": 7232,
      "sis": 7233,
      "Ġil": 7234,
      "Ġdivor": 7235,
      "see": 7236,
      "Ġavo": 7237,
      "Ġsteve": 7238,
      "Ġnominated": 7239,
      "86": 7240,
      "Ġstream": 7241,
      "Ġphrase": 7242,
      "eper": 7243,
      "Ġpy": 7244,
      "Ġwash": 7245,
      "Ġ1957": 7246,
      "Ġpurchased": 7247,
      "Ġtherapy": 7248,
      "Ġescap": 7249,
      "Ġ1955": 7250,
      "Ġtot": 7251,
      "Ġchocolate": 7252,
      "Ġlem": 7253,
      "Ġford": 7254,
      "Ġnickn": 7255,
      "Ġlists": 7256,
      "Ġhonour": 7257,
      "ographer": 7258,
      "ican": 7259,
      "Ġpleas": 7260,
      "Ġtube": 7261,
      "Ġisolated": 7262,
      "Ġcaribbean": 7263,
      "Ġdamaged": 7264,
      "erior": 7265,
      "Ġdal": 7266,
      "Ġarguments": 7267,
      "Ġdiver": 7268,
      "Ġlions": 7269,
      "Ġrud": 7270,
      "Ġuncertain": 7271,
      "Ġvacuum": 7272,
      "Ġlock": 7273,
      "Ġphenomenon": 7274,
      "Ġfing": 7275,
      "Ġtoxic": 7276,
      "Ġkim": 7277,
      "Ġworship": 7278,
      "Ġadvis": 7279,
      "Ġlatest": 7280,
      "Ġpages": 7281,
      "Ġhoc": 7282,
      "col": 7283,
      "Ġretained": 7284,
      "Ġconj": 7285,
      "rome": 7286,
      "Ġentr": 7287,
      "Ġaimed": 7288,
      "Ġpse": 7289,
      "Ġfinn": 7290,
      "Ġranging": 7291,
      "fe": 7292,
      "Ġworse": 7293,
      "Ġresponded": 7294,
      "Ġfranchise": 7295,
      "Ġvene": 7296,
      "Ġapparently": 7297,
      "Ġtib": 7298,
      "Ġsant": 7299,
      "ington": 7300,
      "Ġdocumentary": 7301,
      "Ġtheoretical": 7302,
      "Ġlam": 7303,
      "Ġrear": 7304,
      "Ġdiego": 7305,
      "Ġoperates": 7306,
      "ierra": 7307,
      "Ġchampion": 7308,
      "Ġpushed": 7309,
      "aren": 7310,
      "rig": 7311,
      "Ġmaria": 7312,
      "Ġjordan": 7313,
      "Ġfighters": 7314,
      "veland": 7315,
      "Ġeuro": 7316,
      "Ġsubstance": 7317,
      "Ġmurd": 7318,
      "Ġpill": 7319,
      "itals": 7320,
      "Ġdv": 7321,
      "Ġstamp": 7322,
      "Ġroof": 7323,
      "Ġ160": 7324,
      "pass": 7325,
      "Ġgn": 7326,
      "Ġregister": 7327,
      "Ġinsurance": 7328,
      "Ġblues": 7329,
      "Ġsubsc": 7330,
      "Ġboundary": 7331,
      "ratic": 7332,
      "Ġshirt": 7333,
      "Ġdiscussion": 7334,
      "Ġperceived": 7335,
      "Ġretail": 7336,
      "Ġeconomics": 7337,
      "Ġfindings": 7338,
      "Ġruler": 7339,
      "Ġtempor": 7340,
      "Ġracing": 7341,
      "Ġnorwe": 7342,
      "Ġcharacteristic": 7343,
      "Ġcroat": 7344,
      "Ã§": 7345,
      "ova": 7346,
      "Ġdeliver": 7347,
      "Ġoffering": 7348,
      "Ġrecre": 7349,
      "Ġhearing": 7350,
      "Ġfib": 7351,
      "Ġhired": 7352,
      "Ġprove": 7353,
      "Ġwarfare": 7354,
      "Ġheaven": 7355,
      "Ġimplementation": 7356,
      "ovak": 7357,
      "Ġethan": 7358,
      "Ġphotos": 7359,
      "Ġinvited": 7360,
      "Ġchildhood": 7361,
      "Ġstalin": 7362,
      "Ġrenaissance": 7363,
      "uns": 7364,
      "Ġbry": 7365,
      "ears": 7366,
      "Ġdenied": 7367,
      "Ġemphasis": 7368,
      "romagn": 7369,
      "Ġcorruption": 7370,
      "Ġcontinuing": 7371,
      "47": 7372,
      "lan": 7373,
      "Ġoffensive": 7374,
      "Ġshopp": 7375,
      "Ġyourself": 7376,
      "Ġcrystal": 7377,
      "Ġpseud": 7378,
      "Ġadams": 7379,
      "Ġmarc": 7380,
      "shire": 7381,
      "Ġmud": 7382,
      "Ġ95": 7383,
      "ashed": 7384,
      "Ġconsistent": 7385,
      "Ġannex": 7386,
      "eenth": 7387,
      "ilation": 7388,
      "Ġpeek": 7389,
      "Ġpreserved": 7390,
      "net": 7391,
      "sk": 7392,
      "Ġtheater": 7393,
      "Ġopponents": 7394,
      "Ġpromised": 7395,
      "Ġprofession": 7396,
      "Ġfrederick": 7397,
      "rant": 7398,
      "Ġtired": 7399,
      "Ġrhod": 7400,
      "Ġcarrier": 7401,
      "Ġmetall": 7402,
      "Ġjuda": 7403,
      "Ġessay": 7404,
      "Ġsymmet": 7405,
      "unction": 7406,
      "Ġbalt": 7407,
      "Ġnapole": 7408,
      "Ġequations": 7409,
      "Ġharmon": 7410,
      "Ġseventh": 7411,
      "Ġvic": 7412,
      "Ġpartially": 7413,
      "Ġgotta": 7414,
      "Ġtunnel": 7415,
      "Ġintellectual": 7416,
      "Ġvariation": 7417,
      "Ġyield": 7418,
      "Ġpartial": 7419,
      "Ġmongol": 7420,
      "Ġvaries": 7421,
      "Ġorganisation": 7422,
      "Ġsolo": 7423,
      "Ġmeetings": 7424,
      "Ġcuis": 7425,
      "Ġtropical": 7426,
      "Ġbite": 7427,
      "Ġbrook": 7428,
      "Ġsoccer": 7429,
      "Ġmatrix": 7430,
      "Ġoverseas": 7431,
      "Ġsorry": 7432,
      "anth": 7433,
      "Ġjoh": 7434,
      "Ġenl": 7435,
      "phal": 7436,
      "Ġcotton": 7437,
      "Ġguinea": 7438,
      "kh": 7439,
      "Ġabund": 7440,
      "Ġadmitted": 7441,
      "Ġlegit": 7442,
      "Ġdated": 7443,
      "Ġusual": 7444,
      "then": 7445,
      "vious": 7446,
      "wich": 7447,
      "Ġabb": 7448,
      "Ġwhoa": 7449,
      "Ġtournament": 7450,
      "Ġattracted": 7451,
      "Ġbinary": 7452,
      "Ġpersu": 7453,
      "oom": 7454,
      "Ġinstructions": 7455,
      "Ġraces": 7456,
      "Ġcamps": 7457,
      "rical": 7458,
      "Ġ600": 7459,
      "Ġmechanics": 7460,
      "Ġdebut": 7461,
      "Ġchannels": 7462,
      "Ġbonds": 7463,
      "western": 7464,
      "Ġrelat": 7465,
      "Ġinflation": 7466,
      "Ġbuddhist": 7467,
      "Ġcircumstances": 7468,
      "Ġble": 7469,
      "ilton": 7470,
      "Ġjet": 7471,
      "Ġconstitu": 7472,
      "bage": 7473,
      "mes": 7474,
      "Ġsimon": 7475,
      "Ġharry": 7476,
      "Ġconquest": 7477,
      "Ġcous": 7478,
      "Ġprovision": 7479,
      "Ġromantic": 7480,
      "Ġdescribing": 7481,
      "Ġfaces": 7482,
      "Ġregulations": 7483,
      "Ġreflected": 7484,
      "hal": 7485,
      "Ġdanish": 7486,
      "Ġscheduled": 7487,
      "Ġvenez": 7488,
      "Ġtrend": 7489,
      "active": 7490,
      "Ġ1954": 7491,
      "Ä«": 7492,
      "Ġdisorder": 7493,
      "35": 7494,
      "eline": 7495,
      "Ġsurve": 7496,
      "Ġcutting": 7497,
      "Ġmessages": 7498,
      "osing": 7499,
      "Ġnortheast": 7500,
      "Ġpicked": 7501,
      "Ġbyzantine": 7502,
      "Ġfinds": 7503,
      "arn": 7504,
      "Ġhou": 7505,
      "Ġexclud": 7506,
      "real": 7507,
      "Ġpeas": 7508,
      "Ġclothing": 7509,
      "mouth": 7510,
      "Ġ1938": 7511,
      "Ġcomposer": 7512,
      "Ġownership": 7513,
      "Ġvictoria": 7514,
      "Ġbits": 7515,
      "Ġresemb": 7516,
      "Ġfunctional": 7517,
      "Ġsamples": 7518,
      "Ġansw": 7519,
      "Ġ42": 7520,
      "Ġpreval": 7521,
      "90": 7522,
      "Ġmarks": 7523,
      "oons": 7524,
      "Ġcig": 7525,
      "Ġmainstream": 7526,
      "Ġrolling": 7527,
      "irect": 7528,
      "Ġsocieties": 7529,
      "Ġmississ": 7530,
      "Ġfamiliar": 7531,
      "Ġrestaurant": 7532,
      "Ġdust": 7533,
      "Ġintent": 7534,
      "Ġfacult": 7535,
      "Ġconnections": 7536,
      "Ġdick": 7537,
      "Ġdonald": 7538,
      "Ġ1952": 7539,
      "ml": 7540,
      "Ġpant": 7541,
      "Ġrevers": 7542,
      "Ġshr": 7543,
      "Ġepic": 7544,
      "Ġphilosopher": 7545,
      "bish": 7546,
      "Ġconven": 7547,
      "Ġimprison": 7548,
      "Ġairplane": 7549,
      "Ġidentical": 7550,
      "Ġnaim": 7551,
      "Ġont": 7552,
      "Ġ46": 7553,
      "Ġpasses": 7554,
      "Ã±": 7555,
      "Ġtheology": 7556,
      "Ġoak": 7557,
      "Ġdiction": 7558,
      "osexual": 7559,
      "Ġremem": 7560,
      "Ġencod": 7561,
      "Ġabsence": 7562,
      "Ġexecuted": 7563,
      "ache": 7564,
      "aga": 7565,
      "Ġsinging": 7566,
      "iop": 7567,
      "Ġtrick": 7568,
      "Ġcarn": 7569,
      "Ġcray": 7570,
      "Ġeverybody": 7571,
      "Ġcleveland": 7572,
      "Ġinteresting": 7573,
      "Ġcertainly": 7574,
      "Ġoptical": 7575,
      "Ġparticipate": 7576,
      "Ġnewspapers": 7577,
      "Ġgoddess": 7578,
      "ails": 7579,
      "Ġmississipp": 7580,
      "Ġestablishing": 7581,
      "Ġfighter": 7582,
      "Ġinterface": 7583,
      "Ġfiles": 7584,
      "Ġturns": 7585,
      "Ġjudges": 7586,
      "Ġsic": 7587,
      "Ġdisk": 7588,
      "Ġcardinal": 7589,
      "Ġrecommend": 7590,
      "Ġbriefly": 7591,
      "Ġvessels": 7592,
      "rehens": 7593,
      "Ġdozen": 7594,
      "Ġnathan": 7595,
      "Ġdrama": 7596,
      "Ġreun": 7597,
      "ifies": 7598,
      "atever": 7599,
      "Ġtribe": 7600,
      "Ġallen": 7601,
      "Ġbrid": 7602,
      "Ġfarms": 7603,
      "Ġreaders": 7604,
      "Ġreligions": 7605,
      "Ġcolorado": 7606,
      "sm": 7607,
      "Ġfict": 7608,
      "Ġcovering": 7609,
      "Ġdanger": 7610,
      "Ġexplanation": 7611,
      "Ġpoems": 7612,
      "Ġoption": 7613,
      "uter": 7614,
      "Ġrecon": 7615,
      "Ġextract": 7616,
      "uv": 7617,
      "Ġslide": 7618,
      "Ġseparation": 7619,
      "Ġrecovery": 7620,
      "Ġfranklin": 7621,
      "cas": 7622,
      "ping": 7623,
      "pet": 7624,
      "Ġcad": 7625,
      "Ġbases": 7626,
      "Ġtemporary": 7627,
      "Ġrabbit": 7628,
      "dam": 7629,
      "iac": 7630,
      "iral": 7631,
      "Ġcathedral": 7632,
      "Ġinjury": 7633,
      "Ġunemployment": 7634,
      "ev": 7635,
      "Ġhob": 7636,
      "Ġcomics": 7637,
      "Ġmetaph": 7638,
      "Ġnaturally": 7639,
      "Ġraw": 7640,
      "Ġparticipation": 7641,
      "Ġseattle": 7642,
      "Ġcomplicated": 7643,
      "Ġnaima": 7644,
      "oli": 7645,
      "Ġfacing": 7646,
      "Ġmirror": 7647,
      "mont": 7648,
      "Ġflex": 7649,
      "Ġtwin": 7650,
      "Ġrav": 7651,
      "Ġjr": 7652,
      "Ġcharter": 7653,
      "Ġdirty": 7654,
      "99": 7655,
      "Ġted": 7656,
      "ules": 7657,
      "Ġpool": 7658,
      "Ġgenerations": 7659,
      "Ġsouthwest": 7660,
      "Ġfarming": 7661,
      "Ġmounted": 7662,
      "Ġrecognize": 7663,
      "Ġdies": 7664,
      "olis": 7665,
      "ami": 7666,
      "Ġwhatever": 7667,
      "Ġunsu": 7668,
      "Ġjudaism": 7669,
      "Ġkat": 7670,
      "Ġmargin": 7671,
      "Ġcounties": 7672,
      "Ġsmooth": 7673,
      "chester": 7674,
      "Ġpowered": 7675,
      "Ġnomi": 7676,
      "Ġactors": 7677,
      "Ġprinting": 7678,
      "Ġinteraction": 7679,
      "Ġsuccession": 7680,
      "Ġtested": 7681,
      "Ġasking": 7682,
      "fc": 7683,
      "Ġwinner": 7684,
      "Ġtestament": 7685,
      "Ġ1919": 7686,
      "Ġcaval": 7687,
      "Ġgosp": 7688,
      "Ġjenn": 7689,
      "Ġfollowers": 7690,
      "Ġbasin": 7691,
      "Ġproportion": 7692,
      "Ġstructural": 7693,
      "Ġmagnet": 7694,
      "Ġstarts": 7695,
      "Ġvacc": 7696,
      "Ġariz": 7697,
      "Ġoops": 7698,
      "Ġchile": 7699,
      "Ġantib": 7700,
      "Ġindicates": 7701,
      "point": 7702,
      "Ġclay": 7703,
      "olve": 7704,
      "Ġbutton": 7705,
      "Ġbelt": 7706,
      "Ġhybr": 7707,
      "Ġrebellion": 7708,
      "Ġhighway": 7709,
      "Ġinjuries": 7710,
      "Ġconson": 7711,
      "Ġsnake": 7712,
      "Ġduties": 7713,
      "Ġties": 7714,
      "Ġhide": 7715,
      "Ġcommod": 7716,
      "Ġraising": 7717,
      "Ġlebanon": 7718,
      "Ġdollar": 7719,
      "Ġhond": 7720,
      "Ġlaure": 7721,
      "iolet": 7722,
      "Ġstronger": 7723,
      "Ġassistant": 7724,
      "Ġranks": 7725,
      "ugoslav": 7726,
      "Ġfill": 7727,
      "Ġcomputing": 7728,
      "Ġlifetime": 7729,
      "Ġnich": 7730,
      "imore": 7731,
      "Ġshop": 7732,
      "Ġswiss": 7733,
      "Ġmanufacturers": 7734,
      "Ġnorwegian": 7735,
      "64": 7736,
      "Ġconcerning": 7737,
      "Ġpsychological": 7738,
      "Ġstruck": 7739,
      "Ġinvolvement": 7740,
      "Ġein": 7741,
      "Ġcommem": 7742,
      "Ġvarieties": 7743,
      "Ġnegotiations": 7744,
      "Ġyugoslav": 7745,
      "Ġ1936": 7746,
      "Ġjurisdiction": 7747,
      "phones": 7748,
      "Ġsmoke": 7749,
      "Ġpros": 7750,
      "Ġnoble": 7751,
      "Ġterritorial": 7752,
      "father": 7753,
      "standing": 7754,
      "Ġdrones": 7755,
      "roc": 7756,
      "Ġisa": 7757,
      "Ġgoodness": 7758,
      "Ġevening": 7759,
      "Ġsettlers": 7760,
      "donald": 7761,
      "uable": 7762,
      "sts": 7763,
      "Ġshock": 7764,
      "Ġrestored": 7765,
      "Ġstayed": 7766,
      "Ġsettlements": 7767,
      "Ġframework": 7768,
      "Ġalaska": 7769,
      "Ġrailroad": 7770,
      "Ã¡n": 7771,
      "Ġarranged": 7772,
      "Ġchallenges": 7773,
      "Ġnewton": 7774,
      "Ġfossil": 7775,
      "Å¡": 7776,
      "overed": 7777,
      "Ġtraveled": 7778,
      "Ġheli": 7779,
      "Ġcompens": 7780,
      "Ġjudicial": 7781,
      "Ġfluid": 7782,
      "Ġdramatic": 7783,
      "acent": 7784,
      "Ġinterpreted": 7785,
      "Ġongoing": 7786,
      "Ġpermitted": 7787,
      "Ġupgr": 7788,
      "Ġpregn": 7789,
      "Ġdepicted": 7790,
      "Ġbarn": 7791,
      "Ġprosp": 7792,
      "Ġnotice": 7793,
      "Ġcontinent": 7794,
      "Ġ1933": 7795,
      "nom": 7796,
      "orted": 7797,
      "Ġadvice": 7798,
      "Ġtelec": 7799,
      "Ġtargets": 7800,
      "Ġadvertising": 7801,
      "Ġrescue": 7802,
      "include": 7803,
      "Ġaccurate": 7804,
      "Ġebola": 7805,
      "Ġpublishing": 7806,
      "esters": 7807,
      "Ġpremi": 7808,
      "Ġsierra": 7809,
      "Ġonlyinclude": 7810,
      "Ġacids": 7811,
      "Ġcongreg": 7812,
      "ogle": 7813,
      "Ġhunt": 7814,
      "Ġdrivers": 7815,
      "Ġmixture": 7816,
      "Ġphilippines": 7817,
      "Ġalive": 7818,
      "illery": 7819,
      "Ġobvious": 7820,
      "Ġoperational": 7821,
      "Ġmississippi": 7822,
      "hr": 7823,
      "Ġbeng": 7824,
      "Ġworried": 7825,
      "Ġcompound": 7826,
      "Ġcompact": 7827,
      "Ġpapal": 7828,
      "Ġsiege": 7829,
      "Ġstatistical": 7830,
      "Ġgab": 7831,
      "acle": 7832,
      "Ġsyll": 7833,
      "Ġtransmit": 7834,
      "Ġibn": 7835,
      "Ġterminal": 7836,
      "Ġportugal": 7837,
      "Ġcattle": 7838,
      "Ġsecular": 7839,
      "Ġfacilit": 7840,
      "Ġprocedure": 7841,
      "bu": 7842,
      "Ġvegetables": 7843,
      "Ġrestricted": 7844,
      "Ġbaltimore": 7845,
      "Ġcoverage": 7846,
      "Ġshakes": 7847,
      "Ġshorter": 7848,
      "Ġconcrete": 7849,
      "Ġairlines": 7850,
      "Ġspell": 7851,
      "Ġevangel": 7852,
      "Ġpole": 7853,
      "Ġ68": 7854,
      "Ġcourses": 7855,
      "Ġnomination": 7856,
      "Ġexcell": 7857,
      "Ġscored": 7858,
      "Ġapproaches": 7859,
      "Ġcomplexity": 7860,
      "Ġkaz": 7861,
      "Ġintense": 7862,
      "Ġmatthe": 7863,
      "Ġgri": 7864,
      "Ġload": 7865,
      "Ġceremon": 7866,
      "Ġobservations": 7867,
      "Ġranges": 7868,
      "olithic": 7869,
      "Ġattorney": 7870,
      "Ġcyl": 7871,
      "Ġforth": 7872,
      "Ġalk": 7873,
      "Ġefficiency": 7874,
      "Ġbelg": 7875,
      "Ġprogressive": 7876,
      "fs": 7877,
      "Ġpatient": 7878,
      "Ġmembr": 7879,
      "Ġ1937": 7880,
      "Ġuranium": 7881,
      "Ġom": 7882,
      "Ġlis": 7883,
      "Ġcommissioned": 7884,
      "Ġboundaries": 7885,
      "ded": 7886,
      "fit": 7887,
      "Ġresign": 7888,
      "Ġ54": 7889,
      "Ġdiversity": 7890,
      "oen": 7891,
      "heas": 7892,
      "Ġstability": 7893,
      "Ġholes": 7894,
      "Ġcompete": 7895,
      "Ġsurrounded": 7896,
      "Ġarmies": 7897,
      "haust": 7898,
      "rimination": 7899,
      "otype": 7900,
      "Ġinqu": 7901,
      "Ġgeography": 7902,
      "Ġkilomet": 7903,
      "urg": 7904,
      "Ġkos": 7905,
      "Ġintention": 7906,
      "Ġflour": 7907,
      "Ġpatent": 7908,
      "Ġtab": 7909,
      "Ġgap": 7910,
      "Ġspark": 7911,
      "ocent": 7912,
      "Ġestimate": 7913,
      "Ġmeth": 7914,
      "Ġbabies": 7915,
      "Ġstones": 7916,
      "Ġgregory": 7917,
      "roph": 7918,
      "Ġchip": 7919,
      "Ġcance": 7920,
      "Ġsubt": 7921,
      "Ġ250": 7922,
      "Ġadaptation": 7923,
      "Ġsha": 7924,
      "gery": 7925,
      "Ġdrag": 7926,
      "Ġstatue": 7927,
      "Ġnurs": 7928,
      "Ġarabia": 7929,
      "Ġbottle": 7930,
      "Ġdioxide": 7931,
      "herent": 7932,
      "rection": 7933,
      "Ġturb": 7934,
      "Ġmaxim": 7935,
      "Ġvoltage": 7936,
      "Ġunity": 7937,
      "Ġsudan": 7938,
      "Ġenjoyed": 7939,
      "Ġpocket": 7940,
      "Ġlikes": 7941,
      "Ġtelling": 7942,
      "Ġlunar": 7943,
      "Ġgravity": 7944,
      "Ġnaming": 7945,
      "Ġrecovered": 7946,
      "Ġtribal": 7947,
      "Ġbinding": 7948,
      "Ġtat": 7949,
      "Ġwheat": 7950,
      "ixon": 7951,
      "Ġbesides": 7952,
      "Ġmerely": 7953,
      "Ġtied": 7954,
      "Ġaware": 7955,
      "Ġguest": 7956,
      "Ġlesser": 7957,
      "Ġcats": 7958,
      "Ġmi": 7959,
      "Ġcomprom": 7960,
      "Ġfault": 7961,
      "Ġsession": 7962,
      "Ġmold": 7963,
      "Ġdefensive": 7964,
      "Ġdod": 7965,
      "Ġrings": 7966,
      "Ġsymp": 7967,
      "Ġbishops": 7968,
      "Ġhoped": 7969,
      "Ġreviews": 7970,
      "Ġjam": 7971,
      "Ġpotentially": 7972,
      "athered": 7973,
      "fr": 7974,
      "Ġbeer": 7975,
      "Ġpitts": 7976,
      "Ġcord": 7977,
      "Ġpartnership": 7978,
      "Ġmaced": 7979,
      "Ġoutl": 7980,
      "Ġintermed": 7981,
      "Ġnato": 7982,
      "Ġpraised": 7983,
      "Ġpaying": 7984,
      "Ġregistered": 7985,
      "equ": 7986,
      "ĠâĢ¦": 7987,
      "Ġrealized": 7988,
      "Ġsuitable": 7989,
      "Ġmaur": 7990,
      "Ġalfred": 7991,
      "Ġwage": 7992,
      "Ġjury": 7993,
      "Ġlob": 7994,
      "Ġkeys": 7995,
      "Ġcompetitive": 7996,
      "Ġcreative": 7997,
      "Ġwish": 7998,
      "Ġexhaust": 7999,
      "Ġstrings": 8000,
      "Ġgraphics": 8001,
      "wart": 8002,
      "Ġsending": 8003,
      "Ġmarry": 8004,
      "Ġelectromagn": 8005,
      "Ġmt": 8006,
      "omous": 8007,
      "Ġky": 8008,
      "Ġmatches": 8009,
      "Ġelabor": 8010,
      "Ġ1951": 8011,
      "iami": 8012,
      "Ġliberty": 8013,
      "Ġcustoms": 8014,
      "Ġcyp": 8015,
      "acc": 8016,
      "Ġrecorder": 8017,
      "Ġbh": 8018,
      "Ġbrush": 8019,
      "Ġartistic": 8020,
      "Ġahm": 8021,
      "Ġoperator": 8022,
      "Ġlegislature": 8023,
      "Ġoriented": 8024,
      "Ġhouston": 8025,
      "Ġantiqu": 8026,
      "Ġdolph": 8027,
      "Ġconflicts": 8028,
      "Ġsynthesis": 8029,
      "Ġoral": 8030,
      "Ġmarit": 8031,
      "Ġstudios": 8032,
      "Ġgrammar": 8033,
      "Ġromania": 8034,
      "Ġmammals": 8035,
      "Ġabstract": 8036,
      "fts": 8037,
      "Ġresidence": 8038,
      "Ġsyd": 8039,
      "Ġassign": 8040,
      "Ġguys": 8041,
      "Ġexecution": 8042,
      "Ġreplacement": 8043,
      "Ġnutrit": 8044,
      "75": 8045,
      "Ġark": 8046,
      "Ġtaylor": 8047,
      "zed": 8048,
      "Ġcau": 8049,
      "Ġmiami": 8050,
      "that": 8051,
      "Ġ1917": 8052,
      "Ġmathematic": 8053,
      "Ġnotation": 8054,
      "Ġindians": 8055,
      "Ġminnes": 8056,
      "Ġswing": 8057,
      "Ġvarying": 8058,
      "Ġjoy": 8059,
      "Ġparticipated": 8060,
      "Ġarizona": 8061,
      "Ġbibl": 8062,
      "Ġdatab": 8063,
      "Ġworn": 8064,
      "ĠâĢĻ": 8065,
      "Ġdisaster": 8066,
      "Ġrequiring": 8067,
      "Ġpairs": 8068,
      "Ġindonesia": 8069,
      "Ġcuisine": 8070,
      "Ġpont": 8071,
      "eters": 8072,
      "Ġmanip": 8073,
      "Ġdistinguish": 8074,
      "Ġchris": 8075,
      "Ġcarter": 8076,
      "Ġwider": 8077,
      "Ġri": 8078,
      "Ġplural": 8079,
      "Ġ800": 8080,
      "Ġequipped": 8081,
      "Ġevolutionary": 8082,
      "gue": 8083,
      "Ġlev": 8084,
      "Ġpermit": 8085,
      "Ġopportunities": 8086,
      "Ġnur": 8087,
      "Ġflash": 8088,
      "cho": 8089,
      "Ġeighth": 8090,
      "oto": 8091,
      "Ġdeliber": 8092,
      "Ġdougl": 8093,
      "Ġphotograph": 8094,
      "Ġjefferson": 8095,
      "Ġconsequences": 8096,
      "bell": 8097,
      "alf": 8098,
      "Ġemissions": 8099,
      "Ġeru": 8100,
      "Ġfingers": 8101,
      "Ġtelecommun": 8102,
      "night": 8103,
      "Ġscrew": 8104,
      "Ġrecalled": 8105,
      "Ġanglic": 8106,
      "Ġholiday": 8107,
      "Ġrebu": 8108,
      "heastern": 8109,
      "mble": 8110,
      "Ġfed": 8111,
      "Ġdall": 8112,
      "roit": 8113,
      "Ġjane": 8114,
      "Ġproducers": 8115,
      "Ġfinance": 8116,
      "Ġbiology": 8117,
      "Ġmaryland": 8118,
      "Ġaver": 8119,
      "Ġcoat": 8120,
      "Ġhanded": 8121,
      "Ġwealthy": 8122,
      "ĠÃ©": 8123,
      "era": 8124,
      "Ġnest": 8125,
      "Ġswit": 8126,
      "Ġcitizen": 8127,
      "Ġkitchen": 8128,
      "Ġsleeping": 8129,
      "Ġbare": 8130,
      "uras": 8131,
      "Ġenorm": 8132,
      "Ġroger": 8133,
      "Ġvaluable": 8134,
      "Ġoptim": 8135,
      "Ġinitiative": 8136,
      "Ġtriangle": 8137,
      "ailand": 8138,
      "Ġpredecess": 8139,
      "Ġburned": 8140,
      "Ġcambridge": 8141,
      "Ġunsuccess": 8142,
      "bar": 8143,
      "stic": 8144,
      "Ġthereby": 8145,
      "Ġangry": 8146,
      "exp": 8147,
      "Ġsig": 8148,
      "Ġportra": 8149,
      "Ġhamilton": 8150,
      "Ġthailand": 8151,
      "Ġcontrols": 8152,
      "Ġtibet": 8153,
      "ductor": 8154,
      "Ġwooden": 8155,
      "Ġiranian": 8156,
      "gie": 8157,
      "Ġgau": 8158,
      "str": 8159,
      "Ġspecialized": 8160,
      "Ġelectronics": 8161,
      "Ġnarrative": 8162,
      "Ġetymology": 8163,
      "uated": 8164,
      "Ġroy": 8165,
      "ika": 8166,
      "Ġwings": 8167,
      "Ġ41": 8168,
      "Ġdiscrimination": 8169,
      "Ġvariant": 8170,
      "secution": 8171,
      "inder": 8172,
      "Ġsuicide": 8173,
      "Ġglad": 8174,
      "Ġtourists": 8175,
      "Ġhungry": 8176,
      "graph": 8177,
      "ulous": 8178,
      "una": 8179,
      "Ġpermission": 8180,
      "Ġdistribut": 8181,
      "Ġhappening": 8182,
      "Ġcorporate": 8183,
      "Ġ1914": 8184,
      "Ġregardless": 8185,
      "Ġquantities": 8186,
      "Ġshares": 8187,
      "atherine": 8188,
      "Ġweekly": 8189,
      "Ġsacred": 8190,
      "Ġjup": 8191
    },
    "merges": [
      "Ġ t",
      "Ġ a",
      "h e",
      "i n",
      "Ġt he",
      "r e",
      "Ġ o",
      "Ġ s",
      "Ġ .",
      "e r",
      "Ġ w",
      "Ġ c",
      "o n",
      "a t",
      "Ġ ,",
      "Ġ b",
      "a n",
      "e n",
      "Ġ p",
      "i t",
      "i s",
      "e d",
      "Ġ f",
      "Ġ in",
      "Ġ m",
      "e s",
      "o r",
      "Ġa n",
      "Ġo f",
      "a l",
      "a r",
      "Ġ d",
      "o u",
      "in g",
      "Ġ h",
      "i c",
      "Ġan d",
      "Ġt o",
      "Ġ l",
      "a s",
      "i on",
      "r o",
      "Ġ \"",
      "Ġt h",
      "Ġ n",
      "Ġ g",
      "Ġ e",
      "l e",
      "Ġ re",
      "en t",
      "o m",
      "i l",
      "s t",
      "Ġb e",
      "v e",
      "l y",
      "c t",
      "Ġ u",
      "i d",
      "o l",
      "Ġ is",
      "a m",
      "Ġo n",
      "Ġs t",
      "e t",
      "Ġf or",
      "a d",
      "i m",
      "Ġ y",
      "o t",
      "Ġ he",
      "Ġ 1",
      "i g",
      "u t",
      "Ġw h",
      "c h",
      "at ion",
      "o w",
      "c e",
      "Ġth at",
      "Ġa s",
      "Ġ it",
      "u r",
      "s e",
      "' s",
      "a y",
      "v er",
      "i r",
      "Ġ r",
      "Ġw as",
      "Ġa l",
      "Ġ -",
      "Ġ ?",
      "it h",
      "e l",
      "u l",
      "Ġc on",
      "Ġw ith",
      "t er",
      "he r",
      "Ġd e",
      "Ġp ro",
      "Ġ k",
      "is t",
      "Ġb y",
      "Ġy ou",
      "Ġ (",
      "Ġ )",
      "Ġs u",
      "Ġs e",
      "Ġ j",
      "Ġc om",
      "e re",
      "r a",
      "Ġ v",
      "Ġm o",
      "Ġa re",
      "u s",
      "t h",
      "Ġc h",
      "o p",
      "i f",
      "an d",
      "Ġo r",
      "er s",
      "Ġa t",
      "r i",
      "ro m",
      "u m",
      "Ġu n",
      "a c",
      "ou n",
      "Ġ 2",
      "a g",
      "l d",
      "e m",
      "es t",
      "Ġe x",
      "Ġ1 9",
      "at e",
      "a in",
      "u n",
      "Ġn e",
      "o s",
      "o d",
      "an t",
      "Ġf rom",
      "re s",
      "Ġh a",
      "i es",
      "ig h",
      "a b",
      "q u",
      "p p",
      "il l",
      "it y",
      "a k",
      "Ġs p",
      "u d",
      "m ent",
      "i v",
      "o c",
      "i ve",
      "Ġh is",
      "ar t",
      "0 0",
      "or t",
      "es s",
      "Ġth is",
      "al l",
      "ic h",
      "Ġn ot",
      "Ġs h",
      "Ġ i",
      "Ġa r",
      "Ġl e",
      "i al",
      "Ġp l",
      "Ġ en",
      "Ġg o",
      "i an",
      "Ġha ve",
      "g h",
      "Ġw or",
      "Ġd o",
      "igh t",
      "a p",
      "ic al",
      "Ġw he",
      "e ct",
      "Ġw ere",
      "t her",
      "re d",
      "ar d",
      "at ed",
      "Ġwh ich",
      "Ġthe y",
      "i a",
      "g e",
      "Ġc an",
      "om e",
      "b er",
      "as t",
      "Ġs a",
      "i e",
      "Ġu s",
      "e ar",
      "Ġa b",
      "ou ld",
      "ou gh",
      "el l",
      "u st",
      "am e",
      "Ġwh at",
      "Ġt r",
      "Ġcom p",
      "ou r",
      "d er",
      "Ġon e",
      "o k",
      "in e",
      "ion s",
      "c l",
      "i p",
      "ar y",
      "Ġa d",
      "Ġh as",
      "o g",
      "u re",
      "oun d",
      "Ġc l",
      "p t",
      "Ġb ut",
      "Ġal l",
      "Ġin t",
      "on g",
      "s o",
      "Ġm an",
      "Ġa f",
      "Ġw e",
      "ou s",
      "Ġthe re",
      "p er",
      "Ġ â",
      "is h",
      "Ġwh o",
      "Ġ ro",
      "id e",
      "c c",
      "Ġcon t",
      "ou t",
      "Ġthe ir",
      "en d",
      "an s",
      "Ġo ther",
      "k e",
      "Ġh ad",
      "Ġm e",
      "Ġal so",
      "Ġâ Ģ",
      "Ġa m",
      "i z",
      "ac k",
      "Ġn o",
      "o re",
      "Ġp art",
      "r y",
      "u b",
      "Ġs c",
      "Ġt e",
      "r it",
      "al ly",
      "Ġl i",
      "Ġp er",
      "ation s",
      "d u",
      "Ġ im",
      "Ġ2 0",
      "ig n",
      "ic e",
      "as s",
      "Ġne w",
      "Ġg r",
      "Ġmo re",
      "Ġre s",
      "ag e",
      "Ġsa id",
      "Ġbe c",
      "Ġcom m",
      "ul t",
      "a ct",
      "Ġy ear",
      "Ġs ome",
      "at er",
      "Ġit s",
      "re n",
      "Ġs o",
      "Ġf ir",
      "Ġc o",
      "p l",
      "im e",
      "Ġa g",
      "a v",
      "Ġd is",
      "an g",
      "oun t",
      "Ġt w",
      "Ġfor m",
      "ow n",
      "Ġp e",
      "Ġfir st",
      "it ion",
      "ct ion",
      "ve l",
      "Ġb o",
      "Ġo ut",
      "at es",
      "en ce",
      "Ġbe en",
      "i re",
      "Ġin d",
      "Ġa pp",
      "u e",
      "Ġu p",
      "or d",
      "Ġk n",
      "on e",
      "Ġ :",
      "a u",
      "Ġm ar",
      "Ġc ol",
      "' t",
      "re e",
      "f f",
      "Ġs he",
      "r u",
      "Ġs y",
      "or y",
      "cl ud",
      "i b",
      "a ce",
      "Ġe v",
      "Ġo ver",
      "Ġof f",
      "Ġp o",
      "an ce",
      "Ġre c",
      "Ġl o",
      "e c",
      "Ġwhe n",
      "a ch",
      "Ġaf ter",
      "k s",
      "Ġc ent",
      "ak e",
      "Ġ ;",
      "er m",
      "or m",
      "Ġh ow",
      "Ġtw o",
      "Ġth an",
      "he d",
      "Ġb l",
      "ab le",
      "Ġin clud",
      "i le",
      "p h",
      "Ġp res",
      "en s",
      "ent s",
      "w e",
      "or s",
      "ver s",
      "r ic",
      "Ġre p",
      "Ġmo st",
      "Ġ20 1",
      "ter n",
      "Ġw ould",
      "o se",
      "Ġs er",
      "on d",
      "Ġd es",
      "Ġli ke",
      "Ġsu ch",
      "Ġ2 00",
      "Ġab out",
      "Ġf e",
      "Ġp re",
      "Ġe m",
      "Ġhe r",
      "t s",
      "Ġthe m",
      "c ed",
      "in d",
      "Ġp r",
      "Ġe le",
      "Ġt ime",
      "Ġg en",
      "a h",
      "Ġp ol",
      "l l",
      "Ġwhe re",
      "l ic",
      "Ġe ar",
      "c es",
      "it e",
      "Ġw ill",
      "Ġ 3",
      "Ġ qu",
      "a re",
      "ad e",
      "Ġm ay",
      "Ġbe t",
      "ver y",
      "ation al",
      "Ġb r",
      "Ġp h",
      "l and",
      "Ġint o",
      "v ed",
      "as e",
      "Ġcon s",
      "Ġman y",
      "it ed",
      "w n",
      "t e",
      "Ġre l",
      "Ġpe op",
      "Ġ1 8",
      "ur ing",
      "Ġa cc",
      "l ow",
      "Ġthe se",
      "Ġus ed",
      "il d",
      "Ġc ar",
      "Ġpl ay",
      "Ġwor k",
      "Ġim p",
      "Ġpeop le",
      "am p",
      "Ġl a",
      "ĠâĢ ĵ",
      "re at",
      "Ġ '",
      "Ġw ar",
      "c k",
      "i ed",
      "ing s",
      "Ġon ly",
      "is m",
      "Ġs ch",
      "Ġre g",
      "Ġc ount",
      "Ġat t",
      "Ġd id",
      "l es",
      "e p",
      "ere d",
      "Ġun der",
      "Ġst ud",
      "ul ar",
      "ay s",
      "ol og",
      "res s",
      "t ed",
      "a il",
      "Ġa ct",
      "if f",
      "ol d",
      "n a",
      "ver n",
      "Ġo h",
      "at h",
      "er ic",
      "on s",
      "Ġse c",
      "Ġin f",
      "ri b",
      "Ġp op",
      "Ġwor ld",
      "al s",
      "i ous",
      "Ġh im",
      "Ġc all",
      "is s",
      "Ġf l",
      "Ġd uring",
      "as ed",
      "Ġyear s",
      "Ġse e",
      "o od",
      "Ġre f",
      "Ġgo vern",
      "Ġj o",
      "ro p",
      "Ġpro du",
      "ere n",
      "Ġr ight",
      "au se",
      "Ġt ra",
      "Ġsu b",
      "Ġa c",
      "Ġn um",
      "Ġ if",
      "g an",
      "id ent",
      "t le",
      "in k",
      "Ġl ar",
      "Ġth r",
      "at ive",
      "Ġf r",
      "Ġp ar",
      "Ġw ell",
      "Ġin c",
      "ot h",
      "Ġex p",
      "we en",
      "Ġbet ween",
      "Ġb u",
      "ou p",
      "if ic",
      "f t",
      "st em",
      "g r",
      "Ġm a",
      "ur n",
      "Ġen g",
      "Ġm in",
      "Ġre m",
      "Ġd iff",
      "t en",
      "ic s",
      "Ġm on",
      "Ġn ow",
      "Ġ 4",
      "o ol",
      "Ġsy stem",
      "Ġthe n",
      "Ġo k",
      "Ġp ub",
      "ic k",
      "Ġthr ough",
      "Ġas s",
      "it ies",
      "Ġde f",
      "Ġd on",
      "ist s",
      "Ġtr ans",
      "Ġam eric",
      "j ect",
      "y s",
      "Ġs m",
      "Ġyou r",
      "Ġg et",
      "Ġgen er",
      "Ġin st",
      "Ġan y",
      "Ġsu pp",
      "u al",
      "Ġo b",
      "Ġw ant",
      "Ġhe re",
      "Ġu se",
      "ĠâĢ Ķ",
      "Ġm et",
      "Ġst ates",
      "Ġok ay",
      "Ġ19 9",
      "Ġch ar",
      "Ġm u",
      "i ent",
      "at ing",
      "Ġsp ec",
      "Ġwh ile",
      "Ġ 5",
      ", \"",
      "or n",
      "Ġj ust",
      "in ce",
      "Ġ ed",
      "Ġc ould",
      "Ġst ate",
      "Ġgovern ment",
      "Ġf ound",
      "i et",
      "Ġ z",
      "Ġsch ool",
      "Ġf ol",
      "Ġin v",
      "ot her",
      "Ġh igh",
      "ut ion",
      "ur y",
      "i x",
      "Ġbec ause",
      "Ġag ain",
      "Ġgr oup",
      "Ġp os",
      "t ing",
      "Ġin ter",
      "Ġl it",
      "he s",
      "Ġ %",
      "vel op",
      "i o",
      "Ġde c",
      "y p",
      "in es",
      "Ġh ist",
      "Ġm em",
      "Ġcall ed",
      "ic t",
      "Ġs et",
      "il y",
      "Ġad d",
      "Ġth ree",
      "Ġm ade",
      "Ġde velop",
      "Ġf in",
      "u c",
      "Ġm us",
      "Ġs ou",
      "e ver",
      "is hed",
      "Ġb ack",
      "Ġl et",
      "w ard",
      "f ore",
      "Ġlo ok",
      "i vers",
      "Ġs ur",
      "Ġc ity",
      "Ġen d",
      "Ġb ro",
      "Ġa ir",
      "Ġe u",
      "Ġd ist",
      "ow er",
      "Ġele ct",
      "is e",
      "Ġfol low",
      "Ġkn own",
      "Ġ !",
      "Ġhow ever",
      "Ġs im",
      "Ġl ater",
      "Ġp ut",
      "Ġf il",
      "Ġun ited",
      "u res",
      "Ġb oth",
      "ro w",
      "Ġpro v",
      "u ally",
      "se l",
      "Ġf un",
      "' re",
      "Ġg u",
      "Ġbe ing",
      "Ġde p",
      "if e",
      "oc k",
      "in t",
      "Ġgo od",
      "t ain",
      "l i",
      "Ġl ong",
      "v ing",
      "Ġc ap",
      "ce pt",
      "00 0",
      "Ġn or",
      "Ġkn ow",
      "t y",
      "Ġw rit",
      "Ġe ff",
      "Ġdiff eren",
      "Ġm il",
      "in s",
      "Ġv ar",
      "Ġm ed",
      "h ip",
      "Ġ /",
      "Ġ ent",
      "Ġ 6",
      "Ġs ign",
      "Ġ est",
      "iz ed",
      "Ġs ince",
      "Ġy e",
      "Ġla w",
      "Ġbe l",
      "Ġcon st",
      "Ġth ose",
      "Ġar t",
      "it s",
      "ter s",
      "o st",
      "Ġex t",
      "om et",
      "Ġl oc",
      "at her",
      "b le",
      "Ġd own",
      "Ġar m",
      "Ġinclud ing",
      "u g",
      "Ġear ly",
      "an ge",
      "Ġ19 8",
      "Ġn ational",
      "Ġhe l",
      "Ġs oc",
      "Ġf am",
      "r al",
      "Ġnum ber",
      "n ing",
      "ical ly",
      "Ġa ut",
      "Ġm y",
      "c on",
      "im es",
      "c ess",
      "Ġm ain",
      "f ul",
      "ment s",
      "Ġc re",
      ". \"",
      "Ġle ad",
      "t on",
      "i el",
      "c y",
      "n e",
      "ib le",
      "in ed",
      "m an",
      "Ġk e",
      "ra ct",
      "Ġm ake",
      "Ġcent ury",
      "Ġsh ow",
      "Ġp ers",
      "Ġdo es",
      "Ġye ah",
      "ill ion",
      "Ġbe fore",
      "l ed",
      "Ġo p",
      "Ġo wn",
      "ant s",
      "Ġin tern",
      "Ġbec ame",
      "al e",
      "Ġg erm",
      "c o",
      "Ġh um",
      "ro s",
      "b ers",
      "Ġsec ond",
      "i um",
      "Ġm at",
      "Ġbo ok",
      "d ay",
      "Ġcon f",
      "r on",
      "Ġ19 7",
      "Ġ very",
      "an y",
      "Ġfil m",
      "h ing",
      "Ġd ire",
      "ur al",
      "an k",
      "g est",
      "Ġc al",
      "Ġev en",
      "am es",
      "Ġth ough",
      "Ġo per",
      "Ġe l",
      "Ġp a",
      "t il",
      "Ġl ang",
      "Ġt erm",
      "ak ing",
      "Ġf our",
      "Ġun ivers",
      "Ġma j",
      "Ġeu rop",
      "d s",
      "Ġe ach",
      "Ġs ame",
      "Ġpro t",
      "w ay",
      "ou se",
      "Ġ rom",
      "ial ly",
      "Ġoff ic",
      "Ġst r",
      "Ġth ink",
      "v es",
      "Ġeurop e",
      "Ġre t",
      "Ġde m",
      "Ġs l",
      "Ġc r",
      "Ġs ay",
      "or k",
      "Ġg re",
      "Ġmu ch",
      "is ion",
      "Ġch ild",
      "Ġlang u",
      "u es",
      "Ġcl ass",
      "Ġ 7",
      "ian s",
      "Ġle g",
      "Ġan other",
      "g er",
      "olog y",
      "Ġt yp",
      "Ġar ound",
      "ag es",
      "Ġhel p",
      "f orm",
      "Ġor ig",
      "Ġpart ic",
      "Ġmaj or",
      "Ġcont in",
      "g et",
      "ar ch",
      "a ve",
      "Ġw ater",
      "Ġse ver",
      "Ġc or",
      "Ġb rit",
      "Ġcol le",
      "Ġlar ge",
      "Ġc he",
      "Ġ19 6",
      "us s",
      "Ġk ing",
      "il ity",
      "Ġof ten",
      "iv es",
      "Ġd ay",
      "Ġ 8",
      "v en",
      "Ġameric an",
      "Ġpub lic",
      "Ġcomm un",
      "Ġdifferen t",
      "os ed",
      "a red",
      "Ġres p",
      "Ġne ed",
      "Ġin s",
      "Ġlit tle",
      "ul ation",
      "Ġsever al",
      "Ġcount ry",
      "Ġsm all",
      "x t",
      "er g",
      "Ġpres ident",
      "Ġres ult",
      "Ġo ld",
      "gr am",
      "ie w",
      "Ġcomm on",
      "Ġs w",
      "Ġc ur",
      "ord ing",
      "Ġcont ro",
      "Ġagain st",
      "l ished",
      "l ish",
      "Ġdes c",
      "Ġn ame",
      "at ure",
      "Ġw ay",
      "Ġ1 7",
      "Ġs omet",
      "Ġnor th",
      "Ġ1 0",
      "Ġinc re",
      "Ġg l",
      "Ġsupp ort",
      "Ġl ife",
      "ar s",
      "Ġcomp le",
      "Ġp ri",
      "Ġsou th",
      "Ġdire ct",
      "Ġl ast",
      "i red",
      "c er",
      "in a",
      "Ġpro gram",
      "ru ct",
      "iv ed",
      "Ġorig in",
      "Ġv al",
      "Ġpl an",
      "Ġa p",
      "u p",
      "Ġ ir",
      "Ġe very",
      "ul a",
      "Ġc our",
      "Ġg reat",
      "Ġp ower",
      "Ġmo d",
      "a z",
      "Ġor gan",
      "Ġst ill",
      "Ġst art",
      "Ġh and",
      "Ġe qu",
      "Ġl and",
      "o y",
      "Ġo cc",
      "Ġd et",
      "Ġ1 5",
      "r ist",
      "ri es",
      "Ġpol it",
      "a ir",
      "Ġsp e",
      "Ġimp ort",
      "Ġcons id",
      "amp le",
      "ul l",
      "Ġst and",
      "Ġ >",
      "Ġun til",
      "Ġser v",
      "Ġs ing",
      "Ġf ar",
      "v ent",
      "Ġt ake",
      "Ġtr ad",
      "Ġ 9",
      "Ġg e",
      "Ġmar k",
      "Ġcom e",
      "Ġdes ign",
      "Ġ $",
      "ut e",
      "Ġe con",
      "Ġecon om",
      "Ġex per",
      "is ed",
      "Ġb ased",
      "c ent",
      "i er",
      "Ġacc ording",
      "ch n",
      "Ġre ad",
      "Ġop en",
      "th ough",
      "Ġall ow",
      "h n",
      "Ġch rist",
      "Ġrem ain",
      "Ġd r",
      "Ġne ar",
      "an c",
      "as on",
      "Ġal though",
      "ren t",
      "id ed",
      "Ġre le",
      "Ġre qu",
      "Ġ <",
      "Ġp ass",
      "Ġte am",
      "Ġp at",
      "Ġm illion",
      "Ġc a",
      "o b",
      "Ġh ouse",
      "ra ph",
      "Ġre se",
      "Ġr un",
      "i od",
      "Ġb as",
      "Ġan n",
      "Ġb us",
      "Ġb ar",
      "Ġpro p",
      "Ġb ig",
      "i ence",
      "Ġh ome",
      "Ġhe ad",
      "b r",
      "Ġunivers ity",
      "Ġex ample",
      "re ad",
      "Ġis land",
      "u ed",
      "Ġs ol",
      "Ġ es",
      "Ġre v",
      "it al",
      "Ġmo der",
      "Ġgener al",
      "Ġ1 6",
      "ros s",
      "he n",
      "at ic",
      "Ġsh ould",
      "sel f",
      "Ġam ong",
      "Ġeff ect",
      "i ver",
      "Ġs k",
      "Ġte chn",
      "Ġmus ic",
      "Ġw om",
      "Ġpers on",
      "Ġrec ord",
      "Ġm id",
      "et s",
      "s on",
      "ion al",
      "Ġan t",
      "Ġto o",
      "Ġmil it",
      "Ġhist ory",
      "ur ch",
      "ort s",
      "Ġr ad",
      "Ġ er",
      "od y",
      "cc ess",
      "Ġbel ie",
      "m in",
      "Ġjo hn",
      "Ġ19 4",
      "Ġc ult",
      "Ġre st",
      "m ber",
      "Ġper iod",
      "Ġn on",
      "id es",
      "Ġf act",
      "i k",
      "Ġa v",
      "Ġex pl",
      "Ġf re",
      "Ġinclud e",
      "iel d",
      "Ġpos s",
      "Ġbe gan",
      "Ġd iv",
      "Ġt er",
      "on na",
      "n er",
      "Ġchar act",
      "Ġt urn",
      "Ġm ag",
      "al th",
      "om m",
      "el s",
      "Ġt ri",
      "Ġus ing",
      "Ġfollow ing",
      "Ġh ar",
      "Ġgo ing",
      "Ġb at",
      "Ġf ore",
      "a im",
      "one y",
      "Ġpro cess",
      "Ġo pp",
      "Ġh un",
      "en e",
      "Ġv is",
      "Ġapp ro",
      "Ġbu ild",
      "ak es",
      "if ied",
      "Ġmoder n",
      "Ġpart y",
      "Ġmo ve",
      "n ed",
      "' ll",
      "Ġad v",
      "in c",
      "o v",
      "it ions",
      "l u",
      "h a",
      "Ġsu ccess",
      "ent ly",
      "al k",
      "om in",
      "Ġ x",
      "ic es",
      "em ent",
      "im ate",
      "Ġg iv",
      "Ġintern ational",
      "Ġ1 2",
      "Ġg ame",
      "Ġg onna",
      "iss ion",
      "Ġare a",
      "Ġ19 5",
      "Ġj e",
      "Ġde ath",
      "Ġl ess",
      "Ġchild ren",
      "Ġper form",
      "ect ed",
      "Ġre al",
      "re t",
      "Ġform ula",
      "Ġpop ulation",
      "Ġhum an",
      "ot e",
      "m s",
      "Ġwith in",
      "m b",
      "t he",
      "Ġst e",
      "as es",
      "Ġbrit ish",
      "iz e",
      "Ġd ra",
      "Ġs it",
      "o ot",
      "ir d",
      "Ġaut h",
      "Ġrep res",
      "Ġ ve",
      "end ed",
      "Ġc amp",
      "Ġlangu age",
      "iz ation",
      "Ġc rit",
      "Ġ ide",
      "Ġser ies",
      "Ġe as",
      "Ã ©",
      "Ġt a",
      "Ġw est",
      "Ġt em",
      "n ess",
      "Ġp ort",
      "Ġl at",
      "Ġmilit ary",
      "b s",
      "Ġg ot",
      "Ġb re",
      "Ġst at",
      "en g",
      "Ġre ce",
      "le y",
      "en se",
      "us ed",
      "Ġc le",
      "Ġd ue",
      "Ġest ab",
      "Ġbl ack",
      "Ġfam ily",
      "m e",
      "i ation",
      "Ġmem bers",
      "Ġc at",
      "Ġfe w",
      "u red",
      "Ġr a",
      "y ing",
      "Ġpl ace",
      "Ġan g",
      "ar k",
      "Ġc oun",
      "am ed",
      "Ġsc ient",
      "Ġpop ular",
      "Ġdesc rib",
      "Ġhist or",
      "Ġan im",
      "on t",
      "Ġs al",
      "Ġf ind",
      "Ġal ong",
      "Ġpro ble",
      "Ġw in",
      "Ġl ed",
      "Ġgerm an",
      "Ġstud ents",
      "Ġimport ant",
      "Ġph il",
      "an e",
      "Ġc are",
      "Ġdis c",
      "il ar",
      "Ġm en",
      "Ġte le",
      "Ġre d",
      "Ġpolit ical",
      "at or",
      "Ġme an",
      "Ġch ang",
      "Ġaf ric",
      "Ġi i",
      "g in",
      "Ġg row",
      "Ġpro f",
      "er v",
      "en cy",
      "id s",
      "Ġsim ilar",
      "p or",
      "Ġinf lu",
      "ough t",
      "Ġaf f",
      "i am",
      "Ġt est",
      "Ġl ab",
      "b o",
      "g ed",
      "Ġf ive",
      "Ġle ft",
      "Ġeng lish",
      "Ġto ok",
      "as h",
      "Ġh ig",
      "Ġar g",
      "Ġass oc",
      "Ġh al",
      "Ġto p",
      "Ġret urn",
      "Ġh u",
      "b e",
      "Ġtrad ition",
      "am a",
      "ren ch",
      "Ġch urch",
      "Ġle vel",
      "Ġl im",
      "m er",
      "Ġor der",
      "am ent",
      "s p",
      "Ġadd ition",
      "Ġsoc ial",
      "Ġwith out",
      "qu e",
      "Ġrel ig",
      "Ġf ood",
      "em ber",
      "Ġd el",
      "Ġwh ite",
      "Ġt imes",
      "Ġrep ort",
      "un e",
      "Ġrepres ent",
      "r ation",
      "Ġj u",
      "Ġ19 3",
      "Ġcontro l",
      "Ġl ight",
      "Ġn et",
      "Ġmon th",
      "Ġsp ace",
      "Ġed uc",
      "ro du",
      "Ġn at",
      "og raph",
      "ac ed",
      "Ġ1 1",
      "g ress",
      "Ġwe e",
      "Ġis s",
      "Ġv i",
      "an n",
      "Ġpartic ular",
      "Ġf rench",
      "Ġoffic ial",
      "Ġg od",
      "or ies",
      "is ter",
      "Ġcount ries",
      "iet y",
      "Ġcomp any",
      "at s",
      "Ġa ust",
      "Ġe ast",
      "Ġrom an",
      "i us",
      "Ġl ate",
      "Ġsu per",
      "y l",
      "ard s",
      "Ġwom en",
      "p ar",
      "Ġv ol",
      "Ġ vers",
      "Ġw on",
      "Ġl ine",
      "Ġim m",
      "Ġind ust",
      "Ġl ow",
      "Ġs ix",
      "Ġsu g",
      "Ġsh ort",
      "l ing",
      "Ġha pp",
      "Ġt reat",
      "Ġcomp ut",
      "' m",
      "Ġbec ome",
      "on y",
      "Ġdevelop ment",
      "Ġm ust",
      "a w",
      "ed er",
      "Ġrep ub",
      "le ct",
      "Ġc ame",
      "Ġp ract",
      "is on",
      "Ġyou n",
      "Ġpres ent",
      "b y",
      "Ġf ree",
      "Ġcont ain",
      "Ġpo st",
      "Ġpo int",
      "Ġrepub lic",
      "Ġloc al",
      "Ġcom b",
      "Ġe p",
      "Ġatt ack",
      "Ġ1 4",
[...]
