{"version":"1.0","truncation":null,"padding":null,"added_tokens":[{"id":0,"special":true,"content":"<mask>","single_word":false,"lstrip":false,"rstrip":false,"normalized":false},{"id":1,"special":true,"content":"<pad>","single_word":false,"lstrip":false,"rstrip":false,"normalized":false},{"id":2,"special":true,"content":"<unk>","single_word":false,"lstrip":false,"rstrip":false,"normalized":false},{"id":3,"special":true,"content":"<s>","single_word":false,"lstrip":false,"rstrip":false,"normalized":false},{"id":4,"special":true,"content":"</s>","single_word":false,"lstrip":false,"rstrip":false,"normalized":false}],"normalizer":{"type":"Lowercase"},"pre_tokenizer":{"type":"ByteLevel","add_prefix_space":true,"trim_offsets":true},"post_processor":null,"decoder":null,"model":{"type":"BPE","dropout":null,"unk_token":"<unk>","continuing_subword_prefix":null,"end_of_word_suffix":null,"fuse_unk":false,"vocab":{"<mask>":0,"<pad>":1,"<unk>":2,"<s>":3,"</s>":4,"!":5,"\"":6,"#":7,"$":8,"%":9,"&":10,"'":11,"(":12,")":13,"*":14,"+":15,",":16,"-":17,".":18,"/":19,"0":20,"1":21,"2":22,"3":23,"4":24,"5":25,"6":26,"7":27,"8":28,"9":29,":":30,";":31,"<":32,"=":33,">":34,"?":35,"@":36,"[":37,"\\":38,"]":39,"^":40,"_":41,"`":42,"a":43,"b":44,"c":45,"d":46,"e":47,"f":48,"g":49,"h":50,"i":51,"j":52,"k":53,"l":54,"m":55,"n":56,"o":57,"p":58,"q":59,"r":60,"s":61,"t":62,"u":63,"v":64,"w":65,"x":66,"y":67,"z":68,"{":69,"|":70,"}":71,"~":72,"¡":73,"¢":74,"£":75,"¤":76,"¥":77,"¦":78,"§":79,"¨":80,"©":81,"ª":82,"«":83,"¬":84,"®":85,"¯":86,"°":87,"±":88,"²":89,"³":90,"´":91,"µ":92,"¶":93,"·":94,"¸":95,"¹":96,"º":97,"»":98,"¼":99,"½":100,"¾":101,"¿":102,"Â":103,"Ã":104,"Ä":105,"Å":106,"Æ":107,"Ç":108,"È":109,"É":110,"Ê":111,"Ë":112,"Ì":113,"Í":114,"Î":115,"Ï":116,"Ð":117,"Ñ":118,"Ò":119,"Ó":120,"Õ":121,"Ö":122,"×":123,"Ø":124,"Ù":125,"Ú":126,"Û":127,"Ý":128,"à":129,"á":130,"â":131,"ã":132,"ä":133,"å":134,"æ":135,"ç":136,"è":137,"é":138,"ê":139,"ë":140,"ì":141,"í":142,"ï":143,"ð":144,"Ĉ":145,"Ċ":146,"Ġ":147,"Ģ":148,"ģ":149,"Ĥ":150,"ĥ":151,"Ħ":152,"ħ":153,"Ĩ":154,"ĩ":155,"Ī":156,"ī":157,"Ĭ":158,"ĭ":159,"Į":160,"į":161,"İ":162,"ı":163,"Ĳ":164,"ĳ":165,"Ĵ":166,"ĵ":167,"Ķ":168,"ķ":169,"ĸ":170,"Ĺ":171,"ĺ":172,"Ļ":173,"ļ":174,"Ľ":175,"ľ":176,"Ŀ":177,"ŀ":178,"Ł":179,"ł":180,"Ń":181,"Ġt":182,"Ġa":183,"he":184,"in":185,"Ġthe":186,"Ġs":187,"Ġ.":188,"re":189,"Ġo":190,"Ġw":191,"er":192,"Ġc":193,"Ġ,":194,"at":195,"on":196,"Ġb":197,"an":198,"Ġf":199,"is":200,"it":201,"Ġp":202,"ed":203,"en":204,"Ġm":205,"or":206,"Ġin":207,"es":208,"Ġan":209,"Ġd":210,"ou":211,"ar":212,"al":213,"Ġh":214,"Ġof":215,"ing":216,"as":217,"Ġto":218,"Ġl":219,"Ġand":220,"Ġn":221,"ic":222,"Ġth":223,"Ġg":224,"ro":225,"Ġ\"":226,"ion":227,"il":228,"le":229,"Ġre":230,"Ġy":231,"Ġhe":232,"Ġe":233,"Ġ'":234,"ent":235,"om":236,"st":237,"am":238,"id":239,"Ġon":240,"el":241,"Ġis":242,"et":243,"Ġ1":244,"ay":245,"Ġu":246,"Ġst":247,"ol":248,"Ġit":249,"ad":250,"ac":251,"Ġwh":252,"ow":253,"Ġwas":254,"ot":255,"Ġfor":256,"ve":257,"Ġ?":258,"ig":259,"ut":260,"Ġbe":261,"Ġthat":262,"ir":263,"Ġr":264,"Ġyou":265,"ur":266,"im":267,"ly":268,"ver":269,"Ġ-":270,"ch":271,"Ġas":272,"ct":273,"Ġal":274,"ation":275,"se":276,"Ġ2":277,"Ġj":278,"Ġk":279,"ith":280,"ter":281,"Ġwith":282,"Ġat":283,"Ġse":284,"ce":285,"Ġch":286,"Ġwe":287,"her":288,"Ġde":289,"ul":290,"ist":291,"Ġi":292,"Ġv":293,"and":294,"un":295,"us":296,"ag":297,"Ġdo":298,"Ġpro":299,"Ġ19":300,"Ġby":301,"oun":302,"th":303,"Ġcom":304,"Ġcon":305,"Ġ20":306,"oo":307,"ers":308,"ill":309,"Ġare":310,"ri":311,"rom":312,"ain":313,"Ġ)":314,"op":315,"ld":316,"Ġ(":317,"um":318,"igh":319,"Ġne":320,"ak":321,"Ġun":322,"Ġmo":323,"Ġha":324,"Ġfrom":325,"em":326,"est":327,"ant":328,"Ġhis":329,"Ġpl":330,"all":331,"Ġsh":332,"ies":333,"pp":334,"ab":335,"art":336,"ud":337,"res":338,"Ġor":339,"red":340,"Ġsp":341,"Ġle":342,"os":343,"Ġwhat":344,"oc":345,"if":346,"Ġsu":347,"Ġsa":348,"ate":349,"iv":350,"ity":351,"Ġthis":352,"Ġthey":353,"ight":354,"Ġwhe":355,"Ġar":356,"ber":357,"Ġtr":358,"Ġex":359,"qu":360,"ap":361,"Ġnot":362,"Ġgo":363,"ort":364,"ess":365,"ard":366,"Ġye":367,"Ġhave":368,"ell":369,"Ġwor":370,"âĢ":371,"ia":372,"ie":373,"ment":374,"Ġshe":375,"gh":376,"ive":377,"ust":378,"Ġen":379,"ge":380,"our":381,"ich":382,"ack":383,"ast":384,"Ġ201":385,"ound":386,"Ġone":387,"ren":388,"ian":389,"ated":390,"ome":391,"ong":392,"Ġsaid":393,"Ġro":394,"ould":395,"Ġab":396,"Ġhas":397,"Ġwere":398,"ame":399,"Ġcan":400,"ke":401,"out":402,"Ġcl":403,"Ġthere":404,"ip":405,"Ġwho":406,"Ġte":407,"Ġgr":408,"Ġno":409,"Ġbut":410,"'t":411,"ial":412,"so":413,"Ġaf":414,"ine":415,"ary":416,"Ġme":417,"ough":418,"ther":419,"Ġalso":420,"Ġher":421,"Ġall":422,"ide":423,"Ġli":424,"Ġcomp":425,"ĠâĢ":426,"ub":427,"ect":428,"Ġnew":429,"00":430,"Ġsc":431,"Ġman":432,"ĠĊ":433,"der":434,"ook":435,"Ġtheir":436,"ish":437,"Ġam":438,"Ġup":439,"Ġbr":440,"Ġwhich":441,"ice":442,"ood":443,"ore":444,"Ġhad":445,"Ġyear":446,"Ġad":447,"av":448,"Ġout":449,"end":450,"Ġfir":451,"Ġpe":452,"Ġtw":453,"own":454,"ally":455,"cl":456,"age":457,"ah":458,"ry":459,"Ġ200":460,"uc":461,"Ġplay":462,"ions":463,"Ġint":464,"Ġag":465,"Ġmar":466,"Ġcol":467,"Ġac":468,"Ġfirst":469,"one":470,"Ġkn":471,"ake":472,"ous":473,"Ġco":474,"per":475,"pt":476,"ount":477,"ure":478,"Ġpart":479,"Ġits":480,"ric":481,"Ġsch":482,"ans":483,"Ġoff":484,"Ġso":485,"ue":486,"Ġmore":487,"iz":488,"ord":489,"Ġus":490,"ater":491,"ra":492,"ass":493,"Ġ#":494,"og":495,"Ġother":496,"Ġser":497,"Ġtim":498,"Ġwork":499,"Ġbec":500,"au":501,"Ġfe":502,"Ġafter":503,"ool":504,"ts":505,"Ġcont":506,"ire":507,"ree":508,"Ġsome":509,"Ġbo":510,"ang":511,"Ġper":512,"ild":513,"Ġwhere":514,"Ġcomm":515,"ign":516,"Ġoh":517,"Ġtwo":518,"Ġabout":519,"ace":520,"ach":521,"itt":522,"Ġwhen":523,"hed":524,"Ġover":525,"ind":526,"Ġwill":527,"Ġrec":528,"Ġ:":529,"orn":530,"wn":531,"Ġlike":532,"Ġres":533,"Ġhow":534,"Ġschool":535,"Ġbl":536,"ical":537,"Ġbeen":538,"Ġrep":539,"vers":540,"Ġjo":541,"Ġ3":542,"ond":543,"Ġ18":544,"Ġapp":545,"ff":546,"ec":547,"Ġthem":548,"Ġstud":549,"man":550,"Ġdid":551,"Ġim":552,"ru":553,"ents":554,"Ġpeop":555,"Ġwould":556,"Ġok":557,"Ġpeople":558,"ens":559,"are":560,"act":561,"Ġev":562,"Ġdis":563,"ite":564,"Ġget":565,"Ġind":566,"ick":567,"very":568,"ade":569,"ink":570,"ational":571,"Ġyour":572,"amp":573,"Ġtime":574,"ll":575,"ved":576,"ition":577,"ates":578,"Ġokay":579,"Ġsee":580,"Ġcar":581,"ations":582,"Ġfl":583,"ction":584,"Ġ!":585,"Ġwant":586,"Ġcount":587,"Ġhere":588,"clud":589,"Ġthan":590,"Ġla":591,"Ġqu":592,"Ġbu":593,"ors":594,"ail":595,"od":596,"Ġpr":597,"Ġpres":598,"ory":599,"Ġright":600,"land":601,"ings":602,"ile":603,"Ġmay":604,"Ġpo":605,"Ġpre":606,"ays":607,"ib":608,"Ġnow":609,"Ġinclud":610,"we":611,"Ġhim":612,"ult":613,"Ġpol":614,"ence":615,"ase":616,"Ġdes":617,"urn":618,"ubl":619,"ance":620,"Ġform":621,"Ġcent":622,"tern":623,"Ġinto":624,"fe":625,"eric":626,"Ġsec":627,"Ġbet":628,"Ġjust":629,"ited":630,"ep":631,"ks":632,"ose":633,"ely":634,"Ġ;":635,"uring":636,"Ġlook":637,"ied":638,"vel":639,"orm":640,"ased":641,"Ġfin":642,"les":643,"Ġpar":644,"able":645,"Ġthen":646,"Ġyears":647,"Ġfr":648,"Ġdist":649,"Ġfam":650,"iss":651,"Ġfound":652,"old":653,"te":654,"ath":655,"Ġameric":656,"Ġwell":657,"als":658,"Ġ4":659,"Ġput":660,"Ġunder":661,"Ġgen":662,"Ġact":663,"ily":664,"Ġed":665,"oup":666,"Ġatt":667,"Ġph":668,"Ġear":669,"Ġele":670,"Ġmany":671,"Ġtoo":672,"Ġback":673,"Ġgre":674,"Ġacc":675,"Ġexp":676,"ann":677,"ason":678,"gan":679,"ivers":680,"Ġagain":681,"Ġ199":682,"Ġyeah":683,"Ġreg":684,"Ġif":685,"Ġ5":686,"Ġem":687,"Ġmin":688,"oll":689,"Ġspec":690,"Ġduring":691,"Ġonly":692,"Ġmon":693,"Ġloc":694,"Ġaw":695,"Ġteam":696,"Ġbro":697,"Ġcr":698,"Ġsy":699,"Ġmost":700,"ton":701,"gr":702,"Ġcall":703,"Ġknow":704,"Ġgood":705,"anc":706,"Ġlet":707,"ince":708,"ft":709,"Ġsm":710,"Ġhel":711,"ember":712,"Ġworld":713,"ĠâĢĶ":714,"Ġass":715,"ident":716,"Ġwar":717,"ug":718,"ause":719,"Ġz":720,"hip":721,"rop":722,"Ġthese":723,"ress":724,"Ġlo":725,"Ġrem":726,"Ġthr":727,"Ġthree":728,"Ġcons":729,"Ġimp":730,"io":731,"rent":732,"other":733,"Ġpubl":734,"Ġdown":735,"oth":736,"Ġgu":737,"Ġhigh":738,"ious":739,"vern":740,"Ġthink":741,"Ġmu":742,"ne":743,"ict":744,"ix":745,"Ġcould":746,"Ġgroup":747,"ouse":748,"rib":749,"Ġpop":750,"Ġend":751,"Ġunivers":752,"int":753,"Ġthrough":754,"az":755,"Ġfil":756,"Ġmus":757,"Ġeng":758,"Ġmade":759,"Ġgovern":760,"ating":761,"outh":762,"Ġstate":763,"Ġnational":764,"Ġart":765,"Ġshow":766,"ists":767,"Ġmy":768,"Ġcolle":769,"Ġsub":770,"fore":771,"Ġprod":772,"hes":773,"Ġsay":774,"Ġmake":775,"âĢĵ":776,"ons":777,"ished":778,"Ġnor":779,"hing":780,"my":781,"Ġprov":782,"Ġhelp":783,"ph":784,"cc":785,"Ġdoes":786,"Ġany":787,"Ġret":788,"Ġna":789,"row":790,"ys":791,"enc":792,"Ġ198":793,"Ġchild":794,"Ġ6":795,"olog":796,"Ġbecause":797,"day":798,"Ġdr":799,"rict":800,"Ġrel":801,"Ġwr":802,"ters":803,"Ġma":804,"form":805,"ty":806,"Ġuniversity":807,"Ġop":808,"Ġseason":809,"Ġcity":810,"Ġdep":811,"oot":812,"air":813,"Ġsur":814,"Ġlitt":815,"Ġinst":816,"Ġchar":817,"Ġmed":818,"Ġlater":819,"ving":820,"Ġsupp":821,"ral":822,"Ġnum":823,"Ġlittle":824,"Ġbefore":825,"Ġfour":826,"Ġwhile":827,"ween":828,"Ġsecond":829,"Ġel":830,"ities":831,"Ġbetween":832,"Ġbel":833,"ife":834,"Ġdec":835,"lo":836,"Ġrele":837,"Ġcre":838,"ollow":839,"Ġcompan":840,"Ġinv":841,"ball":842,"Ġlong":843,"Ġstates":844,"ics":845,"ting":846,"Ġbook":847,"ular":848,"Ġfollow":849,"Ġstart":850,"Ġinc":851,"Ġknown":852,"Ġair":853,"iel":854,"Ġfilm":855,"ames":856,"Ġob":857,"Ġsing":858,"Ġrecord":859,"Ġke":860,"Ġca":861,"Ġamerican":862,"mber":863,"up":864,"ork":865,"ank":866,"Ġlar":867,"Ġbig":868,"Ġwin":869,"Ġmat":870,"Ġused":871,"Ġbeing":872,"Ġlead":873,"Ġunited":874,"Ġvery":875,"ision":876,"Ġold":877,"ier":878,"ange":879,"Ġfamily":880,"Ġent":881,"ina":882,"ather":883,"Ġsuch":884,"Ġsouth":885,"ative":886,"Ġhouse":887,"Ġdire":888,"Ġgovernment":889,"Ġ197":890,"ss":891,"Ġdistrict":892,"Ġthose":893,"Ġoffic":894,"Ġadd":895,"Ġdif":896,"Ġmil":897,"Ġown":898,"Ġpa":899,"Ġ7":900,"ning":901,"Ġlaw":902,"ale":903,"Ġborn":904,"cted":905,"ck":906,"Ġrun":907,"Ġgon":908,"ars":909,"Ġcome":910,"Ġcalled":911,"Ġsoc":912,"ific":913,"Ġsci":914,"ble":915,"Ġset":916,"Ġneed":917,"ird":918,"aking":919,"000":920,"Ġtake":921,"ural":922,"omet":923,"iet":924,"ards":925,"its":926,"ered":927,"ject":928,"Ġgener":929,"Ġgoing":930,"Ġopen":931,"Ġsl":932,"Ġap":933,"Ġbuild":934,"Ġcap":935,"ines":936,"Ġwater":937,"ful":938,"Ġter":939,"Ġserv":940,"Ġday":941,"Ġhome":942,"Ġalb":943,"Ġlast":944,"Ġnorth":945,"ise":946,"Ġmill":947,"Ġ2013":948,"Ġbus":949,"ull":950,"Ġsw":951,"Ġway":952,"Ġhist":953,"Ġhead":954,"Ġagainst":955,"ual":956,"Ġpos":957,"Ġsince":958,"Ġbar":959,"Ġtrans":960,"Ġmet":961,"Ġcal":962,"Ġ10":963,"Ġfar":964,"dy":965,"Ġboth":966,"Ġche":967,"til":968,"ures":969,"ost":970,"Ġ196":971,"let":972,"ever":973,"Ġgot":974,"ock":975,"ized":976,"Ġinter":977,"br":978,"Ġred":979,"Ġmusic":980,"get":981,"Ġsong":982,"Ġ8":983,"Ġanother":984,"Ġevery":985,"velop":986,"co":987,"Ġjun":988,"Ġcommun":989,"oney":990,"Ġsign":991,"ins":992,"Ġclass":993,"Ġfun":994,"ert":995,"Ġaround":996,"Ġintern":997,"uh":998,"ger":999,"Ġuse":1000,"ave":1001,"gram":1002,"Ġvill":1003,"alk":1004,"ived":1005,"Ġcour":1006,"Ġname":1007,"Ġir":1008,"elf":1009,"Ġincluding":1010,"Ġmem":1011,"Ġfoot":1012,"uck":1013,"Ġbecame":1014,"Ġdevelop":1015,"ces":1016,"Ġaut":1017,"Ġcare":1018,"Ġeven":1019,"ants":1020,"ven":1021,"uss":1022,"Ġest":1023,"Ġstudents":1024,"ought":1025,"Ġju":1026,"ired":1027,"Ġprogram":1028,"ik":1029,"Ġann":1030,"iam":1031,"Ġprof":1032,"ower":1033,"Ġstr":1034,"Ġread":1035,"Ġchildren":1036,"Ġgame":1037,"ctor":1038,"iew":1039,"Ġref":1040,"led":1041,"Ġwom":1042,"Ġmuch":1043,"Ġpresident":1044,"Ġstill":1045,"Ġnear":1046,"Ġbre":1047,"Ġhowever":1048,"Ġpublic":1049,"Ġappe":1050,"bers":1051,"att":1052,"Ġcur":1053,"Ġsomet":1054,"Ġalbum":1055,"min":1056,"hn":1057,"Ġ17":1058,"Ġ194":1059,"Ġuntil":1060,"Ġmain":1061,"ĠâĢĵ":1062,"ually":1063,"Ġ9":1064,"enn":1065,"Ġext":1066,"Ġcompany":1067,"ek":1068,"gg":1069,"ained":1070,"ms":1071,"Ġnumber":1072,"to":1073,"ury":1074,"ives":1075,"ounc":1076,"ague":1077,"Ġpri":1078,"ield":1079,"Ġge":1080,"Ġwon":1081,"Ġ15":1082,"Ġsim":1083,"Ġsame":1084,"Ġoper":1085,"ley":1086,"Ġplayed":1087,"Ġrece":1088,"Ġger":1089,"Ġdiffe":1090,"son":1091,"ional":1092,"ane":1093,"Ġins":1094,"Ġcounty":1095,"way":1096,"Ġ195":1097,"Ġ$":1098,"Ġhand":1099,"ama":1100,"ues":1101,"ared":1102,"Ġturn":1103,"ee":1104,"Ġmom":1105,"Ġsmall":1106,"ute":1107,"xt":1108,"Ġeach":1109,"Ġland":1110,"ats":1111,"ross":1112,"ash":1113,"Ġ16":1114,"Ġrese":1115,"Ġfind":1116,"ves":1117,"Ġshould":1118,"Ġspecies":1119,"Ġpers":1120,"Ġorgan":1121,"ket":1122,"Ġdef":1123,"urch":1124,"Ġleg":1125,"akes":1126,"Ġreleased":1127,"Ġjohn":1128,"Ã©":1129,"ulation":1130,"Ġra":1131,"amed":1132,"Ġsever":1133,"Ġdem":1134,"ains":1135,"Ġ12":1136,"stem":1137,"ried":1138,"ye":1139,"arch":1140,"Ġprot":1141,"Ġcountry":1142,"Ġleague":1143,"Ġtre":1144,"Ġplace":1145,"Ġseveral":1146,"ying":1147,"Ġhar":1148,"Ġprodu":1149,"eter":1150,"ere":1151,"alth":1152,"Ġwest":1153,"orts":1154,"iver":1155,"ner":1156,"Ġclub":1157,"Ġpass":1158,"Ġpat":1159,"fl":1160,"Ġcamp":1161,"Ġlife":1162,"Ġarea":1163,"Ġstre":1164,"Ġeff":1165,"Ġ/":1166,"Ġseries":1167,"mer":1168,"ined":1169,"Ġsystem":1170,"Ġdesign":1171,"Ġhapp":1172,"ov":1173,"cent":1174,"els":1175,"Ġsk":1176,"osed":1177,"Ġconst":1178,"Ġcor":1179,"yp":1180,"ng":1181,"Ġchamp":1182,"Ġhun":1183,"ution":1184,"aw":1185,"Ġaug":1186,"ae":1187,"Ġhum":1188,"Ġfollowing":1189,"Ġyes":1190,"Ġvillage":1191,"Ġeduc":1192,"Ġste":1193,"anna":1194,"Ġtook":1195,"Ġreturn":1196,"Ġformer":1197,"Ġcollege":1198,"Ġmid":1199,"Ġfootball":1200,"ont":1201,"Ġblack":1202,"Ġtop":1203,"Ġorig":1204,"Ġjan":1205,"Ġmiss":1206,"ments":1207,"ism":1208,"Ġcontin":1209,"Ġexper":1210,"augh":1211,"Ġtown":1212,"Ġdiv":1213,"Ġoct":1214,"Ġsept":1215,"Ġprofess":1216,"ott":1217,"Ġlist":1218,"Ġfive":1219,"ible":1220,"Ġchr":1221,"Ġbab":1222,"Ġuh":1223,"Ġearly":1224,"Ġresp":1225,"Ġeu":1226,"Ġrev":1227,"Ġbas":1228,"be":1229,"Ġvis":1230,"ries":1231,"iness":1232,"Ġsays":1233,"Ġbased":1234,"Ġtour":1235,"Ġaugust":1236,"icip":1237,"Ġofficial":1238,"Ġgir":1239,"Ġlos":1240,"Ġaust":1241,"ital":1242,"Ġmaj":1243,"Ġdifferent":1244,"Ġwhy":1245,"Ġrom":1246,"Ġorigin":1247,"Ġvar":1248,"Ġbegan":1249,"Ġtech":1250,"Ġpark":1251,"ok":1252,"bs":1253,"ement":1254,"Ġrest":1255,"pl":1256,"Ġsit":1257,"ised":1258,"Ġsen":1259,"Ġ193":1260,"ology":1261,"Ġgerman":1262,"Ġwomen":1263,"Ġsix":1264,"Ġinternational":1265,"cess":1266,"Ġmarch":1267,"ages":1268,"Ġseptember":1269,"oci":1270,"Ġbest":1271,"Ġ2012":1272,"Ġfore":1273,"Ġfeat":1274,"ided":1275,"ĠâĢĻ":1276,"Ġfood":1277,"Ġstand":1278,"ober":1279,"Ġpopulation":1280,"erg":1281,"Ġwanna":1282,"ior":1283,"Ġgreat":1284,"Ġtell":1285,"Ġdoing":1286,"Ġadv":1287,"Ġassoci":1288,"Ġjune":1289,"Ġoctober":1290,"Ġsn":1291,"ai":1292,"Ġcle":1293,"Ġleft":1294,"Ġmillion":1295,"ten":1296,"Ġval":1297,"che":1298,"Ġgl":1299,"Ġ2011":1300,"Ġyork":1301,"Ġalong":1302,"Ġsupport":1303,"Ġline":1304,"Ġav":1305,"ime":1306,"Ġwhite":1307,"Ġour":1308,"ister":1309,"Ġsal":1310,"atch":1311,"Ġ11":1312,"ark":1313,"Ġjuly":1314,"Ġmonth":1315,"by":1316,"uary":1317,"Ġbusiness":1318,"Ġgirl":1319,"Ġes":1320,"Ġmajor":1321,"eng":1322,"Ġwent":1323,"ices":1324,"Ġcompet":1325,"Ġaccord":1326,"Ġgames":1327,"aining":1328,"cer":1329,"ured":1330,"Ġhealth":1331,"Ġprev":1332,"iving":1333,"cept":1334,"read":1335,"med":1336,"Ġdel":1337,"ets":1338,"Ġ2014":1339,"Ġang":1340,"Ġanim":1341,"Ġbill":1342,"Ġpolit":1343,"ilt":1344,"Ġkill":1345,"Ġmember":1346,"ril":1347,"hern":1348,"Ġnext":1349,"Ġband":1350,"Ġscient":1351,"Ġ192":1352,"ality":1353,"ps":1354,"Ġaway":1355,"Ġheld":1356,"gin":1357,"aced":1358,"ling":1359,"Ġyoung":1360,"Ġmoney":1361,"Ġeast":1362,"iting":1363,"Ġmag":1364,"ility":1365,"sh":1366,"Ġmen":1367,"Ġrepres":1368,"Ġperson":1369,"Ġchurch":1370,"iter":1371,"Ġweek":1372,"Ġmembers":1373,"Ġtechn":1374,"Ġjanuary":1375,"Ġcame":1376,"rap":1377,"Ġec":1378,"lish":1379,"Ġ13":1380,"uced":1381,"ator":1382,"Ġcalif":1383,"ones":1384,"Ġfew":1385,"ides":1386,"Ġnove":1387,"Ġdesc":1388,"ians":1389,"Ġnovember":1390,"Ġdece":1391,"Ġport":1392,"Ġ14":1393,"ended":1394,"Ġallow":1395,"Ġaccording":1396,"ium":1397,"Ġreport":1398,"Ġcontro":1399,"Ġmove":1400,"ued":1401,"Ġbuilding":1402,"ene":1403,"Ġsomething":1404,"ipp":1405,"Ġchang":1406,"riend":1407,"Ġdra":1408,"Ġgeneral":1409,"Ġevent":1410,"Ġnat":1411,"Ġapril":1412,"ster":1413,"Ġking":1414,"Ġchampions":1415,"Ġbrit":1416,"ids":1417,"Ġ2006":1418,"Ġsum":1419,"Ġdeb":1420,"Ġ191":1421,"Ġhal":1422,"Ġaward":1423,"Ġtit":1424,"bo":1425,"ently":1426,"Ġlocal":1427,"inc":1428,"Ġgrow":1429,"Ġmommy":1430,"Ġeurop":1431,"Ġparty":1432,"Ġlocated":1433,"Ġimport":1434,"Ġdecember":1435,"Ġtest":1436,"Ġlab":1437,"Ġprom":1438,"Ġdepart":1439,"me":1440,"Ġball":1441,"Ġson":1442,"Ġside":1443,"Ġmanag":1444,"Ġservice":1445,"Ġdad":1446,"Ġpain":1447,"Ġafric":1448,"Ġsucc":1449,"Ġta":1450,"Ġ%":1451,"Ġhard":1452,"ected":1453,"Ġproble":1454,"Ġnamed":1455,"ially":1456,"Ġsol":1457,"Ġocc":1458,"Ġdri":1459,"Ġeurope":1460,"ots":1461,"ened":1462,"Ġamong":1463,"Ġfinal":1464,"Ġeas":1465,"Ġgive":1466,"Ġcaliforn":1467,"Ġauth":1468,"Ġdied":1469,"Ġproject":1470,"Ġtri":1471,"Ġeat":1472,"Ġruss":1473,"rence":1474,"Ġep":1475,"Ġstarted":1476,"hers":1477,"ness":1478,"Ġsqu":1479,"Ġsuccess":1480,"Ġcond":1481,"Ġthird":1482,"Ġje":1483,"Ġchrist":1484,"Ġstation":1485,"Ġhold":1486,"Ġnews":1487,"Ġreally":1488,"Ġreceived":1489,"Ġbaby":1490,"ward":1491,"Ġlarge":1492,"Ġhuh":1493,"Ġcalifornia":1494,"Ġsingle":1495,"Ġbetter":1496,"Ġdeath":1497,"Ġrepresent":1498,"Ġtimes":1499,"Ġsun":1500,"Ġ2010":1501,"ison":1502,"Ġroad":1503,"Ġlevel":1504,"Ġrad":1505,"Ġsan":1506,"ret":1507,"Ġmod":1508,"Ġ2007":1509,"Ġstudy":1510,"Ġhop":1511,"Ġreal":1512,"Ġserved":1513,"Ġer":1514,"Ġmilit":1515,"Ġbuilt":1516,"Ġspe":1517,"hm":1518,"yl":1519,"Ġpercent":1520,"Ġfriend":1521,"Ġaustral":1522,"Ġhistory":1523,"side":1524,"Ġcurrent":1525,"Ġbeh":1526,"Ġcentral":1527,"ched":1528,"na":1529,"atic":1530,"Ġaff":1531,"onom":1532,"Ġelect":1533,"ention":1534,"Ġfather":1535,"Ġopp":1536,"Äģ":1537,"Ġresearch":1538,"Ġisland":1539,"Ġincre":1540,"Ġshort":1541,"Ġpower":1542,"Ġrequ":1543,"Ġhm":1544,"Ġstory":1545,"Ġconf":1546,"erv":1547,"Ġthough":1548,"Ġtyp":1549,"Ġpost":1550,"Ġtele":1551,"Ġgrad":1552,"port":1553,"for":1554,"Ġiss":1555,"Ġgrand":1556,"ned":1557,"Ġcourt":1558,"Ġcentury":1559,"Ġgreen":1560,"Ġtoday":1561,"Ġriver":1562,"Ġkeep":1563,"ored":1564,"Ġstar":1565,"Ġcenter":1566,"Ġpolice":1567,"Ġplan":1568,"aper":1569,"ract":1570,"Ġless":1571,"Ġchampionship":1572,"Ġcup":1573,"Ġmaking":1574,"aff":1575,"Ġlive":1576,"Ġant":1577,"eder":1578,"nam":1579,"ana":1580,"ump":1581,"Ġinclude":1582,"ately":1583,"Ġlear":1584,"used":1585,"ze":1586,"ush":1587,"com":1588,"Ġgeor":1589,"Ġhistor":1590,"Ġfield":1591,"Ġestab":1592,"ille":1593,"Ġarch":1594,"Ġrock":1595,"ted":1596,"Ġfamil":1597,"Ġappro":1598,"aces":1599,"Ġfeb":1600,"gress":1601,"Ġwilliam":1602,"Ġnight":1603,"Ġbelie":1604,"por":1605,"Ġfre":1606,"ese":1607,"Ġkind":1608,"Ġeducation":1609,"ony":1610,"Ġtoget":1611,"Ġspecial":1612,"iety":1613,"Ġtogether":1614,"Ġnever":1615,"Ġboy":1616,"Ġschools":1617,"Ġ30":1618,"Ġtrack":1619,"Ġcommunity":1620,"Ġnet":1621,"ency":1622,"Ġask":1623,"self":1624,"lex":1625,"Ġthings":1626,"Ġstop":1627,"ified":1628,"Ġmean":1629,"Ġsuper":1630,"ruary":1631,"Ġroman":1632,"Ġmount":1633,"Ġled":1634,"Ġfebruary":1635,"Ġwa":1636,"ering":1637,"Ġdisc":1638,"Ġmight":1639,"Ġcost":1640,"urs":1641,"ney":1642,"hy":1643,"ring":1644,"Ġwithin":1645,"Ġsold":1646,"Ġmal":1647,"Ġemp":1648,"Ġpoint":1649,"aster":1650,"Ġdescrib":1651,"Ġvi":1652,"Ġphil":1653,"Ġfact":1654,"Ġdirector":1655,"Ġide":1656,"Ġworking":1657,"Ġdue":1658,"Ġoften":1659,"Ġbecome":1660,"itions":1661,"ize":1662,"Ġhaving":1663,"Ġsil":1664,"Ġfire":1665,"Ġmun":1666,"Ġchange":1667,"Ġimportant":1668,"Ġmilitary":1669,"Ġvide":1670,"Ġsocial":1671,"Ġattack":1672,"Ġround":1673,"Ġ25":1674,"Ġhol":1675,"Ġdays":1676,"Ġinform":1677,"Ġrail":1678,"Ġcrit":1679,"ograp":1680,"Ġpublished":1681,"ds":1682,"Ġcat":1683,"Ġtrad":1684,"ization":1685,"Ġworks":1686,"Ġdaddy":1687,"Ġvict":1688,"Ġauthor":1689,"Ġfall":1690,"key":1691,"ham":1692,"Ġx":1693,"Ġ2008":1694,"Ġwashing":1695,"bert":1696,"Ġaddition":1697,"mb":1698,"ches":1699,"Ġlight":1700,"hen":1701,"ape":1702,"Ġdepartment":1703,"Ġfree":1704,"Ġsout":1705,"osp":1706,"Ġmother":1707,"Ġii":1708,"ission":1709,"Ġelse":1710,"Ġpresent":1711,"Ġposs":1712,"Ġexpl":1713,"Ġprovince":1714,"ically":1715,"Ġbritish":1716,"Ġfamilies":1717,"Ġcanad":1718,"Ġtalk":1719,"attle":1720,"Ġtem":1721,"Ġwithout":1722,"ration":1723,"Ġbur":1724,"Ġtur":1725,"Ġvol":1726,"Ġage":1727,"Ġonce":1728,"Ġorder":1729,"Ġequ":1730,"aim":1731,"Ġmust":1732,"Ġinstit":1733,"Ġvot":1734,"Ġmoved":1735,"Ġengine":1736,"Ġusing":1737,"Ġcolor":1738,"que":1739,"ma":1740,"ival":1741,"Ġ2009":1742,"aring":1743,"Ġothers":1744,"ron":1745,"Ġlang":1746,"Ġhalf":1747,"Ġarmy":1748,"Ġenglish":1749,"work":1750,"Ġrepubl":1751,"Ġstat":1752,"Ġnon":1753,"iven":1754,"Ġperform":1755,"Ġactiv":1756,"ient":1757,"right":1758,"ming":1759,"bur":1760,"Ġlate":1761,"ases":1762,"ellow":1763,"Ġvir":1764,"Ġcam":1765,"Ġcareer":1766,"Ġpal":1767,"ruct":1768,"Ġindust":1769,"Ġfish":1770,"xic":1771,"omin":1772,"Ġplaying":1773,"Ġsent":1774,"Ġalth":1775,"sc":1776,"Ġincluded":1777,"Ġcult":1778,"Ġwashington":1779,"Ġfac":1780,"Ġalthough":1781,"Ġlim":1782,"Ġinvest":1783,"Ġ&":1784,"Ġve":1785,"idge":1786,"line":1787,"iod":1788,"Ġcounc":1789,"Ġpay":1790,"Ġfight":1791,"Ġrepublic":1792,"Ġlot":1793,"ged":1794,"Ġcommon":1795,"Ġdet":1796,"de":1797,"Ġlove":1798,"Ġ2015":1799,"estern":1800,"ny":1801,"Ġstreet":1802,"Ġhuman":1803,"Ġinf":1804,"Ġjour":1805,"dle":1806,"Ġwind":1807,"Ġresult":1808,"apan":1809,"Ġbrother":1810,"Ġlat":1811,"rench":1812,"of":1813,"Ġmhm":1814,"Ġchair":1815,"Ġconn":1816,"Ġplayer":1817,"Ġce":1818,"thing":1819,"ounced":1820,"Ġdi":1821,"ino":1822,"erest":1823,"rote":1824,"Ġhig":1825,"Ġdivision":1826,"Ġcharac":1827,"Ġfur":1828,"Ġlow":1829,"Ġfeder":1830,"ief":1831,"Ġassociation":1832,"Ġcast":1833,"ising":1834,"Ġinterest":1835,"Ġmark":1836,"ensus":1837,"Ġjapan":1838,"Ġgold":1839,"Ġroom":1840,"Ġhon":1841,"Ġworked":1842,"Ġscientists":1843,"Ġcut":1844,"erc":1845,"Ġdav":1846,"Ġinvol":1847,"Ġeffect":1848,"mp":1849,"Ġcouncil":1850,"Ã¡":1851,"Ġtrav":1852,"Ġmor":1853,"Ġperiod":1854,"Ġeconom":1855,"ata":1856,"Ġ190":1857,"Ġnort":1858,"Ġteac":1859,"Ġfull":1860,"Ġwrote":1861,"cle":1862,"Ġtow":1863,"oint":1864,"Ġcapt":1865,"Ġlost":1866,"Ġacross":1867,"bit":1868,"adem":1869,"Ġbox":1870,"Ġmuse":1871,"ford":1872,"gs":1873,"Ġfrench":1874,"ways":1875,"Ġdevelopment":1876,"Ġdon":1877,"Ġbird":1878,"itor":1879,"sel":1880,"rents":1881,"ges":1882,"Ġchina":1883,"Ġpast":1884,"gest":1885,"Ġpict":1886,"Ġhot":1887,"Ġvers":1888,"Ġground":1889,"Ġprevious":1890,"Ġcensus":1891,"Ġlangu":1892,"ertain":1893,"Ġrepl":1894,"ops":1895,"ending":1896,"Ġbrown":1897,"ara":1898,"Ġmm":1899,"Ġgiven":1900,"Ġdev":1901,"Ġhour":1902,"Ġciv":1903,"rew":1904,"Ġrul":1905,"Ġblue":1906,"rod":1907,"Ġlik":1908,"Ġwalk":1909,"Ġpie":1910,"Ġ100":1911,"vered":1912,"Ġgoes":1913,"ably":1914,"Ġmeet":1915,"den":1916,"Ġinit":1917,"Ġsea":1918,"ler":1919,"Ġalm":1920,"Ġbad":1921,"ively":1922,"ument":1923,"Ġhur":1924,"Ġvideo":1925,"Ġpick":1926,"Ġpress":1927,"Ġacadem":1928,"Ġrich":1929,"Ġuk":1930,"Ġ21":1931,"Ġwood":1932,"Ġenough":1933,"Ġrural":1934,"Ġboard":1935,"Ġfarm":1936,"ple":1937,"ilar":1938,"Ġsound":1939,"Ġsummer":1940,"Ġprop":1941,"Ġamerica":1942,"Ġmuseum":1943,"vision":1944,"Ġannounced":1945,"Ġinformation":1946,"Ġcontrol":1947,"Ġmc":1948,"Ġmot":1949,"Ġber":1950,"Ġpot":1951,"Ġtot":1952,"Ġship":1953,"Ġkids":1954,"go":1955,"Ġscience":1956,"Ġbal":1957,"Ġdraw":1958,"itten":1959,"Ġbreak":1960,"Ġpret":1961,"Ġtry":1962,"Ġdou":1963,"Ġable":1964,"Ġten":1965,"imes":1966,"Ġmich":1967,"Ġoffice":1968,"Ġmexic":1969,"Ġprocess":1970,"yle":1971,"Ġface":1972,"Ġbi":1973,"ago":1974,"Ġplayers":1975,"aken":1976,"umb":1977,"Ġcountries":1978,"hel":1979,"aly":1980,"rest":1981,"ula":1982,"ready":1983,"Ġmic":1984,"ribut":1985,"Ġalready":1986,"tt":1987,"Ġcase":1988,"Ġhom":1989,"Ġflo":1990,"Ġill":1991,"yn":1992,"Ġstay":1993,"Ġmarket":1994,"Ġpromot":1995,"Ġspace":1996,"Ġcross":1997,"arc":1998,"Ġbroad":1999,"Ġparents":2000,"Ġcir":2001,"ators":2002,"Ġthought":2003,"Ġsite":2004,"Ġnav":2005,"Ġren":2006,"Ġpract":2007,"Ġsaw":2008,"Ġbring":2009,"Ġplant":2010,"Ġappear":2011,"Ġhen":2012,"Ġwestern":2013,"Ġarg":2014,"Ġlou":2015,"Ġiran":2016,"Ġjud":2017,"Ġsimilar":2018,"Ġ2016":2019,"Ġview":2020,"Ġwatch":2021,"Ġdebut":2022,"Ġalright":2023,"uel":2024,"ob":2025,"Ġlond":2026,"Ġpet":2027,"ida":2028,"Ġcomb":2029,"Ġ24":2030,"Ġunion":2031,"ka":2032,"Ġseen":2033,"par":2034,"Ġhor":2035,"oh":2036,"Ġlondon":2037,"ached":2038,"Ġconstru":2039,"Ġcivil":2040,"Ġpopular":2041,"Ġhit":2042,"Ġdaugh":2043,"Ġindian":2044,"Ġproduct":2045,"Ġdescribed":2046,"Ġcook":2047,"Ġdirect":2048,"ced":2049,"Ġbase":2050,"Ġexamp":2051,"Ġdam":2052,"Ġcommitt":2053,"Ġeight":2054,"Ġever":2055,"Ġdone":2056,"Ġprim":2057,"ows":2058,"Ġhall":2059,"Ġjoined":2060,"Ġcomplet":2061,"Ġmunicip":2062,"Ġpartic":2063,"Ġfeel":2064,"Ġbir":2065,"Ġcreated":2066,"Ġ189":2067,"yal":2068,"Ġfront":2069,"Ġstrong":2070,"Ġgun":2071,"Ġ=":2072,"Ġclose":2073,"Ġpolitical":2074,"fer":2075,"Ġgradu":2076,"Ġver":2077,"Ġmass":2078,"ider":2079,"Ġur":2080,"Ġreview":2081,"Ġtex":2082,"Ġalmost":2083,"Ġoutside":2084,"ales":2085,"Ġgave":2086,"Ġsat":2087,"Ġmiddle":2088,"Ġcommand":2089,"Ġah":2090,"ead":2091,"ories":2092,"Ġseven":2093,"Ġrole":2094,"Ġestabl":2095,"Ġnice":2096,"ints":2097,"Ġdisco":2098,"app":2099,"Ġanimals":2100,"ances":2101,"Ġregion":2102,"ston":2103,"Ġsand":2104,"Ġgetting":2105,"nal":2106,"Ġpriv":2107,"ery":2108,"ody":2109,"raft":2110,"Ġestablished":2111,"Ġya":2112,"Ġmonths":2113,"Ġoriginal":2114,"Ġtold":2115,"Ġsouthern":2116,"Ġgroups":2117,"Ġadmin":2118,"aves":2119,"Ġbed":2120,"Ġterr":2121,"Ġ22":2122,"Ġtitle":2123,"ĠâĢľ":2124,"Ġhoney":2125,"Ġtelevision":2126,"Ġpur":2127,"Ġprotect":2128,"Ġteams":2129,"Ġangel":2130,"Ġofficials":2131,"Ġbor":2132,"Ġclaim":2133,"ocr":2134,"Ġparticip":2135,"ĠâĢĿ":2136,"bor":2137,"Ġadded":2138,"Ġwritten":2139,"lic":2140,"Ġfif":2141,"Ġbody":2142,"Ġcoll":2143,"Ġquest":2144,"Ġtrain":2145,"Ġsociety":2146,"Ġsure":2147,"Ġyet":2148,"ience":2149,"Ġfurther":2150,"Ġjob":2151,"Ġlaun":2152,"ference":2153,"Ġmart":2154,"Ġsoon":2155,"Ġareas":2156,"Ġsecret":2157,"Ġtou":2158,"Ġenv":2159,"Ġswe":2160,"Ġservices":2161,"iding":2162,"yed":2163,"Ġ188":2164,"Ġbooks":2165,"stand":2166,"Ġ23":2167,"Ġthank":2168,"Ġmoder":2169,"Ġhost":2170,"Ġchief":2171,"Ġforce":2172,"Ġradio":2173,"ense":2174,"Ġengland":2175,"Ġvarious":2176,"Ġ186":2177,"Ġreturned":2178,"oon":2179,"Ġadminist":2180,"Ġwall":2181,"Ġprofessional":2182,"Ġelection":2183,"Ġproduced":2184,"Ġhill":2185,"Ġpolic":2186,"Ġobama":2187,"Ġbegin":2188,"Ġident":2189,"Ġfinished":2190,"Ġtechnology":2191,"Ġtotal":2192,"ove":2193,"Ġfounded":2194,"ences":2195,"af":2196,"imin":2197,"verage":2198,"Ġstep":2199,"Ġkh":2200,"Ġago":2201,"Ġcommission":2202,"19":2203,"Ġhosp":2204,"Ġproduction":2205,"Ġgermany":2206,"Ġfoc":2207,"Ġdest":2208,"Ġforest":2209,"Ġcoast":2210,"Ġworkers":2211,"iron":2212,"Ġviol":2213,"Ġham":2214,"Ġepis":2215,"Ġearl":2216,"Ġ50":2217,"Ġcop":2218,"Ġarm":2219,"Ġstri":2220,"Ġrace":2221,"Ġsle":2222,"aign":2223,"Ġdefe":2224,"Ġmatch":2225,"Ġleaders":2226,"ald":2227,"Ġrob":2228,"Ġple":2229,"Ġsus":2230,"ica":2231,"Ġrights":2232,"aur":2233,"eth":2234,"Ġbehind":2235,"ature":2236,"Ġfem":2237,"Ġclim":2238,"Ġphot":2239,"Ġimpro":2240,"Ġmakes":2241,"Ġperfor":2242,"here":2243,"uk":2244,"Ġproper":2245,"ults":2246,"Ġthom":2247,"aged":2248,"empt":2249,"Ġthing":2250,"Ġemplo":2251,"Ġfederal":2252,"uge":2253,"acy":2254,"inese":2255,"Ġimm":2256,"year":2257,"ivid":2258,"Ġarri":2259,"Ġearth":2260,"Ġperforman":2261,"nes":2262,"Ġmel":2263,"Ġhy":2264,"Ġenviron":2265,"Ġfund":2266,"Ġinstead":2267,"Ġcampaign":2268,"Ġmarried":2269,"Ġcompanies":2270,"Ġreported":2271,"Ġtaking":2272,"Ġfig":2273,"Ġindia":2274,"Ġrefer":2275,"ades":2276,"Ġconv":2277,"Ġpaul":2278,"Ġtaken":2279,"ha":2280,"Ġchinese":2281,"Ġkilled":2282,"idence":2283,"Ġleast":2284,"lin":2285,"Ġdeg":2286,"epend":2287,"Ġliving":2288,"cast":2289,"hib":2290,"Ġtradition":2291,"Ġoly":2292,"Ġque":2293,"Ġsigned":2294,"ners":2295,"gy":2296,"Ġheav":2297,"Ġdecl":2298,"Ġlanguage":2299,"Ġgar":2300,"Ġpit":2301,"Ġappoint":2302,"Ġwife":2303,"Ġlibr":2304,"Ġparticular":2305,"Ġcand":2306,"Ġdemocr":2307,"Ġassist":2308,"Ġsports":2309,"Ġ2005":2310,"uff":2311,"Ġgoal":2312,"Ġfrance":2313,"ither":2314,"Ġagre":2315,"Ġuhh":2316,"Ġindepend":2317,"Ġjournal":2318,"Ġcongress":2319,"Ġindivid":2320,"Ġfut":2321,"Ġtraining":2322,"Ġlooking":2323,"Ġprofessor":2324,"Ġflor":2325,"Ġproblem":2326,"Ġsele":2327,"utes":2328,"Ġq":2329,"Ġwild":2330,"Ġtrying":2331,"Ġtom":2332,"Ġden":2333,"Ġopened":2334,"Ġexample":2335,"Ġ[":2336,"Ġposition":2337,"Ġnation":2338,"Ġcurrently":2339,"Ġidea":2340,"Ġinfl":2341,"Ġglo":2342,"Ġran":2343,"ests":2344,"Ġmur":2345,"Ġmaybe":2346,"Ġfly":2347,"Ġfranc":2348,"Ġ2017":2349,"Ġelected":2350,"Ġstudies":2351,"Ġeuropean":2352,"Ġjack":2353,"ogn":2354,"Ġvo":2355,"Ġcorn":2356,"Ġtar":2357,"Ġdeal":2358,"Ġdoc":2359,"Ġremember":2360,"hic":2361,"pect":2362,"Ġ2004":2363,"ike":2364,"Ġmedia":2365,"Ġphys":2366,"ville":2367,"omb":2368,"Ġfail":2369,"Ġrecorded":2370,"idered":2371,"pr":2372,"ands":2373,"Ġ26":2374,"Ġclos":2375,"Ġtreat":2376,"pped":2377,"Ġexec":2378,"gar":2379,"Ġintrod":2380,"Ġconnect":2381,"Ġsometimes":2382,"Ã³":2383,"Ġice":2384,"Ġwanted":2385,"Ġban":2386,"Ġcomes":2387,"Ġtv":2388,"Ġcoach":2389,"Ġbank":2390,"20":2391,"Ġnatural":2392,"Ġthre":2393,"Ġepisod":2394,"Ġdaughter":2395,"Ġcharacter":2396,"Ġsell":2397,"Ġconsidered":2398,"Ġenc":2399,"Ġ..":2400,"Ġ27":2401,"Ġfest":2402,"Ġfav":2403,"Ġreason":2404,"Ġ28":2405,"Ġgeorge":2406,"iers":2407,"Ġrout":2408,"Ġaustralia":2409,"ream":2410,"Ġrelease":2411,"Ġcro":2412,"Ġlad":2413,"iment":2414,"Ġcell":2415,"Ġmult":2416,"Ġexc":2417,"Ġenvironment":2418,"Ġroyal":2419,"Ġsett":2420,"Ġprob":2421,"Ġseem":2422,"Ġavail":2423,"Ġmodern":2424,"Ġafrican":2425,"less":2426,"Ġsuff":2427,"Ġjames":2428,"Ġrelations":2429,"ption":2430,"fic":2431,"Ġesp":2432,"Ġsar":2433,"ael":2434,"Ġchic":2435,"Ġmary":2436,"aut":2437,"Ġtexas":2438,"Ã¼":2439,"Ġ187":2440,"Ġmov":2441,"Ġsongs":2442,"Ġgirls":2443,"Ġdavid":2444,"Ġrecogn":2445,"Ġhappened":2446,"ox":2447,"itive":2448,"Ġnorthern":2449,"und":2450,"Ġrecords":2451,"Ġcontinued":2452,"igr":2453,"Ġbattle":2454,"Ġtravel":2455,"Ġcoming":2456,"Ġbay":2457,"Ġfriends":2458,"Ġpan":2459,"Ġlake":2460,"Ġexist":2461,"Ġafrica":2462,"Ġinj":2463,"Ġsam":2464,"Ġmater":2465,"Ġpoints":2466,"Ġasked":2467,"Ġolymp":2468,"ky":2469,"Ġ2000":2470,"Ġminister":2471,"Ġleave":2472,"Ġalways":2473,"ya":2474,"Ġdu":2475,"oss":2476,"airs":2477,"Ġattempt":2478,"Ġproduc":2479,"Ġhimself":2480,"Ġpen":2481,"Ġmix":2482,"Ġhi":2483,"Ġconcer":2484,"Ġartist":2485,"Ġpu":2486,"Ġcy":2487,"hood":2488,"Ġpaper":2489,"Ġneigh":2490,"Ġgro":2491,"olution":2492,"Ġvisit":2493,"Ġshows":2494,"ensive":2495,"Ġlives":2496,"Ġchall":2497,"Ġpretty":2498,"craft":2499,"Ġrelig":2500,"burg":2501,"Ġbat":2502,"Ġproblems":2503,"Ġappeared":2504,"ef":2505,"Ġcomput":2506,"Ġsugg":2507,"Ġloss":2508,"Ġready":2509,"aps":2510,"Ġbit":2511,"Ġru":2512,"Ġrac":2513,"Ġath":2514,"Ġevents":2515,"sequ":2516,"Ġinside":2517,"Ġdesp":2518,"Ġmeas":2519,"Ġbecom":2520,"Ġmer":2521,"Ġord":2522,"Ġtournam":2523,"Ġtrib":2524,"Ġdig":2525,"Ġhous":2526,"Ġstudent":2527,"Ġalex":2528,"Ġindustry":2529,"Ġfa":2530,"Ġdin":2531,"Ġsurv":2532,"bal":2533,"Ġmeans":2534,"erous":2535,"Ġ0":2536,"Ġpoor":2537,"Ġprem":2538,"ura":2539,"ria":2540,"body":2541,"Ġruns":2542,"hod":2543,"Ġdeveloped":2544,"ological":2545,"Ġstore":2546,"utive":2547,"Ġ40":2548,"pan":2549,"Ġwants":2550,"Ġregular":2551,"Ġchicago":2552,"Ġinstitute":2553,"Ġmad":2554,"Ġhospital":2555,"head":2556,"Ġwee":2557,"Ġsleep":2558,"Ġwat":2559,"Ġlargest":2560,"Ġtro":2561,"Ġcommittee":2562,"Ġangeles":2563,"jo":2564,"Ġtable":2565,"Ġorganization":2566,"Ġnetwork":2567,"Ġdise":2568,"Ġuhhuh":2569,"Ġversion":2570,"Ġmagaz":2571,"anish":2572,"Ġconserv":2573,"Ġsuccessful":2574,"Ġavailable":2575,"Ġformed":2576,"Ġamericans":2577,"mon":2578,"Ġconc":2579,"Ġterm":2580,"Ġinvestig":2581,"xim":2582,"room":2583,"Ġquick":2584,"Ġsepar":2585,"Ġjew":2586,"Ġ...":2587,"Ġder":2588,"Ġdecided":2589,"Ġflorida":2590,"Ġben":2591,"ania":2592,"Ġhair":2593,"Ġhelped":2594,"Ġnative":2595,"Ġartic":2596,"Ġfeet":2597,"Ġbasket":2598,"ores":2599,"amb":2600,"Ġnearly":2601,"Ġinvolved":2602,"Ġaud":2603,"Ġreb":2604,"Ġfuture":2605,"str":2606,"Ġforces":2607,"Ġsour":2608,"Ġbow":2609,"rian":2610,"Ġeventually":2611,"Ġcanada":2612,"Ġdrink":2613,"Ġwhose":2614,"ises":2615,"Ġfinish":2616,"Ġsnow":2617,"field":2618,"Ġjer":2619,"Ġaccess":2620,"Ġconstruction":2621,"Ġaverage":2622,"reg":2623,"Ġqual":2624,"Ġstruct":2625,"Ġ1990":2626,"ala":2627,"Ġthomas":2628,"Ġbul":2629,"Ġsaf":2630,"Ġ>":2631,"aker":2632,"Ġbear":2633,"Ġmexico":2634,"Ġrecent":2635,"Ġprivate":2636,"Ġbrought":2637,"Ġrunning":2638,"50":2639,"istan":2640,"ns":2641,"Ġstyle":2642,"Ġlooks":2643,"Ġparts":2644,"Ġ]":2645,"Ġchart":2646,"Ġ2018":2647,"Ġum":2648,"oph":2649,"Ġbud":2650,"Ġrange":2651,"Ġ2003":2652,"Ġheart":2653,"Ġincludes":2654,"Ġsignific":2655,"Ġinflu":2656,"Ġdespite":2657,"Ġfast":2658,"Ġfer":2659,"Ġ29":2660,"Ġach":2661,"Ġrussian":2662,"Ġwait":2663,"Ġwhether":2664,"ban":2665,"Ġmess":2666,"Ġthroughout":2667,"ta":2668,"Ġdut":2669,"Ġreach":2670,"Ġmorn":2671,"idae":2672,"Ġmaterial":2673,"Ġbirth":2674,"Ġwil":2675,"Ġyellow":2676,"Ġlu":2677,"Ġcontract":2678,"ites":2679,"Ġdoll":2680,"Ġho":2681,"isl":2682,"Ġexpress":2683,"Ġfix":2684,"ship":2685,"Ġappointed":2686,"wood":2687,"Ġfourth":2688,"ey":2689,"Ġcover":2690,"Ġresearc":2691,"Ġquar":2692,"Ġclear":2693,"Ġmunicipality":2694,"Ġrussia":2695,"Ġusually":2696,"mar":2697,"Ġoce":2698,"Ġplaces":2699,"Ġstage":2700,"isc":2701,"Ġpull":2702,"reek":2703,"Ġrailway":2704,"Ġanc":2705,"Ġrespons":2706,"asing":2707,"Ġeither":2708,"lement":2709,"urity":2710,"Ġdesigned":2711,"nd":2712,"Ġlibrary":2713,"Ġol":2714,"Ġliter":2715,"Ġblock":2716,"Ġdog":2717,"ÃŃ":2718,"ius":2719,"Ġcompetition":2720,"zz":2721,"Ġwo":2722,"itz":2723,"Ġallowed":2724,"Ġeastern":2725,"Ġhours":2726,"Ġunderstand":2727,"Ġfort":2728,"rain":2729,"Ġsurf":2730,"Ġstaff":2731,"Ġpossible":2732,"Ġspent":2733,"Ġmorning":2734,"Ġcust":2735,"ceed":2736,"val":2737,"Ġoil":2738,"Ġhey":2739,"Ġmedical":2740,"Ġlikely":2741,"Ġchanged":2742,"Ġupon":2743,"aught":2744,"Ġdata":2745,"ij":2746,"ca":2747,"Ġclean":2748,"Ġoriginally":2749,"Ġthreat":2750,"Ġ2001":2751,"ola":2752,"Ġroll":2753,"Ġaction":2754,"Ġcit":2755,"wor":2756,"Ġcertain":2757,"Ġ2002":2758,"Ġentire":2759,"Ġwoman":2760,"Ġtournament":2761,"Ġjose":2762,"Ġsenior":2763,"Ġcondu":2764,"Ġcarol":2765,"Ġabove":2766,"idents":2767,"Ġdro":2768,"ergy":2769,"Ġpicture":2770,"Ġlouis":2771,"Ġsant":2772,"Ġpun":2773,"Ġtype":2774,"Ġaustralian":2775,"Ġacademy":2776,"berg":2777,"Ġ1980":2778,"Ġrules":2779,"Ġsaying":2780,"Ġfestival":2781,"Ġwriting":2782,"Ġarts":2783,"Ġprobably":2784,"Ġwinning":2785,"ona":2786,"Ġcause":2787,"Ġmr":2788,"Ġstra":2789,"Ġminutes":2790,"Ġtax":2791,"Ġmedal":2792,"Ġleading":2793,"Ġfrancis":2794,"Ġcourse":2795,"Ġpenn":2796,"Ġsitu":2797,"Ġtor":2798,"Ġleader":2799,"ique":2800,"Ġperformance":2801,"aint":2802,"Ġbuy":2803,"Ġreve":2804,"rael":2805,"anch":2806,"ctions":2807,"dom":2808,"Ġplann":2809,"Ġmagazine":2810,"Ġwhole":2811,"ado":2812,"Ġfeatures":2813,"Ġvirgin":2814,"Ġprinc":2815,"Ġmichael":2816,"Ġbott":2817,"Ġdecision":2818,"Ġteach":2819,"Ġdeter":2820,"Ġegg":2821,"Ġchanges":2822,"Ġconference":2823,"Ġhigher":2824,"Ġesc":2825,"Ġmovement":2826,"Ġeth":2827,"Ġprograms":2828,"Ġtal":2829,"Ġonline":2830,"Ġhabit":2831,"uses":2832,"Ġpeter":2833,"akers":2834,"Ġleng":2835,"Ġtouch":2836,"itting":2837,"Ġnine":2838,"Ġkore":2839,"Ġkey":2840,"ening":2841,"Ġinterv":2842,"Ġul":2843,"Ġbridge":2844,"Ġlower":2845,"Ġdead":2846,"Ġprovide":2847,"Ġdiffic":2848,"Ġfloor":2849,"Ġcamer":2850,"ropical":2851,"Ġearlier":2852,"ety":2853,"Ġrank":2854,"Ġliber":2855,"Ġdifficult":2856,"sy":2857,"Ġspecific":2858,"Ġmodel":2859,"Ġmac":2860,"Ġris":2861,"Ġfel":2862,"Ġtree":2863,"ett":2864,"back":2865,"Ġhell":2866,"Ġwal":2867,"Ġself":2868,"Ġpil":2869,"Ã¶":2870,"Ġtheat":2871,"Ġsecurity":2872,"Ġmountain":2873,"Ġshoot":2874,"Ġcoup":2875,"Ġfle":2876,"Ġyouth":2877,"Ġaccept":2878,"enth":2879,"Ġbun":2880,"Ġcub":2881,"Ġsex":2882,"Ġfollowed":2883,"Ġdirected":2884,"Ġshot":2885,"atives":2886,"Ġisrael":2887,"Ġsignificant":2888,"ga":2889,"Ġflow":2890,"Ġweeks":2891,"uf":2892,"uce":2893,"yes":2894,"Ġdark":2895,"Ġhistoric":2896,"ki":2897,"Ġgrowing":2898,"Ġhope":2899,"Ġthrow":2900,"Ġze":2901,"Ġstudio":2902,"Ġfrank":2903,"Ġactually":2904,"Ä«":2905,"selves":2906,"Ġgard":2907,"Ġlength":2908,"hest":2909,"Ġperformed":2910,"Ġcapital":2911,"Ġaccount":2912,"atory":2913,"Ġrecently":2914,"ential":2915,"Ġconstit":2916,"bour":2917,"Ġpush":2918,"ends":2919,"ari":2920,"pper":2921,"Ġmont":2922,"Ġadm":2923,"Ġcirc":2924,"Ġdan":2925,"ground":2926,"Ġthous":2927,"Ġpac":2928,"Ġ31":2929,"Ġbene":2930,"Ġrather":2931,"Ġcho":2932,"pe":2933,"Ġlaws":2934,"Ġexhib":2935,"Ġrobert":2936,"Ġsweet":2937,"Ġlived":2938,"itar":2939,"Ġanything":2940,"enced":2941,"Ġparl":2942,"men":2943,"Ġhund":2944,"lete":2945,"Ġhands":2946,"ination":2947,"Ġdegree":2948,"Ġaircraft":2949,"Ġespec":2950,"ateg":2951,"iger":2952,"sey":2953,"Ġocean":2954,"Ġbuildings":2955,"Ġbac":2956,"Ġespecially":2957,"you":2958,"Ġdang":2959,"Ġdru":2960,"Ġathlet":2961,"Ġawards":2962,"ested":2963,"Ġbasketball":2964,"Ġscored":2965,"Ġ1970":2966,"Ġplaced":2967,"Ġneg":2968,"Ġvalley":2969,"ortun":2970,"Ġachie":2971,"Ġpolicy":2972,"Ġremained":2973,"Ġofficer":2974,"asc":2975,"Ġfell":2976,"Ġpred":2977,"Ġchem":2978,"Ġhundred":2979,"ude":2980,"Ġplans":2981,"Ġlun":2982,"Ġmission":2983,"Ġacqu":2984,"Ġlegisl":2985,"Ġcompleted":2986,"ba":2987,"Ġfeatured":2988,"la":2989,"Ġromanized":2990,"Ġcandid":2991,"Ġscre":2992,"Ġchristian":2993,"Ġresearchers":2994,"Ġtransport":2995,"Ġcritic":2996,"Ġmach":2997,"Ġlink":2998,"Ġchap":2999,"Ġdoor":3000,"Ġmilk":3001,"Ġnorm":3002,"Ġtakes":3003,"Ġspanish":3004,"Ġmiles":3005,"Ġobs":3006,"Ġmovie":3007,"Ġanimal":3008,"Ġcarry":3009,"Ġlonger":3010,"Ġvan":3011,"ilities":3012,"ped":3013,"iff":3014,"Ġawarded":3015,"Ġscott":3016,"ires":3017,"Ġprison":3018,"Ġdestro":3019,"Ġepisode":3020,"Ġenergy":3021,"ken":3022,"ims":3023,"Ġquestion":3024,"Ġreached":3025,"Ġpig":3026,"Ġword":3027,"lam":3028,"itect":3029,"Ġshar":3030,"da":3031,"Ġplays":3032,"Ġital":3033,"Ġcars":3034,"olic":3035,"ability":3036,"Ġpiece":3037,"ams":3038,"Ġnovel":3039,"Ġhorse":3040,"Ġcustom":3041,"Ġbag":3042,"Ġsmith":3043,"Ġturned":3044,"Ġinn":3045,"oes":3046,"Ġcolon":3047,"10":3048,"Ġgall":3049,"Ġminute":3050,"arily":3051,"aled":3052,"Ġgas":3053,"Ġforeign":3054,"ray":3055,"osh":3056,"Ġarchitect":3057,"itted":3058,"Ġgovernor":3059,"Ġjoin":3060,"gen":3061,"Ġbeginning":3062,"Ġhear":3063,"Ġsoft":3064,"Ġcard":3065,"medi":3066,"Ġwol":3067,"Ġdoctor":3068,"Ġgod":3069,"Ġartists":3070,"Ġanti":3071,"ental":3072,"Ġnoted":3073,"Ġmethod":3074,"Ġspeed":3075,"ift":3076,"Ġthemselves":3077,"Ġgenus":3078,"where":3079,"Ġdisease":3080,"Ġdeep":3081,"Ġfoundation":3082,"Ġsubject":3083,"Ġcreate":3084,"Ġplease":3085,"Ġhus":3086,"Ġparliam":3087,"tim":3088,"Ġly":3089,"Ġeverything":3090,"ota":3091,"ification":3092,"Ġamount":3093,"Ġglobal":3094,"Ġneeds":3095,"erson":3096,"igned":3097,"Ġformula":3098,"Ġroute":3099,"Ġprincip":3100,"ills":3101,"Ġnar":3102,"Ġparliament":3103,"Ġfemale":3104,"Ġprior":3105,"omm":3106,"agon":3107,"Ġtrade":3108,"sec":3109,"Ġparis":3110,"Ġlisted":3111,"Ġcath":3112,"use":3113,"Ġsection":3114,"Ġspring":3115,"Ġsafety":3116,"band":3117,"Ġburn":3118,"Ġhat":3119,"ope":3120,"Ġrelated":3121,"Ġelectric":3122,"Ġmanager":3123,"Ġindependent":3124,"Ġsubsequ":3125,"Ġ185":3126,"Ġcities":3127,"Ġactive":3128,"Ġwow":3129,"Ġfair":3130,"bi":3131,"Ġwinter":3132,"aving":3133,"Ġmanagement":3134,"Ġissue":3135,"Ġbroadcast":3136,"sw":3137,"Ġemerg":3138,"Ġconsist":3139,"Ġcra":3140,"Ġdocument":3141,"ano":3142,"Ġschol":3143,"Ġmine":3144,"Ġbraz":3145,"Ġtraditional":3146,"Ġestim":3147,"Ġcontribut":3148,"Ġcollection":3149,"Ġcele":3150,"Ġatl":3151,"Ġlabor":3152,"Ġexecutive":3153,"Ġboys":3154,"Ġlearn":3155,"Ġrain":3156,"Ġlay":3157,"Ġfinanc":3158,"Ġwed":3159,"Ġwid":3160,"Ġbelong":3161,"za":3162,"Ġpreviously":3163,"Ġ184":3164,"Ġcentre":3165,"Ġcred":3166,"enty":3167,"Ġexperience":3168,"hem":3169,"Ġprovided":3170,"Ġrespect":3171,"ada":3172,"Ġdom":3173,"Ġukrain":3174,"Ġlegal":3175,"Ġeconomic":3176,"Ġdie":3177,"Ġgoals":3178,"Ġcelebr":3179,"Ġcommerc":3180,"Ġvirginia":3181,"istic":3182,"Ġowned":3183,"iation":3184,"ĠÂ":3185,"Ġnewsp":3186,"Ġ1999":3187,"Ġbelieve":3188,"oring":3189,"Ġtun":3190,"Ġswim":3191,"Ġtransfer":3192,"Ġstarting":3193,"board":3194,"Ġjapanese":3195,"off":3196,"aries":3197,"Ġlack":3198,"va":3199,"Ġnomin":3200,"Ġminor":3201,"Ġwebs":3202,"Ġculture":3203,"oke":3204,"Ġended":3205,"west":3206,"Ġfro":3207,"Ġcanadian":3208,"Ġkar":3209,"Ġitself":3210,"Ġeyes":3211,"Ġapart":3212,"Ġevidence":3213,"Ġpack":3214,"Ġtruck":3215,"erve":3216,"osition":3217,"Ġsquad":3218,"Ġgrant":3219,"Ġsize":3220,"aches":3221,"Ġteachers":3222,"Ġrelationship":3223,"Ġlaunched":3224,"Ġwide":3225,"Ġfamous":3226,"Ġsem":3227,"Ġlady":3228,"Ġobject":3229,"Ġcow":3230,"Ġcomputer":3231,"Ġitalian":3232,"Ġpersonal":3233,"Ġissues":3234,"Ġfellow":3235,"Ġoccur":3236,"Ġmaster":3237,"ani":3238,"Ġclosed":3239,"abor":3240,"Ġattended":3241,"Ġ1960":3242,"well":3243,"Ġfinally":3244,"ols":3245,"Ġshop":3246,"the":3247,"yer":3248,"Ġgeorg":3249,"Ġneeded":3250,"Ġorganiz":3251,"Ġcitiz":3252,"Ġextra":3253,"oe":3254,"ls":3255,"Ġsystems":3256,"Ġpassed":3257,"Ġplat":3258,"ris":3259,"Ġwing":3260,"Ġquickly":3261,"Ġkingdom":3262,"Ġda":3263,"Ġpurch":3264,"Ġmatter":3265,"Ġjobs":3266,"Ġmouth":3267,"Ġbrazil":3268,"round":3269,"Ġincrease":3270,"Ġexcept":3271,"play":3272,"ician":3273,"new":3274,"Ġmeeting":3275,"Ġthus":3276,"Ġfavor":3277,"Ġmostly":3278,"semb":3279,"Ġadministration":3280,"hab":3281,"irt":3282,"Ġsurve":3283,"Ġjoseph":3284,"Ġneighbor":3285,"Ġresults":3286,"Ġmedic":3287,"Ġnumbers":3288,"Ġpow":3289,"Ġchann":3290,"Ġmoving":3291,"Ġattention":3292,"Ġpractice":3293,"Ġsusp":3294,"Ġcharles":3295,"Ġconsum":3296,"ails":3297,"Ġ1998":3298,"ging":3299,"Ġvehic":3300,"Ġgi":3301,"uments":3302,"wards":3303,"Ġker":3304,"Ġseat":3305,"Ġspread":3306,"Ġaz":3307,"Ġcere":3308,"Ġinterview":3309,"Ġfeed":3310,"Ġarrest":3311,"ify":3312,"18":3313,"ocks":3314,"Ġcold":3315,"Ġwords":3316,"Ġopening":3317,"Ġjump":3318,"Ġquarter":3319,"Ġoccup":3320,"Ġislam":3321,"Ġet":3322,"Ġstated":3323,"Ġshall":3324,"Ġbeach":3325,"Ġwrite":3326,"Ġheavy":3327,"Ġoperations":3328,"Ġraised":3329,"edy":3330,"Ġeating":3331,"lands":3332,"bc":3333,"Ġstick":3334,"Ġwriter":3335,"Ġdress":3336,"Ġoverall":3337,"ym":3338,"Ġscore":3339,"Ġire":3340,"Ġagency":3341,"Ġcases":3342,"Ġstudied":3343,"Ġvictor":3344,"Ġgh":3345,"Ġinsp":3346,"Ġintroduced":3347,"Ġones":3348,"Ġreplaced":3349,"Ġcry":3350,"riage":3351,"Ġmanuf":3352,"Ġcab":3353,"Ġgrade":3354,"Ġ60":3355,"Ġimprove":3356,"Ġmanufact":3357,"Ġindividual":3358,"Ġsport":3359,"Ġtarget":3360,"Ġbell":3361,"Ġbillion":3362,"Ġcarolina":3363,"istry":3364,"Ġcoun":3365,"itch":3366,"12":3367,"Ġorange":3368,"Ġspain":3369,"Ġfres":3370,"Ġhurt":3371,"Ġproperty":3372,"Ġfilms":3373,"Ġsquare":3374,"Ġcommercial":3375,"wh":3376,"Ġguard":3377,"aq":3378,"Ġvia":3379,"Ġlimited":3380,"Ġdiscuss":3381,"ask":3382,"pa":3383,"Ġstandard":3384,"Ġhighest":3385,"ex":3386,"Ġremains":3387,"=\"":3388,"Ġsister":3389,"Ġdomin":3390,"Ġrepublican":3391,"Ġteacher":3392,"Ġshowed":3393,"Ġproducts":3394,"Ġstars":3395,"Ġnavy":3396,"apt":3397,"Ġapple":3398,"Ġdrive":3399,"Ġannual":3400,"Ġjustice":3401,"Ġglass":3402,"30":3403,"Ġgiving":3404,"ients":3405,"Ġletter":3406,"Ġfifth":3407,"Ġsinger":3408,"Ġopportun":3409,"Ġassemb":3410,"Ġshare":3411,"Ġreligious":3412,"iny":3413,"Ġextre":3414,"ding":3415,"Ġdance":3416,"Ġba":3417,"Ġsir":3418,"Ġhonor":3419,"cy":3420,"lor":3421,"Ġimmedi":3422,"emic":3423,"icated":3424,"Ġbaseball":3425,"Ġbecoming":3426,"iction":3427,"Ġfocus":3428,"Ġphotograp":3429,"Ġsecretary":3430,"Ġsurface":3431,"anda":3432,"Ġprimary":3433,"Ġmir":3434,"Ġborder":3435,"Ġpeace":3436,"Ġcrow":3437,"Ġflight":3438,"Ġbeaut":3439,"ping":3440,"Ġkm":3441,"Ġnothing":3442,"oul":3443,"Ġstru":3444,"Ġagric":3445,"Ġ1996":3446,"ios":3447,"Ġhello":3448,"ishop":3449,"Ġbelow":3450,"Ġireland":3451,"Ġdisp":3452,"Ġmayor":3453,"ibility":3454,"Ġfighting":3455,"Ġtransl":3456,"book":3457,"Ġcaused":3458,"Ġswed":3459,"cher":3460,"ima":3461,"Ġchampionships":3462,"Ġagricult":3463,"Ġsaint":3464,"Ġarab":3465,"Ġstorm":3466,"Ġeditor":3467,"Ġrichard":3468,"Ġearned":3469,"Ġexpected":3470,"Ġvote":3471,"Ġfru":3472,"tic":3473,"Ġhappy":3474,"ww":3475,"iday":3476,"Ġslow":3477,"clus":3478,"Ġapplic":3479,"sa":3480,"Ġgets":3481,"uit":3482,"Ġbang":3483,"Ġregard":3484,"Ġcollect":3485,"Ġpap":3486,"roll":3487,"Ġbatt":3488,"Ġlog":3489,"ockey":3490,"Ġfill":3491,"Ġatlant":3492,"Ġdun":3493,"rd":3494,"Ġnature":3495,"ker":3496,"Ġbrand":3497,"kn":3498,"Ġfit":3499,"Ġmind":3500,"Ġdream":3501,"Ġolder":3502,"bed":3503,"Ġserious":3504,"Ġtrees":3505,"Ġkitt":3506,"Ġclasses":3507,"Ġcareful":3508,"wide":3509,"Ġforced":3510,"ili":3511,"Ġtick":3512,"Ġclin":3513,"Ġven":3514,"Ġsomeone":3515,"irty":3516,"ador":3517,"Ġdate":3518,"Ġabs":3519,"oid":3520,"down":3521,"Ġbeg":3522,"Ġow":3523,"Ġnames":3524,"Ġride":3525,"Ġ1997":3526,"Ġsurround":3527,"Ġcommunic":3528,"Ġeveryone":3529,"Ġestablish":3530,"Ġadop":3531,"Ġrestaur":3532,"Ġthousands":3533,"Ġspl":3534,"Ġox":3535,"Ġrap":3536,"Ġexpand":3537,"Ġ1994":3538,"Ġpacific":3539,"ript":3540,"Ġtheatre":3541,"Ġdemocratic":3542,"Ġparticularly":3543,"Ġpage":3544,"14":3545,"Ġstone":3546,"Ġoperation":3547,"gypt":3548,"Ġarticle":3549,"Ġchick":3550,"Ġways":3551,"Ġmartin":3552,"Ġhenry":3553,"pre":3554,"Ġcatch":3555,"Ġwhom":3556,"Ġess":3557,"Ġairport":3558,"Ġvictory":3559,"Ġstrugg":3560,"Ġtemper":3561,"ume":3562,"Ġentered":3563,"Ġ1995":3564,"Ġexperts":3565,"Ġuses":3566,"ram":3567,"ems":3568,"Ġrepresented":3569,"Ġcorpor":3570,"Ġsilver":3571,"ension":3572,"nel":3573,"Ġtried":3574,"ander":3575,"Ġprize":3576,"Ġbath":3577,"Ġ<":3578,"Ġregional":3579,"igan":3580,"Ġegypt":3581,"uth":3582,"Ġbye":3583,"Ġplants":3584,"anced":3585,"Ġancient":3586,"house":3587,"Ġ1992":3588,"Ġtrue":3589,"Ġpaint":3590,"Ġlie":3591,"Ġmaint":3592,"Ġfrequ":3593,"Ġdiscovered":3594,"Ġremain":3595,"Ġ2019":3596,"zy":3597,"Ġlarger":3598,"Ġcontinue":3599,"heast":3600,"Ġunl":3601,"Ġvoc":3602,"Ġpsy":3603,"Ġhaw":3604,"Ġwrong":3605,"Ġtrou":3606,"yan":3607,"Ġlord":3608,"Ġcomplete":3609,"Ġ1991":3610,"Ġnecess":3611,"Ġmicro":3612,"Ġpoll":3613,"Ġprogress":3614,"Ġretired":3615,"Ġvolun":3616,"don":3617,"Ġinitially":3618,"Ġstories":3619,"Ġrub":3620,"Ġweap":3621,"Ġreading":3622,"Ġspot":3623,"Ġrequire":3624,"Ġopt":3625,"ils":3626,"ounds":3627,"Ġfigure":3628,"Ġfine":3629,"Ġprevent":3630,"Ġsurpr":3631,"rial":3632,"Ġselected":3633,"rs":3634,"Ġpath":3635,"Ġdemon":3636,"Ġross":3637,"Ġdefeated":3638,"ja":3639,"Ġ1950":3640,"Ġarr":3641,"Ġadditional":3642,"Ġmale":3643,"Ġpoet":3644,"Ġwebsite":3645,"Ġcomplex":3646,"Ġofficers":3647,"Ġboo":3648,"aded":3649,"Ġrate":3650,"Ġshown":3651,"Ġprep":3652,"gu":3653,"Ġstad":3654,"Ġlearning":3655,"Å«":3656,"Ġrefuge":3657,"Ġassociated":3658,"Ġfrancisco":3659,"Ġrare":3660,"Ġcontains":3661,"Ġincreased":3662,"Ġteen":3663,"Ġtowards":3664,"oma":3665,"Ġtrust":3666,"Ġactivities":3667,"Ġinternet":3668,"Ġbeat":3669,"Ġgone":3670,"Ġrequired":3671,"inct":3672,"Ġsubst":3673,"Ġpainting":3674,"more":3675,"Ġsearch":3676,"Ġcaptain":3677,"Ġbenef":3678,"Ġalle":3679,"king":3680,"Ġpictures":3681,"ips":3682,"Ġpartners":3683,"Ġparish":3684,"Ġcovered":3685,"Ġblood":3686,"Ġcoo":3687,"Ġdogs":3688,"Ġsales":3689,"ware":3690,"ita":3691,"Ġaltern":3692,"Ġattract":3693,"ylv":3694,"Ġbehav":3695,"Ġrang":3696,"Ġlabel":3697,"Ġtower":3698,"Ġcatholic":3699,"ipe":3700,"une":3701,"Ġguitar":3702,"Ġtrip":3703,"Ġahead":3704,"Ġ1993":3705,"Ġkick":3706,"Ġmajority":3707,"Ġpurp":3708,"Ġsafe":3709,"Ġcharge":3710,"Ġqueen":3711,"Ġamb":3712,"Ġnations":3713,"elled":3714,"Ġcrew":3715,"Ġrh":3716,"Ġcd":3717,"lect":3718,"Ġgenerally":3719,"Ġjim":3720,"chen":3721,"ylvania":3722,"Ġchoo":3723,"Ġwear":3724,"Ġpra":3725,"Ġvac":3726,"Ġsyn":3727,"Ġresour":3728,"15":3729,"Ġnick":3730,"Ġserving":3731,"ung":3732,"Ġlif":3733,"Ġdry":3734,"inger":3735,"Ġconsider":3736,"ste":3737,"Ġfunny":3738,"Ġfelt":3739,"Ġeye":3740,"Ġislands":3741,"porary":3742,"Ġboston":3743,"Ġgrew":3744,"Ġcultural":3745,"Ġresidents":3746,"Ġencour":3747,"Ġtracks":3748,"Ġkne":3749,"road":3750,"Ġboat":3751,"Ġiraq":3752,"Ġcrime":3753,"Ġmatches":3754,"Ġnearby":3755,"onse":3756,"iled":3757,"Ġleaving":3758,"Ġefforts":3759,"Ġlines":3760,"Ġmusl":3761,"Ġcolumb":3762,"Ġanal":3763,"uals":3764,"Ġtall":3765,"Ġinstr":3766,"Ġlevels":3767,"Ġarrived":3768,"Ġrab":3769,"Ġtroops":3770,"uries":3771,"Ġunit":3772,"Ġsarah":3773,"Ġhockey":3774,"kins":3775,"Ġrecording":3776,"Ġfinancial":3777,"Ġsimp":3778,"Ġken":3779,"ua":3780,"Ġchairman":3781,"Ġmemor":3782,"Ġincreasing":3783,"Ġcollabor":3784,"uction":3785,"Ġadam":3786,"Ġhung":3787,"Ġbelieved":3788,"Ġbrain":3789,"Ġmond":3790,"aland":3791,"zen":3792,"Ġendemic":3793,"Ġbri":3794,"Ġperm":3795,"hire":3796,"bon":3797,"Ġlaura":3798,"vert":3799,"Ġstructure":3800,"Ġsmaller":3801,"Ġstuff":3802,"ipl":3803,"Ġowners":3804,"Ġnap":3805,"ini":3806,"ansas":3807,"Ġscot":3808,"Ġitaly":3809,"Ġphone":3810,"Ġconditions":3811,"Ġconfl":3812,"Ġsov":3813,"teen":3814,"Ġtreatment":3815,"Ġchallen":3816,"Ġfailed":3817,"Ġrisk":3818,"fect":3819,"Ġhuge":3820,"Ġoffer":3821,"Ġemb":3822,"ko":3823,"Ġpenns":3824,"ote":3825,"Ġvice":3826,"bre":3827,"Ġari":3828,"Ġcoal":3829,"Ġpaid":3830,"Ġ1989":3831,"Ġsoldiers":3832,"Ġpsych":3833,"phone":3834,"Ġiv":3835,"Ġpennsylvania":3836,"Ġedition":3837,"Ġmusical":3838,"Ġdar":3839,"Ġreform":3840,"Ġobt":3841,"Ġspir":3842,"Ġspok":3843,"venue":3844,"Ġbey":3845,"Ġmob":3846,"Ġhabitat":3847,"ulations":3848,"Ġgrowth":3849,"iro":3850,"net":3851,"Ġseed":3852,"Ġkitty":3853,"Ġdoub":3854,"Ġstock":3855,"Ġsoviet":3856,"Ġshel":3857,"Ġtoys":3858,"Ġbol":3859,"quar":3860,"astic":3861,"Ġapproxim":3862,"Ġmas":3863,"ologist":3864,"Ġtext":3865,"Ġring":3866,"Ġchannel":3867,"gal":3868,"Ġlic":3869,"Ġlatin":3870,"Ġfreed":3871,"Ġdefense":3872,"ulated":3873,"Ġoffered":3874,"Ġkid":3875,"Ġnose":3876,"sp":3877,"ses":3878,"Ġmotor":3879,"Ġsanta":3880,"oy":3881,"Ġassistant":3882,"Ġlocation":3883,"Ġjunior":3884,"Ġbirds":3885,"Ġappearance":3886,"Ġdigital":3887,"ipped":3888,"Ġenvironmental":3889,"isher":3890,"Ġresponse":3891,"ucky":3892,"Ġdisapp":3893,"Ġsupported":3894,"17":3895,"Ġ183":3896,"Ġkept":3897,"Ġrid":3898,"ena":3899,"Ġcontr":3900,"Ġhusband":3901,"Ġnewspaper":3902,"Ġhistorical":3903,"Ġpieces":3904,"Ġguy":3905,"Ġstadium":3906,"aging":3907,"Ġshut":3908,"Ġcool":3909,"izing":3910,"Ġvariety":3911,"Ġchemical":3912,"rick":3913,"Ġhors":3914,"Ġresponsible":3915,"Ġbob":3916,"Ġmcc":3917,"hol":3918,"Ġaccom":3919,"isions":3920,"Ġengineering":3921,"light":3922,"Ġheard":3923,"Ġrevolution":3924,"Ġautom":3925,"Ġjudge":3926,"Ġmarriage":3927,"Ġnumerous":3928,"Ġdrum":3929,"Ġlooked":3930,"Ġsource":3931,"Ġcitizens":3932,"chan":3933,"Ġpeak":3934,"ole":3935,"Ġremo":3936,"Ġtail":3937,"Ġjuice":3938,"asion":3939,"athan":3940,"gl":3941,"Ġenter":3942,"Ġscreen":3943,"jan":3944,"Ġic":3945,"kin":3946,"Ġsad":3947,"Ġcancer":3948,"Ġprint":3949,"Ġera":3950,"Ġfresh":3951,"Ġtraff":3952,"aily":3953,"Ġdemand":3954,"Ġsev":3955,"Ġsched":3956,"Ġmeaning":3957,"han":3958,"Ġgraduated":3959,"Ġolympics":3960,"iana":3961,"Ġhyd":3962,"Ġtropical":3963,"ella":3964,"Ġapproach":3965,"ii":3966,"Ġquality":3967,"Ġpus":3968,"Ġexam":3969,"11":3970,"Ġtenn":3971,"Ġlee":3972,"Ġfeature":3973,"Ã³n":3974,"Ġash":3975,"Ġtwenty":3976,"do":3977,"mas":3978,"Ġcru":3979,"Ġcart":3980,"Ġded":3981,"Ġ1988":3982,"Ġdraft":3983,"Ġful":3984,"Ġhighway":3985,"Ġcouple":3986,"Ġwel":3987,"Ġtalking":3988,"Ġeffort":3989,"Ġyoun":3990,"Ġgreek":3991,"Ġleaves":3992,"Ġhomes":3993,"erved":3994,"Ġcharl":3995,"ession":3996,"Ġprime":3997,"oop":3998,"Ġdaily":3999,"Ġchampion":4000,"Ġzealand":4001,"Ġka":4002,"inn":4003,"Ġhumans":4004,"Ġduck":4005,"Ġassembly":4006,"Ġsenate":4007,"//":4008,"hi":4009,"Ġarms":4010,"Ġrose":4011,"Ġcateg":4012,"tr":4013,"Ġtoy":4014,"Ġmand":4015,"Ġjul":4016,"utions":4017,"Ġvoice":4018,"water":4019,"Ġsupposed":4020,"://":4021,"Ġweather":4022,"Ġgives":4023,"Ġupper":4024,"Ġsunday":4025,"alled":4026,"Ġweight":4027,"vere":4028,"Ġcalls":4029,"Ġclimate":4030,"Ġbirthday":4031,"Ġbomb":4032,"Ġequip":4033,"Ġbishop":4034,"Ġsud":4035,"Ġram":4036,"Ġmention":4037,"Ġattend":4038,"rences":4039,"azz":4040,"Ġ35":4041,"Ġforward":4042,"ables":4043,"Ġprovides":4044,"Ġkiss":4045,"Ġsor":4046,"Ġmarine":4047,"Ġconfir":4048,"Ġfred":4049,"iling":4050,"13":4051,"Ġnut":4052,"Ġjewish":4053,"Ġell":4054,"Ġflag":4055,"Ġskills":4056,"Ġbon":4057,"uing":4058,"Ġnotable":4059,"ancy":4060,"Ġholding":4061,"Ġrule":4062,"Ġmedicine":4063,"wr":4064,"ato":4065,"Ġpak":4066,"inet":4067,"Ġcompeted":4068,"Ġflying":4069,"Ġexperi":4070,"oud":4071,"Ġsoccer":4072,"Ġdouble":4073,"Ġfarmers":4074,"olk":4075,"Ġpressure":4076,"over":4077,"Ġyounger":4078,"ali":4079,"Ġ70":4080,"Ġcastle":4081,"Ġtape":4082,"Ġiron":4083,"Ġaddress":4084,"Ġseasons":4085,"Ġbutter":4086,"Ġstatus":4087,"Ġwinner":4088,"Ġbroken":4089,"vin":4090,"Äĩ":4091,"asa":4092,"Ġcomment":4093,"Ġsingles":4094,"aph":4095,"Ġens":4096,"Ġimmigr":4097,"Ġhouses":4098,"action":4099,"Ġresc":4100,"Ġsens":4101,"Ġ1984":4102,"Ġpositive":4103,"Ġalone":4104,"Ġserve":4105,"Ġcarried":4106,"Ġviolence":4107,"Ġcontroll":4108,"Ġagreement":4109,"Ġseparate":4110,"acts":4111,"Ġstraight":4112,"Ġsubsequently":4113,"Ġdeput":4114,"Ġprojects":4115,"iance":4116,"Ġsave":4117,"Ġterms":4118,"ien":4119,"Ġcarl":4120,"Ġsyria":4121,"Ġmainly":4122,"Ġvolunte":4123,"Ġalt":4124,"wa":4125,"Ġmama":4126,"rie":4127,"Ġrug":4128,"Ġequipment":4129,"Ġplanet":4130,"Ġnic":4131,"Ġfunction":4132,"Ġbranch":4133,"Ġcheck":4134,"ucle":4135,"Ġapproximately":4136,"Ġcharacters":4137,"uted":4138,"Ġkr":4139,"Ġability":4140,"Ġgeorgia":4141,"Ġkit":4142,"Ġmah":4143,"Ġ80":4144,"Ġmultip":4145,"Ġneighborhood":4146,"har":4147,"Ġchance":4148,"Ġeggs":4149,"Ġrow":4150,"Ġgreater":4151,"izes":4152,"Ġattacks":4153,"ube":4154,"Ġ1987":4155,"Ġchalleng":4156,"Ġmixed":4157,"Ġfans":4158,"iring":4159,"mond":4160,"aped":4161,"Ġod":4162,"Ġhang":4163,"Ġstan":4164,"amm":4165,"Ġoperated":4166,"Ġscholars":4167,"Ġviet":4168,"Ġunits":4169,"Ġproducer":4170,"Ġnom":4171,"Ġimpact":4172,"change":4173,"Ġwheel":4174,"Ġtells":4175,"sen":4176,"Ġfat":4177,"Ġund":4178,"Ġfirm":4179,"Ġelev":4180,"Ġscientific":4181,"rend":4182,"Ġdutch":4183,"gers":4184,"ule":4185,"ingu":4186,"Ġinhab":4187,"Ġgil":4188,"Ġzoo":4189,"Ġelectron":4190,"lied":4191,"Ġbowl":4192,"yr":4193,"Ġmonday":4194,"umn":4195,"Ġasia":4196,"Ġcommunities":4197,"Ġteaching":4198,"Ġentertain":4199,"Ġrough":4200,"ctors":4201,"Ġworth":4202,"Ġinte":4203,"Ġdrop":4204,"Ġrat":4205,"Ġnote":4206,"Ġsense":4207,"Ġ1985":4208,"Ġped":4209,"iful":4210,"16":4211,"Ġfox":4212,"ros":4213,"Ġplane":4214,"Ġsr":4215,"Ġmetal":4216,"Ġtan":4217,"greg":4218,"Å¡":4219,"Ġclaimed":4220,"orter":4221,"Ġadministr":4222,"Ġturkey":4223,"Ġcooper":4224,"Ġgrass":4225,"Ġappears":4226,"orters":4227,"Ġphysical":4228,"ribution":4229,"Ġdropped":4230,"Ġchallenge":4231,"Ġbroke":4232,"Ġimmediately":4233,"Ġcoff":4234,"ties":4235,"Ġluc":4236,"Ġcham":4237,"Ġrod":4238,"Ġproduce":4239,"Ġeffects":4240,"Ġpromin":4241,"Ġindic":4242,"Ġton":4243,"Ġjones":4244,"Ġfounder":4245,"Ġplatform":4246,"cks":4247,"Ġemploy":4248,"Ġcompl":4249,"Ġcompared":4250,"life":4251,"gle":4252,"Ġbought":4253,"Ġkil":4254,"Ġgene":4255,"Ġhotel":4256,"Ġsac":4257,"cement":4258,"atures":4259,"Ġgal":4260,"Ġ90":4261,"Ġos":4262,"Ġyep":4263,"icted":4264,"Ġlearned":4265,"Ġbarb":4266,"Ġpolitician":4267,"Ġiniti":4268,"Ġkent":4269,"atively":4270,"Ġdangerous":4271,"come":4272,"Ġeld":4273,"Ġauthorities":4274,"Ġ1986":4275,"Ġtoward":4276,"Ã¤":4277,"wan":4278,"Ġbron":4279,"Ġnucle":4280,"Ġfreedom":4281,"vi":4282,"Ġeasy":4283,"Ġagreed":4284,"Ġgeneration":4285,"Ġprince":4286,"Ġmeant":4287,"Ġ1982":4288,"Ġirish":4289,"Ġbrothers":4290,"Ġconcept":4291,"Ġcritics":4292,"hold":4293,"fast":4294,"rison":4295,"Ġputting":4296,"Ġtermin":4297,"Ġmanaged":4298,"Ġfigh":4299,"Ġut":4300,"Ġrevealed":4301,"itude":4302,"Ġspr":4303,"Ġstanding":4304,"Ġheat":4305,"Ġproposed":4306,"Ġray":4307,"Ġmoon":4308,"Ġprotest":4309,"Ġhundreds":4310,"Ġtast":4311,"Ġpotential":4312,"igration":4313,"Ġedward":4314,"Ġmax":4315,"ented":4316,"using":4317,"Ġveter":4318,"Ġadj":4319,"Ġhappen":4320,"Ġarrang":4321,"Ġeleph":4322,"ax":4323,"ares":4324,"Åį":4325,"ining":4326,"Ġcompos":4327,"Ġsky":4328,"ography":4329,"Ġbusinesses":4330,"Ġcamera":4331,"set":4332,"Ġsimply":4333,"adel":4334,"Ġpresented":4335,"Ġachieve":4336,"Ġknew":4337,"pping":4338,"Ġ500":4339,"Ġhu":4340,"Ġplanned":4341,"Ġblocks":4342,"Ġunf":4343,"Ġjohnson":4344,"itation":4345,"Ġdecades":4346,"Ġtwice":4347,"Ġsuc":4348,"Ġactor":4349,"Ġbiggest":4350,"Ġintegr":4351,"Ġsom":4352,"Ġ32":4353,"Ġhelps":4354,"Ġdrug":4355,"Ġcandidate":4356,"Ġextrem":4357,"Ġ1945":4358,"Ġterror":4359,"Ġsitting":4360,"Ġbull":4361,"Ġstations":4362,"Ġowner":4363,"Ġacquired":4364,"Ġak":4365,"othes":4366,"outs":4367,"Ġkorea":4368,"Ġansw":4369,"Ġmichigan":4370,"Ġanth":4371,"iano":4372,"Ġid":4373,"Ġscene":4374,"Ġbrig":4375,"Ġ1972":4376,"Ġfields":4377,"Ġmeasure":4378,"Ġbrief":4379,"rel":4380,"Ġcosts":4381,"time":4382,"Ġmechan":4383,"Ġforms":4384,"Ġsuit":4385,"ji":4386,"Ġmath":4387,"Ġwonder":4388,"bach":4389,"Ġreports":4390,"Ġminim":4391,"Ġdamage":4392,"Ġdestroyed":4393,"ror":4394,"ette":4395,"oops":4396,"Ġaim":4397,"ysis":4398,"Ġsites":4399,"Ġletters":4400,"Ġsucceed":4401,"Ġelement":4402,"Ġmoo":4403,"Ġwet":4404,"Ġweb":4405,"Ġtrail":4406,"Ġjon":4407,"Ġtownship":4408,"aceae":4409,"ci":4410,"Ġpakistan":4411,"Ġaffect":4412,"Ġjersey":4413,"rey":4414,"Ġadvoc":4415,"Ġtemple":4416,"inois":4417,"Ġukraine":4418,"Ġprice":4419,"inal":4420,"Ġtheory":4421,"Ġbeyond":4422,"Ġjac":4423,"Ġconducted":4424,"Ġcontem":4425,"Ġphilipp":4426,"Ġtaught":4427,"aming":4428,"Ġquite":4429,"Ġcookie":4430,"Ġcells":4431,"Ġdemonstr":4432,"Ġbeautiful":4433,"Ġcontest":4434,"Ġactivity":4435,"Ġurban":4436,"Ġwednes":4437,"Ġcaught":4438,"Ġministry":4439,"Ġremaining":4440,"Ġindustrial":4441,"ero":4442,"Ġrepe":4443,"itory":4444,"Ġacademic":4445,"Ġenjo":4446,"Ġships":4447,"Ġcrimin":4448,"ifying":4449,"Ġislamic":4450,"ela":4451,"Ġspend":4452,"Ġissued":4453,"Ġtues":4454,"Ġ1940":4455,"Ġexperiment":4456,"eech":4457,"Ġoffers":4458,"ledge":4459,"ordin":4460,"elling":4461,"Ġ1930":4462,"Ġsituation":4463,"eless":4464,"Ġhighly":4465,"Ġric":4466,"Ġparks":4467,"Ġcas":4468,"Ġspeech":4469,"reng":4470,"Ġpromoted":4471,"Ġdetermin":4472,"orpor":4473,"Ġunc":4474,"Ġsequ":4475,"Ġhelping":4476,"Ġillinois":4477,"gian":4478,"Ġsick":4479,"works":4480,"Ġultim":4481,"ila":4482,"Ġbottom":4483,"Ġgarden":4484,"Ġles":4485,"Ġsubt":4486,"ishing":4487,"Ġelections":4488,"shire":4489,"Ġstores":4490,"Ġdirection":4491,"Ġmeat":4492,"Ġdisplay":4493,"Ġestimated":4494,"rated":4495,"Ġmemorial":4496,"Ġ1983":4497,"Ġbritain":4498,"Ġdriving":4499,"Ġbann":4500,"Ġsym":4501,"onic":4502,"Ġohio":4503,"unk":4504,"ques":4505,"Ġmachine":4506,"Ġpattern":4507,"Ġvisitors":4508,"Ġjes":4509,"Ġtypes":4510,"Ġflowers":4511,"Ġrefe":4512,"Ġleadership":4513,"mit":4514,"Ġsher":4515,"Ġthanks":4516,"Ġ1979":4517,"Ġindividuals":4518,"apes":4519,"kee":4520,"ellig":4521,"Ġstopped":4522,"Ġ182":4523,"nic":4524,"Ġlunch":4525,"Ġexpert":4526,"Ġdirectly":4527,"Ġweapons":4528,"aska":4529,"Ġprotection":4530,"Ġ36":4531,"Ġbod":4532,"Ġtuesday":4533,"roph":4534,"Ġlisten":4535,"Ġlosing":4536,"Ġdol":4537,"Ġorganis":4538,"Ġsupre":4539,"Ġappearances":4540,"ghan":4541,"Ġparticipated":4542,"Ġmultiple":4543,"Ġrise":4544,"Ġsatur":4545,"mann":4546,"abeth":4547,"Ġpad":4548,"Ġsurvey":4549,"Ġdisney":4550,"Ġestate":4551,"Ġaccident":4552,"Ġalbums":4553,"Ġmexican":4554,"Ġresources":4555,"Ġeb":4556,"Ġexerc":4557,"aling":4558,"Ġ1981":4559,"Ġdaniel":4560,"aks":4561,"Ġdistance":4562,"Ġolympic":4563,"Ġfruit":4564,"stein":4565,"Ġcoffee":4566,"Ġsymb":4567,"Ġconsists":4568,"Ġvalue":4569,"mo":4570,"Ġregister":4571,"Ġconcert":4572,"Ġsamp":4573,"Ġexact":4574,"encies":4575,"Ġintellig":4576,"Ġmunicipal":4577,"illy":4578,"ttps":4579,"Ġwit":4580,"Ġwales":4581,"Ġlatter":4582,"een":4583,"Ġast":4584,"Ġdeputy":4585,"Ġille":4586,"Ġ1920":4587,"abad":4588,"Ġwildlife":4589,"Ġresident":4590,"Ġdiam":4591,"Ġstrike":4592,"Ġentertainment":4593,"Ġwednesday":4594,"Ġlion":4595,"Ġrespond":4596,"Ġonto":4597,"Ġ1975":4598,"Ġsweetie":4599,"Ġorganized":4600,"Ġtrouble":4601,"ager":4602,"unt":4603,"ously":4604,"Ġcontact":4605,"Ġsides":4606,"ements":4607,"Ġroof":4608,"Ġquestions":4609,"Ġga":4610,"Ġgoo":4611,"etts":4612,"Ġconservation":4613,"Ġandrew":4614,"Ġstreng":4615,"Ġjoe":4616,"Ġadvanced":4617,"Ġcounter":4618,"Ġthreatened":4619,"ucks":4620,"Ġwilliams":4621,"Ġsuggest":4622,"Ġscen":4623,"Ġchristmas":4624,"Ġseems":4625,"esh":4626,"iced":4627,"Ġguess":4628,"Ġtiny":4629,"Ġpink":4630,"Ġtherefore":4631,"Ġrecomm":4632,"Ġgay":4633,"Ġkim":4634,"Ġknock":4635,"Ġsmart":4636,"lies":4637,"Ġburied":4638,"Ġforests":4639,"Ġcomposed":4640,"Ġvent":4641,"ricts":4642,"Ġideas":4643,"town":4644,"Ġnfl":4645,"Ġincome":4646,"Ġtrial":4647,"Ġdanc":4648,"Ġlots":4649,"Ġcontinues":4650,"Ġign":4651,"Ġempire":4652,"Ġsilly":4653,"Ġchoice":4654,"Ġremoved":4655,"Ġteeth":4656,"Ġinitial":4657,"any":4658,"Ġyards":4659,"Ġscotland":4660,"rol":4661,"Ġyay":4662,"Ġ1976":4663,"Ġreceive":4664,"burgh":4665,"Ġregiment":4666,"Ġorganizations":4667,"Ã§":4668,"ouri":4669,"Ġexpect":4670,"Ġ1968":4671,"Ġcert":4672,"Ġdogg":4673,"Ġmist":4674,"Ġperfect":4675,"Ġcampus":4676,"Ġsixth":4677,"Ġpin":4678,"Ġrot":4679,"Ġcode":4680,"ibly":4681,"Ġsupply":4682,"Ġbehavior":4683,"Ġhind":4684,"Ġdrama":4685,"Ġselling":4686,"Ġfinding":4687,"Ġfunding":4688,"Ġtitled":4689,"Ġaffairs":4690,"Ġcritical":4691,"Ġdeclared":4692,"Ġmut":4693,"Ġ180":4694,"Ġsimple":4695,"Ġordered":4696,"achus":4697,"Ġhero":4698,"stone":4699,"Ġ1974":4700,"Ġfriday":4701,"Ġorche":4702,"Ġresist":4703,"ih":4704,"Ã¨":4705,"Ġ300":4706,"Ġjeff":4707,"Ġiii":4708,"Ġwindow":4709,"Ġcommander":4710,"Ġspirit":4711,"Ġfash":4712,"Ġportug":4713,"Ġveget":4714,"Ġlaunch":4715,"stra":4716,"Ġwearing":4717,"iest":4718,"Ġseattle":4719,"Ġbrad":4720,"Ġharv":4721,"ault":4722,"uct":4723,"Ġbound":4724,"Ġkenn":4725,"Ġgol":4726,"ummy":4727,"Ġphilos":4728,"Ġmountains":4729,"Ġcem":4730,"ati":4731,"Ġdistricts":4732,"Ġpurs":4733,"Ġhug":4734,"Ġasian":4735,"Ġ1978":4736,"Ġinspired":4737,"Ġadults":4738,"isters":4739,"Ġcolumbia":4740,"Ġhappens":4741,"Ġbreed":4742,"Ġafghan":4743,"Ġdinos":4744,"ĠâĢĺ":4745,"erb":4746,"Ġwaters":4747,"adelph":4748,"Ġsend":4749,"Ġswimming":4750,"andon":4751,"Ġelements":4752,"Ġeliz":4753,"Ġprimarily":4754,"Ġmassachus":4755,"worth":4756,"Ġbunny":4757,"Ġshr":4758,"Ġmassachusetts":4759,"Ġuncle":4760,"Ġshortly":4761,"Ġhousing":4762,"illa":4763,"Ġscr":4764,"rupt":4765,"ruction":4766,"Ġdefin":4767,"Ġphiladelph":4768,"Ġofficially":4769,"Ġconflict":4770,"Ġarchae":4771,"Ġshooting":4772,"Ġjoint":4773,"can":4774,"Ġfc":4775,"Ġ1969":4776,"Ġstandards":4777,"Ġbreakfast":4778,"Ġinfluence":4779,"Ġooh":4780,"Ġcreek":4781,"Ġ45":4782,"Ġmigr":4783,"Ġeconomy":4784,"Ġmis":4785,"Ġtheme":4786,"Ġ1944":4787,"Ġthinking":4788,"Ġarrested":4789,"Ġreserve":4790,"Ġphiladelphia":4791,"Ġinfant":4792,"Ġmoth":4793,"iles":4794,"Ġtrains":4795,"Ġextended":4796,"eland":4797,"see":4798,"Ġsoftware":4799,"Ġfal":4800,"Ġadvert":4801,"mark":4802,"no":4803,"elly":4804,"bridge":4805,"Ġuns":4806,"Ġpatients":4807,"Ġmos":4808,"Ġliterature":4809,"Ġclubs":4810,"weight":4811,"Ġcemeter":4812,"yard":4813,"Ġvillages":4814,"40":4815,"Ġbuck":4816,"Ġacting":4817,"Ġbudget":4818,"fish":4819,"Ġlind":4820,"Ġ1971":4821,"Ġcontent":4822,"Ġconstructed":4823,"Ġfollows":4824,"Ġinjury":4825,"Ġdefeat":4826,"Ġprincipal":4827,"Ġsupreme":4828,"Ġjr":4829,"Ġcapac":4830,"Ġ33":4831,"Ġsurn":4832,"Ġprec":4833,"Ġ1977":4834,"uts":4835,"Ġscale":4836,"Ġbecomes":4837,"arm":4838,"Ġwindows":4839,"Ġreferred":4840,"nie":4841,"Ġconvers":4842,"Ġtraffic":4843,"oln":4844,"Ġplanning":4845,"gn":4846,"iga":4847,"Ġfashion":4848,"Ġlies":4849,"Ġperman":4850,"Ġfeaturing":4851,"Ġchanging":4852,"hs":4853,"tered":4854,"Ġdifference":4855,"Ġauthority":4856,"Ġmars":4857,"Ġkal":4858,"uled":4859,"Ġdipl":4860,"Ġbears":4861,"Ġpover":4862,"Ġopportunity":4863,"onia":4864,"Ġpupp":4865,"Ġshoes":4866,"Ġraise":4867,"Ġconstant":4868,"Ġheight":4869,"Ġwrit":4870,"Ġsolo":4871,"Ġcrown":4872,"cles":4873,"Ġcorner":4874,"Ġpoverty":4875,"Ġgri":4876,"Ġterritory":4877,"80":4878,"Ġpoo":4879,"Ġwidely":4880,"Ġmike":4881,"Ġlas":4882,"Ġserves":4883,"Ġ1967":4884,"Ġtransferred":4885,"Ġallows":4886,"Ġpowerful":4887,"Ġbes":4888,"Ġcomedy":4889,"sela":4890,"Ġreviews":4891,"Ġtam":4892,"newsela":4893,"Ġanalysis":4894,"while":4895,"Ġcin":4896,"Ġtypically":4897,"Ġstatement":4898,"âĢĻ":4899,"Ġlarg":4900,"Ġcrack":4901,"estic":4902,"Ġenem":4903,"Ġalongside":4904,"Ġtay":4905,"Ġassigned":4906,"Ġmoment":4907,"je":4908,"Ġsugar":4909,"Ġabandon":4910,"Ġcalling":4911,"Ġwins":4912,"Ġgolden":4913,"33":4914,"Ġjazz":4915,"mans":4916,"Ġargent":4917,"ario":4918,"Ġcondition":4919,"Ġexchange":4920,"Ġregist":4921,"Ġflood":4922,"Ġbasic":4923,"Ġmaterials":4924,"haps":4925,"rid":4926,"oted":4927,"ivity":4928,"Ġarth":4929,"Ġcris":4930,"Ġformerly":4931,"Ġdur":4932,"Ġperhaps":4933,"Ġ1973":4934,"Ġpurpose":4935,"Ġaid":4936,"Ġfear":4937,"Ġbigger":4938,"Ġclimb":4939,"etic":4940,"Ġcustomers":4941,"Ġwalking":4942,"cha":4943,"Ġwarm":4944,"Ġenfor":4945,"Ġdivided":4946,"Ġcaptured":4947,"Ġsaturday":4948,"Ġserb":4949,"Ġcontrovers":4950,"Ġabd":4951,"Ġtests":4952,"Ġfavorite":4953,"Ġnormal":4954,"oration":4955,"ito":4956,"Ġlinc":4957,"Ġusa":4958,"acing":4959,"tery":4960,"Ġcla":4961,"Ġgraduate":4962,"Ġfought":4963,"uten":4964,"Ġbackground":4965,"Ġwhoops":4966,"Ġsyd":4967,"Ġcompletely":4968,"athe":4969,"Ġcric":4970,"Ġdedicated":4971,"Ġsurname":4972,"ux":4973,"Ġprominent":4974,"Ġfocused":4975,"Ġcrowd":4976,"iy":4977,"Ġattorn":4978,"Ġimpress":4979,"Ġreturning":4980,"Ġtel":4981,"ulf":4982,"Ġedge":4983,"Ġpremie":4984,"Ġelizabeth":4985,"lying":4986,"bury":4987,"Ġpool":4988,"fort":4989,"Ġconsec":4990,"Ġwoo":4991,"Ġunique":4992,"Ġdriver":4993,"Ġfacilities":4994,"Ġnecessary":4995,"Ġcolorado":4996,"Ġsources":4997,"Ġlargely":4998,"Ġlincoln":4999,"Ġdiss":5000,"mine":5001,"Ġjam":5002,"Ġimag":5003,"Ġplate":5004,"Ġfootballer":5005,"Ġsuggested":5006,"Ġaccepted":5007,"Ġnep":5008,"Ġsuffered":5009,"Ġwilson":5010,"Ġgray":5011,"Ġnewly":5012,"Ġemot":5013,"Ġ1965":5014,"onents":5015,"Ġbass":5016,"Ġbright":5017,"Ġflat":5018,"Ġknowledge":5019,"Ġ1964":5020,"Ġreasons":5021,"Ġcircle":5022,"Ġrecognized":5023,"Ġpartnership":5024,"Ġrand":5025,"Ġconclud":5026,"urt":5027,"Ġcha":5028,"Ġcolomb":5029,"Ġpropos":5030,"wise":5031,"ington":5032,"Ġscoring":5033,"Ġadopted":5034,"Ġcontemporary":5035,"cel":5036,"ira":5037,"Ġarmed":5038,"Ġmarsh":5039,"Ġcreating":5040,"Ġmap":5041,"Ġcorps":5042,"Ġguns":5043,"Ġracing":5044,"Ġconfirmed":5045,"Ġcricket":5046,"ads":5047,"Ġdoctors":5048,"Ġactress":5049,"Ġimplement":5050,"Ġnuclear":5051,"rees":5052,"ocol":5053,"Ġcommunist":5054,"Ġanaly":5055,"Ġgang":5056,"Ġsydney":5057,"Ġwisc":5058,"Ġbegins":5059,"Ġhong":5060,"Ġclothes":5061,"Ġpurchased":5062,"Ġwings":5063,"Ġko":5064,"Ġrestrict":5065,"Ġrestaurant":5066,"Ġkorean":5067,"aka":5068,"Ġbutton":5069,"Ġimage":5070,"ias":5071,"oms":5072,"onsin":5073,"Ġmessage":5074,"quarters":5075,"Ġrice":5076,"Ġwisconsin":5077,"ora":5078,"azon":5079,"500":5080,"itage":5081,"Ġfinds":5082,"Ġrepresentatives":5083,"Ġnaz":5084,"Ġzone":5085,"Ġeducational":5086,"Ġconnected":5087,"Ġcontain":5088,"Ġhopes":5089,"Ġfactory":5090,"Ġlyric":5091,"istics":5092,"Ġavoid":5093,"Ġnominated":5094,"Ġtransform":5095,"Ġsplit":5096,"Ġinhabit":5097,"Ġ34":5098,"Ġslight":5099,"Ġinterested":5100,"Ġcriminal":5101,"Ġproviding":5102,"Ġchris":5103,"ributed":5104,"Ġbillboard":5105,"Ġariz":5106,"Ġori":5107,"Ġhunting":5108,"Ġvari":5109,"Ġpalest":5110,"Ġsalt":5111,"Ġrepresentative":5112,"Ġidentified":5113,"Ġsemi":5114,"Ġts":5115,"Ġbh":5116,"Ġlock":5117,"Ġskin":5118,"heim":5119,"Ġfu":5120,"chester":5121,"Ġjackson":5122,"rect":5123,"Ġcopies":5124,"oman":5125,"Ġstarts":5126,"Ġadvis":5127,"Ġholds":5128,"Ã¡n":5129,"Ġactions":5130,"Ġairpl":5131,"mony":5132,"Ġfaced":5133,"Ġinvestigation":5134,"Ġpartner":5135,"Ġmaxim":5136,"Ġheadquarters":5137,"Ġ1946":5138,"kes":5139,"Ġvehicles":5140,"iami":5141,"Ġscientist":5142,"Ġcollected":5143,"Ġpolitics":5144,"Ġinstrument":5145,"Ġgained":5146,"Ġchicken":5147,"Ġavenue":5148,"Ġindones":5149,"Ġinsur":5150,"90":5151,"Ġfisher":5152,"Ġhay":5153,"Ġrivers":5154,"Ġtheater":5155,"Ġprin":5156,"Ġfinals":5157,"Ġconsult":5158,"rig":5159,"Ġelimin":5160,"lav":5161,"Ġlem":5162,"ika":5163,"Ġdna":5164,"Ġtechnical":5165,"Ġniger":5166,"Ġadult":5167,"Ġgrown":5168,"Ġnorthwest":5169,"Ġopposition":5170,"Ġcombined":5171,"Ġfigures":5172,"anes":5173,"Ġsmok":5174,"Ġrecru":5175,"Ġimper":5176,"Ġpresence":5177,"Ġcombat":5178,"Ġconver":5179,"Ã±":5180,"osen":5181,"Ġincorpor":5182,"Ġpilot":5183,"Ġbah":5184,"Ġheritage":5185,"Ġemergency":5186,"chi":5187,"ighth":5188,"Ġfishing":5189,"Ġconservative":5190,"Ġdim":5191,"Ġthurs":5192,"Ġmissing":5193,"Ġmiami":5194,"Ġkilling":5195,"bird":5196,"Ġshape":5197,"Ġblow":5198,"Ġclaims":5199,"Ġabe":5200,"ici":5201,"Ġ1966":5202,"order":5203,"Ġreco":5204,"Ġmuslim":5205,"Ġpump":5206,"Ġmurder":5207,"Ġrecon":5208,"60":5209,"Ġspending":5210,"Ġmeanwhile":5211,"Ġwalls":5212,"Ġoccurred":5213,"Ġcapacity":5214,"Ġtesting":5215,"eman":5216,"Ġcheese":5217,"25":5218,"Ġbasis":5219,"Ġsab":5220,"Ġsciences":5221,"iverse":5222,"Ġeve":5223,"Ġsav":5224,"Ġmissouri":5225,"Ġanyone":5226,"Ġturk":5227,"Ġcuba":5228,"Ġsons":5229,"Ġretire":5230,"Ġsteel":5231,"Ġintelligence":5232,"Ġflower":5233,"hah":5234,"Ġaer":5235,"Ġ150":5236,"Ġtowns":5237,"Ġkong":5238,"gi":5239,"win":5240,"awa":5241,"Ġengineer":5242,"Ġfewer":5243,"Ġknows":5244,"Ġ1963":5245,"https":5246,"Ġneck":5247,"Ġfan":5248,"Ġsees":5249,"Ġros":5250,"Ġworldwide":5251,"Ġranked":5252,"Ġkansas":5253,"Ġherself":5254,"Ġwars":5255,"Ġstreets":5256,"ione":5257,"lets":5258,"aga":5259,"Ġnoise":5260,"Ġthinks":5261,"Ġ1942":5262,"Ġcrop":5263,"Ġrailroad":5264,"yees":5265,"hens":5266,"Ġemployees":5267,"Ġwrest":5268,"Ġoperating":5269,"Ġrugby":5270,"uan":5271,"Ġanton":5272,"Ġhealthy":5273,"iders":5274,"Ġscottish":5275,"icient":5276,"Ġdeveloping":5277,"Ġvietnam":5278,"Ġpaintings":5279,"Ġ37":5280,"Ġloan":5281,"Ġatlantic":5282,"Ġapplied":5283,"Ġreduced":5284,"Ġalbert":5285,"Ġmaryland":5286,"Ġtask":5287,"Ġtra":5288,"Ġsecondary":5289,"onto":5290,"Ġintended":5291,"makers":5292,"war":5293,"Ġpresidential":5294,"Ġpair":5295,"Ġopin":5296,"Ġbush":5297,"Ġscul":5298,"iot":5299,"Ġlanguages":5300,"Ġboom":5301,"Ġcemetery":5302,"Ġparties":5303,"Ġcalc":5304,"Ġbern":5305,"Ġcorporation":5306,"Ġspokes":5307,"Ġstuck":5308,"Ġgallery":5309,"ees":5310,"Ġsort":5311,"Ġcanal":5312,"Ġwatching":5313,"Ġrapid":5314,"Ġathletes":5315,"Ġchosen":5316,"Ġstret":5317,"200":5318,"Ġjenn":5319,"Ġsteve":5320,"Ġpeek":5321,"Ġalexander":5322,"Ġsust":5323,"Ġreligion":5324,"Ġtools":5325,"Ġdinner":5326,"Ġnarrow":5327,"inson":5328,"Ġmemory":5329,"Ġcycl":5330,"Ġvirt":5331,"resp":5332,"lers":5333,"Ġeric":5334,"Ġmit":5335,"Ġsomebody":5336,"Ġmillions":5337,"Ġaudience":5338,"Ġmalays":5339,"Ġhosted":5340,"Ġwolf":5341,"Ġaccompan":5342,"Ġpolish":5343,"Ġfully":5344,"Ġbrick":5345,"Ġthursday":5346,"gie":5347,"Ġperforming":5348,"Ġhydro":5349,"Ġtrained":5350,"Ġfacult":5351,"Ġhits":5352,"Ġgrey":5353,"Ġunkn":5354,"Ġnotes":5355,"Ġshowing":5356,"Ġdistingu":5357,"Ġvisited":5358,"Ġallowing":5359,"Ġdrones":5360,"Ġsubur":5361,"Ġsigns":5362,"Ġrefused":5363,"Ġwash":5364,"Ġconcent":5365,"Ġlew":5366,"Ġapproved":5367,"Ġentr":5368,"Ġeverybody":5369,"Ġrenamed":5370,"Ġcategory":5371,"Ġsorry":5372,"Ġarizona":5373,"night":5374,"Ġcav":5375,"Ġcolors":5376,"Ġmobile":5377,"Ġbbc":5378,"Ġseats":5379,"agan":5380,"iber":5381,"Ġspect":5382,"Ġjean":5383,"Ġagriculture":5384,"Ġyog":5385,"Ġmyster":5386,"Ġrocks":5387,"Ġprotests":5388,"Ġsettlement":5389,"Ġfilled":5390,"bel":5391,"sect":5392,"Ġagent":5393,"Ġusers":5394,"aws":5395,"Ġspeaking":5396,"Ġliberal":5397,"oir":5398,"Ġsubs":5399,"Ġdisappe":5400,"Ġshell":5401,"Ġoppos":5402,"Ġmanufacture":5403,"Ġshirt":5404,"Ġdy":5405,"Ġminnes":5406,"Ġending":5407,"Ġdiscovery":5408,"Ġwhoa":5409,"Ġuhoh":5410,"Ġfalls":5411,"Ġeducated":5412,"era":5413,"iÄĩ":5414,"Ġexpensive":5415,"Ġmail":5416,"Ġanne":5417,"Ġkat":5418,"iform":5419,"Ġmentioned":5420,"Ġcontrolled":5421,"Ġcore":5422,"ava":5423,"Ġ1954":5424,"ĠÂ£":5425,"kh":5426,"het":5427,"Ġpainted":5428,"Ġlimit":5429,"Ġlin":5430,"itan":5431,"Ġreduce":5432,"Ġturt":5433,"ophy":5434,"Ġlect":5435,"Ġgran":5436,"Ġbacter":5437,"olved":5438,"Ã¸":5439,"Ġattorney":5440,"Ġlikes":5441,"Ġunknown":5442,"Ġhorn":5443,"Ġmathem":5444,"Ġbond":5445,"Ġpros":5446,"Ġnether":5447,"Ġvictoria":5448,"Ġrefugees":5449,"itter":5450,"Ġtransportation":5451,"Ġswedish":5452,"ription":5453,"Ġgram":5454,"Ġconduct":5455,"Ġbronze":5456,"Ġlions":5457,"Ġframe":5458,"Ġmatt":5459,"wich":5460,"po":5461,"Ġvehicle":5462,"Ġbure":5463,"Ġkir":5464,"Ġsounds":5465,"Ġpuzz":5466,"ulate":5467,"Ġsetting":5468,"Ġlieuten":5469,"Ġregions":5470,"met":5471,"Ġslo":5472,"Ġmodels":5473,"Äį":5474,"Ġyourself":5475,"Ġturning":5476,"Ġeasily":5477,"bourne":5478,"Ġsquadron":5479,"Ġkitchen":5480,"Ġultimately":5481,"Ġexpanded":5482,"Ġbodies":5483,"Ġentry":5484,"Ġtu":5485,"Ġminnesota":5486,"Ġwithd":5487,"Ġheads":5488,"Ġ1962":5489,"Ġdistinct":5490,"Ġdrawing":5491,"Ġimmigrants":5492,"Ġpric":5493,"Ġnathan":5494,"Ġpoly":5495,"Ġ1958":5496,"Ġsinging":5497,"Ġtreated":5498,"Ġberlin":5499,"rich":5500,"Ġblank":5501,"Ġquiet":5502,"Ġviews":5503,"Ġdirty":5504,"Ġmagn":5505,"Ġinhabitants":5506,"Ġsale":5507,"Ġtank":5508,"ishes":5509,"Ġ1959":5510,"umed":5511,"Ġfacility":5512,"Ġexisting":5513,"Ġbom":5514,"elve":5515,"Ġvess":5516,"Ġdecade":5517,"Ġperformances":5518,"enger":5519,"amin":5520,"Ġsets":5521,"Ġ1948":5522,"Ġthir":5523,"Ġfederation":5524,"Ġemper":5525,"Ġpositions":5526,"Ġunlike":5527,"Ġalternative":5528,"Ġends":5529,"Ġpremier":5530,"Ġfleet":5531,"Ġazerb":5532,"Ġhorses":5533,"Ġfinger":5534,"Ġ1941":5535,"Ġreject":5536,"Ġzh":5537,"Ġopera":5538,"Ġdesignated":5539,"Ġazerbai":5540,"Ġpier":5541,"Ġjord":5542,"Ġfuel":5543,"Ġillust":5544,"aug":5545,"engers":5546,"Ġsubtropical":5547,"Ġlyn":5548,"Ġcommonly":5549,"Ġhole":5550,"Ġconstitution":5551,"aret":5552,"Ġarthur":5553,"Ġcrisis":5554,"Ġwealth":5555,"Ġmatthe":5556,"Ġparent":5557,"Ġlieutenant":5558,"bro":5559,"Ġmerc":5560,"Ġgather":5561,"bye":5562,"fa":5563,"Ġcauses":5564,"Ġtitles":5565,"Ġeag":5566,"Ġreceiving":5567,"Ġgree":5568,"Ġ1961":5569,"Ġescape":5570,"Ġwitness":5571,"Ġcovers":5572,"Ġepisodes":5573,"Ġinjured":5574,"pro":5575,"Ġisol":5576,"Ġitems":5577,"Ġtea":5578,"Ġturns":5579,"agues":5580,"Ġwy":5581,"ender":5582,"Ġdial":5583,"Ġunus":5584,"Ġtoronto":5585,"Ġrelatively":5586,"Ġsculpt":5587,"Ġment":5588,"Ġimages":5589,"Ġbite":5590,"Ġ1956":5591,"Ġexplained":5592,"rier":5593,"Ġunable":5594,"Ġbaron":5595,"Ġadvant":5596,"Ġpicked":5597,"Ġpiano":5598,"ading":5599,"Ġtwelve":5600,"Ġ400":5601,"Ġcourses":5602,"Ġlands":5603,"Ġinfantry":5604,"Ġip":5605,"Ġvisual":5606,"Ġspin":5607,"Ġafghanistan":5608,"garian":5609,"Ġsituated":5610,"Ġproceed":5611,"Ġprofit":5612,"Ġnomi":5613,"Ġstood":5614,"Ġcloth":5615,"Ġconnection":5616,"Ġspoke":5617,"Ġnaima":5618,"itzer":5619,"Ġmall":5620,"Ġacts":5621,"Ġcreation":5622,"Ġinvited":5623,"Ġsenator":5624,"Ġmatthew":5625,"uela":5626,"con":5627,"Ġshared":5628,"Ġ1947":5629,"Ġmental":5630,"Ġrescue":5631,"bles":5632,"Ġtight":5633,"Ġfame":5634,"Ġreserv":5635,"Ġnaval":5636,"oa":5637,"Ġroles":5638,"Ġsupporters":5639,"arian":5640,"Ġadvent":5641,"Ġbid":5642,"itors":5643,"Ġexcell":5644,"Ġlose":5645,"Ġmarg":5646,"Ġinnov":5647,"Ġweekly":5648,"box":5649,"Ġsolid":5650,"Ġelephant":5651,"Ġine":5652,"Ġtob":5653,"Ġmarked":5654,"Ġeffective":5655,"Ġdocumentary":5656,"Ġdism":5657,"Ġpurple":5658,"Ġoops":5659,"isted":5660,"fully":5661,"Ġlegs":5662,"hl":5663,"rell":5664,"Ġformat":5665,"Ġagricultural":5666,"Ġthirty":5667,"Ġappa":5668,"Ġ1943":5669,"Ġsurrounding":5670,"Ġwaiting":5671,"Ġpenal":5672,"Ġnurs":5673,"Ġrepresenting":5674,"Ġtai":5675,"Ġstudying":5676,"Ġdetail":5677,"Ġdollars":5678,"Ġfaculty":5679,"Ġtired":5680,"Ġsoutheast":5681,"Ġexistence":5682,"Ġtaylor":5683,"hr":5684,"Ġwaste":5685,"Ġ1955":5686,"Ġadvance":5687,"Ġoak":5688,"ern":5689,"Ġcatal":5690,"Ġscheduled":5691,"Ġot":5692,"Ġseconds":5693,"Ġgiant":5694,"Ġsevere":5695,"Ġdetect":5696,"Ġroads":5697,"Ġexhibition":5698,"Ġenroll":5699,"Ġnetherlands":5700,"bl":5701,"Ġforg":5702,"Ġqueens":5703,"Ġsin":5704,"Ġchapel":5705,"Ġtack":5706,"Ġaired":5707,"Ġlap":5708,"Ġron":5709,"Ġvin":5710,"leg":5711,"Ġguys":5712,"Ġlawyer":5713,"Ġclosely":5714,"Ġfoss":5715,"Ġrising":5716,"Ġprote":5717,"Ġseeing":5718,"Ġhills":5719,"70":5720,"Ġgain":5721,"aya":5722,"Ġpromotion":5723,"Ġsexual":5724,"Ġebola":5725,"Ġpock":5726,"Ġdub":5727,"aza":5728,"Ġapparent":5729,"Ġnin":5730,"Ġarticles":5731,"Ġreality":5732,"Ġseg":5733,"pty":5734,"Ġcenters":5735,"Ġresulted":5736,"Ġrein":5737,"claim":5738,"Ġmusicians":5739,"Ġjourney":5740,"Ġnasa":5741,"agn":5742,"aham":5743,"Ġ179":5744,"Ġtig":5745,"iti":5746,"Ġformation":5747,"Ġtreas":5748,"Ġpup":5749,"Ġdecide":5750,"Ġemperor":5751,"Ġspeak":5752,"rep":5753,"Ġchain":5754,"Ġnortheast":5755,"Ġcarrying":5756,"inder":5757,"Ġcoc":5758,"lec":5759,"Ġsheep":5760,"caa":5761,"Ġtie":5762,"isa":5763,"Ġkhan":5764,"regon":5765,"Ġharry":5766,"Ġoregon":5767,"Ġholly":5768,"Ġbanks":5769,"Ġcinem":5770,"Ġil":5771,"Ġcream":5772,"Ġdram":5773,"Ġobl":5774,"Ġpromote":5775,"Ġindependence":5776,"Ġceremony":5777,"Ġpermanent":5778,"Ġmile":5779,"Ġpray":5780,"Ġsoil":5781,"Ġrates":5782,"Ġflu":5783,"Ġguest":5784,"rus":5785,"Ġdebate":5786,"ez":5787,"Ġdiet":5788,"pects":5789,"Ġpoetry":5790,"ogue":5791,"Ġlaid":5792,"Ġanswer":5793,"Ġdetermined":5794,"Ġtries":5795,"Ġpassing":5796,"Ġstands":5797,"zech":5798,"Ġvideos":5799,"Ġconcerns":5800,"Ġazerbaijan":5801,"Ġ38":5802,"Ġexped":5803,"Ġafford":5804,"Ġobtained":5805,"Ġcray":5806,"Ġbub":5807,"Ġoldest":5808,"yd":5809,"Ġpale":5810,"Ġcave":5811,"Ġearn":5812,"Äģn":5813,"Ġcommissioned":5814,"esters":5815,"idel":5816,"Ġeasier":5817,"Ġczech":5818,"Ġpassengers":5819,"Ġattacked":5820,"Ġvotes":5821,"Ġunderstanding":5822,"Ġrespectively":5823,"Ġhook":5824,"Ġalliance":5825,"Ġaccused":5826,"Ġbarn":5827,"Ġbringing":5828,"Ġku":5829,"Ġmining":5830,"Ġsupporting":5831,"Ġimmigration":5832,"Ġdiego":5833,"Ġhawai":5834,"Ġwound":5835,"Ġted":5836,"Ġassess":5837,"Ġmaz":5838,"icy":5839,"Ġgranted":5840,"Ġsweden":5841,"Ġimperial":5842,"21":5843,"Ġmales":5844,"Ġdetermine":5845,"alle":5846,"acement":5847,"Ġclar":5848,"Ġtouchdown":5849,"Ġchamber":5850,"Ġark":5851,"Ġgenes":5852,"ologists":5853,"Ġdevices":5854,"Ġpip":5855,"acks":5856,"Ġbrook":5857,"Ġretail":5858,"Ġqualified":5859,"www":5860,"Ġjordan":5861,"à¤":5862,"Ġtend":5863,"Ġorchestra":5864,"anth":5865,"Ġspell":5866,"Ġlandsc":5867,"Ġvoted":5868,"Ġdavis":5869,"Ġncaa":5870,"ropri":5871,"Ġdefend":5872,"Ġportra":5873,"timore":5874,"Ġstrateg":5875,"oli":5876,"otyp":5877,"Ġshore":5878,"Ġargued":5879,"Ġtag":5880,"onent":5881,"Ġpul":5882,"Ġathletic":5883,"Ġairplane":5884,"Ġwhales":5885,"Ġworried":5886,"Ġexpans":5887,"Ġward":5888,"Ġmouse":5889,"Ġ1952":5890,"Ġstarring":5891,"Ġutil":5892,"Ġsolar":5893,"Ġjur":5894,"Ġsoph":5895,"Ġleads":5896,"Ġpatri":5897,"Ġdetails":5898,"Ġdocuments":5899,"Ġbachel":5900,"Ġelementary":5901,"Ġfo":5902,"akh":5903,"Ġ1953":5904,"Ġali":5905,"Ġshaped":5906,"Ġbuff":5907,"Ġsteam":5908,"eed":5909,"Ġearthqu":5910,"Ġdall":5911,"Ġoccasion":5912,"respond":5913,"Ġconsequ":5914,"Ġdistribution":5915,"Ġclassic":5916,"Ġdor":5917,"Ġ1957":5918,"Ġkeeping":5919,"Ġbos":5920,"Ġalf":5921,"Ġvolume":5922,"Ġbaltimore":5923,"Ġidentity":5924,"ami":5925,"Ġexclus":5926,"Ġstephen":5927,"usal":5928,"Ġcorrespond":5929,"Ġbord":5930,"Ġrib":5931,"Ġchur":5932,"Ġweak":5933,"Ġhired":5934,"Ġcharges":5935,"Ġannoun":5936,"Ġtort":5937,"illed":5938,"Ġcausing":5939,"Ġcandidates":5940,"Ġfounding":5941,"Ġsyrian":5942,"Ġequal":5943,"vis":5944,"Ġbee":5945,"aked":5946,"onym":5947,"Ġbrian":5948,"Ġdrew":5949,"Ġuniversities":5950,"Ġtrick":5951,"ression":5952,"pton":5953,"Ġprotected":5954,"Ġ1939":5955,"Ġbelieves":5956,"Ġisraeli":5957,"Ġmethods":5958,"Ġexactly":5959,"Ġslightly":5960,"Ġgab":5961,"Ġworse":5962,"Ġminimum":5963,"li":5964,"zo":5965,"Ġrick":5966,"Ġhelic":5967,"Ġwinners":5968,"22":5969,"Ġhip":5970,"iler":5971,"Ġmoist":5972,"Ġlatest":5973,"inary":5974,"Ġlily":5975,"Ġmeasures":5976,"oti":5977,"Ġsel":5978,"Ġcarbon":5979,"Ġrome":5980,"Ġscholarship":5981,"Ġaffili":5982,"Ġholy":5983,"roit":5984,"Ġjews":5985,"Ġbones":5986,"Ġinteresting":5987,"Ġreflect":5988,"Ġpainter":5989,"iar":5990,"Ġtrop":5991,"Ġlt":5992,"Ġ75":5993,"Ġfoods":5994,"Ġangry":5995,"Ġsought":5996,"Ġsche":5997,"Ġstudios":5998,"Ġphase":5999,"Ġcloser":6000,"Ġthor":6001,"olis":6002,"Ġvic":6003,"Ġagree":6004,"Ġmarc":6005,"Ġreaching":6006,"Ġlouisiana":6007,"Ġtemperature":6008,"Ġfab":6009,"iang":6010,"Ġpraised":6011,"Ġott":6012,"Ġdegrees":6013,"Ġpor":6014,"Ġheavily":6015,"Ġobserv":6016,"Ġabandoned":6017,"Ġelectronic":6018,"Ġages":6019,"Ġ1949":6020,"Ġprofession":6021,"char":6022,"Ġchocol":6023,"Ġmosc":6024,"Ġbats":6025,"Ġcontained":6026,"Ġclassroom":6027,"Ġhungry":6028,"Ġspecifically":6029,"Ġtong":6030,"Ġknight":6031,"Ġoverse":6032,"Ġpublication":6033,"Ġtang":6034,"inity":6035,"Ġattempts":6036,"Ġsharp":6037,"Ġapplication":6038,"Ġpoland":6039,"Ġethnic":6040,"itled":6041,"under":6042,"Ġinteract":6043,"Ġrepublicans":6044,"Ġsettled":6045,"fall":6046,"Ġferg":6047,"Ġbrush":6048,"Ġbachelor":6049,"Ġty":6050,"ching":6051,"Ġ65":6052,"Ġlabour":6053,"Ġinjuries":6054,"Ġlinked":6055,"lines":6056,"Ġmamm":6057,"utional":6058,"Ġrober":6059,"Ġpope":6060,"idden":6061,"Ġfunds":6062,"wart":6063,"alu":6064,"Ġsudden":6065,"Ġyout":6066,"Ġincident":6067,"donald":6068,"Ġmol":6069,"ori":6070,"Ġgym":6071,"Ġpasses":6072,"Ġweekend":6073,"Ġjane":6074,"Ġguine":6075,"Ġfrequently":6076,"ules":6077,"Ġoffices":6078,"Ġcot":6079,"Ġatm":6080,"Ġhomeless":6081,"Ġsang":6082,"Ġcash":6083,"Ġcoordin":6084,"Ġauthors":6085,"Ġsucceeded":6086,"Ġdiplom":6087,"Ġthick":6088,"Ġ44":6089,"Ġsteps":6090,"onso":6091,"icians":6092,"Ġchose":6093,"apers":6094,"Ġadding":6095,"Ġinfect":6096,"Ġadministrative":6097,"Ġvictims":6098,"Ġdetroit":6099,"Ġnad":6100,"Ġtelling":6101,"Ġpossibly":6102,"35":6103,"uro":6104,"Ġhurric":6105,"Ġcredit":6106,"iat":6107,"mont":6108,"Ġhan":6109,"Ġwriters":6110,"Ġalab":6111,"tag":6112,"Ġwave":6113,"Ġfm":6114,"hedral":6115,"Ġaqu":6116,"real":6117,"Ġheaded":6118,"mouth":6119,"Ġmort":6120,"Ġteens":6121,"Ġfeeling":6122,"Ġnegative":6123,"Ġchurches":6124,"Ġ1951":6125,"Ġfaith":6126,"Ġplastic":6127,"Ġdv":6128,"oses":6129,"rene":6130,"Ġkinds":6131,"Ġinsurance":6132,"Ġupd":6133,"Ġvocal":6134,"Ġexercise":6135,"Ġopposed":6136,"Ġduke":6137,"Ġlit":6138,"Ġalaska":6139,"aints":6140,"Ġcolour":6141,"Ġjournalist":6142,"cript":6143,"Ġcm":6144,"Ġ42":6145,"Ġ1918":6146,"Ġstrength":6147,"mad":6148,"æĿ":6149,"Ġhunt":6150,"Ġalleged":6151,"Ġlam":6152,"Ġnest":6153,"Ġcompar":6154,"Ġ55":6155,"Ġmelbourne":6156,"ĠâĢ¦":6157,"Ġcharged":6158,"Ġprepared":6159,"Ġpir":6160,"Ġsha":6161,"Ġroughly":6162,"Ġmoscow":6163,"Ġcenturies":6164,"Ġlocations":6165,"Ġcrash":6166,"Ġdowntown":6167,"Ġchocolate":6168,"Ġcig":6169,"writer":6170,"oom":6171,"Ġaffected":6172,"eral":6173,"Ġryan":6174,"Ġinterp":6175,"Ġstayed":6176,"Ġfinishing":6177,"Ġgord":6178,"Ġreference":6179,"eline":6180,"Ġcharity":6181,"Ġoxford":6182,"Ġalabama":6183,"ivals":6184,"Ġdesert":6185,"Ġdecor":6186,"Ġ1937":6187,"Ġfalling":6188,"Ġshopping":6189,"Ġatlanta":6190,"Ġlicens":6191,"put":6192,"Ġtough":6193,"Ġnone":6194,"Ġsax":6195,"Ġyoutube":6196,"Ġont":6197,"Ġrepresents":6198,"Ġresulting":6199,"Ġhonour":6200,"Ġax":6201,"Ġprotesters":6202,"Ġmicroph":6203,"Ġlux":6204,"Ġvel":6205,"entially":6206,"Ġorth":6207,"enna":6208,"Ġdevice":6209,"Ġbureau":6210,"Ġsouthwest":6211,"Ġsurvived":6212,"Ġhou":6213,"Ġvon":6214,"Ġoutbre":6215,"Ġmaria":6216,"ograph":6217,"Ġselection":6218,"otic":6219,"Ġpapers":6220,"Ġbenefits":6221,"Ġseventh":6222,"Ġconsecutive":6223,"Ġgreece":6224,"Ġcous":6225,"Ġhelicop":6226,"bec":6227,"Ġtorn":6228,"Ġches":6229,"Ġrooms":6230,"Ġcookies":6231,"Ġ48":6232,"Ġemph":6233,"Ġpopulations":6234,"Ġ1936":6235,"mates":6236,"Ġscar":6237,"enez":6238,"Ġachieved":6239,"Ġjoining":6240,"Ġregistered":6241,"Ġgoods":6242,"oster":6243,"Ġtaste":6244,"Ġchoose":6245,"Ġbottle":6246,"dam":6247,"father":6248,"pass":6249,"rimin":6250,"rif":6251,"Ġsuggests":6252,"Ġfiction":6253,"Ġhearing":6254,"Ġrud":6255,"Ġriding":6256,"Ġkam":6257,"Ġpassenger":6258,"Ġsleeping":6259,"lyn":6260,"Ġfarms":6261,"Ġinsect":6262,"Ġ49":6263,"Ġsymbol":6264,"Ġlewis":6265,"Ġmerch":6266,"Ġextremely":6267,"Ġphilippines":6268,"Ġatmosp":6269,"Ġâ":6270,"Ġloo":6271,"eller":6272,"Ġnorwe":6273,"Ġdefined":6274,"Ġhappening":6275,"Ġdaughters":6276,"uous":6277,"erves":6278,"Ġuniform":6279,"Ġmovies":6280,"Ġmathemat":6281,"Ġfergus":6282,"Ġwake":6283,"Ġpounds":6284,"Ġcourts":6285,"Ġindiana":6286,"Ġimproved":6287,"Ġwelcome":6288,"Ġconcluded":6289,"Ġretirement":6290,"Ġdallas":6291,"Ġbarack":6292,"Ġasking":6293,"Ġpalace":6294,"Ġversions":6295,"Ġmotion":6296,"Ġconcern":6297,"Ġancest":6298,"Ġarchitecture":6299,"ãĢ":6300,"Ġpalestin":6301,"Ġcards":6302,"Ġillegal":6303,"Ġnov":6304,"Ġdomestic":6305,"Ġjay":6306,"Ġchildhood":6307,"Ġconvention":6308,"Ġfolk":6309,"Ġdivers":6310,"Ġbeij":6311,"Ġdean":6312,"Ġagencies":6313,"iki":6314,"Ġclinton":6315,"Ġcolombia":6316,"Ġfired":6317,"Ġyester":6318,"Ġsuccessfully":6319,"Ġdiamond":6320,"Ġpill":6321,"Ġclassical":6322,"Ġinvolve":6323,"Ġperu":6324,"Ġquant":6325,"Ġdeplo":6326,"Ġtaiwan":6327,"Ġfant":6328,"igen":6329,"ocese":6330,"Ġadapt":6331,"Ġanymore":6332,"Ġdifferences":6333,"Ġterritor":6334,"Ġvision":6335,"Ġplus":6336,"Ġbabies":6337,"Ġindonesia":6338,"Ġleon":6339,"Ġ1934":6340,"Ġrequest":6341,"Ġinstitutions":6342,"Ġexpansion":6343,"Ġdrawn":6344,"Ġimportance":6345,"Ġinvestment":6346,"Ġfacebook":6347,"ashed":6348,"Ġstress":6349,"Ġworry":6350,"Ġfranch":6351,"Ġshock":6352,"Ġscript":6353,"Ġpitts":6354,"Ġrecognition":6355,"Ġscenes":6356,"Ġdozen":6357,"Ġotherwise":6358,"Ġgreatest":6359,"Ġdoggie":6360,"Ġsubsid":6361,"Ġadvantage":6362,"Ġbeijing":6363,"standing":6364,"Ġstructures":6365,"Ġduty":6366,"mes":6367,"Ġenforcement":6368,"Ġyesterday":6369,"Ġford":6370,"Ġinstall":6371,"ĠÎ":6372,"Ġrus":6373,"Ġstring":6374,"ova":6375,"75":6376,"Ġcats":6377,"Ġpione":6378,"Ġgent":6379,"Ġbusy":6380,"ipping":6381,"Ġ1917":6382,"Ġ1919":6383,"Ġtennis":6384,"Ġbrigade":6385,"ni":6386,"vant":6387,"Ġmud":6388,"Ġthro":6389,"Ġsalv":6390,"Ġdeaths":6391,"Ġelder":6392,"Ġroy":6393,"Ġlegislative":6394,"Ġregarding":6395,"Ġom":6396,"Ġshah":6397,"Ġaged":6398,"Ġprogramme":6399,"Ġraj":6400,"illing":6401,"Ġbreaking":6402,"Ġ1938":6403,"Ġconfeder":6404,"Ġpaying":6405,"och":6406,"Ġnam":6407,"Ġrabbit":6408,"Ġferguson":6409,"24":6410,"Ġgate":6411,"Ġrear":6412,"opher":6413,"Ġworst":6414,"Ġdrone":6415,"Ġevening":6416,"Ġcommunication":6417,"Ġ1900":6418,"Ġyours":6419,"Ġfiles":6420,"Ġelector":6421,"Ġemployed":6422,"fly":6423,"Ġberg":6424,"lah":6425,"Ġchim":6426,"Ġcompete":6427,"Ġnegoti":6428,"iments":6429,"Ġcomplic":6430,"Ġinternal":6431,"cs":6432,"Ġmagic":6433,"Ġrepeated":6434,"Ġlane":6435,"agers":6436,"Ġcathedral":6437,"oles":6438,"Ġalg":6439,"umes":6440,"Ġcontributed":6441,"usion":6442,"Ġ(;":6443,"Ġconsisted":6444,"Ġconcerned":6445,"Ġopportunities":6446,"ycl":6447,"Ġlawmakers":6448,"Ġmetrop":6449,"Ġsimon":6450,"Ġeighth":6451,"Ġnorway":6452,"Ġposted":6453,"Ġvoters":6454,"bered":6455,"noon":6456,"Ġ39":6457,"anny":6458,"Ġinterior":6459,"Ġliterary":6460,"Ġsubsequent":6461,"fam":6462,"Ġgor":6463,"Ġwhit":6464,"Ġcompr":6465,"Ġmonitor":6466,"Ġmurd":6467,"Ġoccupied":6468,"Ġemphas":6469,"Ġnorwegian":6470,"Ġcolonel":6471,"Ġphilosophy":6472,"aran":6473,"Ġjail":6474,"Ġcontrast":6475,"Ġvisiting":6476,"Ġ1928":6477,"Ġruled":6478,"Ġspoon":6479,"Ġmonkey":6480,"Ġextensive":6481,"Ġinstitution":6482,"Ġcriticized":6483,"Ġrestaurants":6484,"avery":6485,"tical":6486,"uz":6487,"Ġafternoon":6488,"Ġexplo":6489,"Ġswitch":6490,"Ġportion":6491,"Ġunusual":6492,"Ġfed":6493,"Ġtool":6494,"Ġreact":6495,"Ġclay":6496,"Ġcoaches":6497,"Ġfifa":6498,"Ġphotos":6499,"rad":6500,"Ġfaster":6501,"opp":6502,"endent":6503,"Ġpatrick":6504,"Ġpolicies":6505,"dd":6506,"Ã¢":6507,"adesh":6508,"Ġukrainian":6509,"Ġmaximum":6510,"Ġpy":6511,"Ġorders":6512,"Ġadmitted":6513,"Ġlegislation":6514,"sk":6515,"Ġcant":6516,"aria":6517,"Ġstor":6518,"Ġinstalled":6519,"Ġtypical":6520,"Ġontario":6521,"Ġentitled":6522,"Ġsnake":6523,"Ġvirus":6524,"Ġprices":6525,"Ġske":6526,"Ġmerg":6527,"Ġrif":6528,"aboo":6529,"Ġhousehold":6530,"Ġfixed":6531,"ache":6532,"Ġbrid":6533,"Ġceo":6534,"Ġwalter":6535,"Ġfighters":6536,"Ġlegend":6537,"Ġassistance":6538,"Ġapplications":6539,"Ġcrossing":6540,"Ġethan":6541,"Ġtunnel":6542,"ront":6543,"Ġsoul":6544,"Ġshad":6545,"Ġseeds":6546,"Ġchile":6547,"Ġfriendly":6548,"Ġdebuted":6549,"Ġpowers":6550,"Ġmicrophone":6551,"ologies":6552,"Ġappeal":6553,"Ġble":6554,"Ġrum":6555,"Ġtruth":6556,"Ġgrav":6557,"Ġmans":6558,"Ġchapter":6559,"Ġbot":6560,"Ġgast":6561,"Ġjoh":6562,"Ġtiger":6563,"Ġbread":6564,"Ġnathaniel":6565,"good":6566,"western":6567,"Ġalive":6568,"Ġclock":6569,"Ġpointed":6570,"Ġdrinking":6571,"stream":6572,"agen":6573,"Ġcreative":6574,"Ġseemed":6575,"Ġattempted":6576,"Ġturkish":6577,"ãĢģ":6578,"Ġsession":6579,"Ġawa":6580,"Ġinterests":6581,"Ġregularly":6582,"Ġenemy":6583,"Ġsole":6584,"Ġremem":6585,"Ġswitzer":6586,"Ġmalaysia":6587,"Ġmolec":6588,"Ġ46":6589,"Ġcape":6590,"Ġmulti":6591,"Ġjunction":6592,"Ġrefers":6593,"Ġbenefit":6594,"Ġnina":6595,"Ġfacing":6596,"Ġlyrics":6597,"Ġinspect":6598,"Ġproperties":6599,"Ġbattal":6600,"Ġincreasingly":6601,"Ġvolunteers":6602,"Ġspons":6603,"Ġendange":6604,"Ġdepth":6605,"Ã©e":6606,"Ġharm":6607,"Ġportray":6608,"Ġobjects":6609,"Ġendangered":6610,"Ġjosh":6611,"Ġseek":6612,"Ġmiller":6613,"Ġhyp":6614,"Ġdelay":6615,"Ġecu":6616,"Ġinfluenced":6617,"æĿĳ":6618,"gery":6619,"Ġcorrect":6620,"Ġempty":6621,"Ġfemales":6622,"Ġentirely":6623,"Ġdrugs":6624,"born":6625,"olitan":6626,"Ġrhy":6627,"Ġseeking":6628,"Ġ1935":6629,"Ġrival":6630,"agu":6631,"Ġcolumn":6632,"Ġformal":6633,"Ġtelephone":6634,"Ġjesus":6635,"Ġswitzerland":6636,"Ġmetres":6637,"Ġcommunications":6638,"Ġexperienced":6639,"Ġgolf":6640,"Ġpractices":6641,"Ġexpressed":6642,"acco":6643,"Ġacres":6644,"Ġbelief":6645,"Ġentrance":6646,"Ġhighlight":6647,"Ġengaged":6648,"Ġparticipate":6649,"Ġcircuit":6650,"Ġinaug":6651,"icts":6652,"Ġoperate":6653,"Ġmissed":6654,"Ġassociate":6655,"Ġay":6656,"Ġjuan":6657,"Ġmarketing":6658,"bu":6659,"erick":6660,"Ġsector":6661,"Ġdanger":6662,"Ġbapt":6663,"Ġoklah":6664,"orrow":6665,"Ġslide":6666,"Ġcoastal":6667,"Ġdinosaur":6668,"Ġcel":6669,"Ġlosses":6670,"Ġpollution":6671,"Ġpant":6672,"Ġcommissioner":6673,"Ġsurvive":6674,"raw":6675,"Ġattached":6676,"Ġswing":6677,"Ġtomorrow":6678,"Ġplot":6679,"Ġpublishing":6680,"Ġconvent":6681,"Ġcabinet":6682,"know":6683,"Ġlakes":6684,"Ġcarp":6685,"Ġpitched":6686,"Ġcolonial":6687,"rete":6688,"Ġrhod":6689,"abet":6690,"Ġprovinc":6691,"Ġ1933":6692,"Ġwooden":6693,"ran":6694,"rit":6695,"Ġsight":6696,"Ġcake":6697,"Ġmp":6698,"Ġny":6699,"Ġstem":6700,"Ġvenez":6701,"Ġsubm":6702,"bell":6703,"Ġgulf":6704,"Ġguide":6705,"Ġexplos":6706,"Ġkentucky":6707,"Ġnan":6708,"oslav":6709,"Ġwinds":6710,"di":6711,"Ġoccurs":6712,"Ġhistorian":6713,"Ġcambridge":6714,"Ġdamaged":6715,"Ġetc":6716,"Ġoklahoma":6717,"car":6718,"Ġmississ":6719,"Ġsolution":6720,"Ġfavour":6721,"Ġpocket":6722,"Ġkl":6723,"Ġillness":6724,"Ġmassive":6725,"Ġproducing":6726,"Ġstruggle":6727,"gas":6728,"Ġwire":6729,"Ġcontaining":6730,"Ġeleven":6731,"Ġpulled":6732,"Äģb":6733,"Ġensure":6734,"Ġdates":6735,"oured":6736,"Ġhide":6737,"rot":6738,"Ġalph":6739,"Ġfactor":6740,"Ġtemperatures":6741,"ogen":6742,"Ġevolution":6743,"mingham":6744,"Ġargentina":6745,"fit":6746,"Ġraces":6747,"Ġproved":6748,"ucing":6749,"Ġresigned":6750,"Ġsupports":6751,"Ġnetworks":6752,"Ġtribe":6753,"Ġtobacco":6754,"23":6755,"iva":6756,"asty":6757,"Ġcopy":6758,"Ġtennes":6759,"Ġdancing":6760,"Ġpuzzle":6761,"Ġgordon":6762,"bage":6763,"Ġbib":6764,"Ġoffering":6765,"Ġappropri":6766,"Ġextension":6767,"Ġdressed":6768,"Ġsed":6769,"Ġpushed":6770,"Ġtennessee":6771,"omot":6772,"Ġprosec":6773,"Ġhispan":6774,"Ġ1910":6775,"foot":6776,"Ġcomic":6777,"Ġscrew":6778,"load":6779,"ivered":6780,"Ġpittsburgh":6781,"ifer":6782,"Ġblues":6783,"Ġgenetic":6784,"Ġecuador":6785,"Ġboats":6786,"Ġdiscover":6787,"Ġhollywood":6788,"Ġdynam":6789,"Ġbacteria":6790,"bra":6791,"icide":6792,"eld":6793,"Ġrav":6794,"Ġdrag":6795,"iques":6796,"ois":6797,"Ġcolleges":6798,"Ġwalker":6799,"Ġwatched":6800,"bar":6801,"Ġahm":6802,"Ġcass":6803,"Ġrenew":6804,"Ġpoison":6805,"Ġdiscrimin":6806,"ras":6807,"ÅĤ":6808,"Ġleaf":6809,"Ġ1912":6810,"Ġguinea":6811,"bul":6812,"Ġrequires":6813,"Ġtraveled":6814,"Ġsubjects":6815,"Ġharvard":6816,"ti":6817,"isy":6818,"Ġsty":6819,"Ġfeels":6820,"Ġchen":6821,"Ġdirectors":6822,"Ġphill":6823,"Ġgreg":6824,"Ġdelivered":6825,"place":6826,"Ġresponsibility":6827,"Ġtied":6828,"Ġliqu":6829,"Ġraising":6830,"Ġhouston":6831,"Ġcomfort":6832,"Ġplayoff":6833,"Ġeconomics":6834,"Ġdiseases":6835,"Ġdistinguished":6836,"Ġworker":6837,"Ġ64":6838,"ippi":6839,"Ġsuspended":6840,"angel":6841,"Ġtens":6842,"Ġpas":6843,"Ġprefer":6844,"Ġsupplies":6845,"atherine":6846,"Ġmaintained":6847,"Ġtrucks":6848,"Ġeuro":6849,"Ġ1914":6850,"Ġcher":6851,"iser":6852,"itals":6853,"Ġere":6854,"heless":6855,"inals":6856,"Ġamate":6857,"Ġevalu":6858,"Ġanch":6859,"Ġnich":6860,"ctic":6861,"Ġestablishment":6862,"Ġdyn":6863,"Ġjury":6864,"Ġshan":6865,"Ġ178":6866,"Ġsubstit":6867,"Ġtub":6868,"ardo":6869,"hal":6870,"Ġtribune":6871,"Ġegyptian":6872,"angle":6873,"otted":6874,"hammad":6875,"Ġderived":6876,"Ġinitiative":6877,"Ġtigers":6878,"Ġwheels":6879,"azing":6880,"Ġoccas":6881,"Ġexplore":6882,"Ġkennedy":6883,"tv":6884,"Ġpurchase":6885,"Ġinterpret":6886,"Ġfaces":6887,"Ġdistributed":6888,"Ġpersonnel":6889,"Ġbirmingham":6890,"Ġchallenges":6891,"Ġgoogle":6892,"die":6893,"Ġhart":6894,"Ġanderson":6895,"Ġlanding":6896,"Ġ1916":6897,"Ġclearly":6898,"Ġexpedition":6899,"rition":6900,"Ãº":6901,"Ġate":6902,"Ġbreath":6903,"Ġ1925":6904,"oor":6905,"Ġsi":6906,"Ġshif":6907,"Ġarmen":6908,"Ġcollaboration":6909,"Ġhamp":6910,"Ġagents":6911,"Ġcombination":6912,"Ġcommitted":6913,"Ġfailure":6914,"Ġnigeria":6915,"Ġsisters":6916,"Ġyard":6917,"Ġ1924":6918,"Ġcapture":6919,"Ġcad":6920,"essions":6921,"ierra":6922,"Ġviolent":6923,"heas":6924,"Ġfing":6925,"Ġpic":6926,"Ġyug":6927,"Ġug":6928,"apore":6929,"Ġacknow":6930,"Ġbelg":6931,"Ġdecre":6932,"Ġpriest":6933,"Ġhans":6934,"Ġfarmer":6935,"Ġmcdonald":6936,"Ġsurprise":6937,"athered":6938,"Ġpremiered":6939,"cing":6940,"Ġkings":6941,"aine":6942,"Ġprovincial":6943,"Ġdj":6944,"owa":6945,"ode":6946,"Ġ1921":6947,"Ġgrounds":6948,"Ġfran":6949,"Ġfarming":6950,"Ġ1926":6951,"Ġfurn":6952,"stairs":6953,"Ġwilling":6954,"Ġviewers":6955,"Ġtony":6956,"Ġprohib":6957,"Ġfindings":6958,"Ġdefence":6959,"Ġbroadcasting":6960,"Ġscholar":6961,"uther":6962,"Ġarc":6963,"Ġadap":6964,"veland":6965,"issions":6966,"Ġcutting":6967,"Ġfern":6968,"Ġmississippi":6969,"Ġtas":6970,"Ġtill":6971,"Ġresidence":6972,"Ġexamples":6973,"Ġlaugh":6974,"Ġwhale":6975,"Ġdonald":6976,"clusion":6977,"Ġroberts":6978,"Ġsri":6979,"Ġtoky":6980,"Ġkan":6981,"Ġsubsc":6982,"Ġannivers":6983,"Ġportugues":6984,"Ã£":6985,"Ġbump":6986,"Ġinvasion":6987,"antly":6988,"Ġlob":6989,"Ġstream":6990,"Ġ1932":6991,"Ġselect":6992,"pack":6993,"Ġgrab":6994,"Ġfrag":6995,"Ġsie":6996,"ilton":6997,"Ġ1927":6998,"Ġobserved":6999,"family":7000,"bow":7001,"Ġunderground":7002,"Ġsmo":7003,"Ġqueensland":7004,"Ġbc":7005,"Ġbou":7006,"Ġengines":7007,"Ġsettle":7008,"goodness":7009,"Ġkur":7010,"rible":7011,"Ġlights":7012,"Ġhurricane":7013,"lan":7014,"Ġdispl":7015,"Ġbands":7016,"Ġartistic":7017,"Ġdramatic":7018,"Ġbare":7019,"estyle":7020,"udi":7021,"Ġdecisions":7022,"Ġmichel":7023,"Ġrobot":7024,"Ġconstitu":7025,"Ġtiss":7026,"Ġale":7027,"etime":7028,"aki":7029,"Ġsail":7030,"Ġ1929":7031,"Ġantonio":7032,"friend":7033,"Ġorganisation":7034,"Ġresistance":7035,"Ġanniversary":7036,"Ġtap":7037,"Ġmedals":7038,"Ġsingapore":7039,"Ġdrivers":7040,"Ġdal":7041,"ilation":7042,"Ġyup":7043,"osis":7044,"Ġresolution":7045,"Ġdiscip":7046,"29":7047,"Ġcos":7048,"ament":7049,"Ġamend":7050,"Ġstrate":7051,"eper":7052,"Ġdesigns":7053,"Ġreplace":7054,"Ġcommit":7055,"Ġfiled":7056,"Ġqualifying":7057,"Ġmrs":7058,"Ġtrophy":7059,"elle":7060,"Ġsuffering":7061,"Ġgosh":7062,"Ġghost":7063,"Ġtokyo":7064,"Ġstrategy":7065,"asy":7066,"berry":7067,"Ġslowly":7068,"Ġsurrounded":7069,"Ġconverted":7070,"hu":7071,"Ġstages":7072,"Ġspots":7073,"Ġgrandfather":7074,"Ġwaves":7075,"Ġcute":7076,"alo":7077,"heastern":7078,"iner":7079,"Ġwine":7080,"Ġstating":7081,"Ġalco":7082,"Ġenl":7083,"Ġinstance":7084,"Ġentering":7085,"Ġmembership":7086,"Ġstrip":7087,"Ġmirror":7088,"col":7089,"uma":7090,"boy":7091,"Ġharder":7092,"going":7093,"Ġmoves":7094,"Ġdeclined":7095,"Ġprincess":7096,"usalem":7097,"Ġportuguese":7098,"Ġrating":7099,"Ġacid":7100,"Ġreturns":7101,"Ġcycle":7102,"Ġsmoking":7103,"](":7104,"Ġdak":7105,"Ġhiding":7106,"Ġtooth":7107,"Ġjos":7108,"Ġarena":7109,"Ġmeetings":7110,"Ġfighter":7111,"Ġadvertising":7112,"Ġbone":7113,"Ġworksh":7114,"Ġ43":7115,"Ġmissions":7116,"Ġdeliver":7117,"coming":7118,"Ġrhin":7119,"Ġdat":7120,"Ġdoors":7121,"Ġadditionally":7122,"mat":7123,"oons":7124,"Ġoutdo":7125,"Ġexpos":7126,"ographic":7127,"Ġjerusalem":7128,"Ġleban":7129,"Ġdisaster":7130,"Ġpatient":7131,"Ġcrops":7132,"Ġpeekaboo":7133,"28":7134,"Ġhanded":7135,"Ġdiocese":7136,"Ġsatell":7137,"Ġbrazilian":7138,"Ġmedium":7139,"45":7140,"Ġpav":7141,"sters":7142,"Ġrelief":7143,"Ġpunish":7144,"Ġtalent":7145,"Ġexperiences":7146,"isf":7147,"Ġpear":7148,"Ġspeaker":7149,"Ġlimits":7150,"oz":7151,"Ġtherap":7152,"Ġgib":7153,"Ġabb":7154,"grad":7155,"ielder":7156,"Ġnormally":7157,"Ġarkansas":7158,"Ġvocals":7159,"Ġalleg":7160,"Ġveterans":7161,"Ġopinion":7162,"Ġdump":7163,"Ġtrump":7164,"Ġenh":7165,"Ġoutstanding":7166,"Ġsmoke":7167,"Ġdescribes":7168,"aa":7169,"mers":7170,"rate":7171,"Ġfried":7172,"Ġyan":7173,"Ġdeleg":7174,"Ġfled":7175,"Ġholiday":7176,"Ġmuslims":7177,"mun":7178,"part":7179,"Ġdragon":7180,"Ġstruck":7181,"Ġhabitats":7182,"Ġhawaii":7183,"Ġwounded":7184,"/?":7185,"Ġhut":7186,"Ġshoe":7187,"Ġblind":7188,"inae":7189,"Ġrobin":7190,"Ġclothing":7191,"Ġprix":7192,"Ġkilomet":7193,"Ġdick":7194,"Ġdriven":7195,"Ġphoto":7196,"Ġutah":7197,"Ġproced":7198,"Ġ47":7199,"Ġactual":7200,"Ġcounsel":7201,"Ġyugoslav":7202,"verse":7203,"odox":7204,"Ġjudges":7205,"Ġcriticism":7206,"Ġresidential":7207,"reck":7208,"Ġgovernments":7209,"Ġaustin":7210,"Ġ1915":7211,"Ġpretend":7212,"Ġcomputers":7213,"Ġopposite":7214,"Ġamateur":7215,"Ġwage":7216,"Ġ--":7217,"Ġbranc":7218,"Ġslavery":7219,"Ġelectricity":7220,"Ä±":7221,"Ġdave":7222,"Ġears":7223,"eh":7224,"Ġcu":7225,"Ġchanc":7226,"Ġhandle":7227,"Ġrebu":7228,"Ġcomposer":7229,"Ġboss":7230,"Ġloves":7231,"phones":7232,"Ġloud":7233,"Ġpanel":7234,"Ġfranchise":7235,"Ġautomatic":7236,"Ġnutrition":7237,"vey":7238,"Ġidentify":7239,"Ġfrog":7240,"Ġmetropolitan":7241,"Ġpenc":7242,"Ġshake":7243,"Ġchew":7244,"Ġsignal":7245,"Ġraf":7246,"Ġengineers":7247,"ommod":7248,"Ġasc":7249,"Ġgraph":7250,"Ġcounties":7251,"Ġlocomot":7252,"Ġaustria":7253,"Ġ1923":7254,"bing":7255,"iors":7256,"vo":7257,"Ġcord":7258,"Ġsustain":7259,"Ġdismiss":7260,"wer":7261,"Ġexplain":7262,"Ġapartment":7263,"fc":7264,"Ġbart":7265,"Ġreaction":7266,"Ġva":7267,"Ġupset":7268,"Ġsurgery":7269,"pers":7270,"Ġaccommod":7271,"Ġcleveland":7272,"Ġruling":7273,"Ġinstruments":7274,"Ġpond":7275,"Ġkelly":7276,"Ġtwitter":7277,"Ġmaintain":7278,"Ġpages":7279,"Ġib":7280,"Ġneighbour":7281,"Ġmanufacturing":7282,"Ġgathered":7283,"Ġvalues":7284,"Ġnur":7285,"Ġnobody":7286,"Ġcoverage":7287,"Ġcommune":7288,"Ġahmad":7289,"Ġuniverse":7290,"Ġshir":7291,"Ġmeters":7292,"Ġannually":7293,"Ġanthony":7294,"dale":7295,"Ġnash":7296,"Ġvast":7297,"Ġtransm":7298,"Ġfactors":7299,"Ġaunt":7300,"Ġfingers":7301,"26":7302,"Ġ+":7303,"Ġoption":7304,"Ġaviation":7305,"Ġtested":7306,"Ġpalat":7307,"Ġseparated":7308,"Ġ_":7309,"Ġwides":7310,"una":7311,"antic":7312,"Ġindex":7313,"Ġ1931":7314,"Ġmagnet":7315,"Ġstorage":7316,"Ġassault":7317,"chy":7318,"raid":7319,"Ġguil":7320,"Ġphilip":7321,"Ġcovering":7322,"Ġpel":7323,"Ġthousand":7324,"Ġkay":7325,"Ġremark":7326,"Ġ1922":7327,"Ġsoldier":7328,"Ġallen":7329,"Ġsingh":7330,"Ġdecline":7331,"rane":7332,"Ġmoore":7333,"Ġtract":7334,"Ġclark":7335,"Ġdisab":7336,"Ġ66":7337,"Ġgarbage":7338,"rez":7339,"Ġbeng":7340,"owed":7341,"Ġneither":7342,"Ġrocky":7343,"Ġconsisting":7344,"rm":7345,"Ġky":7346,"Ġflows":7347,"Ġtemporary":7348,"Ġcameras":7349,"Ġenterpr":7350,"wick":7351,"Ġfinance":7352,"Ġdougl":7353,"Ġvacc":7354,"Ġroots":7355,"Ġblog":7356,"Ġreput":7357,"Ġprepar":7358,"Ġentrep":7359,"Ġcandy":7360,"Ġcruz":7361,"cop":7362,"Ġstamp":7363,"Ġforget":7364,"Ġnev":7365,"Ġuniversal":7366,"Ġvoting":7367,"Ġdies":7368,"uster":7369,"iously":7370,"Ġpenins":7371,"onsored":7372,"Ġmong":7373,"Ġsomewhere":7374,"Ġrecip":7375,"Äģd":7376,"Ġgardens":7377,"99":7378,"uch":7379,"Ġdefensive":7380,"Ġbattery":7381,"Ġbelongs":7382,"Ġentreprene":7383,"Ġmines":7384,"Ġstrongly":7385,"Ġparticipants":7386,"Ã¥":7387,"Ġcum":7388,"Ġcattle":7389,"Ġrated":7390,"Ġundert":7391,"Ġmusician":7392,"Ġ250":7393,"Ġactivists":7394,"Ġadmir":7395,"Ġnickn":7396,"ican":7397,"Ġbuying":7398,"Ġelsewhere":7399,"Ġdvd":7400,"mble":7401,"Ġdod":7402,"Ġcuts":7403,"Ġbriefly":7404,"itely":7405,"Ġsubfamily":7406,"Ġmedie":7407,"Ġgrandma":7408,"Ġtreaty":7409,"Ġpushing":7410,"Ġaimed":7411,"Ġbelgium":7412,"uls":7413,"Ġcompeting":7414,"Ġmedieval":7415,"Ġindians":7416,"erto":7417,"Ġkeeps":7418,"Ġphysics":7419,"Ġbesides":7420,"olas":7421,"Ġrecordings":7422,"Ġpopularity":7423,"Ġcertainly":7424,"Ġlegislature":7425,"Ġproposal":7426,"pread":7427,"Ġstrict":7428,"Ġdelic":7429,"Ġconcrete":7430,"Ġmack":7431,"Ġsponsored":7432,"Ġscores":7433,"Ġwalked":7434,"Ã£o":7435,"Ġwidespread":7436,"ws":7437,"Ġbout":7438,"Ġsections":7439,"Ġkevin":7440,"Ġrolling":7441,"Ġfrederick":7442,"urer":7443,"issa":7444,"Ġmonument":7445,"Ġcroat":7446,"Ġcharts":7447,"Ġextreme":7448,"Ġsierra":7449,"Ġosc":7450,"Ġlith":7451,"Ġproductions":7452,"Ġconsumers":7453,"ello":7454,"Ġafterwards":7455,"Ġkiller":7456,"Ġintroduction":7457,"Ġproducers":7458,"Ġnarr":7459,"Ġlaboratory":7460,"Ġcharlie":7461,"Ġannouncement":7462,"Ġandre":7463,"Ġnba":7464,"Ġtransition":7465,"Ġlessons":7466,"Ġphen":7467,"Ġhoward":7468,"Ġvalu":7469,"Ġmarie":7470,"Ġsigning":7471,"Ġ177":7472,"Ġraw":7473,"Ġpuppy":7474,"Ġbicy":7475,"Ġfra":7476,"Ġpants":7477,"Ġthrew":7478,"Ġshark":7479,"Ġnotice":7480,"Ġafraid":7481,"Ã¼r":7482,"Ġbegun":7483,"Ġsmooth":7484,"Ġgamb":7485,"Ġry":7486,"orted":7487,"Ġdebt":7488,"ructure":7489,"Ġbin":7490,"Ġbaker":7491,"icut":7492,"Ġrecalled":7493,"Ġ52":7494,"Ġlawrence":7495,"Ġpublications":7496,"enh":7497,"Ġ53":7498,"Ġbanned":7499,"case":7500,"rum":7501,"ista":7502,"Ġcrimes":7503,"Ġcurt":7504,"Ġbutterfly":7505,"Ġemployment":7506,"Ġspokesman":7507,"mus":7508,"Ġambass":7509,"Ġemotional":7510,"elson":7511,"Ġcolony":7512,"Ġuser":7513,"lad":7514,"Ġpod":7515,"Ġtwe":7516,"Ġhammer":7517,"Ġinnings":7518,"Ġmerged":7519,"Ġbike":7520,"Ġcrazy":7521,"Ġnag":7522,"Ġtwin":7523,"Ġaccur":7524,"Ġhungarian":7525,"Ġfold":7526,"osa":7527,"Ġdemocrats":7528,"Ġdenied":7529,"ikh":7530,"Ġoutbreak":7531,"vak":7532,"Ġliver":7533,"Ġcod":7534,"Ġquack":7535,"Ġclassified":7536,"Ġmarkets":7537,"ials":7538,"Ġcarter":7539,"Ġswiss":7540,"Ġwick":7541,"Ġjet":7542,"Ġactors":7543,"Ġsurprised":7544,"Ġaccompl":7545,"Ġhidden":7546,"Ġspaces":7547,"Ġmorris":7548,"Ġmachines":7549,"Ġgarc":7550,"Ġcontinuing":7551,"chell":7552,"Ġincorporated":7553,"Ġcotton":7554,"rast":7555,"inction":7556,"Ġdust":7557,"Ġrevenue":7558,"Ġcomposition":7559,"Ġmarry":7560,"27":7561,"ternal":7562,"Ġmonaster":7563,"Ġmovements":7564,"Ġsubstant":7565,"Ġtonight":7566,"Ġwish":7567,"Ġshift":7568,"Ġoverl":7569,"Ġparalle":7570,"Ġreloc":7571,"Ġsocialist":7572,"Ġdiagn":7573,"Ġcoalition":7574,"Ġgross":7575,"Ġkang":7576,"Ġmontreal":7577,"Ġinher":7578,"Ġreign":7579,"Ġdemol":7580,"Ġdescend":7581,"Ġfranklin":7582,"Ġvegetables":7583,"Ġnepal":7584,"atus":7585,"Ġforb":7586,"Ġobes":7587,"Ġchest":7588,"apped":7589,"Ġtribes":7590,"Ġenjoy":7591,"Ġsharing":7592,"Ġapparently":7593,"Ġborders":7594,"Ġmason":7595,"Ġdating":7596,"Ġappre":7597,"Ġmaine":7598,"yers":7599,"Ġgender":7600,"Ġ54":7601,"Ġwedding":7602,"ĠÂ°":7603,"Ġbyebye":7604,"spec":7605,"Ġgill":7606,"Ġgap":7607,"Ġstol":7608,"Ġrig":7609,"Ġbrun":7610,"Ġrecre":7611,"Ġmetro":7612,"Ġvolunteer":7613,"Ġlandscape":7614,"woman":7615,"eds":7616,"leton":7617,"Ġ120":7618,"Ġpenalty":7619,"Ġearthquake":7620,"Ġwhatever":7621,"Ġachievement":7622,"Ġoverseas":7623,"Ġparaly":7624,"Ġchronic":7625,"Ġpuerto":7626,"Ġcraw":7627,"Ġregarded":7628,"Ġadopt":7629,"ÃŁ":7630,"Ġlev":7631,"Ġforming":7632,"ieties":7633,"Ġoperates":7634,"Ġaudio":7635,"Ġcuban":7636,"Ġcrying":7637,"Ġmasters":7638,"pool":7639,"Ġlanc":7640,"Ġgust":7641,"acent":7642,"Ġbug":7643,"anne":7644,"Ġsubmar":7645,"Ġharris":7646,"Ġcousin":7647,"zens":7648,"Ġ56":7649,"Ġcamps":7650,"Ġgrows":7651,"aver":7652,"Ġiowa":7653,"Ġsaved":7654,"Ġbreeding":7655,"Ġreaders":7656,"Ġnationwide":7657,"ĠÃ©":7658,"ivia":7659,"Ġabuse":7660,"Ġsurge":7661,"Ġprogramming":7662,"Ġdoubles":7663,"Ġorthodox":7664,"inate":7665,"illery":7666,"Ġ63":7667,"Ġsummit":7668,"Ġwoods":7669,"ÃŃa":7670,"Ġcontributions":7671,"Ġbeauty":7672,"zh":7673,"Ġcited":7674,"Ġdirt":7675,"Ġplain":7676,"Ġwheat":7677,"Ġpeaked":7678,"xy":7679,"Ġcul":7680,"Ġfib":7681,"Ġinvent":7682,"Ġtechniques":7683,"Ġconvinc":7684,"Ġ|":7685,"Ġscout":7686,"ruption":7687,"Ġcollections":7688,"Ġcompetitive":7689,"Ġdomain":7690,"Ġmak":7691,"arth":7692,"acle":7693,"Ġinvolving":7694,"Ġarrival":7695,"Ġnewspapers":7696,"ilst":7697,"Ġapply":7698,"Ġregulations":7699,"Ġgrocer":7700,"Ġcereal":7701,"Ġreputation":7702,"bie":7703,"Ġmck":7704,"Ġdum":7705,"Ġbudd":7706,"Ġjimmy":7707,"Ġencouraged":7708,"vens":7709,"Ġmi":7710,"Ġlau":7711,"Ġmarks":7712,"Ġvisits":7713,"Ġlon":7714,"oto":7715,"Ġmotorcy":7716,"Ġsamples":7717,"Ġportrait":7718,"Ġloyal":7719,"Ġrelative":7720,"Ġranking":7721,"Ġdynasty":7722,"mi":7723,"orph":7724,"Ġsynd":7725,"Ġmyth":7726,"Ġpromised":7727,"Ġhoriz":7728,"Ġsamuel":7729,"Ġrejected":7730,"Ġupgr":7731,"Ġzim":7732,"Ġconnecticut":7733,"Ġadjust":7734,"pie":7735,"Ġthin":7736,"Ġdepending":7737,"Ġfunctions":7738,"Ġhend":7739,"Ġsharks":7740,"Ġcredits":7741,"Ġaccompanied":7742,"Ġaster":7743,"Ġlod":7744,"Ġdonated":7745,"Ġexcited":7746,"Ġtalks":7747,"Ġminority":7748,"zard":7749,"illo":7750,"Ġnotably":7751,"Ġprompt":7752,"Ġfunded":7753,"Ġaccounts":7754,"Ġconsumer":7755,"Ġguilty":7756,"mate":7757,"Ġaver":7758,"Ġsoup":7759,"Ġthunder":7760,"weiler":7761,"Ġ1908":7762,"pective":7763,"Ġcole":7764,"Ġrecorder":7765,"Ġdesigner":7766,"Ġparticipation":7767,"Ġcontroversial":7768,"Ġbattalion":7769,"Ġcou":7770,"Ġ41":7771,"Ġuseful":7772,"Ġstrange":7773,"Ġglad":7774,"Ġdefeating":7775,"Ġtact":7776,"Ġacted":7777,"Ġobv":7778,"Ġslave":7779,"Ġglac":7780,"Ġrequirements":7781,"Ġoptim":7782,"Ġpermission":7783,"Ġding":7784,"Ġkaz":7785,"Ġcarib":7786,"Ġcargo":7787,"Ġmaur":7788,"Ġpercentage":7789,"Ġrecommend":7790,"Ġwrestling":7791,"Ġturtle":7792,"Ġexcellent":7793,"fielder":7794,"Ġsending":7795,"onian":7796,"Ġtrig":7797,"Ġwarri":7798,"uv":7799,"Ġcatherine":7800,"Ġlum":7801,"Ġgur":7802,"Ġbreast":7803,"Ġlanded":7804,"Ġmes":7805,"Ġhud":7806,"uccess":7807,"Ġcharter":7808,"asht":7809,"Ġ1911":7810,"Ġ1913":7811,"hus":7812,"Ġsib":7813,"Ġkath":7814,"Ġspecim":7815,"Ġcaps":7816,"Ġ1880":7817,"Ġthreats":7818,"Ġjoy":7819,"Ġunsuccess":7820,"Ġsne":7821,"Ġtomb":7822,"Ġwhilst":7823,"Ġconqu":7824,"Ġcanc":7825,"kshire":7826,"Ġhunter":7827,"Ġpilots":7828,"Ġsignificantly":7829,"Ġinner":7830,"Ġalan":7831,"Ġreleg":7832,"Ġnazi":7833,"oen":7834,"stal":7835,"Ġwarning":7836,"Ġserbia":7837,"Ġcer":7838,"omp":7839,"omen":7840,"Ġprove":7841,"Ġrefle":7842,"Ġkenya":7843,"Ġdouglas":7844,"Ġwes":7845,"oming":7846,"Ġasks":7847,"essed":7848,"Ġpitch":7849,"Ġburned":7850,"Ġtranslation":7851,"47":7852,"Ġflav":7853,"bean":7854,"Ġtechnologies":7855,"Ġnavig":7856,"Ġ1890":7857,"Ġsandy":7858,"Ġpowered":7859,"Ġlists":7860,"Ġnik":7861,"Ġkle":7862,"Ġvit":7863,"Ġbugs":7864,"Ġeverywhere":7865,"Ġgear":7866,"media":7867,"Ġindustries":7868,"Ġrenov":7869,"Ġwang":7870,"Ġsongwriter":7871,"Ġbalance":7872,"Ġguests":7873,"Ġviolin":7874,"Ġathletics":7875,"Ġmystery":7876,"Ġprotein":7877,"nell":7878,"Ġpour":7879,"alia":7880,"ailand":7881,"Ġmatters":7882,"Ġabsol":7883,"Ġsprings":7884,"Ġoffensive":7885,"Ġremove":7886,"Ġpersons":7887,"Ġteaches":7888,"Ġexpression":7889,"Ġtons":7890,"Ġexposed":7891,"Ġapproval":7892,"Ġcraig":7893,"Ġtickle":7894,"Ġownership":7895,"Ġobesity":7896,"ighter":7897,"Ġspider":7898,"Ġmanchester":7899,"Ġhospitals":7900,"Ġlicense":7901,"Ġdated":7902,"Ġthailand":7903,"Ġech":7904,"sex":7905,"Ġsemin":7906,"Ġsecure":7907,"Ġregul":7908,"Ġstatue":7909,"Ġblanket":7910,"point":7911,"Ġresign":7912,"Ġedited":7913,"Ġopponents":7914,"Ġfiref":7915,"Ġportugal":7916,"sch":7917,"Ġps":7918,"Ġmeets":7919,"Ġremote":7920,"ception":7921,"Ġarranged":7922,"Ġadapted":7923,"Ġastr":7924,"Ġports":7925,"Ġwolves":7926,"idency":7927,"Ġrou":7928,"Ġgrades":7929,"Ġdiaper":7930,"Ġspoken":7931,"Ġreservoir":7932,"lot":7933,"rant":7934,"Ġandy":7935,"Ġmargin":7936,"Ġindeed":7937,"Ġattending":7938,"Ġactivist":7939,"gregation":7940,"Ġshangh":7941,"Ġdear":7942,"iolet":7943,"Ġelig":7944,"Ġcapable":7945,"Ġencourage":7946,"Ġallied":7947,"Ġequipped":7948,"Ġinfrast":7949,"Ġsymph":7950,"Ġsuddenly":7951,"jab":7952,"ublin":7953,"Ġautonom":7954,"Ġrio":7955,"Ġbelt":7956,"Ġblacks":7957,"Ġearliest":7958,"Ġisolated":7959,"aron":7960,"Ġdozens":7961,"Ġfeather":7962,"Ġrestored":7963,"Ġnonpro":7964,"Ġdemocracy":7965,"Ġproud":7966,"Ġloved":7967,"ribute":7968,"Ġstead":7969,"Ġprisoners":7970,"Ġcorporate":7971,"Ġ*":7972,"Ġspark":7973,"Ġrepair":7974,"Ġyoungest":7975,"arn":7976,"aser":7977,"Ġliv":7978,"Ġcrab":7979,"Ġunless":7980,"Ġpregn":7981,"Ġ58":7982,"Ġpassage":7983,"Ġhoping":7984,"Ġcooking":7985,"Ġgraduating":7986,"Ġscheme":7987,"aj":7988,"hum":7989,"Ġpiz":7990,"Ġmaced":7991,"ilit":7992,"Ġabroad":7993,"Ġstarred":7994,"Ġfrozen":7995,"Ġacknowled":7996,"lings":7997,"Ġmodified":7998,"Ġpurposes":7999,"Ġyor":8000,"Ġpatterns":8001,"Ġcable":8002,"Ġpure":8003,"Ġvul":8004,"wealth":8005,"Ġrecept":8006,"Ġcompetitions":8007,"Ġshanghai":8008,"cious":8009,"urally":8010,"Ġbasin":8011,"Ġadvice":8012,"Ġmorgan":8013,"track":8014,"Ġcooperation":8015,"kov":8016,"ico":8017,"Ġ1904":8018,"Ġrobinson":8019,"rer":8020,"Ġcann":8021,"ropod":8022,"Ġjacob":8023,"Ġgentle":8024,"Ġhipp":8025,"rome":8026,"Ġartillery":8027,"Ġjohnny":8028,"Ġcosta":8029,"Ġmonster":8030,"Ġrelatives":8031,"Ġtourism":8032,"Ġgrandpa":8033,"Ġhamilton":8034,"Ġstakes":8035,"Ġridge":8036,"agh":8037,"tha":8038,"abil":8039,"Ġcommonwealth":8040,"Ġ1906":8041,"Ġdollar":8042,"Ġparliamentary":8043,"Ġstanford":8044,"Ġcaval":8045,"Ġbars":8046,"Ġjason":8047,"Ġscared":8048,"Ġanywhere":8049,"Ġcircum":8050,"Ġexperimental":8051,"48":8052,"Ġlank":8053,"Ġimposs":8054,"Ġestimates":8055,"Ġweigh":8056,"Ġ51":8057,"Ġcrus":8058,"Ġassign":8059,"Ġhonorary":8060,"Ġtut":8061,"Ġcock":8062,"enburg":8063,"ulum":8064,"ensis":8065,"Ġgenerations":8066,"331":8067,"Ġatmosphere":8068,"Ġms":8069,"Ġlip":8070,"Ġrevol":8071,"Ġbert":8072,"Ġfoster":8073,"Ġprol":8074,"aha":8075,"Ġsmell":8076,"Ġ600":8077,"Ġbills":8078,"Ġplanets":8079,"ÅŁ":8080,"Ġcraft":8081,"Ġfence":8082,"isation":8083,"Ġsoap":8084,"Ġalexand":8085,"Ġbranches":8086,"Ġgift":8087,"ensity":8088,"Ġanna":8089,"Ġpalm":8090,"Ġvaluable":8091,"ando":8092,"emp":8093,"Ġ77":8094,"Ġchristopher":8095,"Ġrapidly":8096,"Ġmargaret":8097,"Ġjohann":8098,"Ġroger":8099,"Ġintel":8100,"encing":8101,"Ġrealized":8102,"Ġtribal":8103,"gro":8104,"isi":8105,"Ġvs":8106,"Ġcoat":8107,"Ġ57":8108,"Ġdepos":8109,"Ġmills":8110,"Ġextinct":8111,"Ġ160":8112,"Ġprinted":8113,"Ġgam":8114,"Ġbruce":8115,"Ġflash":8116,"Ġzero":8117,"Ġ1901":8118,"Ġpete":8119,"Ġrelationships":8120,"Ġjonathan":8121,"Ġlil":8122,"55":8123,"wall":8124,"Ġbog":8125,"udes":8126,"Ġplanes":8127,"Ġimmediate":8128,"Ġweapon":8129,"Ġpine":8130,"Ġpeng":8131,"Ġdanish":8132,"Ġwarn":8133,"Ġpredict":8134,"wings":8135,"alf":8136,"rett":8137,"Ġclosing":8138,"Ġcollective":8139,"keeper":8140,"uate":8141,"Ġdying":8142,"Ġnelson":8143,"Ġsuicide":8144,"Ġmilan":8145,"Ġappearing":8146,"Ġcitizen":8147,"ui":8148,"apolis":8149,"Ġlasted":8150,"Ġern":8151,"Ġsatellite":8152,"ho":8153,"hist":8154,"Ġscouts":8155,"Ġouter":8156,"Ġguar":8157,"Ġtraveling":8158,"Ġoptions":8159,"Ġadjacent":8160,"Ġaware":8161,"anche":8162,"Ġreplacing":8163,"Ġsessions":8164,"section":8165,"umps":8166,"Ġpleas":8167,"Ġninth":8168,"Ġoccasionally":8169,"Ġpalestinian":8170,"species":8171,"pur":8172,"amazon":8173,"Ġabc":8174,"Ġpolar":8175,"Ġracial":8176,"eenth":8177,"Ġabol":8178,"Ġvienna":8179,"Ġcongressional":8180,"Ġrecommended":8181,"amazonaws":8182,"fts":8183,"icit":8184,"Ġdesire":8185,"Ġfinn":8186,"Ġ95":8187,"Ġ1905":8188,"Ġchemicals":8189,"Ġmathematics":8190,"Ġinvolvement":8191},"merges":["Ġ t","Ġ a","h e","i n","Ġt he","Ġ s","Ġ .","r e","Ġ o","Ġ w","e r","Ġ c","Ġ ,","a t","o n","Ġ b","a n","Ġ f","i s","i t","Ġ p","e d","e n","Ġ m","o r","Ġ in","e s","Ġa n","Ġ d","o u","a r","a l","Ġ h","Ġo f","in g","a s","Ġt o","Ġ l","Ġan d","Ġ n","i c","Ġt h","Ġ g","r o","Ġ \"","i on","i l","l e","Ġ re","Ġ y","Ġ he","Ġ e","Ġ '","en t","o m","s t","a m","i d","Ġo n","e l","Ġ is","e t","Ġ 1","a y","Ġ u","Ġs t","o l","Ġ it","a d","a c","Ġw h","o w","Ġw as","o t","Ġf or","v e","Ġ ?","i g","u t","Ġb e","Ġth at","i r","Ġ r","Ġy ou","u r","i m","l y","v er","Ġ -","c h","Ġa s","c t","Ġa l","at ion","s e","Ġ 2","Ġ j","Ġ k","it h","t er","Ġw ith","Ġa t","Ġs e","c e","Ġc h","Ġw e","he r","Ġd e","u l","is t","Ġ i","Ġ v","an d","u n","u s","a g","Ġd o","Ġp ro","Ġ1 9","Ġb y","ou n","t h","Ġc om","Ġc on","Ġ2 0","o o","er s","il l","Ġa re","r i","ro m","a in","Ġ )","o p","l d","Ġ (","u m","ig h","Ġn e","a k","Ġu n","Ġm o","Ġh a","Ġf rom","e m","es t","an t","Ġh is","Ġp l","al l","Ġs h","i es","p p","a b","ar t","u d","re s","Ġo r","re d","Ġs p","Ġl e","o s","Ġwh at","o c","i f","Ġs u","Ġs a","at e","i v","it y","Ġth is","Ġthe y","igh t","Ġw he","Ġa r","b er","Ġt r","Ġe x","q u","a p","Ġn ot","Ġg o","or t","es s","ar d","Ġy e","Ġha ve","el l","Ġw or","â Ģ","i a","i e","m ent","Ġs he","g h","i ve","u st","Ġ en","g e","ou r","ic h","ac k","as t","Ġ20 1","oun d","Ġon e","re n","i an","at ed","om e","on g","Ġsa id","Ġ ro","ou ld","Ġa b","Ġh as","Ġwe re","am e","Ġc an","k e","ou t","Ġc l","Ġthe re","i p","Ġwh o","Ġt e","Ġg r","Ġn o","Ġb ut","' t","i al","s o","Ġa f","in e","ar y","Ġm e","ou gh","t her","Ġal so","Ġhe r","Ġal l","id e","Ġl i","Ġcom p","Ġ âĢ","u b","e ct","Ġne w","0 0","Ġs c","Ġm an","Ġ Ċ","d er","oo k","Ġthe ir","is h","Ġa m","Ġu p","Ġb r","Ġwh ich","ic e","oo d","o re","Ġh ad","Ġye ar","Ġa d","a v","Ġo ut","en d","Ġf ir","Ġp e","Ġt w","ow n","al ly","c l","ag e","a h","r y","Ġ20 0","u c","Ġpl ay","ion s","Ġin t","Ġa g","Ġm ar","Ġc ol","Ġa c","Ġfir st","on e","Ġk n","ak e","ou s","Ġc o","p er","p t","oun t","u re","Ġp art","Ġit s","r ic","Ġs ch","an s","Ġof f","Ġs o","u e","Ġmo re","i z","or d","Ġu s","at er","r a","as s","Ġ #","o g","Ġo ther","Ġs er","Ġt im","Ġwor k","Ġbe c","a u","Ġf e","Ġaf ter","o ol","t s","Ġcon t","i re","re e","Ġs ome","Ġb o","an g","Ġp er","il d","Ġwhe re","Ġcom m","ig n","Ġo h","Ġtw o","Ġab out","ac e","ac h","it t","Ġwhe n","he d","Ġo ver","in d","Ġw ill","Ġre c","Ġ :","or n","w n","Ġli ke","Ġre s","Ġh ow","Ġsch ool","Ġb l","ic al","Ġbe en","Ġre p","ver s","Ġj o","Ġ 3","on d","Ġ1 8","Ġa pp","f f","e c","Ġthe m","Ġst ud","m an","Ġd id","Ġ im","r u","ent s","Ġpe op","Ġw ould","Ġo k","Ġpeop le","en s","a re","ac t","Ġe v","Ġd is","it e","Ġg et","Ġin d","ic k","ver y","ad e","in k","ation al","Ġyou r","am p","Ġtim e","l l","v ed","it ion","at es","Ġok ay","Ġse e","Ġc ar","ation s","Ġf l","ct ion","Ġ !","Ġw ant","Ġc ount","Ġhe re","cl ud","Ġth an","Ġl a","Ġ qu","Ġb u","or s","a il","o d","Ġp r","Ġp res","or y","Ġr ight","l and","ing s","il e","Ġm ay","Ġp o","Ġp re","ay s","i b","Ġn ow","Ġin clud","w e","Ġh im","ul t","Ġp ol","en ce","as e","Ġd es","ur n","ub l","an ce","Ġfor m","Ġc ent","ter n","Ġint o","f e","er ic","Ġse c","Ġb et","Ġj ust","it ed","e p","k s","o se","el y","Ġ ;","ur ing","Ġl ook","i ed","v el","or m","as ed","Ġf in","l es","Ġp ar","ab le","Ġthe n","Ġyear s","Ġf r","Ġd ist","Ġf am","is s","Ġf ound","ol d","t e","at h","Ġam eric","Ġw ell","al s","Ġ 4","Ġp ut","Ġun der","Ġg en","Ġa ct","il y","Ġ ed","ou p","Ġat t","Ġp h","Ġe ar","Ġe le","Ġman y","Ġto o","Ġb ack","Ġg re","Ġac c","Ġex p","an n","as on","g an","i vers","Ġag ain","Ġ19 9","Ġye ah","Ġre g","Ġi f","Ġ 5","Ġe m","Ġm in","ol l","Ġsp ec","Ġd uring","Ġon ly","Ġm on","Ġl oc","Ġa w","Ġte am","Ġb ro","Ġc r","Ġs y","Ġmo st","t on","g r","Ġc all","Ġkn ow","Ġg ood","an c","Ġl et","in ce","f t","Ġs m","Ġhe l","em ber","Ġwor ld","ĠâĢ Ķ","Ġas s","id ent","Ġw ar","u g","au se","Ġ z","h ip","ro p","Ġthe se","res s","Ġl o","Ġre m","Ġth r","Ġth ree","Ġcon s","Ġim p","i o","ren t","ot her","Ġp ubl","Ġd own","ot h","Ġg u","Ġh igh","i ous","ver n","Ġth ink","Ġm u","n e","ic t","i x","Ġc ould","Ġgr oup","ou se","ri b","Ġp op","Ġen d","Ġun ivers","in t","Ġthr ough","a z","Ġf il","Ġm us","Ġen g","Ġm ade","Ġgo vern","at ing","ou th","Ġst ate","Ġn ational","Ġar t","Ġsh ow","ist s","Ġm y","Ġcol le","Ġsu b","f ore","Ġpro d","he s","Ġs ay","Ġm ake","âĢ ĵ","on s","is hed","Ġn or","h ing","m y","Ġpro v","Ġhel p","p h","c c","Ġdo es","Ġan y","Ġre t","Ġn a","ro w","y s","en c","Ġ19 8","Ġch ild","Ġ 6","ol og","Ġbec ause","d ay","Ġd r","ric t","Ġre l","Ġw r","ter s","Ġm a","f orm","t y","Ġunivers ity","Ġo p","Ġse ason","Ġc ity","Ġde p","o ot","a ir","Ġs ur","Ġl itt","Ġin st","Ġch ar","Ġm ed","Ġl ater","v ing","Ġsu pp","r al","Ġn um","Ġlitt le","Ġbe fore","Ġf our","Ġwh ile","we en","Ġsec ond","Ġe l","it ies","Ġbet ween","Ġb el","if e","Ġde c","l o","Ġre le","Ġc re","oll ow","Ġcomp an","Ġin v","b all","Ġl ong","Ġst ates","ic s","t ing","Ġb ook","ul ar","Ġf ollow","Ġst art","Ġin c","Ġkn own","Ġa ir","i el","Ġfil m","am es","Ġo b","Ġs ing","Ġrec ord","Ġk e","Ġc a","Ġameric an","m ber","u p","or k","an k","Ġl ar","Ġb ig","Ġw in","Ġm at","Ġus ed","Ġbe ing","Ġle ad","Ġun ited","Ġ very","is ion","Ġo ld","i er","an ge","Ġfam ily","Ġ ent","in a","at her","Ġsu ch","Ġs outh","at ive","Ġh ouse","Ġd ire","Ġgovern ment","Ġ19 7","s s","Ġdist rict","Ġth ose","Ġoff ic","Ġad d","Ġd if","Ġm il","Ġo wn","Ġp a","Ġ 7","n ing","Ġla w","al e","Ġb orn","ct ed","c k","Ġr un","Ġg on","ar s","Ġcom e","Ġcall ed","Ġs oc","if ic","Ġsc i","b le","Ġs et","Ġne ed","ir d","ak ing","00 0","Ġt ake","ur al","om et","i et","ard s","it s","e red","j ect","Ġgen er","Ġgo ing","Ġop en","Ġs l","Ġa p","Ġbu ild","Ġc ap","in es","Ġw ater","f ul","Ġt er","Ġser v","Ġd ay","Ġh ome","Ġal b","Ġl ast","Ġnor th","is e","Ġm ill","Ġ201 3","Ġb us","ul l","Ġs w","Ġw ay","Ġh ist","Ġhe ad","Ġagain st","u al","Ġp os","Ġs ince","Ġb ar","Ġtr ans","Ġm et","Ġc al","Ġ1 0","Ġf ar","d y","Ġb oth","Ġc he","t il","u res","o st","Ġ19 6","le t","e ver","Ġg ot","oc k","iz ed","Ġin ter","b r","Ġre d","Ġmus ic","g et","Ġs ong","Ġ 8","Ġan other","Ġe very","vel op","c o","Ġj un","Ġcomm un","one y","Ġs ign","in s","Ġcl ass","Ġf un","er t","Ġar ound","Ġin tern","u h","g er","Ġu se","a ve","gr am","Ġv ill","al k","iv ed","Ġc our","Ġn ame","Ġ ir","el f","Ġinclud ing","Ġm em","Ġf oot","uc k","Ġbec ame","Ġde velop","c es","Ġa ut","Ġc are","Ġev en","ant s","v en","us s","Ġ est","Ġstud ents","ough t","Ġj u","i red","Ġpro gram","i k","Ġan n","i am","Ġpro f","ow er","Ġst r","Ġre ad","Ġchild ren","Ġg ame","ct or","ie w","Ġre f","l ed","Ġw om","Ġmu ch","Ġpres ident","Ġst ill","Ġne ar","Ġb re","Ġhow ever","Ġpubl ic","Ġapp e","b ers","at t","Ġc ur","Ġs omet","Ġalb um","m in","h n","Ġ1 7","Ġ19 4","Ġun til","Ġm ain","ĠâĢ ĵ","u ally","Ġ 9","en n","Ġex t","Ġcompan y","e k","g g","ain ed","m s","Ġnum ber","t o","ur y","iv es","oun c","ag ue","Ġp ri","iel d","Ġg e","Ġw on","Ġ1 5","Ġs im","Ġs ame","Ġo per","le y","Ġplay ed","Ġre ce","Ġg er","Ġdif fe","s on","ion al","an e","Ġin s","Ġcount y","w ay","Ġ19 5","Ġ $","Ġh and","am a","u es","a red","Ġt urn","e e","Ġm om","Ġsm all","ut e","x t","Ġe ach","Ġl and","at s","ro ss","as h","Ġ1 6","Ġre se","Ġf ind","v es","Ġsh ould","Ġspec ies","Ġp ers","Ġor gan","k et","Ġde f","ur ch","Ġle g","ak es","Ġrele ased","Ġjo hn","Ã ©","ul ation","Ġr a","am ed","Ġse ver","Ġde m","ain s","Ġ1 2","st em","ri ed","y e","ar ch","Ġpro t","Ġcount ry","Ġle ague","Ġt re","Ġpl ace","Ġsever al","y ing","Ġh ar","Ġprod u","et er","e re","al th","Ġw est","ort s","i ver","n er","Ġcl ub","Ġp ass","Ġp at","f l","Ġc amp","Ġl ife","Ġare a","Ġst re","Ġe ff","Ġ /","Ġser ies","m er","in ed","Ġsy stem","Ġdes ign","Ġha pp","o v","c ent","el s","Ġs k","os ed","Ġcon st","Ġc or","y p","n g","Ġch amp","Ġh un","ut ion","a w","Ġa ug","a e","Ġh um","Ġfollow ing","Ġy es","Ġvill age","Ġed uc","Ġst e","ann a","Ġtoo k","Ġret urn","Ġform er","Ġcolle ge","Ġm id","Ġfoot ball","on t","Ġbl ack","Ġto p","Ġor ig","Ġj an","Ġm iss","ment s","is m","Ġcont in","Ġex per","au gh","Ġto wn","Ġd iv","Ġo ct","Ġse pt","Ġprof ess","ot t","Ġl ist","Ġf ive","ib le","Ġch r","Ġb ab","Ġu h","Ġear ly","Ġres p","Ġe u","Ġre v","Ġb as","b e","Ġv is","ri es","in ess","Ġs ays","Ġb ased","Ġt our","Ġaug ust","ic ip","Ġoffic ial","Ġg ir","Ġl os","Ġa ust","it al","Ġma j","Ġdiffe rent","Ġwh y","Ġ rom","Ġorig in","Ġv ar","Ġbe gan","Ġte ch","Ġpar k","o k","b s","em ent","Ġre st","p l","Ġs it","is ed","Ġs en","Ġ19 3","olog y","Ġger man","Ġwom en","Ġs ix","Ġintern ational","c ess","Ġmar ch","ag es","Ġsept ember","oc i","Ġb est","Ġ201 2","Ġf ore","Ġfe at","id ed","ĠâĢ Ļ","Ġf ood","Ġst and","o ber","Ġpop ulation","er g","Ġw anna","i or","Ġgre at","Ġt ell","Ġdo ing","Ġad v","Ġass oci","Ġjun e","Ġoct ober","Ġs n","a i","Ġc le","Ġle ft","Ġmill ion","t en","Ġv al","c he","Ġg l","Ġ201 1","Ġy ork","Ġal ong","Ġsupp ort","Ġl ine","Ġa v","im e","Ġwh ite","Ġo ur","is ter","Ġs al","at ch","Ġ1 1","ar k","Ġju ly","Ġmon th","b y","u ary","Ġbus iness","Ġgir l","Ġ es","Ġmaj or","en g","Ġw ent","ic es","Ġcomp et","Ġacc ord","Ġg ames","ain ing","c er","u red","Ġhe alth","Ġpre v","iv ing","ce pt","re ad","m ed","Ġd el","et s","Ġ201 4","Ġan g","Ġan im","Ġb ill","Ġpol it","il t","Ġk ill","Ġm ember","r il","her n","Ġne xt","Ġb and","Ġsci ent","Ġ19 2","al ity","p s","Ġaw ay","Ġhe ld","g in","ac ed","l ing","Ġyou ng","Ġm oney","Ġe ast","it ing","Ġm ag","il ity","s h","Ġm en","Ġrep res","Ġpers on","Ġch urch","it er","Ġwe ek","Ġmem bers","Ġtech n","Ġjan uary","Ġc ame","r ap","Ġe c","l ish","Ġ1 3","uc ed","at or","Ġcal if","on es","Ġfe w","id es","Ġno ve","Ġdes c","ian s","Ġnove mber","Ġde ce","Ġp ort","Ġ1 4","end ed","Ġall ow","Ġaccord ing","i um","Ġrep ort","Ġcont ro","Ġmo ve","u ed","Ġbuild ing","en e","Ġsomet hing","i pp","Ġch ang","ri end","Ġd ra","Ġgener al","Ġev ent","Ġn at","Ġap ril","st er","Ġk ing","Ġchamp ions","Ġbr it","id s","Ġ200 6","Ġs um","Ġde b","Ġ19 1","Ġh al","Ġaw ard","Ġt it","b o","ent ly","Ġloc al","in c","Ġg row","Ġmom my","Ġeu rop","Ġpart y","Ġloc ated","Ġimp ort","Ġdece mber","Ġt est","Ġl ab","Ġpro m","Ġdep art","m e","Ġb all","Ġs on","Ġs ide","Ġman ag","Ġserv ice","Ġd ad","Ġp ain","Ġaf ric","Ġsu cc","Ġt a","Ġ %","Ġh ard","ect ed","Ġpro ble","Ġn amed","ial ly","Ġs ol","Ġo cc","Ġd ri","Ġeurop e","ot s","en ed","Ġam ong","Ġfin al","Ġe as","Ġg ive","Ġcalif orn","Ġaut h","Ġd ied","Ġpro ject","Ġt ri","Ġe at","Ġr uss","ren ce","Ġe p","Ġstart ed","her s","n ess","Ġs qu","Ġsucc ess","Ġcon d","Ġth ird","Ġj e","Ġchr ist","Ġst ation","Ġh old","Ġnew s","Ġre ally","Ġrece ived","Ġbab y","w ard","Ġlar ge","Ġh uh","Ġcaliforn ia","Ġsing le","Ġbet ter","Ġde ath","Ġrepres ent","Ġtim es","Ġs un","Ġ201 0","is on","Ġro ad","Ġle vel","Ġr ad","Ġs an","re t","Ġmo d","Ġ200 7","Ġstud y","Ġh op","Ġre al","Ġser ved","Ġ er","Ġmil it","Ġbu ilt","Ġsp e","h m","y l","Ġper cent","Ġf riend","Ġaust ral","Ġhist ory","s ide","Ġcur rent","Ġbe h","Ġcent ral","c hed","n a","at ic","Ġaf f","on om","Ġele ct","ent ion","Ġf ather","Ġo pp","Ä ģ","Ġrese arch","Ġis land","Ġinc re","Ġsh ort","Ġp ower","Ġre qu","Ġh m","Ġst ory","Ġcon f","er v","Ġth ough","Ġt yp","Ġpo st","Ġte le","Ġgr ad","p ort","f or","Ġis s","Ġgr and","n ed","Ġcour t","Ġcent ury","Ġgre en","Ġto day","Ġr iver","Ġke ep","o red","Ġst ar","Ġcent er","Ġpol ice","Ġpl an","ap er","r act","Ġl ess","Ġchampions hip","Ġc up","Ġm aking","a ff","Ġl ive","Ġan t","ed er","n am","an a","um p","Ġinclud e","at ely","Ġle ar","us ed","z e","us h","c om","Ġge or","Ġhist or","Ġf ield","Ġest ab","il le","Ġar ch","Ġro ck","t ed","Ġfam il","Ġapp ro","ac es","Ġfe b","g ress","Ġwill iam","Ġn ight","Ġbel ie","p or","Ġf re","es e","Ġk ind","Ġeduc ation","on y","Ġto get","Ġspec ial","iet y","Ġtoget her","Ġne ver","Ġbo y","Ġschool s","Ġ3 0","Ġtr ack","Ġcommun ity","Ġn et","enc y","Ġas k","s elf","le x","Ġth ings","Ġst op","if ied","Ġme an","Ġsu per","ru ary","Ġrom an","Ġm ount","Ġl ed","Ġfeb ruary","Ġw a","er ing","Ġdis c","Ġm ight","Ġco st","ur s","ne y","h y","r ing","Ġwith in","Ġs old","Ġm al","Ġem p","Ġpo int","as ter","Ġdesc rib","Ġv i","Ġph il","Ġf act","Ġdire ctor","Ġ ide","Ġwork ing","Ġd ue","Ġof ten","Ġbec ome","it ions","iz e","Ġha ving","Ġs il","Ġf ire","Ġm un","Ġch ange","Ġimport ant","Ġmilit ary","Ġv ide","Ġsoc ial","Ġatt ack","Ġr ound","Ġ2 5","Ġh ol","Ġd ays","Ġin form","Ġr ail","Ġcr it","og rap","Ġpubl ished","d s","Ġc at","Ġtr ad","iz ation","Ġwork s","Ġdad dy","Ġv ict","Ġauth or","Ġf all","ke y","h am","Ġ x","Ġ200 8","Ġwas hing","ber t","Ġadd ition","m b","c hes","Ġl ight","he n","ap e","Ġdepart ment","Ġf ree","Ġs out","os p","Ġm other","Ġi i","iss ion","Ġel se","Ġpres ent","Ġpos s","Ġexp l","Ġprov ince","ic ally","Ġbrit ish","Ġfamil ies","Ġcan ad","Ġt alk","att le","Ġt em","Ġwith out","r ation","Ġb ur","Ġt ur","Ġv ol","Ġa ge","Ġon ce","Ġor der","Ġe qu","a im","Ġm ust","Ġinst it","Ġv ot","Ġmo ved","Ġeng ine","Ġus ing","Ġcol or","qu e","m a","iv al","Ġ200 9","ar ing","Ġother s","r on","Ġl ang","Ġhal f","Ġar my","Ġeng lish","w ork","Ġrep ubl","Ġst at","Ġn on","iv en","Ġper form","Ġact iv","i ent","r ight","m ing","b ur","Ġl ate","as es","ell ow","Ġv ir","Ġc am","Ġcare er","Ġp al","ru ct","Ġind ust","Ġf ish","x ic","om in","Ġplay ing","Ġs ent","Ġal th","s c","Ġinclud ed","Ġc ult","Ġwashing ton","Ġf ac","Ġalth ough","Ġl im","Ġinv est","Ġ &","Ġ ve","id ge","l ine","i od","Ġc ounc","Ġp ay","Ġf ight","Ġrepubl ic","Ġl ot","g ed","Ġcomm on","Ġd et","d e","Ġlo ve","Ġ201 5","es tern","n y","Ġstre et","Ġhum an","Ġin f","Ġj our","d le","Ġw ind","Ġres ult","ap an","Ġbro ther","Ġl at","ren ch","o f","Ġm hm","Ġch air","Ġcon n","Ġplay er","Ġc e","th ing","ounc ed","Ġd i","in o","ere st","ro te","Ġh ig","Ġdiv ision","Ġchar ac","Ġf ur","Ġl ow","Ġf eder","ie f","Ġassoci ation","Ġc ast","is ing","Ġint erest","Ġmar k","ens us","Ġj apan","Ġg old","Ġro om","Ġh on","Ġwork ed","Ġscient ists","Ġc ut","er c","Ġd av","Ġinv ol","Ġeff ect","m p","Ġcounc il","Ã ¡","Ġtr av","Ġm or","Ġper iod","Ġec onom","at a","Ġ19 0","Ġn ort","Ġte ac","Ġf ull","Ġw rote","c le","Ġto w","o int","Ġcap t","Ġlo st","Ġac ross","b it","ad em","Ġbo x","Ġmu se","f ord","g s","Ġf rench","w ays","Ġdevelop ment","Ġd on","Ġb ird","it or","s el","ren ts","g es","Ġch ina","Ġp ast","g est","Ġp ict","Ġh ot","Ġ vers","Ġgr ound","Ġprev ious","Ġc ensus","Ġlang u","ert ain","Ġrep l","op s","end ing","Ġbro wn","ar a","Ġm m","Ġg iven","Ġde v","Ġh our","Ġc iv","re w","Ġr ul","Ġbl ue","ro d","Ġli k","Ġw alk","Ġp ie","Ġ1 00","ve red","Ġgo es","ab ly","Ġme et","d en","Ġin it","Ġse a","l er","Ġal m","Ġb ad","iv ely","um ent","Ġh ur","Ġvide o","Ġp ick","Ġpres s","Ġac adem","Ġr ich","Ġu k","Ġ2 1","Ġw ood","Ġen ough","Ġr ural","Ġbo ard","Ġfar m","p le","il ar","Ġs ound","Ġsum mer","Ġpro p","Ġameric a","Ġmuse um","v ision","Ġann ounced","Ġinform ation","Ġcontro l","Ġm c","Ġm ot","Ġb er","Ġp ot","Ġto t","Ġsh ip","Ġk ids","g o","Ġsci ence","Ġb al","Ġdra w","itt en","Ġbre ak","Ġpre t","Ġtr y","Ġd ou","Ġab le","Ġt en","im es","Ġm ich","Ġoff ice","Ġme xic","Ġpro cess","y le","Ġf ace","Ġb i","ag o","Ġplay ers","ak en","um b","Ġcount ries","he l","al y","re st","ul a","read y","Ġm ic","rib ut","Ġal ready","t t","Ġc ase","Ġh om","Ġfl o","Ġ ill","y n","Ġst ay","Ġmar ket","Ġprom ot","Ġsp ace","Ġc ross","ar c","Ġbro ad","Ġpa rents","Ġc ir","at ors","Ġth ought","Ġs ite","Ġn av","Ġre n","Ġpr act","Ġsa w","Ġbr ing","Ġpl ant","Ġappe ar","Ġhe n","Ġw estern","Ġar g","Ġl ou","Ġir an","Ġj ud","Ġsim ilar","Ġ201 6","Ġv iew","Ġw atch","Ġdeb ut","Ġal right","u el","o b","Ġl ond","Ġp et","id a","Ġcom b","Ġ2 4","Ġun ion","k a","Ġse en","p ar","Ġh or","o h","Ġlond on","ac hed","Ġconst ru","Ġciv il","Ġpop ular","Ġh it","Ġd augh","Ġind ian","Ġprodu ct","Ġdescrib ed","Ġc ook","Ġdire ct","c ed","Ġb ase","Ġex amp","Ġd am","Ġcomm itt","Ġe ight","Ġe ver","Ġd one","Ġpr im","ow s","Ġh all","Ġjo ined","Ġcomp let","Ġmun icip","Ġpart ic","Ġfe el","Ġb ir","Ġcre ated","Ġ18 9","y al","Ġfr ont","Ġstr ong","Ġg un","Ġ =","Ġcl ose","Ġpolit ical","f er","Ġgrad u","Ġ ver","Ġm ass","id er","Ġu r","Ġrev iew","Ġte x","Ġalm ost","Ġout side","al es","Ġg ave","Ġs at","Ġmid dle","Ġcomm and","Ġa h","e ad","or ies","Ġse ven","Ġro le","Ġestab l","Ġn ice","in ts","Ġdis co","a pp","Ġanim als","anc es","Ġreg ion","st on","Ġs and","Ġget ting","n al","Ġpri v","er y","od y","ra ft","Ġestabl ished","Ġy a","Ġmonth s","Ġorigin al","Ġto ld","Ġsout hern","Ġgroup s","Ġad min","av es","Ġb ed","Ġter r","Ġ2 2","Ġtit le","ĠâĢ ľ","Ġh oney","Ġtele vision","Ġp ur","Ġprot ect","Ġteam s","Ġang el","Ġofficial s","Ġb or","Ġcl aim","oc r","Ġpart icip","ĠâĢ Ŀ","b or","Ġadd ed","Ġwr itten","l ic","Ġf if","Ġbo dy","Ġcol l","Ġqu est","Ġtr ain","Ġsoc iety","Ġsu re","Ġy et","i ence","Ġfur ther","Ġjo b","Ġla un","fe rence","Ġm art","Ġso on","Ġare as","Ġsec ret","Ġt ou","Ġen v","Ġs we","Ġserv ices","id ing","y ed","Ġ18 8","Ġbook s","st and","Ġ2 3","Ġthan k","Ġmo der","Ġh ost","Ġch ief","Ġfor ce","Ġrad io","en se","Ġeng land","Ġvar ious","Ġ18 6","Ġreturn ed","o on","Ġadmin ist","Ġw all","Ġprofess ional","Ġele ction","Ġprod uced","Ġh ill","Ġpol ic","Ġob ama","Ġbe gin","Ġ ident","Ġfin ished","Ġtechn ology","Ġtot al","o ve","Ġfound ed","enc es","a f","im in","ver age","Ġst ep","Ġk h","Ġag o","Ġcomm ission","1 9","Ġh osp","Ġprodu ction","Ġgerman y","Ġf oc","Ġd est","Ġfore st","Ġco ast","Ġwork ers","ir on","Ġvi ol","Ġh am","Ġep is","Ġear l","Ġ5 0","Ġc op","Ġar m","Ġst ri","Ġr ace","Ġs le","a ign","Ġde fe","Ġmat ch","Ġlead ers","al d","Ġro b","Ġp le","Ġs us","ic a","Ġright s","a ur","et h","Ġbeh ind","at ure","Ġf em","Ġcl im","Ġph ot","Ġimp ro","Ġm akes","Ġper for","he re","u k","Ġpro per","ul ts","Ġth om","ag ed","em pt","Ġth ing","Ġemp lo","Ġfeder al","u ge","ac y","ines e","Ġim m","ye ar","iv id","Ġar ri","Ġear th","Ġperfor man","n es","Ġm el","Ġh y","Ġenv iron","Ġfun d","Ġinst ead","Ġcamp aign","Ġmar ried","Ġcompan ies","Ġreport ed","Ġt aking","Ġf ig","Ġind ia","Ġref er","ad es","Ġcon v","Ġpa ul","Ġt aken","h a","Ġch inese","Ġkill ed","id ence","Ġle ast","l in","Ġde g","ep end","Ġl iving","c ast","h ib","Ġtrad ition","Ġo ly","Ġqu e","Ġsign ed","n ers","g y","Ġhe av","Ġde cl","Ġlangu age","Ġg ar","Ġp it","Ġapp oint","Ġw ife","Ġli br","Ġpartic ular","Ġc and","Ġdem ocr","Ġass ist","Ġsp orts","Ġ200 5","u ff","Ġgo al","Ġfr ance","it her","Ġag re","Ġuh h","Ġind epend","Ġjour nal","Ġcon gress","Ġind ivid","Ġf ut","Ġtr aining","Ġlook ing","Ġprofess or","Ġfl or","Ġproble m","Ġse le","ut es","Ġ q","Ġw ild","Ġtr ying","Ġto m","Ġd en","Ġopen ed","Ġexamp le","Ġ [","Ġpos ition","Ġn ation","Ġcurrent ly","Ġide a","Ġin fl","Ġg lo","Ġr an","est s","Ġm ur","Ġmay be","Ġf ly","Ġfr anc","Ġ201 7","Ġele cted","Ġstud ies","Ġeurope an","Ġj ack","og n","Ġv o","Ġc orn","Ġt ar","Ġde al","Ġdo c","Ġrem ember","h ic","p ect","Ġ200 4","i ke","Ġmed ia","Ġph ys","v ille","om b","Ġf ail","Ġrecord ed","ide red","p r","and s","Ġ2 6","Ġcl os","Ġtre at","pp ed","Ġex ec","g ar","Ġint rod","Ġconn ect","Ġsomet imes","Ã ³","Ġ ice","Ġwant ed","Ġb an","Ġcom es","Ġt v","Ġco ach","Ġb ank","2 0","Ġnat ural","Ġth re","Ġepis od","Ġdaugh ter","Ġcharac ter","Ġs ell","Ġcons idered","Ġen c","Ġ. .","Ġ2 7","Ġf est","Ġf av","Ġre ason","Ġ2 8","Ġgeor ge","i ers","Ġr out","Ġaustral ia","re am","Ġrele ase","Ġc ro","Ġl ad","im ent","Ġc ell","Ġm ult","Ġex c","Ġenviron ment","Ġro yal","Ġset t","Ġpro b","Ġse em","Ġav ail","Ġmoder n","Ġafric an","l ess","Ġsu ff","Ġj ames","Ġrel ations","pt ion","f ic","Ġes p","Ġs ar","a el","Ġch ic","Ġm ary","a ut","Ġtex as","Ã ¼","Ġ18 7","Ġmo v","Ġsong s","Ġgirl s","Ġdav id","Ġrec ogn","Ġhapp ened","o x","it ive","Ġnort hern","un d","Ġrecord s","Ġcontin ued","ig r","Ġb attle","Ġtrav el","Ġcom ing","Ġb ay","Ġfriend s","Ġp an","Ġl ake","Ġex ist","Ġafric a","Ġin j","Ġs am","Ġm ater","Ġpo ints","Ġask ed","Ġoly mp","k y","Ġ20 00","Ġmin ister","Ġle ave","Ġal ways","y a","Ġd u","os s","air s","Ġatt empt","Ġprod uc","Ġhim self","Ġp en","Ġm ix","Ġh i","Ġcon cer","Ġart ist","Ġp u","Ġc y","h ood","Ġp aper","Ġne igh","Ġg ro","ol ution","Ġvis it","Ġshow s","ens ive","Ġl ives","Ġch all","Ġpret ty","c raft","Ġrel ig","bur g","Ġb at","Ġproble ms","Ġappe ared","e f","Ġcomp ut","Ġsu gg","Ġlos s","Ġread y","ap s","Ġb it","Ġr u","Ġr ac","Ġat h","Ġev ents","se qu","Ġins ide","Ġdes p","Ġme as","Ġbec om","Ġm er","Ġor d","Ġtour nam","Ġt rib","Ġd ig","Ġh ous","Ġstud ent","Ġa lex","Ġindust ry","Ġf a","Ġd in","Ġsur v","b al","Ġme ans","er ous","Ġ 0","Ġpo or","Ġpre m","ur a","ri a","b ody","Ġrun s","h od","Ġdevelop ed","olog ical","Ġst ore","ut ive","Ġ4 0","p an","Ġwant s","Ġreg ular","Ġchic ago","Ġinstit ute","Ġm ad","Ġhosp ital","he ad","Ġwe e","Ġsle ep","Ġw at","Ġlar gest","Ġt ro","Ġcommitt ee","Ġangel es","j o","Ġt able","Ġorgan ization","Ġnet work","Ġdis e","Ġuhh uh","Ġvers ion","Ġmag az","an ish","Ġcons erv","Ġsuccess ful","Ġavail able","Ġform ed","Ġameric ans","m on","Ġcon c","Ġter m","Ġinvest ig","x im","ro om","Ġqu ick","Ġse par","Ġje w","Ġ.. .","Ġd er","Ġdec ided","Ġflor ida","Ġb en","an ia","Ġha ir","Ġhelp ed","Ġn ative","Ġart ic","Ġfe et","Ġbas ket","o res","am b","Ġnear ly","Ġinvol ved","Ġa ud","Ġre b","Ġfut ure","st r","Ġfor ces","Ġs our","Ġb ow","ri an","Ġevent ually","Ġcanad a","Ġdr ink","Ġwho se","is es","Ġfin ish","Ġsn ow","f ield","Ġj er","Ġacc ess","Ġconstru ction","Ġa verage","re g","Ġqu al","Ġst ruct","Ġ199 0","al a","Ġthom as","Ġb ul","Ġsa f","Ġ >","ak er","Ġbe ar","Ġmexic o","Ġrec ent","Ġpriv ate","Ġbr ought","Ġrun ning","5 0","ist an","n s","Ġst yle","Ġlook s","Ġpart s","Ġ ]","Ġch art","Ġ201 8","Ġu m","op h","Ġb ud","Ġr ange","Ġ200 3","Ġhe art","Ġinclud es","Ġsign ific","Ġinfl u","Ġdesp ite","Ġf ast","Ġf er","Ġ2 9","Ġa ch","Ġruss ian","Ġwa it","Ġwhe ther","b an","Ġm ess","Ġthrough out","t a","Ġd ut","Ġre ach","Ġm orn","id ae","Ġmater ial","Ġbir th","Ġw il","Ġy ellow","Ġl u","Ġcont ract","it es","Ġd oll","Ġh o","is l","Ġexp ress","Ġf ix","s hip","Ġappoint ed","w ood","Ġfour th","e y","Ġco ver","Ġrese arc","Ġqu ar","Ġcle ar","Ġmunicip ality","Ġruss ia","Ġus ually","m ar","Ġo ce","Ġpl aces","Ġst age","is c","Ġp ull","ree k","Ġrail way","Ġan c","Ġresp ons","as ing","Ġe ither","le ment","ur ity","Ġdesign ed","n d","Ġlibr ary","Ġo l","Ġl iter","Ġbl ock","Ġdo g","Ã Ń","i us","Ġcompet ition","z z","Ġw o","it z","Ġallow ed","Ġeas tern","Ġhour s","Ġunder stand","Ġfor t","r ain","Ġsur f","Ġst aff","Ġposs ible","Ġsp ent","Ġmorn ing","Ġc ust","ce ed","v al","Ġo il","Ġhe y","Ġmed ical","Ġlik ely","Ġchang ed","Ġup on","augh t","Ġd ata","i j","c a","Ġcle an","Ġorigin ally","Ġthre at","Ġ200 1","ol a","Ġro ll","Ġa ction","Ġc it","w or","Ġc ertain","Ġ200 2","Ġent ire","Ġwom an","Ġtournam ent","Ġjo se","Ġsen ior","Ġcond u","Ġcar ol","Ġab ove","id ents","Ġd ro","erg y","Ġpict ure","Ġlou is","Ġs ant","Ġp un","Ġtyp e","Ġaustral ian","Ġacadem y","ber g","Ġ198 0","Ġrul es","Ġsay ing","Ġfest ival","Ġwr iting","Ġar ts","Ġprob ably","Ġwin ning","on a","Ġc ause","Ġm r","Ġst ra","Ġmin utes","Ġta x","Ġmed al","Ġlead ing","Ġfranc is","Ġcour se","Ġp enn","Ġsit u","Ġt or","Ġlead er","i que","Ġperforman ce","ain t","Ġbu y","Ġre ve","ra el","an ch","ct ions","d om","Ġpl ann","Ġmagaz ine","Ġwho le","ad o","Ġfeat ures","Ġvir gin","Ġpr inc","Ġmich ael","Ġb ott","Ġdec ision","Ġte ach","Ġd eter","Ġe gg","Ġchang es","Ġcon ference","Ġhig her","Ġes c","Ġmove ment","Ġe th","Ġprogram s","Ġt al","Ġon line","Ġha bit","us es","Ġp eter","ak ers","Ġl eng","Ġtou ch","itt ing","Ġn ine","Ġk ore","Ġke y","en ing","Ġinter v","Ġu l","Ġbr idge","Ġl ower","Ġde ad","Ġprov ide","Ġdif fic","Ġflo or","Ġcam er","rop ical","Ġearl ier","et y","Ġr ank","Ġli ber","Ġdiffic ult","s y","Ġspec ific","Ġmod el","Ġm ac","Ġr is","Ġf el","Ġt ree","et t","b ack","Ġhe ll","Ġw al","Ġs elf","Ġp il","Ã ¶","Ġthe at","Ġsec urity","Ġmount ain","Ġsh oot","Ġc oup","Ġf le","Ġyou th","Ġac cept","ent h","Ġb un","Ġc ub","Ġse x","Ġfollow ed","Ġdire cted","Ġsh ot","at ives","Ġis rael","Ġsignific ant","g a","Ġfl ow","Ġwee ks","u f","u ce","y es","Ġd ark","Ġhistor ic","k i","Ġgrow ing","Ġhop e","Ġth row","Ġz e","Ġstud io","Ġfr ank","Ġact ually","Ä «","sel ves","Ġg ard","Ġleng th","he st","Ġperform ed","Ġcap ital","Ġacc ount","at ory","Ġrec ently","ent ial","Ġconst it","b our","Ġp ush","end s","ar i","pp er","Ġmon t","Ġad m","Ġcir c","Ġd an","gr ound","Ġth ous","Ġp ac","Ġ3 1","Ġb ene","Ġr ather","Ġch o","p e","Ġlaw s","Ġex hib","Ġro bert","Ġswe et","Ġl ived","it ar","Ġany thing","enc ed","Ġpar l","m en","Ġhun d","le te","Ġhand s","in ation","Ġdeg ree","Ġair craft","Ġesp ec","ate g","ig er","se y","Ġoce an","Ġbuild ings","Ġb ac","Ġespec ially","y ou","Ġd ang","Ġd ru","Ġath let","Ġaw ards","est ed","Ġbasket ball","Ġsc ored","Ġ197 0","Ġpl aced","Ġne g","Ġval ley","ort un","Ġach ie","Ġpolic y","Ġrem ained","Ġoffic er","as c","Ġf ell","Ġp red","Ġche m","Ġhund red","ud e","Ġpl ans","Ġl un","Ġmiss ion","Ġac qu","Ġleg isl","Ġcomplet ed","b a","Ġfeat ured","l a","Ġroman ized","Ġcand id","Ġsc re","Ġchrist ian","Ġresearc hers","Ġtrans port","Ġcrit ic","Ġm ach","Ġl ink","Ġch ap","Ġdo or","Ġmil k","Ġn orm","Ġt akes","Ġsp anish","Ġmil es","Ġob s","Ġmov ie","Ġanim al","Ġcar ry","Ġlong er","Ġv an","il ities","p ed","if f","Ġaward ed","Ġsc ott","i res","Ġpr ison","Ġdest ro","Ġepisod e","Ġen ergy","k en","im s","Ġquest ion","Ġre ached","Ġp ig","Ġwor d","l am","it ect","Ġsh ar","d a","Ġplay s","Ġit al","Ġcar s","ol ic","ab ility","Ġpie ce","am s","Ġno vel","Ġhor se","Ġcust om","Ġb ag","Ġsm ith","Ġturn ed","Ġin n","o es","Ġcol on","1 0","Ġg all","Ġmin ute","ar ily","al ed","Ġg as","Ġfore ign","r ay","os h","Ġarch itect","itt ed","Ġgovern or","Ġjo in","g en","Ġbegin ning","Ġhe ar","Ġso ft","Ġc ard","med i","Ġw ol","Ġdo ctor","Ġgo d","Ġart ists","Ġant i","ent al","Ġnot ed","Ġmet hod","Ġspe ed","if t","Ġthem selves","Ġgen us","w here","Ġdise ase","Ġde ep","Ġfound ation","Ġsub ject","Ġcre ate","Ġple ase","Ġh us","Ġparl iam","t im","Ġl y","Ġevery thing","ot a","ific ation","Ġam ount","Ġglo bal","Ġneed s","ers on","ign ed","Ġform ula","Ġrout e","Ġprinc ip","ill s","Ġn ar","Ġparliam ent","Ġfem ale","Ġpri or","om m","ag on","Ġtr ade","se c","Ġpar is","Ġlist ed","Ġc ath","u se","Ġse ction","Ġsp ring","Ġsaf ety","b and","Ġb urn","Ġh at","op e","Ġrel ated","Ġelect ric","Ġmanag er","Ġindepend ent","Ġsub sequ","Ġ18 5","Ġc ities","Ġact ive","Ġw ow","Ġf air","b i","Ġwin ter","av ing","Ġmanag ement","Ġiss ue","Ġbroad cast","s w","Ġem erg","Ġcons ist","Ġc ra","Ġdoc ument","an o","Ġsch ol","Ġm ine","Ġbr az","Ġtradition al","Ġest im","Ġcont ribut","Ġcolle ction","Ġce le","Ġat l","Ġlab or","Ġexec utive","Ġbo ys","Ġlear n","Ġr ain","Ġl ay","Ġfin anc","Ġw ed","Ġw id","Ġbel ong","z a","Ġprevious ly","Ġ18 4","Ġcent re","Ġc red","ent y","Ġexper ience","he m","Ġprov ided","Ġresp ect","ad a","Ġd om","Ġuk rain","Ġleg al","Ġeconom ic","Ġd ie","Ġgo als","Ġcele br","Ġcomm erc","Ġvirgin ia","ist ic","Ġown ed","i ation","Ġ Â","Ġnews p","Ġ199 9","Ġbelie ve","or ing","Ġt un","Ġsw im","Ġtrans fer","Ġstart ing","bo ard","Ġjapan ese","o ff","ar ies","Ġl ack","v a","Ġn omin","Ġmin or","Ġwe bs","Ġcult ure","o ke","Ġend ed","w est","Ġf ro","Ġcanad ian","Ġk ar","Ġits elf","Ġe yes","Ġap art","Ġev idence","Ġp ack","Ġtr uck","er ve","os ition","Ġsqu ad","Ġgr ant","Ġs ize","ac hes","Ġteac hers","Ġrelations hip","Ġlaun ched","Ġw ide","Ġfam ous","Ġse m","Ġlad y","Ġob ject","Ġc ow","Ġcomput er","Ġital ian","Ġperson al","Ġiss ues","Ġf ellow","Ġocc ur","Ġm aster","an i","Ġcl osed","ab or","Ġatt ended","Ġ196 0","w ell","Ġfin ally","ol s","Ġsh op","t he","y er","Ġgeor g","Ġneed ed","Ġorgan iz","Ġcit iz","Ġext ra","o e","l s","Ġsystem s","Ġpass ed","Ġpl at","r is","Ġw ing","Ġquick ly","Ġking dom","Ġd a","Ġp urch","Ġmat ter","Ġjo bs","Ġm outh","Ġbraz il","r ound","Ġincre ase","Ġex cept","pl ay","ic ian","ne w","Ġmeet ing","Ġth us","Ġfav or","Ġmost ly","se mb","Ġadminist ration","h ab","ir t","Ġsur ve","Ġjose ph","Ġneigh bor","Ġres ults","Ġmed ic","Ġnum bers","Ġp ow","Ġch ann","Ġmo ving","Ġatt ention","Ġpract ice","Ġsus p","Ġchar les","Ġcons um","ail s","Ġ199 8","g ing","Ġve hic","Ġg i","um ents","w ards","Ġk er","Ġse at","Ġsp read","Ġa z","Ġc ere","Ġinterv iew","Ġfe ed","Ġar rest","if y","1 8","oc ks","Ġcol d","Ġwor ds","Ġopen ing","Ġj ump","Ġquar ter","Ġocc up","Ġis lam","Ġe t","Ġst ated","Ġsh all","Ġbe ach","Ġwr ite","Ġheav y","Ġoper ations","Ġra ised","ed y","Ġe ating","land s","b c","Ġst ick","Ġwr iter","Ġd ress","Ġover all","y m","Ġsc ore","Ġi re","Ġag ency","Ġc ases","Ġstud ied","Ġvict or","Ġg h","Ġins p","Ġintrod uced","Ġon es","Ġrepl aced","Ġc ry","ri age","Ġman uf","Ġc ab","Ġgr ade","Ġ6 0","Ġimpro ve","Ġmanuf act","Ġindivid ual","Ġsp ort","Ġtar get","Ġb ell","Ġbill ion","Ġcarol ina","ist ry","Ġc oun","it ch","1 2","Ġor ange","Ġsp ain","Ġf res","Ġhur t","Ġproper ty","Ġfilm s","Ġsqu are","Ġcommerc ial","w h","Ġgu ard","a q","Ġv ia","Ġlim ited","Ġdisc uss","as k","p a","Ġstand ard","Ġhig hest","e x","Ġrem ains","= \"","Ġs ister","Ġd omin","Ġrepublic an","Ġteac her","Ġshow ed","Ġproduct s","Ġst ars","Ġnav y","ap t","Ġapp le","Ġdri ve","Ġann ual","Ġjust ice","Ġgl ass","3 0","Ġg iving","i ents","Ġlet ter","Ġfif th","Ġsing er","Ġopp ortun","Ġas semb","Ġsh are","Ġrelig ious","in y","Ġext re","d ing","Ġd ance","Ġb a","Ġs ir","Ġhon or","c y","l or","Ġim medi","em ic","ic ated","Ġbase ball","Ġbecom ing","ict ion","Ġfoc us","Ġphot ograp","Ġsecret ary","Ġsurf ace","and a","Ġprim ary","Ġm ir","Ġbor der","Ġpe ace","Ġc row","Ġfl ight","Ġbe aut","p ing","Ġk m","Ġnot hing","ou l","Ġst ru","Ġag ric","Ġ199 6","i os","Ġhell o","ish op","Ġbel ow","Ġire land","Ġdis p","Ġmay or","ib ility","Ġfight ing","Ġtrans l","b ook","Ġca used","Ġsw ed","c her","im a","Ġchampionship s","Ġagric ult","Ġs aint","Ġar ab","Ġst orm","Ġed itor","Ġrich ard","Ġear ned","Ġexp ected","Ġvot e","Ġf ru","t ic","Ġhapp y","w w","id ay","Ġsl ow","cl us","Ġapp lic","s a","Ġget s","u it","Ġb ang","Ġreg ard","Ġcolle ct","Ġp ap","ro ll","Ġb att","Ġl og","oc key","Ġf ill","Ġatl ant","Ġd un","r d","Ġnat ure","k er","Ġbr and","k n","Ġf it","Ġm ind","Ġd ream","Ġold er","b ed","Ġser ious","Ġtre es","Ġk itt","Ġclass es","Ġcare ful","w ide","Ġfor ced","il i","Ġt ick","Ġcl in","Ġv en","Ġsome one","ir ty","ad or","Ġd ate","Ġab s","o id","d own","Ġbe g","Ġo w","Ġn ames","Ġr ide","Ġ199 7","Ġsur round","Ġcommun ic","Ġevery one","Ġestab lish","Ġad op","Ġrest aur","Ġthous ands","Ġsp l","Ġo x","Ġr ap","Ġexp and","Ġ199 4","Ġpac ific","ri pt","Ġtheat re","Ġdemocr atic","Ġparticular ly","Ġp age","1 4","Ġst one","Ġoper ation","gy pt","Ġartic le","Ġch ick","Ġw ays","Ġmart in","Ġhen ry","p re","Ġc atch","Ġwh om","Ġ ess","Ġair port","Ġvict ory","Ġstru gg","Ġtem per","um e","Ġent ered","Ġ199 5","Ġexper ts","Ġus es","r am","em s","Ġrepresent ed","Ġcor por","Ġsil ver","ens ion","n el","Ġt ried","and er","Ġpri ze","Ġb ath","Ġ <","Ġreg ional","ig an","Ġe gypt","ut h","Ġby e","Ġpl ants","anc ed","Ġanc ient","h ouse","Ġ199 2","Ġtr ue","Ġpain t","Ġl ie","Ġmain t","Ġfre qu","Ġdisco vered","Ġrem ain","Ġ201 9","z y","Ġlar ger","Ġcontin ue","he ast","Ġun l","Ġv oc","Ġp sy","Ġha w","Ġwr ong","Ġtr ou","y an","Ġl ord","Ġcomp lete","Ġ199 1","Ġne cess","Ġmic ro","Ġpol l","Ġpro gress","Ġret ired","Ġvol un","d on","Ġinit ially","Ġst ories","Ġr ub","Ġwe ap","Ġread ing","Ġsp ot","Ġrequ ire","Ġo pt","il s","ound s","Ġfig ure","Ġf ine","Ġprev ent","Ġsur pr","ri al","Ġsele cted","r s","Ġp ath","Ġdem on","Ġro ss","Ġdefe ated","j a","Ġ195 0","Ġar r","Ġaddition al","Ġm ale","Ġpo et","Ġwebs ite","Ġcomp lex","Ġoffic ers","Ġb oo","ad ed","Ġr ate","Ġsh own","Ġpre p","g u","Ġst ad","Ġlear ning","Å «","Ġref uge","Ġassoci ated","Ġfrancis co","Ġr are","Ġcont ains","Ġincre ased","Ġte en","Ġtow ards","om a","Ġtr ust","Ġactiv ities","Ġintern et","Ġbe at","Ġg one","Ġrequ ired","in ct","Ġsub st","Ġpain ting","m ore","Ġse arch","Ġcapt ain","Ġbene f","Ġal le","k ing","Ġpict ures","ip s","Ġpart ners","Ġpar ish","Ġco vered","Ġbl ood","Ġc oo","Ġdo gs","Ġsal es","w are","it a","Ġal tern","Ġatt ract","yl v","Ġbeh av","Ġr ang","Ġlab el","Ġtow er","Ġcath olic","ip e","un e","Ġgu itar","Ġtri p","Ġa head","Ġ199 3","Ġk ick","Ġmajor ity","Ġpur p","Ġsa fe","Ġchar ge","Ġque en","Ġam b","Ġn ations","ell ed","Ġcre w","Ġr h","Ġc d","le ct","Ġgener ally","Ġj im","che n","ylv ania","Ġch oo","Ġwe ar","Ġp ra","Ġv ac","Ġsy n","Ġres our","1 5","Ġn ick","Ġser ving","un g","Ġl if","Ġd ry","ing er","Ġcons ider","st e","Ġfun ny","Ġfel t","Ġe ye","Ġisland s","por ary","Ġbo ston","Ġgre w","Ġcult ural","Ġres idents","Ġenc our","Ġtrack s","Ġkn e","ro ad","Ġbo at","Ġir aq","Ġcr ime","Ġmat ches","Ġnear by","on se","il ed","Ġle aving","Ġeff orts","Ġl ines","Ġmus l","Ġcol umb","Ġan al","u als","Ġt all","Ġinst r","Ġlevel s","Ġarri ved","Ġr ab","Ġtro ops","ur ies","Ġun it","Ġsar ah","Ġh ockey","k ins","Ġrecord ing","Ġfinanc ial","Ġsim p","Ġk en","u a","Ġchair man","Ġmem or","Ġincre asing","Ġcoll abor","u ction","Ġad am","Ġhun g","Ġbelie ved","Ġbr ain","Ġm ond","al and","z en","Ġend emic","Ġb ri","Ġper m","h ire","b on","Ġla ura","ver t","Ġstruct ure","Ġsmall er","Ġst uff","ip l","Ġown ers","Ġn ap","in i","ans as","Ġsc ot","Ġit aly","Ġph one","Ġcond itions","Ġcon fl","Ġso v","te en","Ġtreat ment","Ġchall en","Ġfail ed","Ġris k","f ect","Ġh uge","Ġoff er","Ġem b","k o","Ġpenn s","ot e","Ġv ice","b re","Ġa ri","Ġco al","Ġpa id","Ġ198 9","Ġsold iers","Ġpsy ch","ph one","Ġi v","Ġpenns ylvania","Ġed ition","Ġmus ical","Ġd ar","Ġre form","Ġob t","Ġsp ir","Ġsp ok","ven ue","Ġbe y","Ġmo b","Ġhabit at","ul ations","Ġgrow th","i ro","n et","Ġse ed","Ġkitt y","Ġdou b","Ġst ock","Ġsov iet","Ġshe l","Ġto ys","Ġb ol","qu ar","ast ic","Ġappro xim","Ġm as","olog ist","Ġte xt","Ġr ing","Ġchann el","g al","Ġl ic","Ġlat in","Ġfre ed","Ġdef ense","ul ated","Ġoff ered","Ġk id","Ġno se","s p","s es","Ġmot or","Ġsant a","o y","Ġassist ant","Ġloc ation","Ġjun ior","Ġbird s","Ġappear ance","Ġdig ital","ipp ed","Ġenvironment al","is her","Ġresp onse","uck y","Ġdis app","Ġsupport ed","1 7","Ġ18 3","Ġke pt","Ġr id","en a","Ġcont r","Ġhus band","Ġnewsp aper","Ġhistor ical","Ġpie ces","Ġgu y","Ġstad ium","ag ing","Ġsh ut","Ġco ol","iz ing","Ġvar iety","Ġchem ical","ric k","Ġh ors","Ġrespons ible","Ġbo b","Ġm cc","h ol","Ġacc om","is ions","Ġengine ering","l ight","Ġhe ard","Ġrev olution","Ġaut om","Ġjud ge","Ġmar riage","Ġnum erous","Ġdr um","Ġlook ed","Ġsour ce","Ġcitiz ens","ch an","Ġpe ak","o le","Ġrem o","Ġt ail","Ġju ice","as ion","ath an","g l","Ġent er","Ġscre en","j an","Ġ ic","k in","Ġs ad","Ġcan cer","Ġpr int","Ġer a","Ġfres h","Ġtr aff","ail y","Ġdem and","Ġse v","Ġsc hed","Ġmean ing","h an","Ġgradu ated","Ġolymp ics","ian a","Ġhy d","Ġt ropical","ell a","Ġappro ach","i i","Ġqu ality","Ġp us","Ġex am","1 1","Ġt enn","Ġle e","Ġfeat ure","Ã³ n","Ġas h","Ġtw enty","d o","m as","Ġc ru","Ġc art","Ġd ed","Ġ198 8","Ġdra ft","Ġf ul","Ġhigh way","Ġcoup le","Ġw el","Ġtalk ing","Ġeff ort","Ġyou n","Ġg reek","Ġle aves","Ġhom es","er ved","Ġchar l","ess ion","Ġpr ime","oo p","Ġd aily","Ġchamp ion","Ġze aland","Ġk a","in n","Ġhum ans","Ġd uck","Ġassemb ly","Ġsen ate","/ /","h i","Ġar ms","Ġro se","Ġc ateg","t r","Ġto y","Ġm and","Ġj ul","ut ions","Ġvo ice","w ater","Ġsupp osed",": //","Ġwe ather","Ġg ives","Ġu pper","Ġsun day","all ed","Ġwe ight","ve re","Ġcall s","Ġclim ate","Ġbirth day","Ġb omb","Ġequ ip","Ġb ishop","Ġs ud","Ġr am","Ġm ention","Ġatt end","ren ces","az z","Ġ3 5","Ġfor ward","ab les","Ġprov ides","Ġk iss","Ġs or","Ġmar ine","Ġconf ir","Ġf red","il ing","1 3","Ġn ut","Ġjew ish","Ġe ll","Ġfl ag","Ġsk ills","Ġb on","u ing","Ġnot able","anc y","Ġhold ing","Ġru le","Ġmedic ine","w r","at o","Ġp ak","in et","Ġcompet ed","Ġfly ing","Ġexper i","ou d","Ġsoc cer","Ġdou ble","Ġfarm ers","ol k","Ġpress ure","o ver","Ġyoun ger","al i","Ġ7 0","Ġcast le","Ġt ape","Ġir on","Ġadd ress","Ġseason s","Ġbut ter","Ġstat us","Ġwin ner","Ġbro ken","v in","Ä ĩ","as a","Ġcom ment","Ġsing les","ap h","Ġen s","Ġimm igr","Ġhous es","act ion","Ġres c","Ġs ens","Ġ198 4","Ġpos itive","Ġal one","Ġser ve","Ġcar ried","Ġviol ence","Ġcontro ll","Ġagre ement","Ġsepar ate","ac ts","Ġstra ight","Ġsubsequ ently","Ġdep ut","Ġproject s","ian ce","Ġsa ve","Ġter ms","i en","Ġcar l","Ġsy ria","Ġmain ly","Ġvolun te","Ġal t","w a","Ġm ama","ri e","Ġr ug","Ġequip ment","Ġplan et","Ġn ic","Ġfun ction","Ġbr anch","Ġche ck","uc le","Ġapproxim ately","Ġcharac ters","ut ed","Ġk r","Ġab ility","Ġgeorg ia","Ġk it","Ġm ah","Ġ8 0","Ġmult ip","Ġneighbor hood","h ar","Ġch ance","Ġegg s","Ġro w","Ġgre ater","iz es","Ġattack s","ub e","Ġ198 7","Ġchall eng","Ġmix ed","Ġf ans","ir ing","m ond","ap ed","Ġo d","Ġh ang","Ġst an","am m","Ġoper ated","Ġschol ars","Ġv iet","Ġun its","Ġproduc er","Ġn om","Ġimp act","ch ange","Ġwhe el","Ġtell s","s en","Ġf at","Ġun d","Ġfir m","Ġele v","Ġscient ific","ren d","Ġdut ch","g ers","u le","ing u","Ġin hab","Ġg il","Ġz oo","Ġelect ron","l ied","Ġbow l","y r","Ġmond ay","um n","Ġas ia","Ġcommun ities","Ġteach ing","Ġent ertain","Ġr ough","ct ors","Ġwor th","Ġint e","Ġd rop","Ġr at","Ġnot e","Ġsen se","Ġ198 5","Ġp ed","if ul","1 6","Ġf ox","ro s","Ġpl ane","Ġs r","Ġmet al","Ġt an","g reg","Å ¡","Ġclaim ed","or ter","Ġadminist r","Ġtur key","Ġcoo per","Ġgr ass","Ġappe ars","or ters","Ġphys ical","rib ution","Ġdro pped","Ġchallen ge","Ġbro ke","Ġimmedi ately","Ġco ff","t ies","Ġl uc","Ġch am","Ġro d","Ġprodu ce","Ġeffect s","Ġpro min","Ġind ic","Ġt on","Ġj ones","Ġfound er","Ġplat form","c ks","Ġemplo y","Ġcomp l","Ġcomp ared","l ife","g le","Ġb ought","Ġk il","Ġgen e","Ġhot el","Ġs ac","ce ment","at ures","Ġg al","Ġ9 0","Ġo s","Ġye p","ict ed","Ġlear ned","Ġbar b","Ġpolit ician","Ġinit i","Ġk ent","at ively","Ġdang erous","c ome","Ġe ld","Ġauthor ities","Ġ198 6","Ġto ward","Ã ¤","w an","Ġbr on","Ġn ucle","Ġfreed om","v i","Ġeas y","Ġagre ed","Ġgener ation","Ġpr ince","Ġme ant","Ġ198 2","Ġir ish","Ġbrother s","Ġcon cept","Ġcrit ics","h old","f ast","r ison","Ġput ting","Ġter min","Ġmanag ed","Ġf igh","Ġu t","Ġreve aled","it ude","Ġsp r","Ġstand ing","Ġhe at","Ġprop osed","Ġr ay","Ġmo on","Ġprot est","Ġhundred s","Ġt ast","Ġpot ential","ig ration","Ġed ward","Ġma x","ent ed","us ing","Ġv eter","Ġad j","Ġhapp en","Ġarr ang","Ġele ph","a x","a res","Å į","in ing","Ġcomp os","Ġsk y","ograp hy","Ġbusiness es","Ġcamer a","s et","Ġsimp ly","ad el","Ġpresent ed","Ġachie ve","Ġkne w","pp ing","Ġ5 00","Ġh u","Ġplann ed","Ġbl ocks","Ġun f","Ġjohn son","it ation","Ġdec ades","Ġtw ice","Ġsu c","Ġact or","Ġbig gest","Ġinte gr","Ġs om","Ġ3 2","Ġhelp s","Ġdru g","Ġcandid ate","Ġextre m","Ġ194 5","Ġterr or","Ġs itting","Ġb ull","Ġst ations","Ġown er","Ġacqu ired","Ġa k","ot hes","out s","Ġkore a","Ġan sw","Ġmich igan","Ġan th","ian o","Ġ id","Ġsc ene","Ġbr ig","Ġ197 2","Ġfield s","Ġmeas ure","Ġbri ef","re l","Ġcost s","t ime","Ġme chan","Ġform s","Ġsu it","j i","Ġm ath","Ġwon der","b ach","Ġrep orts","Ġmin im","Ġdam age","Ġdestro yed","r or","et te","oo ps","Ġa im","ys is","Ġsit es","Ġlet ters","Ġsuc ceed","Ġele ment","Ġm oo","Ġw et","Ġwe b","Ġtr ail","Ġj on","Ġtown ship","ace ae","c i","Ġpak istan","Ġaff ect","Ġjer sey","re y","Ġadv oc","Ġtem ple","ino is","Ġukrain e","Ġpr ice","in al","Ġthe ory","Ġbey ond","Ġj ac","Ġcondu cted","Ġcont em","Ġphil ipp","Ġt aught","am ing","Ġqu ite","Ġcook ie","Ġcell s","Ġdemon str","Ġbeaut iful","Ġcont est","Ġactiv ity","Ġur ban","Ġwed nes","Ġc aught","Ġmin istry","Ġrem aining","Ġindust rial","er o","Ġrep e","it ory","Ġacadem ic","Ġen jo","Ġship s","Ġcr imin","if ying","Ġislam ic","el a","Ġsp end","Ġiss ued","Ġt ues","Ġ194 0","Ġexper iment","ee ch","Ġoff ers","led ge","ord in","ell ing","Ġ193 0","Ġsitu ation","el ess","Ġhigh ly","Ġr ic","Ġpar ks","Ġc as","Ġsp eech","ren g","Ġpromot ed","Ġdeter min","or por","Ġun c","Ġse qu","Ġhelp ing","Ġill inois","g ian","Ġs ick","wor ks","Ġul tim","il a","Ġbott om","Ġgard en","Ġl es","Ġsub t","ish ing","Ġelect ions","sh ire","Ġst ores","Ġdire ction","Ġme at","Ġdis play","Ġestim ated","r ated","Ġmemor ial","Ġ198 3","Ġbrit ain","Ġdri ving","Ġb ann","Ġsy m","on ic","Ġoh io","un k","qu es","Ġmach ine","Ġpat tern","Ġvisit ors","Ġj es","Ġtyp es","Ġflow ers","Ġre fe","Ġleaders hip","m it","Ġs her","Ġthan ks","Ġ197 9","Ġindivid uals","ap es","ke e","ell ig","Ġstop ped","Ġ18 2","n ic","Ġlun ch","Ġexper t","Ġdirect ly","Ġweap ons","as ka","Ġprotect ion","Ġ3 6","Ġbo d","Ġtues day","rop h","Ġlist en","Ġlos ing","Ġd ol","Ġorgan is","Ġsu pre","Ġappear ances","gh an","Ġparticip ated","Ġmultip le","Ġr ise","Ġsat ur","man n","ab eth","Ġp ad","Ġsurve y","Ġdis ney","Ġest ate","Ġacc ident","Ġalbum s","Ġmexic an","Ġresour ces","Ġe b","Ġex erc","al ing","Ġ198 1","Ġdan iel","ak s","Ġdist ance","Ġolymp ic","Ġfru it","ste in","Ġcoff ee","Ġsy mb","Ġcons ists","Ġval ue","m o","Ġreg ister","Ġconc ert","Ġs amp","Ġex act","enc ies","Ġint ellig","Ġmunicip al","il ly","tt ps","Ġw it","Ġw ales","Ġlat ter","e en","Ġa st","Ġdeput y","Ġ ille","Ġ192 0","ab ad","Ġwild life","Ġres ident","Ġd iam","Ġstri ke","Ġentertain ment","Ġwednes day","Ġl ion","Ġresp ond","Ġon to","Ġ197 5","Ġsweet ie","Ġorgan ized","Ġtrou ble","ag er","un t","ous ly","Ġcont act","Ġs ides","em ents","Ġro of","Ġquest ions","Ġg a","Ġg oo","et ts","Ġconserv ation","Ġand rew","Ġst reng","Ġjo e","Ġadv anced","Ġcoun ter","Ġthreat ened","uc ks","Ġwilliam s","Ġsugg est","Ġsc en","Ġchrist mas","Ġseem s","es h","ic ed","Ġgu ess","Ġt iny","Ġp ink","Ġthere fore","Ġrec omm","Ġg ay","Ġk im","Ġkn ock","Ġsm art","l ies","Ġbur ied","Ġforest s","Ġcomp osed","Ġv ent","ric ts","Ġide as","t own","Ġn fl","Ġinc ome","Ġtri al","Ġd anc","Ġl ots","Ġcontin ues","Ġ ign","Ġemp ire","Ġsil ly","Ġcho ice","Ġremo ved","Ġte eth","Ġinit ial","an y","Ġy ards","Ġscot land","ro l","Ġy ay","Ġ197 6","Ġrece ive","bur gh","Ġreg iment","Ġorganiz ations","Ã §","ou ri","Ġexp ect","Ġ196 8","Ġc ert","Ġdo gg","Ġm ist","Ġper fect","Ġcamp us","Ġsix th","Ġp in","Ġro t","Ġco de","ib ly","Ġsupp ly","Ġbehav ior","Ġh ind","Ġdr ama","Ġsell ing","Ġfind ing","Ġfund ing","Ġtit led","Ġaff airs","Ġcrit ical","Ġdecl ared","Ġm ut","Ġ18 0","Ġsim ple","Ġord ered","ach us","Ġhe ro","st one","Ġ197 4","Ġfr iday","Ġor che","Ġres ist","i h","Ã ¨","Ġ3 00","Ġje ff","Ġii i","Ġwind ow","Ġcommand er","Ġspir it","Ġf ash","Ġport ug","Ġve get","Ġlaun ch","st ra","Ġwe aring","i est","Ġse attle","Ġbr ad","Ġhar v","a ult","u ct","Ġb ound","Ġk enn","Ġg ol","um my","Ġphil os","Ġmount ains","Ġc em","at i","Ġdist ricts","Ġp urs","Ġh ug","Ġas ian","Ġ197 8","Ġinsp ired","Ġad ults","is ters","Ġcolumb ia","Ġhapp ens","Ġbre ed","Ġaf ghan","Ġdin os","ĠâĢ ĺ","er b","Ġwat ers","adel ph","Ġs end","Ġswim ming","and on","Ġele ments","Ġel iz","Ġprim arily","Ġmass achus","wor th","Ġbun ny","Ġsh r","Ġmassachus etts","Ġun cle","Ġshort ly","Ġhous ing","ill a","Ġsc r","ru pt","ru ction","Ġdef in","Ġphil adelph","Ġofficial ly","Ġconfl ict","Ġarch ae","Ġshoot ing","Ġjo int","c an","Ġf c","Ġ196 9","Ġstand ards","Ġbreak fast","Ġinflu ence","Ġo oh","Ġc reek","Ġ4 5","Ġm igr","Ġeconom y","Ġm is","Ġthem e","Ġ194 4","Ġthink ing","Ġarrest ed","Ġres erve","Ġphiladelph ia","Ġinf ant","Ġm oth","il es","Ġtr ains","Ġext ended","el and","se e","Ġsoft ware","Ġf al","Ġad vert","m ark","n o","el ly","br idge","Ġun s","Ġpat ients","Ġmo s","Ġliter ature","Ġclub s","we ight","Ġcem eter","y ard","Ġvill ages","4 0","Ġb uck","Ġact ing","Ġbud get","f ish","Ġl ind","Ġ197 1","Ġcont ent","Ġconstru cted","Ġfollow s","Ġinj ury","Ġdefe at","Ġprincip al","Ġsupre me","Ġj r","Ġcap ac","Ġ3 3","Ġs urn","Ġpre c","Ġ197 7","ut s","Ġsc ale","Ġbecom es","ar m","Ġwind ows","Ġrefer red","n ie","Ġcon vers","Ġtraff ic","ol n","Ġplann ing","g n","ig a","Ġfash ion","Ġl ies","Ġper man","Ġfeat uring","Ġchang ing","h s","te red","Ġdiffe rence","Ġauthor ity","Ġmar s","Ġk al","ul ed","Ġd ipl","Ġbe ars","Ġpo ver","Ġopportun ity","on ia","Ġpu pp","Ġsh oes","Ġra ise","Ġconst ant","Ġhe ight","Ġwr it","Ġsol o","Ġcro wn","cl es","Ġcorn er","Ġpover ty","Ġg ri","Ġterr itory","8 0","Ġp oo","Ġwid ely","Ġm ike","Ġl as","Ġserv es","Ġ196 7","Ġtransfer red","Ġallow s","Ġpower ful","Ġb es","Ġcom edy","sel a","Ġreview s","Ġt am","new sela","Ġanal ysis","wh ile","Ġc in","Ġtyp ically","Ġstat ement","âĢ Ļ","Ġlar g","Ġcr ack","est ic","Ġen em","Ġalong side","Ġt ay","Ġass igned","Ġmom ent","j e","Ġsu gar","Ġab andon","Ġcall ing","Ġwin s","Ġgold en","3 3","Ġj azz","m ans","Ġarg ent","ar io","Ġcond ition","Ġex change","Ġreg ist","Ġfl ood","Ġbas ic","Ġmaterial s","h aps","r id","ot ed","iv ity","Ġar th","Ġcr is","Ġformer ly","Ġd ur","Ġper haps","Ġ197 3","Ġpurp ose","Ġa id","Ġfe ar","Ġbig ger","Ġclim b","et ic","Ġcustom ers","Ġwalk ing","ch a","Ġwar m","Ġen for","Ġdiv ided","Ġcapt ured","Ġsatur day","Ġser b","Ġcontro vers","Ġab d","Ġtest s","Ġfavor ite","Ġnorm al","or ation","it o","Ġl inc","Ġus a","ac ing","ter y","Ġcl a","Ġgradu ate","Ġf ought","ut en","Ġback ground","Ġwh oops","Ġsy d","Ġcomplet ely","at he","Ġc ric","Ġded icated","Ġsurn ame","u x","Ġpromin ent","Ġfoc used","Ġcrow d","i y","Ġatt orn","Ġimp ress","Ġreturn ing","Ġt el","ul f","Ġed ge","Ġprem ie","Ġeliz abeth","ly ing","b ury","Ġp ool","f ort","Ġcon sec","Ġw oo","Ġun ique","Ġdri ver","Ġfac ilities","Ġnecess ary","Ġcolor ado","Ġsour ces","Ġlarg ely","Ġlinc oln","Ġdis s","m ine","Ġj am","Ġim ag","Ġpl ate","Ġfootball er","Ġsugg ested","Ġaccept ed","Ġne p","Ġsuff ered","Ġwil son","Ġgr ay","Ġnew ly","Ġem ot","Ġ196 5","on ents","Ġb ass","Ġbr ight","Ġfl at","Ġknow ledge","Ġ196 4","Ġreason s","Ġcir cle","Ġrecogn ized","Ġpartners hip","Ġr and","Ġcon clud","ur t","Ġch a","Ġcol omb","Ġprop os","w ise","ing ton","Ġsc oring","Ġadop ted","Ġcontem porary","c el","ir a","Ġar med","Ġmar sh","Ġcre ating","Ġm ap","Ġcor ps","Ġgun s","Ġrac ing","Ġconfir med","Ġcric ket","ad s","Ġdo ctors","Ġact ress","Ġimp lement","Ġnucle ar","re es","oc ol","Ġcommun ist","Ġan aly","Ġg ang","Ġsyd ney","Ġw isc","Ġbeg ins","Ġh ong","Ġcl othes","Ġpurch ased","Ġw ings","Ġk o","Ġrest rict","Ġrestaur ant","Ġkore an","ak a","Ġbut ton","Ġim age","i as","om s","ons in","Ġmess age","quar ters","Ġr ice","Ġwisc onsin","or a","az on","5 00","it age","Ġfind s","Ġrepresent atives","Ġn az","Ġz one","Ġeduc ational","Ġconn ected","Ġcont ain","Ġhop es","Ġfact ory","Ġly ric","ist ics","Ġav oid","Ġnomin ated","Ġtrans form","Ġspl it","Ġinhab it","Ġ3 4","Ġsl ight","Ġinterest ed","Ġcrimin al","Ġprov iding","Ġchr is","ribut ed","Ġbill board","Ġari z","Ġo ri","Ġhun ting","Ġvar i","Ġpal est","Ġsal t","Ġrepresent ative","Ġident ified","Ġsem i","Ġt s","Ġb h","Ġloc k","Ġsk in","he im","Ġf u","che ster","Ġjack son","re ct","Ġcop ies","om an","Ġstart s","Ġadv is","Ġhold s","Ã¡ n","Ġact ions","Ġair pl","m ony","Ġf aced","Ġinvestig ation","Ġpart ner","Ġma xim","Ġhead quarters","Ġ194 6","k es","Ġvehic les","iam i","Ġscient ist","Ġcolle cted","Ġpolit ics","Ġinstr ument","Ġg ained","Ġchick en","Ġa venue","Ġind ones","Ġins ur","9 0","Ġf isher","Ġh ay","Ġr ivers","Ġthe ater","Ġpr in","Ġfin als","Ġcons ult","r ig","Ġel imin","l av","Ġl em","ik a","Ġd na","Ġtechn ical","Ġn iger","Ġad ult","Ġgro wn","Ġnorth west","Ġopp osition","Ġcomb ined","Ġfig ures","an es","Ġsm ok","Ġrec ru","Ġim per","Ġpres ence","Ġcomb at","Ġcon ver","Ã ±","os en","Ġinc orpor","Ġpil ot","Ġb ah","Ġher itage","Ġemerg ency","ch i","igh th","Ġfish ing","Ġconserv ative","Ġd im","Ġth urs","Ġmiss ing","Ġm iami","Ġkill ing","b ird","Ġsh ape","Ġbl ow","Ġclaim s","Ġab e","ic i","Ġ196 6","or der","Ġrec o","Ġmusl im","Ġp ump","Ġmur der","Ġrec on","6 0","Ġsp ending","Ġmean while","Ġwall s","Ġoccur red","Ġcapac ity","Ġtest ing","em an","Ġche ese","2 5","Ġbas is","Ġs ab","Ġsci ences","iver se","Ġe ve","Ġsa v","Ġmiss ouri","Ġany one","Ġtur k","Ġcub a","Ġs ons","Ġret ire","Ġste el","Ġintellig ence","Ġfl ower","h ah","Ġa er","Ġ15 0","Ġtown s","Ġk ong","g i","w in","aw a","Ġengine er","Ġfew er","Ġknow s","Ġ196 3","h ttps","Ġne ck","Ġf an","Ġse es","Ġro s","Ġworld wide","Ġrank ed","Ġk ansas","Ġher self","Ġwar s","Ġstre ets","ion e","le ts","ag a","Ġno ise","Ġthink s","Ġ194 2","Ġc rop","Ġrail road","ye es","hen s","Ġemplo yees","Ġw rest","Ġoper ating","Ġrug by","u an","Ġan ton","Ġhealth y","id ers","Ġscott ish","ic ient","Ġdevelop ing","Ġviet nam","Ġpaint ings","Ġ3 7","Ġlo an","Ġatlant ic","Ġapp lied","Ġred uced","Ġal bert","Ġmary land","Ġt ask","Ġtr a","Ġsecond ary","on to","Ġint ended","m akers","w ar","Ġpresident ial","Ġp air","Ġop in","Ġbus h","Ġsc ul","i ot","Ġlangu ages","Ġbo om","Ġcemeter y","Ġpart ies","Ġcal c","Ġber n","Ġcorpor ation","Ġspok es","Ġst uck","Ġgall ery","e es","Ġs ort","Ġcan al","Ġwatch ing","Ġrap id","Ġathlet es","Ġch osen","Ġstre t","2 00","Ġj enn","Ġste ve","Ġpe ek","Ġalex ander","Ġsu st","Ġrelig ion","Ġto ols","Ġdin ner","Ġnar row","ins on","Ġmem ory","Ġcy cl","Ġvir t","res p","l ers","Ġ eric","Ġm it","Ġsome body","Ġmill ions","Ġaud ience","Ġmal ays","Ġhost ed","Ġwol f","Ġaccom pan","Ġpol ish","Ġful ly","Ġbr ick","Ġthurs day","g ie","Ġperform ing","Ġhyd ro","Ġtr ained","Ġfac ult","Ġh its","Ġgre y","Ġun kn","Ġnot es","Ġshow ing","Ġdist ingu","Ġvis ited","Ġallow ing","Ġdr ones","Ġsub ur","Ġsign s","Ġref used","Ġwas h","Ġcon cent","Ġle w","Ġappro ved","Ġent r","Ġevery body","Ġren amed","Ġcateg ory","Ġsor ry","Ġariz ona","n ight","Ġc av","Ġcol ors","Ġmob ile","Ġb bc","Ġse ats","ag an","i ber","Ġsp ect","Ġje an","Ġagricult ure","Ġy og","Ġmy ster","Ġro cks","Ġprot ests","Ġsett lement","Ġfill ed","b el","se ct","Ġag ent","Ġus ers","aw s","Ġspe aking","Ġliber al","o ir","Ġsub s","Ġdisapp e","Ġshe ll","Ġopp os","Ġmanufact ure","Ġsh irt","Ġd y","Ġmin nes","Ġend ing","Ġdisco very","Ġwho a","Ġuh oh","Ġfall s","Ġeduc ated","er a","i Äĩ","Ġexp ensive","Ġm ail","Ġan ne","Ġk at","if orm","Ġmention ed","Ġcontroll ed","Ġc ore","av a","Ġ195 4","ĠÂ £","k h","he t","Ġpain ted","Ġlim it","Ġl in","it an","Ġred uce","Ġtur t","op hy","Ġle ct","Ġgr an","Ġbac ter","ol ved","Ã ¸","Ġattorn ey","Ġlik es","Ġunkn own","Ġh orn","Ġmat hem","Ġb ond","Ġpro s","Ġnet her","Ġvictor ia","Ġrefuge es","it ter","Ġtransport ation","Ġswed ish","ri ption","Ġgr am","Ġcondu ct","Ġbron ze","Ġl ions","Ġfr ame","Ġmat t","w ich","p o","Ġvehic le","Ġb ure","Ġk ir","Ġsound s","Ġpu zz","ul ate","Ġset ting","Ġlie uten","Ġreg ions","m et","Ġs lo","Ġmod els","Ä į","Ġyour self","Ġturn ing","Ġeas ily","bour ne","Ġsquad ron","Ġkit chen","Ġultim ately","Ġexpand ed","Ġbod ies","Ġent ry","Ġt u","Ġminnes ota","Ġwith d","Ġhead s","Ġ196 2","Ġdist inct","Ġdraw ing","Ġimmigr ants","Ġp ric","Ġn athan","Ġpol y","Ġ195 8","Ġsing ing","Ġtre ated","Ġber lin","r ich","Ġbl ank","Ġqu iet","Ġview s","Ġd irty","Ġmag n","Ġinhabit ants","Ġs ale","Ġt ank","is hes","Ġ195 9","um ed","Ġfac ility","Ġexist ing","Ġb om","el ve","Ġv ess","Ġdec ade","Ġperforman ces","en ger","am in","Ġset s","Ġ194 8","Ġth ir","Ġfeder ation","Ġem per","Ġpos itions","Ġunl ike","Ġaltern ative","Ġend s","Ġprem ier","Ġfle et","Ġaz erb","Ġhors es","Ġf inger","Ġ194 1","Ġre ject","Ġz h","Ġoper a","Ġdesign ated","Ġazerb ai","Ġp ier","Ġj ord","Ġf uel","Ġill ust","au g","eng ers","Ġsubt ropical","Ġl yn","Ġcommon ly","Ġho le","Ġconstit ution","are t","Ġarth ur","Ġcris is","Ġwe alth","Ġmat the","Ġpa rent","Ġlieuten ant","b ro","Ġm erc","Ġg ather","b ye","f a","Ġca uses","Ġtit les","Ġe ag","Ġrece iving","Ġg ree","Ġ196 1","Ġesc ape","Ġwit ness","Ġco vers","Ġepisod es","Ġinj ured","p ro","Ġis ol","Ġit ems","Ġte a","Ġturn s","ag ues","Ġw y","en der","Ġd ial","Ġun us","Ġtor onto","Ġrel atively","Ġscul pt","Ġm ent","Ġim ages","Ġb ite","Ġ195 6","Ġexpl ained","ri er","Ġun able","Ġbar on","Ġadv ant","Ġpick ed","Ġp iano","ad ing","Ġtw elve","Ġ4 00","Ġcour ses","Ġland s","Ġinfant ry","Ġi p","Ġvis ual","Ġsp in","Ġafghan istan","gar ian","Ġsitu ated","Ġpro ceed","Ġprof it","Ġnom i","Ġst ood","Ġcl oth","Ġconnect ion","Ġsp oke","Ġna ima","itz er","Ġm all","Ġact s","Ġcre ation","Ġinv ited","Ġsen ator","Ġmatthe w","uel a","c on","Ġsh ared","Ġ194 7","Ġm ental","Ġresc ue","b les","Ġt ight","Ġf ame","Ġres erv","Ġnav al","o a","Ġro les","Ġsupp orters","ar ian","Ġadv ent","Ġb id","it ors","Ġexc ell","Ġl ose","Ġmar g","Ġinn ov","Ġweek ly","bo x","Ġsol id","Ġeleph ant","Ġin e","Ġto b","Ġmark ed","Ġeffect ive","Ġdocument ary","Ġdis m","Ġpur ple","Ġo ops","ist ed","ful ly","Ġleg s","h l","re ll","Ġform at","Ġagricult ural","Ġth irty","Ġapp a","Ġ194 3","Ġsurround ing","Ġwa iting","Ġpen al","Ġn urs","Ġrepresent ing","Ġt ai","Ġstud ying","Ġdet ail","Ġdoll ars","Ġfacult y","Ġt ired","Ġsout heast","Ġexist ence","Ġtay lor","h r","Ġwas te","Ġ195 5","Ġadv ance","Ġo ak","er n","Ġcat al","Ġsched uled","Ġo t","Ġsecond s","Ġgi ant","Ġse vere","Ġdet ect","Ġroad s","Ġexhib ition","Ġen roll","Ġnether lands","b l","Ġfor g","Ġque ens","Ġs in","Ġchap el","Ġt ack","Ġa ired","Ġl ap","Ġr on","Ġv in","le g","Ġgu ys","Ġlaw yer","Ġclos ely","Ġf oss","Ġr ising","Ġpro te","Ġsee ing","Ġhill s","7 0","Ġg ain","ay a","Ġpromot ion","Ġsex ual","Ġeb ola","Ġp ock","Ġd ub","az a","Ġappa rent","Ġn in","Ġartic les","Ġre ality","Ġse g","pt y","Ġcent ers","Ġresult ed","Ġre in","cl aim","Ġmusic ians","Ġjour ney","Ġn asa","ag n","ah am","Ġ17 9","Ġt ig","it i","Ġform ation","Ġtre as","Ġp up","Ġdec ide","Ġemper or","Ġspe ak","re p","Ġch ain","Ġnort heast","Ġcarry ing","in der","Ġc oc","le c","Ġshe ep","ca a","Ġt ie","is a","Ġkh an","reg on","Ġhar ry","Ġo regon","Ġhol ly","Ġban ks","Ġcin em","Ġ il","Ġcre am","Ġdr am","Ġob l","Ġpromot e","Ġindepend ence","Ġcere mony","Ġperman ent","Ġm ile","Ġpr ay","Ġso il","Ġr ates","Ġfl u","Ġgu est","r us","Ġdeb ate","e z","Ġd iet","pect s","Ġpoet ry","og ue","Ġla id","Ġansw er","Ġdetermin ed","Ġt ries","Ġpass ing","Ġstand s","ze ch","Ġvide os","Ġconcer ns","Ġazerbai jan","Ġ3 8","Ġexp ed","Ġaff ord","Ġobt ained","Ġcr ay","Ġb ub","Ġold est","y d","Ġp ale","Ġca ve","Ġear n","Äģ n","Ġcommission ed","es ters","id el","Ġeas ier","Ġc zech","Ġpass engers","Ġattack ed","Ġvot es","Ġunderstand ing","Ġrespect ively","Ġh ook","Ġall iance","Ġacc used","Ġbar n","Ġbring ing","Ġk u","Ġmin ing","Ġsupport ing","Ġimm igration","Ġdie go","Ġhaw ai","Ġw ound","Ġt ed","Ġass ess","Ġm az","ic y","Ġgrant ed","Ġswed en","Ġimper ial","2 1","Ġmal es","Ġdeter mine","al le","ac ement","Ġcl ar","Ġtouch down","Ġcham ber","Ġar k","Ġgen es","olog ists","Ġdev ices","Ġp ip","ack s","Ġbro ok","Ġret ail","Ġqual ified","ww w","Ġjord an","à ¤","Ġt end","Ġorche stra","an th","Ġsp ell","Ġland sc","Ġvot ed","Ġdav is","Ġn caa","rop ri","Ġdef end","Ġport ra","tim ore","Ġstr ateg","ol i","ot yp","Ġsh ore","Ġarg ued","Ġt ag","on ent","Ġp ul","Ġathlet ic","Ġairpl ane","Ġwh ales","Ġwor ried","Ġexp ans","Ġw ard","Ġm ouse","Ġ195 2","Ġstar ring","Ġu til","Ġsol ar","Ġj ur","Ġs oph","Ġlead s","Ġpat ri","Ġdet ails","Ġdoc uments","Ġbac hel","Ġelement ary","Ġf o","ak h","Ġ195 3","Ġal i","Ġsh aped","Ġbu ff","Ġste am","e ed","Ġearth qu","Ġd all","Ġocc asion","resp ond","Ġcon sequ","Ġdist ribution","Ġclass ic","Ġd or","Ġ195 7","Ġkeep ing","Ġb os","Ġal f","Ġvol ume","Ġbal timore","Ġident ity","am i","Ġex clus","Ġstep hen","us al","Ġcor respond","Ġb ord","Ġr ib","Ġch ur","Ġwe ak","Ġh ired","Ġchar ges","Ġann oun","Ġt ort","ill ed","Ġca using","Ġcandid ates","Ġfound ing","Ġsy rian","Ġequ al","v is","Ġbe e","ak ed","ony m","Ġb rian","Ġd rew","Ġunivers ities","Ġtr ick","ress ion","pt on","Ġprot ected","Ġ193 9","Ġbelie ves","Ġisrael i","Ġmethod s","Ġexact ly","Ġslight ly","Ġg ab","Ġwor se","Ġminim um","l i","z o","Ġr ick","Ġhel ic","Ġwin ners","2 2","Ġh ip","il er","Ġmo ist","Ġlat est","in ary","Ġl ily","Ġmeas ures","ot i","Ġs el","Ġcar bon","Ġrom e","Ġscholars hip","Ġaff ili","Ġhol y","ro it","Ġjew s","Ġb ones","Ġinterest ing","Ġref lect","Ġpain ter","i ar","Ġt rop","Ġl t","Ġ7 5","Ġfood s","Ġang ry","Ġs ought","Ġsc he","Ġstud ios","Ġph ase","Ġclos er","Ġth or","ol is","Ġv ic","Ġag ree","Ġmar c","Ġreach ing","Ġlouis iana","Ġtemper ature","Ġf ab","ian g","Ġpra ised","Ġo tt","Ġdeg rees","Ġp or","Ġheav ily","Ġobs erv","Ġabandon ed","Ġelectron ic","Ġag es","Ġ194 9","Ġprofess ion","ch ar","Ġch ocol","Ġmo sc","Ġb ats","Ġcont ained","Ġclass room","Ġhung ry","Ġspecific ally","Ġt ong","Ġkn ight","Ġover se","Ġpublic ation","Ġt ang","in ity","Ġattempt s","Ġshar p","Ġapplic ation","Ġpol and","Ġeth nic","it led","un der","Ġinter act","Ġrepublic ans","Ġsett led","f all","Ġf erg","Ġbr ush","Ġbachel or","Ġt y","ch ing","Ġ6 5","Ġlab our","Ġinj uries","Ġlink ed","l ines","Ġm amm","ut ional","Ġro ber","Ġpop e","id den","Ġfun ds","w art","al u","Ġsud den","Ġyou t","Ġinc ident","don ald","Ġm ol","or i","Ġg ym","Ġpass es","Ġweek end","Ġj ane","Ġgu ine","Ġfrequ ently","ul es","Ġoffic es","Ġc ot","Ġat m","Ġhom eless","Ġs ang","Ġc ash","Ġco ordin","Ġauth ors","Ġsucceed ed","Ġdipl om","Ġth ick","Ġ4 4","Ġstep s","on so","ic ians","Ġch ose","ap ers","Ġadd ing","Ġinf ect","Ġadministr ative","Ġvict ims","Ġdet roit","Ġn ad","Ġtell ing","Ġposs ibly","3 5","u ro","Ġhur ric","Ġcred it","i at","m ont","Ġh an","Ġwrit ers","Ġal ab","t ag","Ġw ave","Ġf m","hed ral","Ġa qu","re al","Ġhead ed","m outh","Ġm ort","Ġte ens","Ġfeel ing","Ġneg ative","Ġchur ches","Ġ195 1","Ġfa ith","Ġpl astic","Ġd v","os es","ren e","Ġkind s","Ġinsur ance","Ġup d","Ġvoc al","Ġexerc ise","Ġopp osed","Ġdu ke","Ġl it","Ġal aska","ain ts","Ġcol our","Ġjournal ist","c ript","Ġc m","Ġ4 2","Ġ191 8","Ġstreng th","m ad","æ Ŀ","Ġhun t","Ġalle ged","Ġl am","Ġn est","Ġcomp ar","Ġ5 5","Ġmel bourne","ĠâĢ ¦","Ġchar ged","Ġprep ared","Ġp ir","Ġsh a","Ġrough ly","Ġmosc ow","Ġcent uries","Ġloc ations","Ġcr ash","Ġdown town","Ġchocol ate","Ġc ig","wr iter","o om","Ġaff ected","er al","Ġr yan","Ġinter p","Ġstay ed","Ġfinish ing","Ġg ord","Ġre ference","el ine","Ġchar ity","Ġox ford","Ġalab ama","iv als","Ġdes ert","Ġdec or","Ġ193 7","Ġfall ing","Ġshop ping","Ġatlant a","Ġlic ens","p ut","Ġt ough","Ġn one","Ġsa x","Ġyout ube","Ġon t","Ġrepres ents","Ġresult ing","Ġhon our","Ġa x","Ġprot esters","Ġmic roph","Ġlu x","Ġv el","ent ially","Ġor th","enn a","Ġdev ice","Ġbure au","Ġsouth west","Ġsurv ived","Ġh ou","Ġv on","Ġout bre","Ġmar ia","ograp h","Ġsele ction","ot ic","Ġpap ers","Ġbenef its","Ġsev enth","Ġconsec utive","Ġgree ce","Ġc ous","Ġhelic op","b ec","Ġt orn","Ġc hes","Ġroom s","Ġcook ies","Ġ4 8","Ġem ph","Ġpop ulations","Ġ193 6","m ates","Ġsc ar","ene z","Ġachie ved","Ġjoin ing","Ġregist ered","Ġgood s","ost er","Ġtast e","Ġchoo se","Ġbott le","d am","f ather","p ass","r imin","ri f","Ġsugg ests","Ġf iction","Ġhe aring","Ġr ud","Ġr iding","Ġk am","Ġpass enger","Ġsleep ing","ly n","Ġfar ms","Ġin sect","Ġ4 9","Ġsymb ol","Ġlew is","Ġmer ch","Ġextrem ely","Ġphilipp ines","Ġatm osp","Ġ â","Ġl oo","ell er","Ġnor we","Ġdef ined","Ġhapp ening","Ġdaugh ters","u ous","er ves","Ġun iform","Ġmov ies","Ġmathem at","Ġferg us","Ġw ake","Ġp ounds","Ġcour ts","Ġindian a","Ġimpro ved","Ġwel come","Ġconclud ed","Ġretire ment","Ġdall as","Ġbar ack","Ġask ing","Ġpal ace","Ġvers ions","Ġmot ion","Ġconcer n","Ġanc est","Ġarchitect ure","ã Ģ","Ġpalest in","Ġc ards","Ġille gal","Ġno v","Ġdom estic","Ġj ay","Ġchild hood","Ġconv ention","Ġf olk","Ġd ivers","Ġbe ij","Ġde an","Ġag encies","ik i","Ġclin ton","Ġcolomb ia","Ġf ired","Ġyes ter","Ġsuccessful ly","Ġdiam ond","Ġp ill","Ġclass ical","Ġinvol ve","Ġper u","Ġqu ant","Ġdep lo","Ġtai wan","Ġf ant","ig en","oc ese","Ġad apt","Ġany more","Ġdiffe rences","Ġterr itor","Ġv ision","Ġpl us","Ġbab ies","Ġindones ia","Ġle on","Ġ193 4","Ġrequ est","Ġinstit utions","Ġexpans ion","Ġdra wn","Ġimport ance","Ġinvest ment","Ġface book","as hed","Ġst ress","Ġwor ry","Ġfr anch","Ġsh ock","Ġsc ript","Ġpit ts","Ġrecogn ition","Ġscen es","Ġdo zen","Ġother wise","Ġgreat est","Ġdogg ie","Ġsubs id","Ġadvant age","Ġbeij ing","stand ing","Ġstruct ures","Ġdut y","m es","Ġenfor cement","Ġyester day","Ġfor d","Ġinst all","Ġ Î","Ġr us","Ġstr ing","ov a","7 5","Ġc ats","Ġp ione","Ġg ent","Ġbus y","ipp ing","Ġ191 7","Ġ191 9","Ġtenn is","Ġbrig ade","n i","v ant","Ġm ud","Ġth ro","Ġsal v","Ġdeath s","Ġeld er","Ġro y","Ġlegisl ative","Ġregard ing","Ġo m","Ġsh ah","Ġag ed","Ġprogram me","Ġra j","ill ing","Ġbre aking","Ġ193 8","Ġconf eder","Ġpay ing","o ch","Ġn am","Ġrab bit","Ġfergus on","2 4","Ġg ate","Ġre ar","op her","Ġwor st","Ġdr one","Ġeven ing","Ġcommunic ation","Ġ19 00","Ġyour s","Ġfil es","Ġele ctor","Ġemplo yed","f ly","Ġb erg","l ah","Ġch im","Ġcompet e","Ġneg oti","im ents","Ġcomp lic","Ġintern al","c s","Ġmag ic","Ġrepe ated","Ġl ane","ag ers","Ġcat hedral","ol es","Ġal g","um es","Ġcontribut ed","us ion","Ġ( ;","Ġconsist ed","Ġconcer ned","Ġopportun ities","y cl","Ġlaw makers","Ġmet rop","Ġsim on","Ġe ighth","Ġnor way","Ġpost ed","Ġvot ers","b ered","n oon","Ġ3 9","ann y","Ġinter ior","Ġliter ary","Ġsubsequ ent","f am","Ġg or","Ġwh it","Ġcomp r","Ġmon itor","Ġmur d","Ġoccup ied","Ġemph as","Ġnorwe gian","Ġcolon el","Ġphilos ophy","ar an","Ġj ail","Ġcontr ast","Ġvis iting","Ġ192 8","Ġrul ed","Ġsp oon","Ġmon key","Ġext ensive","Ġinstit ution","Ġcritic ized","Ġrestaur ants","a very","t ical","u z","Ġafter noon","Ġexp lo","Ġsw itch","Ġport ion","Ġunus ual","Ġf ed","Ġto ol","Ġre act","Ġcl ay","Ġco aches","Ġfif a","Ġphot os","r ad","Ġf aster","op p","end ent","Ġpat rick","Ġpolic ies","d d","Ã ¢","ades h","Ġukrain ian","Ġmaxim um","Ġp y","Ġord ers","Ġadm itted","Ġlegisl ation","s k","Ġc ant","ar ia","Ġst or","Ġinst alled","Ġtyp ical","Ġont ario","Ġent itled","Ġsn ake","Ġvir us","Ġpric es","Ġs ke","Ġm erg","Ġr if","ab oo","Ġhouse hold","Ġfix ed","ac he","Ġbr id","Ġce o","Ġwal ter","Ġfigh ters","Ġleg end","Ġassist ance","Ġapplic ations","Ġcross ing","Ġeth an","Ġtun nel","r ont","Ġs oul","Ġsh ad","Ġseed s","Ġch ile","Ġfriend ly","Ġdebut ed","Ġpow ers","Ġmicroph one","olog ies","Ġappe al","Ġb le","Ġr um","Ġtr uth","Ġgr av","Ġman s","Ġchap ter","Ġb ot","Ġg ast","Ġjo h","Ġt iger","Ġbre ad","Ġnathan iel","g ood","w estern","Ġal ive","Ġcl ock","Ġpoint ed","Ġdrink ing","st ream","ag en","Ġcre ative","Ġseem ed","Ġattempt ed","Ġturk ish","ãĢ ģ","Ġs ession","Ġaw a","Ġinterest s","Ġregular ly","Ġenem y","Ġso le","Ġrem em","Ġsw itzer","Ġmalays ia","Ġmo lec","Ġ4 6","Ġcap e","Ġmult i","Ġjun ction","Ġref ers","Ġbenef it","Ġn ina","Ġfac ing","Ġlyric s","Ġins pect","Ġproper ties","Ġbatt al","Ġincreasing ly","Ġvolunte ers","Ġsp ons","Ġend ange","Ġdep th","Ã© e","Ġhar m","Ġport ray","Ġobject s","Ġendange red","Ġj osh","Ġsee k","Ġmill er","Ġh yp","Ġdel ay","Ġec u","Ġinflu enced","æĿ ĳ","ger y","Ġcor rect","Ġem pty","Ġfem ales","Ġentire ly","Ġdru gs","b orn","ol itan","Ġr hy","Ġsee king","Ġ193 5","Ġr ival","ag u","Ġcol umn","Ġform al","Ġtele phone","Ġjes us","Ġswitzer land","Ġmet res","Ġcommunic ations","Ġexperi enced","Ġgol f","Ġpract ices","Ġexpress ed","ac co","Ġac res","Ġbelie f","Ġentr ance","Ġhigh light","Ġeng aged","Ġparticip ate","Ġcirc uit","Ġin aug","ic ts","Ġoper ate","Ġmiss ed","Ġassoci ate","Ġa y","Ġju an","Ġmarket ing","b u","er ick","Ġse ctor","Ġdang er","Ġb apt","Ġok lah","or row","Ġsl ide","Ġcoast al","Ġdinos aur","Ġc el","Ġloss es","Ġpoll ution","Ġp ant","Ġcommission er","Ġsurv ive","ra w","Ġatt ached","Ġsw ing","Ġtom orrow","Ġpl ot","Ġpubl ishing","Ġconv ent","Ġcab inet","kn ow","Ġl akes","Ġcar p","Ġpit ched","Ġcolon ial","re te","Ġr hod","ab et","Ġprov inc","Ġ193 3","Ġwood en","r an","r it","Ġs ight","Ġc ake","Ġm p","Ġn y","Ġst em","Ġv enez","Ġsub m","b ell","Ġg ulf","Ġgu ide","Ġexpl os","Ġkent ucky","Ġn an","os lav","Ġwind s","d i","Ġocc urs","Ġhistor ian","Ġcam bridge","Ġdam aged","Ġet c","Ġoklah oma","c ar","Ġmiss iss","Ġsol ution","Ġfav our","Ġpock et","Ġk l","Ġill ness","Ġmass ive","Ġproduc ing","Ġstrugg le","g as","Ġw ire","Ġcont aining","Ġele ven","Ġpull ed","Äģ b","Ġens ure","Ġd ates","ou red","Ġh ide","ro t","Ġal ph","Ġfact or","Ġtemper atures","og en","Ġev olution","ming ham","Ġargent ina","f it","Ġr aces","Ġpro ved","uc ing","Ġres igned","Ġsupp orts","Ġnet works","Ġtrib e","Ġtob acco","2 3","iv a","ast y","Ġcop y","Ġtenn es","Ġdanc ing","Ġpuzz le","Ġgord on","b age","Ġb ib","Ġoff ering","Ġapp ropri","Ġext ension","Ġdress ed","Ġs ed","Ġpus hed","Ġtennes see","om ot","Ġpro sec","Ġhis pan","Ġ191 0","f oot","Ġcom ic","Ġsc rew","lo ad","ive red","Ġpitts burgh","if er","Ġbl ues","Ġgen etic","Ġecu ador","Ġbo ats","Ġdisco ver","Ġholly wood","Ġdy nam","Ġbacter ia","b ra","ic ide","el d","Ġr av","Ġdr ag","i ques","o is","Ġcolle ges","Ġwalk er","Ġwat ched","b ar","Ġa hm","Ġc ass","Ġre new","Ġpo ison","Ġdisc rimin","r as","Å Ĥ","Ġle af","Ġ191 2","Ġguine a","b ul","Ġrequ ires","Ġtravel ed","Ġsubject s","Ġharv ard","t i","is y","Ġst y","Ġfe els","Ġche n","Ġdirect ors","Ġph ill","Ġgre g","Ġdel ivered","pl ace","Ġrespons ibility","Ġt ied","Ġli qu","Ġra ising","Ġhou ston","Ġcom fort","Ġplay off","Ġeconom ics","Ġdise ases","Ġdistingu ished","Ġwork er","Ġ6 4","ipp i","Ġsusp ended","ang el","Ġt ens","Ġp as","Ġpre fer","Ġsupp lies","ather ine","Ġmaint ained","Ġtr ucks","Ġeu ro","Ġ191 4","Ġc her","is er","it als","Ġe re","hel ess","in als","Ġam ate","Ġev alu","Ġan ch","Ġn ich","ct ic","Ġestablish ment","Ġd yn","Ġj ury","Ġsh an","Ġ17 8","Ġsubst it","Ġt ub","ard o","h al","Ġtrib une","Ġegypt ian","ang le","ott ed","ham mad","Ġder ived","Ġiniti ative","Ġtig ers","Ġwhe els","az ing","Ġocc as","Ġexpl ore","Ġkenn edy","t v","Ġpurch ase","Ġinterp ret","Ġf aces","Ġdist ributed","Ġperson nel","Ġbir mingham","Ġchalleng es","Ġgoo gle","d ie","Ġh art","Ġand erson","Ġland ing","Ġ191 6","Ġclear ly","Ġexped ition","r ition","Ã º","Ġat e","Ġbre ath","Ġ192 5","o or","Ġs i","Ġsh if","Ġarm en","Ġcollabor ation","Ġh amp","Ġag ents","Ġcomb ination","Ġcommitt ed","Ġfail ure","Ġniger ia","Ġs isters","Ġy ard","Ġ192 4","Ġcapt ure","Ġc ad","ess ions","ier ra","Ġviol ent","he as","Ġf ing","Ġp ic","Ġy ug","Ġu g","ap ore","Ġac know","Ġbel g","Ġdec re","Ġpri est","Ġh ans","Ġfar mer","Ġmc donald","Ġsurpr ise","athe red","Ġpremie red","c ing","Ġk ings","ain e","Ġprovinc ial","Ġd j","ow a","od e","Ġ192 1","Ġground s","Ġfr an","Ġfar ming","Ġ192 6","Ġf urn","st airs","Ġwill ing","Ġview ers","Ġt ony","Ġpro hib","Ġfind ings","Ġdef ence","Ġbroadcast ing","Ġschol ar","ut her","Ġar c","Ġad ap","vel and","iss ions","Ġcut ting","Ġfer n","Ġmississ ippi","Ġt as","Ġt ill","Ġres idence","Ġexamp les","Ġl augh","Ġwh ale","Ġdon ald","clus ion","Ġrober ts","Ġs ri","Ġto ky","Ġk an","Ġsub sc","Ġann ivers","Ġportug ues","Ã £","Ġb ump","Ġinv asion","ant ly","Ġlo b","Ġstre am","Ġ193 2","Ġsele ct","p ack","Ġgr ab","Ġfr ag","Ġs ie","il ton","Ġ192 7","Ġobs erved","fam ily","b ow","Ġunder ground","Ġsm o","Ġqueens land","Ġb c","Ġb ou","Ġeng ines","Ġsett le","good ness","Ġk ur","rib le","Ġlight s","Ġhurric ane","l an","Ġdis pl","Ġband s","Ġartist ic","Ġdram atic","Ġb are","est yle","ud i","Ġdec isions","Ġmic hel","Ġrob ot","Ġconstit u","Ġt iss","Ġa le","et ime","ak i","Ġsa il","Ġ192 9","Ġanton io","f riend","Ġorganis ation","Ġresist ance","Ġannivers ary","Ġt ap","Ġmed als","Ġsing apore","Ġdri vers","Ġd al","il ation","Ġy up","os is","Ġres olution","Ġdisc ip","2 9","Ġc os","am ent","Ġam end","Ġstr ate","e per","Ġdesign s","Ġrepl ace","Ġcomm it","Ġfil ed","Ġqual ifying","Ġmr s","Ġtrop hy","el le","Ġsuff ering","Ġg osh","Ġgh ost","Ġtoky o","Ġstrate gy","as y","ber ry","Ġslow ly","Ġsurround ed","Ġconver ted","h u","Ġst ages","Ġsp ots","Ġgrand father","Ġw aves","Ġc ute","al o","heas tern","in er","Ġw ine","Ġst ating","Ġal co","Ġen l","Ġinst ance","Ġent ering","Ġmembers hip","Ġstri p","Ġmir ror","c ol","um a","bo y","Ġhard er","go ing","Ġmo ves","Ġdecl ined","Ġprin cess","usal em","Ġportugues e","Ġr ating","Ġac id","Ġreturn s","Ġcy cle","Ġsmok ing","] (","Ġd ak","Ġh iding","Ġto oth","Ġj os","Ġare na","Ġmeet ings","Ġfigh ter","Ġadvert ising","Ġb one","Ġwork sh","Ġ4 3","Ġmiss ions","Ġdel iver","com ing","Ġrh in","Ġd at","Ġdo ors","Ġaddition ally","m at","o ons","Ġout do","Ġexp os","ograp hic","Ġjer usalem","Ġle ban","Ġdis aster","Ġpat ient","Ġcrop s","Ġpeek aboo","2 8","Ġhand ed","Ġdi ocese","Ġsat ell","Ġbrazil ian","Ġmed ium","4 5","Ġp av","st ers","Ġrel ief","Ġpun ish","Ġtal ent","Ġexperi ences","is f","Ġpe ar","Ġspe aker","Ġlim its","o z","Ġthe rap","Ġg ib","Ġab b","gr ad","iel der","Ġnorm ally","Ġark ansas","Ġvoc als","Ġalle g","Ġveter ans","Ġopin ion","Ġd ump","Ġtr ump","Ġen h","Ġout standing","Ġsm oke","Ġdescrib es","a a","m ers","r ate","Ġf ried","Ġy an","Ġde leg","Ġfl ed","Ġhol iday","Ġmusl ims","m un","p art","Ġdr agon","Ġstr uck","Ġhabit ats","Ġhawai i","Ġwound ed","/ ?","Ġh ut","Ġsh oe","Ġbl ind","ina e","Ġrob in","Ġcloth ing","Ġpri x","Ġkil omet","Ġd ick","Ġdri ven","Ġphot o","Ġut ah","Ġpro ced","Ġ4 7","Ġact ual","Ġcoun sel","Ġyug oslav","ver se","od ox","Ġjud ges","Ġcritic ism","Ġresident ial","re ck","Ġgovernment s","Ġaust in","Ġ191 5","Ġpret end","Ġcomput ers","Ġoppos ite","Ġamate ur","Ġw age","Ġ- -","Ġbr anc","Ġsl avery","Ġelectric ity","Ä ±","Ġd ave","Ġear s","e h","Ġc u","Ġch anc","Ġhand le","Ġreb u","Ġcompos er","Ġb oss","Ġlo ves","ph ones","Ġlou d","Ġpan el","Ġfranch ise","Ġautom atic","Ġnut rition","ve y","Ġident ify","Ġfro g","Ġmetrop olitan","Ġp enc","Ġsh ake","Ġche w","Ġsign al","Ġra f","Ġengine ers","omm od","Ġas c","Ġgr aph","Ġcount ies","Ġloc omot","Ġaust ria","Ġ192 3","b ing","i ors","v o","Ġc ord","Ġsust ain","Ġdism iss","w er","Ġexpl ain","Ġapart ment","f c","Ġb art","Ġre action","Ġv a","Ġup set","Ġsur gery","p ers","Ġacc ommod","Ġcle veland","Ġrul ing","Ġinstr uments","Ġp ond","Ġk elly","Ġtw itter","Ġmaint ain","Ġp ages","Ġi b","Ġneigh bour","Ġmanufact uring","Ġg athered","Ġval ues","Ġn ur","Ġno body","Ġco verage","Ġcommun e","Ġahm ad","Ġun iverse","Ġsh ir","Ġmet ers","Ġann ually","Ġanth ony","d ale","Ġn ash","Ġv ast","Ġtrans m","Ġfact ors","Ġa unt","Ġfing ers","2 6","Ġ +","Ġo ption","Ġav iation","Ġtest ed","Ġpal at","Ġsepar ated","Ġ _","Ġw ides","un a","ant ic","Ġind ex","Ġ193 1","Ġmag net","Ġstor age","Ġass ault","ch y","ra id","Ġgu il","Ġphil ip","Ġcover ing","Ġp el","Ġthous and","Ġk ay","Ġrem ark","Ġ192 2","Ġsold ier","Ġall en","Ġsing h","Ġdecl ine","r ane","Ġmoo re","Ġtr act","Ġcl ark","Ġdis ab","Ġ6 6","Ġgar bage","re z","Ġb eng","ow ed","Ġne ither","Ġrock y","Ġconsist ing","r m","Ġk y","Ġfl ows","Ġtem porary","Ġcamer as","Ġenter pr","w ick","Ġfin ance","Ġdou gl","Ġvac c","Ġro ots","Ġbl og","Ġrep ut","Ġpre par","Ġent rep","Ġcand y","Ġcru z","c op","Ġst amp","Ġfor get","Ġne v","Ġunivers al","Ġvot ing","Ġd ies","ust er","ious ly","Ġpen ins","onso red","Ġm ong","Ġsome where","Ġrec ip","Äģ d","Ġgard ens","9 9","u ch","Ġdef ensive","Ġbat tery","Ġbelong s","Ġentrep rene","Ġmin es","Ġstrong ly","Ġparticip ants","Ã ¥","Ġc um","Ġc attle","Ġr ated","Ġunder t","Ġmusic ian","Ġ25 0","Ġactiv ists","Ġadm ir","Ġnick n","ic an","Ġbu ying","Ġelse where","Ġdv d","m ble","Ġdo d","Ġcut s","Ġbrief ly","it ely","Ġsub family","Ġmed ie","Ġgrand ma","Ġtreat y","Ġpus hing","Ġaim ed","Ġbelg ium","ul s","Ġcompet ing","Ġmedie val","Ġind ians","ert o","Ġkeep s","Ġphys ics","Ġbes ides","ol as","Ġrecord ings","Ġpopular ity","Ġcertain ly","Ġlegisl ature","Ġpropos al","p read","Ġst rict","Ġdel ic","Ġconc rete","Ġm ack","Ġsp onsored","Ġsc ores","Ġwalk ed","Ã£ o","Ġwides pread","w s","Ġb out","Ġse ctions","Ġke vin","Ġroll ing","Ġfred erick","ure r","iss a","Ġmon ument","Ġcro at","Ġchart s","Ġextre me","Ġs ierra","Ġo sc","Ġl ith","Ġproduct ions","Ġconsum ers","ell o","Ġafter wards","Ġkill er","Ġintrod uction","Ġproduc ers","Ġnar r","Ġlabor atory","Ġcharl ie","Ġannoun cement","Ġand re","Ġn ba","Ġtrans ition","Ġless ons","Ġp hen","Ġhow ard","Ġval u","Ġmar ie","Ġsign ing","Ġ17 7","Ġra w","Ġpupp y","Ġb icy","Ġf ra","Ġp ants","Ġth rew","Ġsh ark","Ġnot ice","Ġaf raid","Ã¼ r","Ġbeg un","Ġsmo oth","Ġg amb","Ġr y","ort ed","Ġdeb t","ruct ure","Ġb in","Ġb aker","ic ut","Ġrec alled","Ġ5 2","Ġlaw rence","Ġpublic ations","en h","Ġ5 3","Ġbann ed","c ase","r um","ist a","Ġcr imes","Ġcur t","Ġbutter fly","Ġemploy ment","Ġspokes man","m us","Ġamb ass","Ġemot ional","el son","Ġcol ony","Ġus er","l ad","Ġp od","Ġtw e","Ġham mer","Ġinn ings","Ġmerg ed","Ġbi ke","Ġcra zy","Ġn ag","Ġtw in","Ġacc ur","Ġhun garian","Ġf old","os a","Ġdemocr ats","Ġden ied","ik h","Ġoutbre ak","v ak","Ġli ver","Ġco d","Ġqu ack","Ġclass ified","Ġmarket s","ial s","Ġcar ter","Ġsw iss","Ġw ick","Ġj et","Ġact ors","Ġsurpr ised","Ġaccom pl","Ġh idden","Ġsp aces","Ġmor ris","Ġmach ines","Ġg arc","Ġcontin uing","che ll","Ġincorpor ated","Ġcot ton","r ast","in ction","Ġd ust","Ġre venue","Ġcomp osition","Ġmar ry","2 7","tern al","Ġmon aster","Ġmove ments","Ġsubst ant","Ġton ight","Ġw ish","Ġsh ift","Ġover l","Ġpar alle","Ġrel oc","Ġsocial ist","Ġdi agn","Ġcoal ition","Ġg ross","Ġk ang","Ġmont real","Ġin her","Ġre ign","Ġdem ol","Ġdesc end","Ġfrank lin","Ġveget ables","Ġnep al","at us","Ġfor b","Ġob es","Ġche st","app ed","Ġtrib es","Ġenjo y","Ġsh aring","Ġapparent ly","Ġbord ers","Ġm ason","Ġd ating","Ġapp re","Ġmain e","y ers","Ġgen der","Ġ5 4","Ġwed ding","ĠÂ °","Ġbye bye","sp ec","Ġg ill","Ġg ap","Ġst ol","Ġr ig","Ġbr un","Ġrec re","Ġmet ro","Ġvolunte er","Ġlandsc ape","w oman","ed s","le ton","Ġ12 0","Ġpenal ty","Ġearthqu ake","Ġwhat ever","Ġachieve ment","Ġoverse as","Ġpar aly","Ġchr onic","Ġpu erto","Ġcra w","Ġregard ed","Ġadop t","Ã Ł","Ġle v","Ġform ing","iet ies","Ġoper ates","Ġaud io","Ġcub an","Ġcry ing","Ġmas ters","p ool","Ġl anc","Ġg ust","ac ent","Ġbu g","ann e","Ġsub mar","Ġhar ris","Ġcous in","z ens","Ġ5 6","Ġcamp s","Ġgrow s","a ver","Ġi owa","Ġsa ved","Ġbreed ing","Ġread ers","Ġnation wide","Ġ Ã©","iv ia","Ġab use","Ġsur ge","Ġprogram ming","Ġdoub les","Ġorth odox","in ate","ill ery","Ġ6 3","Ġsum mit","Ġwood s","ÃŃ a","Ġcontribut ions","Ġbeaut y","z h","Ġc ited","Ġd irt","Ġpl ain","Ġwhe at","Ġpeak ed","x y","Ġc ul","Ġf ib","Ġinv ent","Ġtechn iques","Ġconv inc","Ġ |","Ġsc out","ru ption","Ġcolle ctions","Ġcompet itive","Ġdom ain","Ġm ak","ar th","ac le","Ġinvol ving","Ġarri val","Ġnewsp apers","il st","Ġapp ly","Ġreg ulations","Ġgro cer","Ġcere al","Ġreput ation","b ie","Ġm ck","Ġd um","Ġbud d","Ġjim my","Ġencour aged","v ens","Ġm i","Ġl au","Ġmar ks","Ġvis its","Ġl on","ot o","Ġmotor cy","Ġsamp les","Ġportra it","Ġlo yal","Ġrel ative","Ġrank ing","Ġdyn asty","m i","or ph","Ġsy nd","Ġmy th","Ġprom ised","Ġhor iz","Ġsam uel","Ġreject ed","Ġup gr","Ġz im","Ġconnect icut","Ġadj ust","p ie","Ġth in","Ġdep ending","Ġfun ctions","Ġhen d","Ġshar ks","Ġcred its","Ġaccompan ied","Ġa ster","Ġl od","Ġdon ated","Ġexc ited","Ġtal ks","Ġminor ity","z ard","ill o","Ġnot ably","Ġprom pt","Ġfund ed","Ġaccount s","Ġconsum er","Ġguil ty","m ate","Ġa ver","Ġs oup","Ġth under","we iler","Ġ190 8","pect ive","Ġco le","Ġrec order","Ġdesign er","Ġparticip ation","Ġcontrovers ial","Ġbattal ion","Ġc ou","Ġ4 1","Ġuse ful","Ġstr ange","Ġgl ad","Ġdefe ating","Ġt act","Ġact ed","Ġob v","Ġsl ave","Ġgl ac","Ġrequire ments","Ġopt im","Ġperm ission","Ġd ing","Ġk az","Ġcar ib","Ġcar go","Ġma ur","Ġpercent age","Ġrecomm end","Ġwrest ling","Ġturt le","Ġexcell ent","f ielder","Ġs ending","on ian","Ġtr ig","Ġwar ri","u v","Ġc atherine","Ġl um","Ġg ur","Ġbre ast","Ġland ed","Ġm es","Ġh ud","uc cess","Ġchar ter","ash t","Ġ191 1","Ġ191 3","h us","Ġs ib","Ġk ath","Ġspec im","Ġcap s","Ġ188 0","Ġthre ats","Ġjo y","Ġuns uccess","Ġs ne","Ġto mb","Ġwh ilst","Ġcon qu","Ġcan c","ks hire","Ġhun ter","Ġpil ots","Ġsignificant ly","Ġin ner","Ġal an","Ġrele g","Ġnaz i","o en","st al","Ġwar ning","Ġserb ia","Ġc er","om p","om en","Ġpro ve","Ġref le","Ġken ya","Ġdougl as","Ġw es","om ing","Ġas ks","ess ed","Ġpit ch","Ġburn ed","Ġtransl ation","4 7","Ġfl av","be an","Ġtechn ologies","Ġnav ig","Ġ189 0","Ġsand y","Ġpow ered","Ġl ists","Ġn ik","Ġk le","Ġv it","Ġbu gs","Ġevery where","Ġge ar","med ia","Ġindust ries","Ġren ov","Ġw ang","Ġsong writer","Ġbal ance","Ġgu ests","Ġviol in","Ġathlet ics","Ġmyster y","Ġprote in","n ell","Ġp our","al ia","ail and","Ġmat ters","Ġabs ol","Ġspr ings","Ġoff ensive","Ġrem ove","Ġpers ons","Ġteac hes","Ġexpress ion","Ġt ons","Ġexp osed","Ġappro val","Ġcra ig","Ġtick le","Ġowners hip","Ġobes ity","igh ter","Ġsp ider","Ġman chester","Ġhosp itals","Ġlic ense","Ġd ated","Ġth ailand","Ġe ch","se x","Ġse min","Ġsec ure","Ġreg ul","Ġstat ue","Ġblank et","p oint","Ġres ign","Ġed ited","Ġopp onents","Ġfire f","Ġportug al","s ch","Ġp s","Ġme ets","Ġrem ote","cept ion","Ġarrang ed","Ġadap ted","Ġa str","Ġp orts","Ġwol ves","id ency","Ġr ou","Ġgrad es","Ġdi aper","Ġspok en","Ġreserv oir","l ot","r ant","Ġand y","Ġmar gin","Ġind eed","Ġatt ending","Ġactiv ist","greg ation","Ġshan gh","Ġde ar","io let","Ġel ig","Ġcap able","Ġencour age","Ġall ied","Ġequ ipped","Ġinf rast","Ġsym ph","Ġsudden ly","j ab","ubl in","Ġaut onom","Ġr io","Ġbel t","Ġblack s","Ġearl iest","Ġisol ated","ar on","Ġdo zens","Ġfe ather","Ġrest ored","Ġnon pro","Ġdemocr acy","Ġpr oud","Ġlo ved","rib ute","Ġste ad","Ġprison ers","Ġcorpor ate","Ġ *","Ġsp ark","Ġrep air","Ġyoung est","ar n","as er","Ġl iv","Ġcr ab","Ġun less","Ġpre gn","Ġ5 8","Ġpass age","Ġhop ing","Ġcook ing","Ġgradu ating","Ġsche me","a j","h um","Ġp iz","Ġm aced","il it","Ġab road","Ġstar red","Ġfro zen","Ġacknow led","l ings","Ġmod ified","Ġpurp oses","Ġy or","Ġpattern s","Ġc able","Ġp ure","Ġv ul","we alth","Ġrece pt","Ġcompet itions","Ġshangh ai","c ious","ur ally","Ġbas in","Ġadv ice","Ġmor gan","tr ack","Ġcooper ation","k ov","ic o","Ġ190 4","Ġrob inson","re r","Ġcan n","rop od","Ġjac ob","Ġgent le","Ġh ipp","rom e","Ġart illery","Ġjohn ny","Ġcost a","Ġmon ster","Ġrel atives","Ġtour ism","Ġgrand pa","Ġham ilton","Ġst akes","Ġr idge","ag h","th a","ab il","Ġcommon wealth","Ġ190 6","Ġdoll ar","Ġparliament ary","Ġstan ford","Ġcav al","Ġb ars","Ġj ason","Ġsc ared","Ġany where","Ġcirc um","Ġexperiment al","4 8","Ġl ank","Ġimp oss","Ġestim ates","Ġwe igh","Ġ5 1","Ġcr us","Ġass ign","Ġhonor ary","Ġt ut","Ġc ock","en burg","ul um","ens is","Ġgener ations","33 1","Ġatmosp here","Ġm s","Ġl ip","Ġrev ol","Ġb ert","Ġf oster","Ġpro l","ah a","Ġsm ell","Ġ6 00","Ġbill s","Ġplan ets","Å Ł","Ġc raft","Ġf ence","is ation","Ġso ap","Ġalex and","Ġbranc hes","Ġg ift","ens ity","Ġann a","Ġpal m","Ġvalu able","and o","em p","Ġ7 7","Ġchrist opher","Ġrapid ly","Ġmarg aret","Ġjoh ann","Ġro ger","Ġint el","enc ing","Ġreal ized","Ġtrib al","g ro","is i","Ġv s","Ġco at","Ġ5 7","Ġdep os","Ġmill s","Ġext inct","Ġ16 0","Ġprint ed","Ġg am","Ġbr uce","Ġfl ash","Ġz ero","Ġ190 1","Ġpet e","Ġrelationship s","Ġjon athan","Ġl il","5 5","w all","Ġb og","ud es","Ġplan es","Ġimmedi ate","Ġweap on","Ġp ine","Ġp eng","Ġd anish","Ġwar n","Ġpred ict","w ings","al f","ret t","Ġclos ing","Ġcollect ive","kee per","u ate","Ġd ying","Ġn elson","Ġsu icide","Ġmil an","Ġappe aring","Ġcitiz en","u i","ap olis","Ġlast ed","Ġer n","Ġsatell ite","h o","h ist","Ġsc outs","Ġout er","Ġgu ar","Ġtravel ing","Ġopt ions","Ġadj acent","Ġaw are","anc he","Ġrepl acing","Ġs essions","se ction","um ps","Ġple as","Ġnin th","Ġoccasion ally","Ġpalestin ian","spec ies","p ur","am azon","Ġab c","Ġpol ar","Ġrac ial","e enth","Ġab ol","Ġvi enna","Ġcongress ional","Ġrecomm ended","amazon aws","f ts","ic it","Ġdes ire","Ġfin n","Ġ9 5","Ġ190 5","Ġchemical s","Ġmathemat ics","Ġinvolve ment"]}}