#version: 0.2 - Trained by `huggingface/tokenizers`
Ġ t
Ġ a
h e
i n
Ġt he
Ġ s
Ġ .
r e
Ġ o
Ġ w
e r
Ġ c
Ġ ,
a t
o n
Ġ b
a n
Ġ f
i s
i t
Ġ p
e d
e n
Ġ m
o r
Ġ in
e s
Ġa n
Ġ d
o u
a r
a l
Ġ h
Ġo f
in g
a s
Ġt o
Ġ l
Ġan d
Ġ n
i c
Ġt h
Ġ g
r o
Ġ "
i on
i l
l e
Ġ re
Ġ y
Ġ he
Ġ e
Ġ '
en t
o m
s t
a m
i d
Ġo n
e l
Ġ is
e t
Ġ 1
a y
Ġ u
o l
Ġs t
Ġ it
a d
a c
Ġw h
o w
o t
Ġw as
Ġf or
v e
Ġ ?
i g
u t
Ġb e
Ġth at
i r
Ġ r
Ġy ou
u r
i m
l y
v er
Ġ -
c h
Ġa s
c t
Ġa l
s e
at ion
Ġ 2
Ġ j
Ġ k
it h
t er
Ġw ith
Ġa t
Ġs e
c e
Ġc h
Ġw e
he r
Ġd e
u l
is t
Ġ i
Ġ v
an d
u n
u s
a g
Ġd o
Ġ1 9
Ġp ro
t h
Ġb y
ou n
Ġc om
Ġc on
Ġ2 0
o o
er s
il l
Ġa re
r i
ro m
a in
Ġ )
o p
l d
Ġ (
u m
ig h
Ġn e
a k
Ġu n
Ġm o
Ġh a
Ġf rom
e m
es t
an t
Ġh is
Ġp l
al l
Ġs h
i es
p p
a b
ar t
u d
re s
Ġo r
re d
Ġs p
Ġl e
o s
Ġwh at
o c
i f
Ġs u
Ġs a
at e
i v
it y
Ġthe y
Ġth is
igh t
Ġw he
b er
Ġa r
Ġt r
Ġe x
q u
a p
Ġn ot
Ġg o
or t
es s
ar d
Ġy e
Ġha ve
el l
Ġw or
â Ģ
i a
i e
m ent
Ġs he
g h
i ve
u st
Ġ en
g e
ou r
ic h
ac k
as t
Ġ20 1
oun d
Ġon e
re n
i an
at ed
om e
on g
Ġsa id
ou ld
Ġh as
Ġa b
Ġ ro
Ġwe re
am e
Ġc an
k e
ou t
Ġc l
Ġthe re
i p
Ġwh o
Ġt e
Ġg r
Ġn o
Ġb ut
' t
s o
i al
Ġa f
in e
ar y
Ġm e
ou gh
t her
Ġal so
Ġhe r
Ġal l
id e
Ġcom p
Ġl i
Ġ âĢ
u b
e ct
Ġne w
0 0
Ġs c
Ġm an
d er
oo k
Ġthe ir
is h
Ġ Ċ
Ġu p
Ġa m
Ġb r
Ġwh ich
ic e
oo d
o re
Ġh ad
Ġye ar
Ġa d
a v
Ġo ut
en d
Ġf ir
Ġp e
Ġt w
c l
ow n
al ly
a h
r y
ag e
Ġ20 0
u c
Ġpl ay
ion s
Ġin t
Ġa g
Ġc ol
Ġm ar
Ġa c
on e
Ġfir st
ak e
Ġk n
ou s
Ġc o
p er
p t
oun t
u re
Ġp art
Ġit s
r ic
Ġs ch
an s
Ġof f
Ġs o
u e
Ġmo re
i z
or d
r a
at er
as s
o g
Ġu s
Ġ #
Ġo ther
Ġs er
Ġt im
Ġwor k
Ġbe c
a u
Ġf e
Ġaf ter
o ol
t s
Ġcon t
i re
re e
Ġs ome
an g
Ġb o
Ġp er
il d
Ġwhe re
Ġcom m
ig n
Ġtw o
Ġo h
Ġab out
ac e
ac h
it t
Ġwhe n
he d
in d
Ġo ver
Ġ :
Ġre c
Ġw ill
or n
w n
Ġli ke
Ġre s
Ġh ow
Ġsch ool
ic al
Ġb l
Ġbe en
Ġre p
ver s
on d
Ġ 3
Ġ1 8
f f
Ġa pp
e c
Ġthe m
Ġj o
Ġst ud
m an
Ġd id
r u
Ġ im
ent s
op le
Ġw ould
Ġpe ople
en s
a re
Ġo k
ac t
Ġd is
Ġe v
it e
Ġg et
Ġin d
ic k
ver y
ad e
in k
am p
ation al
Ġyou r
Ġtim e
l l
v ed
it ion
at es
Ġse e
Ġok ay
Ġc ar
ation s
ct ion
Ġf l
Ġ !
Ġw ant
Ġc ount
cl ud
Ġhe re
Ġth an
Ġ qu
Ġl a
Ġb u
or s
a il
o d
Ġp res
Ġp r
or y
Ġr ight
l and
ing s
il e
Ġm ay
Ġp o
Ġp re
ay s
i b
Ġin clud
w e
Ġn ow
Ġh im
ul t
Ġp ol
en ce
as e
ur n
Ġd es
ub l
an ce
Ġfor m
ter n
Ġc ent
Ġint o
f e
er ic
Ġse c
e p
it ed
Ġb et
Ġj ust
o se
k s
el y
Ġ ;
ur ing
Ġl ook
i ed
v el
or m
l es
as ed
Ġf in
ab le
Ġp ar
Ġthe n
Ġyear s
Ġd ist
Ġf am
is s
Ġf r
Ġf ound
t e
ol d
at h
Ġam eric
Ġw ell
al s
Ġ 4
Ġp ut
Ġun der
Ġa ct
il y
Ġg en
ou p
Ġat t
Ġ ed
Ġp h
Ġe ar
Ġman y
Ġe le
Ġto o
Ġb ack
an n
Ġac c
Ġex p
Ġg re
g an
as on
i vers
Ġag ain
Ġ19 9
Ġre g
Ġi f
Ġye ah
Ġ 5
Ġe m
Ġm in
ol l
Ġsp ec
Ġd uring
Ġon ly
Ġl oc
Ġa w
Ġte am
g r
Ġb ro
Ġm on
Ġmo st
t on
Ġc r
Ġs y
Ġc all
Ġkn ow
an c
Ġg ood
in ce
f t
Ġl et
Ġs m
Ġhe l
em ber
Ġwor ld
ĠâĢ Ķ
Ġas s
id ent
Ġw ar
au se
u g
h ip
ro p
Ġthe se
Ġ z
res s
Ġre m
Ġth r
Ġl o
Ġth ree
Ġcon s
Ġim p
i o
ren t
ot her
n e
Ġp ubl
Ġd own
ot h
i ous
Ġh igh
Ġg u
ver n
Ġth ink
Ġm u
ic t
i x
Ġc ould
Ġgr oup
ou se
ri b
Ġp op
Ġen d
in t
Ġun ivers
Ġthr ough
a z
Ġf il
Ġm us
Ġen g
Ġm ade
Ġgo vern
at ing
ou th
Ġst ate
Ġn ational
Ġsh ow
Ġar t
ist s
Ġcol le
Ġsu b
f ore
Ġm y
Ġpro d
he s
Ġs ay
on s
Ġm ake
âĢ ĵ
p h
is hed
m y
h ing
Ġpro v
Ġhel p
Ġn or
Ġdo es
c c
Ġan y
Ġre t
ro w
Ġn a
y s
en c
Ġ19 8
Ġch ild
Ġ 6
ol og
Ġbec ause
d ay
ric t
Ġre l
Ġd r
Ġw r
ter s
f orm
t y
Ġm a
Ġunivers ity
Ġo p
Ġse ason
Ġc ity
a ir
o ot
Ġde p
Ġs ur
Ġin st
Ġl itt
r al
Ġl ater
v ing
Ġm ed
Ġsu pp
Ġn um
Ġbe fore
Ġlitt le
Ġf our
Ġwh ile
we en
Ġch ar
Ġsec ond
it ies
l o
Ġbet ween
if e
Ġb el
Ġde c
Ġe l
Ġre le
oll ow
Ġc re
Ġcomp an
Ġin v
b all
Ġst ates
Ġl ong
ic s
t ing
Ġb ook
ul ar
Ġf ollow
Ġst art
Ġin c
Ġkn own
i el
Ġa ir
Ġfil m
am es
Ġo b
Ġrec ord
Ġs ing
Ġameric an
m ber
u p
Ġc a
an k
or k
Ġk e
Ġb ig
Ġw in
Ġl ar
Ġus ed
Ġm at
Ġbe ing
Ġle ad
Ġ very
Ġun ited
is ion
i er
Ġo ld
an ge
Ġfam ily
in a
at her
Ġsu ch
Ġ ent
at ive
Ġh ouse
Ġs outh
Ġd ire
Ġgovern ment
s s
Ġ19 7
Ġdist rict
Ġth ose
Ġoff ic
Ġad d
Ġd if
Ġo wn
n ing
al e
Ġ 7
Ġm il
Ġla w
Ġp a
Ġb orn
ct ed
c k
Ġr un
ar s
Ġg on
Ġcall ed
Ġcom e
Ġs oc
if ic
b le
Ġs et
Ġne ed
Ġsc i
ir d
ak ing
00 0
ur al
Ġt ake
om et
i et
ard s
it s
e red
j ect
Ġgo ing
Ġgen er
Ġop en
Ġs l
Ġbu ild
Ġa p
in es
Ġc ap
f ul
Ġw ater
Ġser v
Ġt er
Ġd ay
Ġh ome
Ġal b
is e
Ġl ast
Ġ201 3
Ġm ill
Ġb us
ul l
Ġnor th
Ġs w
Ġh ist
Ġw ay
Ġhe ad
Ġagain st
u al
Ġp os
Ġs ince
Ġtr ans
Ġ1 0
Ġm et
o st
Ġb ar
d y
Ġc al
Ġb oth
t he
t il
Ġf ar
u res
le t
Ġ19 6
Ġc he
e ver
b r
Ġg ot
oc k
iz ed
Ġin ter
g et
Ġmus ic
Ġre d
Ġs ong
Ġ 8
c o
Ġan other
Ġe very
vel op
one y
Ġj un
Ġcomm un
Ġs ign
g er
in s
Ġcl ass
Ġf un
Ġar ound
u h
Ġin tern
er t
Ġu se
a ve
gr am
al k
iv ed
Ġn ame
Ġc our
el f
us s
Ġinclud ing
Ġv ill
uc k
Ġm em
Ġf oot
Ġ ir
Ġbec ame
Ġde velop
c es
Ġa ut
Ġev en
Ġc are
ant s
v en
ough t
Ġstud ents
Ġ est
i red
Ġpro gram
Ġj u
i k
i am
Ġan n
ow er
Ġre ad
Ġpro f
Ġst r
Ġchild ren
Ġg ame
ct or
ie w
Ġre f
l ed
Ġw om
Ġmu ch
Ġpres ident
Ġst ill
Ġne ar
Ġhow ever
Ġapp e
Ġpubl ic
m in
Ġb re
b ers
at t
Ġalb um
Ġc ur
Ġs omet
h n
Ġ1 7
Ġ19 4
Ġun til
ĠâĢ ĵ
u ally
Ġm ain
Ġ 9
en n
e k
Ġcompan y
Ġex t
t o
g g
ain ed
m s
Ġnum ber
ur y
iv es
oun c
ag ue
iel d
Ġp ri
Ġw on
Ġ1 5
Ġs ame
Ġo per
Ġs im
le y
Ġplay ed
Ġre ce
Ġdif fe
s on
ion al
Ġg er
Ġg e
an e
Ġin s
Ġcount y
w ay
Ġ19 5
Ġ $
Ġh and
am a
u es
a red
Ġt urn
e e
Ġm om
ut e
x t
Ġsm all
Ġe ach
Ġl and
at s
ro ss
as h
Ġ1 6
Ġf ind
Ġre se
v es
Ġsh ould
Ġspec ies
Ġp ers
Ġor gan
k et
Ġde f
ur ch
ak es
Ġrele ased
Ġle g
Ã ©
ul ation
a w
y e
am ed
Ġse ver
ain s
st em
Ġ1 2
Ġde m
ri ed
ar ch
Ġcount ry
Ġpro t
Ġle ague
Ġpl ace
Ġsever al
y ing
Ġt re
Ġprod u
e re
et er
al th
f l
Ġw est
ort s
i ver
n er
Ġjo hn
Ġcl ub
Ġp ass
Ġh ar
Ġl ife
Ġare a
Ġp at
Ġc amp
Ġst re
Ġe ff
m er
Ġ /
Ġser ies
o v
c ent
in ed
Ġsy stem
Ġdes ign
Ġha pp
el s
os ed
Ġs k
a e
Ġcon st
n g
y p
Ġc or
Ġch amp
ut ion
Ġh un
Ġa ug
Ġfollow ing
Ġh um
Ġvill age
Ġy es
ann a
Ġed uc
Ġr a
Ġtoo k
Ġret urn
Ġform er
on t
Ġcolle ge
Ġfoot ball
Ġm id
Ġst e
Ġor ig
Ġto p
Ġbl ack
b e
is m
ment s
Ġm iss
Ġj an
Ġcont in
Ġex per
au gh
Ġto wn
Ġd iv
Ġo ct
ot t
Ġse pt
Ġprof ess
ib le
Ġl ist
Ġf ive
Ġear ly
Ġu h
Ġb ab
Ġres p
Ġre v
Ġb as
ri es
in ess
Ġs ays
Ġv is
Ġch r
o k
Ġe u
Ġb ased
Ġt our
ic ip
Ġoffic ial
Ġaug ust
Ġg ir
it al
Ġa ust
Ġdiffe rent
Ġorig in
Ġma j
Ġwh y
p l
Ġbe gan
Ġ rom
Ġte ch
Ġv ar
Ġpar k
b s
Ġre st
em ent
Ġs it
is ed
Ġs en
Ġ19 3
olog y
Ġger man
Ġs ix
Ġwom en
c ess
Ġintern ational
ag es
Ġmar ch
oc i
Ġ201 2
Ġsept ember
Ġb est
Ġfe at
Ġf ore
id ed
ĠâĢ Ļ
Ġf ood
o ber
er g
Ġpop ulation
Ġst and
i or
Ġw anna
a i
c he
Ġdo ing
Ġt ell
Ġoct ober
Ġass oci
Ġjun e
Ġad v
Ġgre at
Ġs n
Ġle ft
Ġmill ion
t en
Ġc le
Ġl os
Ġ201 1
Ġy ork
Ġal ong
Ġv al
Ġg l
Ġsupp ort
Ġl ine
ar k
im e
Ġwh ite
Ġa v
at ch
is ter
Ġo ur
Ġ1 1
Ġs al
Ġju ly
b y
Ġmon th
u ary
Ġbus iness
en g
Ġgir l
Ġw ent
Ġmaj or
s h
ic es
Ġcomp et
Ġacc ord
c er
Ġ es
Ġg ames
ain ing
u red
Ġhe alth
Ġpre v
m ed
iv ing
re ad
ce pt
Ġ201 4
et s
Ġan im
Ġd el
Ġpol it
il t
Ġb ill
Ġan g
Ġk ill
her n
r il
Ġm ember
Ġne xt
Ġ19 2
Ġb and
al ity
g in
p s
Ġaw ay
Ġhe ld
Ġsci ent
l ing
ac ed
Ġyou ng
Ġm oney
it ing
il ity
Ġe ast
Ġrep res
Ġpers on
Ġch urch
Ġm en
it er
Ġmem bers
Ġwe ek
Ġm ag
Ġtech n
Ġjan uary
r ap
Ġc ame
l ish
Ġe c
uc ed
Ġ1 3
at or
on es
Ġcal if
Ġfe w
id es
Ġno ve
Ġdes c
ian s
Ġnove mber
Ġde ce
Ġ1 4
end ed
Ġp ort
Ġall ow
i um
Ġrep ort
Ġaccord ing
Ġcont ro
Ġmo ve
u ed
en e
Ġbuild ing
i pp
Ġsomet hing
ri end
Ġch ang
Ġd ra
b o
Ġev ent
Ġgener al
st er
Ġap ril
Ġchamp ions
Ġn at
id s
Ġ200 6
m e
Ġbr it
Ġ19 1
Ġk ing
Ġs um
Ġde b
Ġaw ard
Ġt it
ent ly
Ġh al
in c
Ġloc al
Ġg row
Ġmom my
Ġpart y
Ġloc ated
Ġeu rop
Ġimp ort
Ġdece mber
Ġt est
Ġl ab
Ġdep art
Ġpro m
Ġb all
Ġs ide
Ġman ag
Ġs on
Ġserv ice
Ġd ad
Ġp ain
Ġaf ric
Ġsu cc
Ġ %
ect ed
Ġh ard
Ġpro ble
ial ly
Ġn amed
Ġt a
Ġo cc
Ġd ri
Ġeurop e
Ġs ol
ot s
en ed
Ġam ong
Ġfin al
Ġe as
Ġg ive
h or
Ġcalif orn
Ġd ied
Ġpro ject
her s
ren ce
Ġstart ed
n ess
Ġt ri
Ġe at
Ġsucc ess
Ġr uss
Ġs qu
Ġth ird
Ġcon d
Ġe p
Ġst ation
Ġh old
Ġre ally
Ġnew s
Ġrece ived
w ard
Ġbab y
Ġlar ge
Ġsing le
Ġbet ter
Ġchr ist
Ġcaliforn ia
Ġh uh
Ġrepres ent
Ġde ath
Ġtim es
Ġ201 0
Ġj e
is on
Ġro ad
Ġle vel
Ġs un
re t
Ġ200 7
Ġstud y
Ġmo d
Ġr ad
Ġre al
Ġser ved
Ġh op
Ġbu ilt
Ġmil it
h m
Ġsp e
Ġper cent
y l
Ġf riend
Ġaust ral
Ġhist ory
s ide
n a
Ġ er
Ġcur rent
c hed
Ġbe h
Ġcent ral
at ic
Ġs an
Ġaf f
on om
ent ion
Ġf ather
Ä ģ
Ġo pp
Ġrese arch
Ġis land
Ġinc re
f or
Ġele ct
Ġsh ort
Ġp ower
Ġre qu
Ġst ory
er v
Ġth ough
Ġcon f
p ort
Ġt yp
Ġpo st
Ġh m
Ġte le
Ġgr ad
Ġis s
n ed
Ġgr and
Ġcour t
Ġcent ury
Ġke ep
o red
Ġr iver
Ġto day
Ġcent er
Ġpol ice
Ġgre en
ap er
Ġst ar
Ġpl an
r act
Ġchampions hip
Ġl ess
a ff
Ġm aking
n am
Ġc up
an a
ed er
c om
um p
Ġl ive
Ġinclud e
z e
at ely
us ed
Ġle ar
us h
Ġhist or
Ġf ield
il le
Ġest ab
t ed
Ġapp ro
Ġfam il
ac es
p or
g ress
Ġfe b
Ġbel ie
Ġro ck
Ġn ight
es e
Ġar ch
Ġk ind
Ġeduc ation
on y
Ġto get
Ġspec ial
Ġf re
iet y
Ġtoget her
Ġne ver
Ġschool s
Ġ3 0
Ġcommun ity
Ġtr ack
Ġbo y
enc y
Ġn et
s elf
Ġas k
Ġge or
Ġth ings
Ġst op
if ied
Ġme an
Ġan t
Ġsu per
ru ary
h y
Ġfeb ruary
Ġl ed
Ġrom an
er ing
le x
Ġw a
Ġm ight
Ġdis c
ur s
r ing
Ġm ount
ne y
Ġco st
Ġwith in
Ġs old
Ġwill iam
Ġem p
Ġpo int
as ter
Ġdesc rib
Ġf act
Ġdire ctor
Ġ ide
Ġwork ing
Ġm al
Ġd ue
Ġv i
Ġof ten
Ġbec ome
it ions
iz e
Ġha ving
Ġf ire
Ġch ange
Ġimport ant
Ġm un
Ġmilit ary
Ġs il
Ġv ide
Ġsoc ial
Ġatt ack
Ġr ound
Ġ2 5
Ġd ays
Ġph il
Ġin form
Ġr ail
og rap
Ġcr it
Ġpubl ished
Ġh ol
d s
Ġtr ad
Ġc at
iz ation
Ġwork s
Ġdad dy
h am
Ġaut hor
ke y
Ġf all
Ġv ict
c hes
Ġ200 8
ber t
m b
Ġadd ition
ap e
Ġdepart ment
Ġl ight
Ġf ree
m a
Ġ x
os p
iss ion
Ġm other
Ġi i
Ġs out
Ġel se
Ġpres ent
Ġexp l
Ġpos s
Ġprov ince
ic ally
Ġfamil ies
Ġcan ad
Ġbrit ish
att le
Ġt alk
Ġwith out
r ation
Ġt em
he n
a im
Ġa ge
Ġor der
Ġon ce
Ġt ur
Ġe qu
Ġv ol
Ġmo ved
Ġinst it
r on
Ġv ot
Ġeng ine
Ġus ing
Ġm ust
Ġb ur
qu e
Ġcol or
iv al
Ġ200 9
ar ing
Ġother s
Ġl ang
w ork
Ġhal f
Ġar my
Ġeng lish
Ġrep ubl
i ent
b ur
s c
Ġn on
Ġst at
iv en
Ġper form
Ġact iv
r ight
d e
m ing
Ġl ate
as es
ell ow
hing ton
Ġcare er
ru ct
Ġind ust
Ġv ir
x ic
Ġf ish
om in
Ġplay ing
Ġs ent
Ġal th
Ġinclud ed
Ġc am
Ġc ult
Ġalth ough
Ġf ac
Ġinv est
Ġ &
Ġp al
id ge
l ine
Ġl im
i od
Ġ ve
Ġc ounc
Ġrepubl ic
Ġf ight
Ġp ay
Ġl ot
g ed
Ġcomm on
n y
es tern
Ġ201 5
Ġd et
Ġlo ve
Ġhum an
Ġstre et
Ġin f
d le
Ġj our
o f
ap an
Ġres ult
Ġbro ther
ren ch
Ġw ind
Ġl at
Ġch air
Ġm hm
Ġcon n
Ġplay er
th ing
ounc ed
in o
ere st
Ġc e
ro te
Ġh ig
Ġd i
Ġdiv ision
Ġchar ac
Ġf ur
Ġl ow
ie f
Ġassoci ation
Ġf eder
is ing
Ġint erest
ens us
Ġj apan
Ġg old
Ġc ast
Ġro om
Ġwork ed
Ġc ut
Ġinv ol
Ġh on
c le
Ġeff ect
m p
Ġcounc il
Ã ¡
er c
Ġmar k
Ġscient ists
Ġper iod
Ġtr av
at a
Ġec onom
o int
Ġ19 0
Ġte ac
Ġw rote
Ġf ull
Ġn ort
Ġto w
b it
Ġac ross
Ġm or
Ġlo st
ad em
Ġcap t
Ġbo x
f ord
w ays
Ġmu se
g s
Ġf rench
Ġdevelop ment
s el
Ġb ird
it or
ren ts
g es
Ġch ina
Ġd on
g est
Ġp ast
Ġd av
Ġp ict
Ġgr ound
Ġ vers
Ġprev ious
Ġh ot
ar a
Ġc ensus
Ġlang u
ert ain
op s
Ġrep l
end ing
Ġg iven
ro d
Ġbro wn
re w
Ġm m
Ġh our
Ġc iv
Ġde v
Ġr ul
Ġli k
Ġw alk
Ġ1 00
d en
Ġp ie
Ġbl ue
ve red
Ġgo es
ab ly
Ġme et
Ġin it
l er
iv ely
Ġse a
Ġal m
um ent
Ġb ad
Ġvide o
Ġh ur
Ġpres s
Ġp ick
Ġac adem
p le
Ġu k
Ġ2 1
Ġen ough
Ġr ural
Ġbo ard
il ar
Ġfar m
Ġs ound
Ġw ood
Ġsum mer
Ġameric a
Ġmuse um
Ġpro p
v ision
Ġann ounced
Ġinform ation
Ġcontro l
g o
Ġm c
Ġto t
Ġsh ip
Ġk ids
Ġm ot
Ġp ot
Ġsci ence
Ġdra w
Ġr ich
itt en
Ġbre ak
Ġab le
Ġpre t
Ġtr y
im es
Ġoff ice
o h
y le
Ġpro cess
Ġt en
Ġf ace
Ġd ou
ag o
Ġplay ers
ar c
ak en
um b
Ġb i
al y
Ġcount ries
re st
Ġme xic
read y
ul a
p ar
Ġb er
rib ut
Ġal ready
Ġc ase
Ġst ay
Ġ ill
y n
Ġb al
Ġprom ot
Ġmar ket
Ġh om
Ġfl o
t t
Ġsp ace
Ġpa rents
Ġbro ad
Ġc ross
Ġwas hington
at ors
Ġm ic
Ġc ir
Ġth ought
Ġs ite
Ġpr act
Ġsa w
Ġbr ing
Ġn av
Ġpl ant
Ġappe ar
Ġm ich
o b
Ġre n
Ġw estern
Ġir an
Ġsim ilar
Ġ201 6
Ġar g
Ġv iew
Ġdeb ut
k a
Ġw atch
u el
Ġj ud
ond on
id a
Ġal right
Ġl ou
Ġ2 4
Ġse en
Ġcom b
Ġun ion
ac hed
Ġconst ru
Ġpop ular
Ġciv il
Ġd augh
c ed
Ġh it
Ġprodu ct
Ġdescrib ed
Ġh or
Ġdire ct
Ġb ase
Ġc ook
Ġex amp
Ġp et
Ġcomm itt
Ġind ian
Ġe ight
Ġd one
Ġe ver
Ġpr im
ow s
Ġjo ined
Ġd am
Ġhe n
Ġcomp let
Ġmun icip
Ġpart ic
Ġh all
Ġfe el
f er
Ġcre ated
Ġ18 9
y al
Ġfr ont
Ġ ver
Ġb ir
Ġstr ong
Ġl ondon
Ġ =
Ġpolit ical
Ġcl ose
Ġgrad u
h a
Ġg un
id er
Ġm ass
Ġrev iew
al es
Ġout side
Ġg ave
Ġalm ost
Ġte x
Ġmid dle
Ġcomm and
e ad
Ġs at
or ies
Ġu r
Ġse ven
Ġro le
Ġestab l
in ts
Ġn ice
Ġdis co
Ġanim als
anc es
Ġreg ion
l ess
n al
Ġget ting
Ġpri v
pp ed
od y
er y
Ġs and
ra ft
st on
Ġestabl ished
Ġmonth s
Ġorigin al
Ġto ld
Ġa h
Ġy a
Ġgroup s
av es
Ġad min
Ġsout hern
Ġtit le
Ġ2 2
Ġter r
ĠâĢ ľ
Ġb ed
Ġtele vision
Ġh oney
b or
Ġp ur
Ġprot ect
Ġteam s
Ġofficial s
l ic
Ġcl aim
oc r
Ġpart icip
ĠâĢ Ŀ
Ġang el
Ġadd ed
Ġwr itten
Ġbo dy
Ġtr ain
Ġqu est
Ġsoc iety
Ġf if
Ġb or
i ence
Ġcol l
Ġy et
Ġfur ther
Ġsu re
Ġjo b
fe rence
Ġla un
v ir
Ġare as
Ġso on
Ġsec ret
Ġt ou
y ed
st and
Ġserv ices
id ing
Ġ18 8
Ġbook s
Ġs we
Ġ2 3
Ġh ost
Ġmo der
Ġfor ce
Ġthan k
Ġch ief
en se
Ġrad io
Ġvar ious
Ġeng land
o on
Ġ18 6
Ġreturn ed
Ġm art
Ġadmin ist
Ġprofess ional
Ġele ction
Ġw all
Ġprod uced
Ġpol ic
Ġob ama
Ġbe gin
Ġfin ished
Ġ ident
o ve
Ġh ill
Ġtechn ology
Ġtot al
enc es
1 9
im in
Ġfound ed
ver age
Ġag o
Ġcomm ission
a f
Ġh osp
Ġprodu ction
Ġf oc
Ġgerman y
Ġfore st
Ġd est
ic a
he re
Ġco ast
Ġwork ers
a ur
al d
Ġst ep
Ġvi ol
Ġ5 0
Ġep is
Ġear l
Ġst ri
Ġr ace
a ign
Ġde fe
Ġs le
Ġar m
Ġmat ch
Ġlead ers
Ġh am
Ġc op
Ġright s
u k
at ure
Ġbeh ind
et h
Ġf em
Ġimp ro
Ġm akes
Ġph ot
Ġcl im
Ġper for
Ġs us
Ġpro per
ul ts
ag ed
Ġro b
Ġp le
em pt
Ġth ing
Ġemp lo
u ge
Ġfeder al
ac y
ines e
n es
Ġen vir
ye ar
iv id
Ġperfor man
Ġim m
Ġar ri
Ġear th
l in
Ġenvir on
Ġinst ead
Ġfun d
Ġcamp aign
Ġmar ried
Ġreport ed
Ġcompan ies
Ġt aking
ad es
Ġref er
Ġind ia
Ġf ig
Ġt aken
Ġh y
Ġcon v
c ast
Ġkill ed
Ġch inese
id ence
Ġle ast
Ġde g
ep end
g y
Ġm el
h ib
Ġl iving
Ġtrad ition
Ġsign ed
n ers
Ġqu e
Ġo ly
Ġhe av
Ġde cl
Ġlangu age
Ġapp oint
Ġw ife
Ġpartic ular
Ġli br
Ġass ist
Ġdem ocr
Ġth om
u ff
Ġsp orts
Ġc and
Ġ200 5
Ġgo al
it her
j o
Ġag re
Ġfr ance
Ġpa ul
Ġg ar
Ġcon gress
Ġuh h
Ġjour nal
Ġind epend
Ġind ivid
Ġtr aining
Ġlook ing
Ġproble m
Ġf ut
Ġse le
p r
ut es
Ġfl or
Ġprofess or
Ġtr ying
Ġp it
he l
Ġexamp le
Ġopen ed
Ġw ild
Ġpos ition
Ġn ation
Ġ [
Ġcurrent ly
Ġide a
Ġin fl
est s
Ġd en
Ġr an
Ġg lo
Ġmay be
Ġf ly
Ġ201 7
Ġele cted
Ġstud ies
Ġk h
og n
Ġeurope an
Ġm ur
Ġv o
p ect
Ġde al
Ġrem ember
Ġdo c
Ġto m
h ic
i ke
Ġ200 4
g ar
Ġmed ia
Ġc orn
v ille
om b
Ġf ail
Ġrecord ed
Ġph ys
Ġt ar
ide red
and s
Ġ2 6
Ġtre at
Ġcl os
Ġex ec
Ġj ack
2 0
Ġint rod
Ġconn ect
Ã ³
Ġwant ed
Ġsomet imes
Ġcom es
Ġfr anc
Ġ ice
Ġco ach
Ġt v
Ġnat ural
Ġepis od
Ġth re
Ġdaugh ter
Ġb ank
Ġcharac ter
Ġcons idered
Ġs ell
Ġb an
Ġ. .
Ġ2 7
Ġf av
Ġre ason
Ġ2 8
Ġen c
i ers
Ġf est
Ġaustral ia
re am
Ġrele ase
Ġr out
im ent
Ġc ell
Ġm ult
Ġenviron ment
Ġc ro
Ġex c
Ġset t
Ġl ad
Ġpro b
Ġro yal
Ġse em
Ġav ail
a el
f ic
Ġmoder n
Ġafric an
Ġsu ff
Ġrel ations
a ut
pt ion
Ġes p
o x
un d
Ã ¼
Ġ18 7
Ġtex as
Ġmo v
Ġrec ogn
Ġsong s
Ġhapp ened
Ġgirl s
it ive
Ġcontin ued
ig r
Ġrecord s
Ġnort hern
Ġtrav el
Ġb attle
Ġcom ing
k y
Ġfriend s
Ġex ist
Ġafric a
y a
Ġ q
Ġm ary
Ġb ay
Ġin j
Ġm ater
Ġpo ints
Ġask ed
b al
Ġmin ister
Ġp an
Ġ20 00
Ġoly mp
Ġle ave
os s
Ġal ways
air s
Ġgeor ge
Ġatt empt
Ġprod uc
Ġhim self
Ġs ar
Ġm ix
Ġp en
Ġcon cer
Ġl ake
Ġart ist
h ood
Ġd u
a pp
Ġp aper
Ġne igh
Ġp u
e f
ol ution
Ġshow s
ens ive
Ġl ives
Ġch all
bur g
Ġpret ty
c raft
Ġrel ig
Ġvis it
Ġh i
Ġproble ms
Ġappe ared
Ġb at
Ġsu gg
Ġlos s
ap s
Ġcomp ut
Ġg ro
Ġread y
Ġs am
Ġb it
se qu
Ġr ac
Ġdes p
Ġme as
Ġins ide
Ġbec om
Ġr u
Ġat h
Ġtour nam
Ġor d
Ġj ames
Ġdav id
Ġc y
Ġh ous
Ġt rib
Ġstud ent
Ġd ig
Ġindust ry
Ġsur v
Ġme ans
er ous
Ġf a
Ġ 0
Ġm er
Ġpo or
Ġpre m
Ġd in
ic ago
p an
ri a
Ġrun s
b ody
h od
Ġdevelop ed
olog ical
Ġev ents
ur a
Ġst ore
ut ive
Ġ4 0
Ġwant s
Ġreg ular
m on
Ġinstit ute
m ar
he ad
Ġhosp ital
Ġwe e
Ġsle ep
Ġlar gest
Ġcommitt ee
Ġa lex
Ġangel es
Ġorgan ization
Ġw at
Ġnet work
Ġt able
Ġdis e
Ġvers ion
Ġcons erv
Ġmag az
an ish
Ġuhh uh
Ġt ro
Ġsuccess ful
Ġavail able
Ġm ad
Ġform ed
Ġameric ans
Ġinvest ig
Ġcon c
x im
ro om
Ġter m
Ġqu ick
Ġse par
Ġje w
Ġ.. .
am b
Ġdec ided
Ġflor ida
an ia
Ġha ir
st r
Ġhelp ed
Ġd er
re g
Ġfe et
Ġart ic
Ġn ative
o res
Ġnear ly
Ġinvol ved
Ġbas ket
Ġfor ces
Ġfut ure
Ġa ud
Ġs our
ri an
Ġre b
Ġevent ually
Ġcanad a
Ġb ow
Ġdr ink
is es
al a
Ġfin ish
f ield
Ġwho se
Ġsn ow
Ġconstru ction
Ġacc ess
Ġa verage
Ġb en
Ġst ruct
n s
Ġqu al
t a
Ġ199 0
Ġ >
ak er
Ġsa f
Ġbe ar
Ġrec ent
ist an
Ġb ul
Ġbr ought
Ġrun ning
Ġpriv ate
5 0
Ġst yle
Ġlook s
Ġpart s
Ġj er
Ġ201 8
b an
Ġ ]
Ġch art
Ġr ange
Ġ200 3
Ġinclud es
Ġhe art
Ġinfl u
Ġdesp ite
Ġsign ific
Ġmexic o
Ġf ast
Ġ2 9
Ġb ud
Ġwhe ther
Ġm ess
Ġwa it
Ġruss ian
Ġthrough out
Ġd ut
Ġre ach
id ae
Ġch icago
Ġmater ial
is l
Ġa ch
Ġm orn
Ġbir th
it es
Ġy ellow
w ood
Ġcont ract
Ġf er
Ġd oll
Ġu m
s hip
Ġexp ress
Ġf ix
Ġh o
e y
Ġappoint ed
Ġfour th
Ġco ver
Ġw il
Ġrese arc
Ġqu ar
Ġcle ar
Ġmunicip ality
Ġruss ia
Ġus ually
is c
Ġo ce
Ġpl aces
v al
Ġst age
Ġp ull
ree k
Ġresp ons
Ġrail way
n d
as ing
Ġe ither
le ment
ur ity
Ġdesign ed
Ġl u
Ġlibr ary
Ġthom as
Ġbl ock
Ġl iter
Ġan c
Ã Ń
Ġdo g
Ġcompet ition
i us
c a
it z
z z
r ain
Ġallow ed
Ġw o
Ġeas tern
Ġunder stand
Ġhour s
Ġposs ible
Ġst aff
Ġsp ent
Ġsur f
ce ed
Ġmorn ing
Ġc ust
Ġo il
Ġo l
op h
Ġmed ical
i j
Ġlik ely
Ġchang ed
Ġup on
augh t
Ġd ata
w or
Ġorigin ally
Ġcle an
ol a
Ġthre at
Ġ200 1
Ġhe y
Ġa ction
Ġc ertain
Ġ200 2
Ġent ire
Ġtournam ent
Ġc it
Ġro ll
Ġwom an
Ġsen ior
Ġcond u
id ents
Ġab ove
erg y
Ġfor t
Ġpict ure
Ġd ro
ber g
Ġtyp e
Ġcar ol
Ġacadem y
Ġaustral ian
Ġsay ing
Ġ198 0
Ġrul es
Ġp un
Ġfest ival
Ġwr iting
Ġar ts
Ġprob ably
on a
Ġwin ning
an ch
Ġc ause
Ġlou is
ct ions
Ġst ra
Ġmin utes
Ġmed al
Ġta x
Ġlead ing
Ġcour se
Ġsit u
Ġm r
d om
Ġlead er
i que
Ġperforman ce
ain t
Ġbu y
ra el
Ġre ve
Ġpl ann
Ġmagaz ine
ad o
Ġwho le
Ġfeat ures
ant a
Ġdec ision
Ġp enn
Ġb ott
Ġpr inc
Ġjo se
s y
Ġd eter
Ġte ach
Ġchang es
Ġcon ference
Ġt or
Ġvir gin
Ġhig her
Ġmove ment
Ġprogram s
Ġe gg
Ġe th
Ġes c
Ġon line
Ġha bit
us es
ak ers
Ġl eng
itt ing
Ġtou ch
y ou
Ġt al
Ġfranc is
en ing
Ġk ore
Ġn ine
Ġinter v
Ġke y
Ġbr idge
Ġprov ide
Ġl ower
Ġdif fic
Ġflo or
et y
rop ical
Ġr ank
Ġearl ier
Ġde ad
b ack
Ġdiffic ult
Ġspec ific
Ġmod el
y es
Ġcam er
Ġu l
Ġr is
et t
Ġli ber
Ġt ree
Ã ¶
Ġthe at
Ġsec urity
Ġp il
Ġf el
p e
Ġc oup
Ġsh oot
Ġs elf
Ġyou th
Ġhe ll
g a
Ġac cept
Ġf le
Ġmount ain
Ġb un
Ġm ac
Ġfollow ed
Ġdire cted
ent h
Ġc ub
Ġse x
Ġsh ot
u f
at ives
k i
Ġsignific ant
Ġfl ow
Ġwee ks
Ġp eter
Ġis rael
Ġhistor ic
Ġgrow ing
Ġth row
u ce
Ġd ark
Ġstud io
Ġact ually
Ä «
sel ves
Ġmich ael
Ġleng th
Ġz e
Ġperform ed
ar i
Ġhop e
Ġacc ount
Ġw al
at ory
Ġcap ital
Ġg ard
ent ial
Ġrec ently
b our
Ġconst it
pp er
end s
l a
Ġp ush
he st
gr ound
Ġad m
Ġcir c
Ġ3 1
Ġr ather
Ġb ene
Ġth ous
m en
Ġp ac
Ġlaw s
Ġex hib
it ar
Ġl ived
se y
Ġswe et
Ġmon t
Ġany thing
enc ed
Ġch o
Ġfr ank
le te
Ġhun d
in ation
Ġhand s
Ġdeg ree
Ġair craft
Ġesp ec
Ġpar l
ate g
ig er
Ġbuild ings
Ġoce an
b a
Ġespec ially
Ġd ru
Ġath let
Ġaw ards
est ed
Ġsc ored
Ġ197 0
Ġd ang
Ġpl aced
Ġb ac
Ġbasket ball
ort un
Ġne g
Ġval ley
Ġach ie
as c
Ġpolic y
Ġrem ained
Ġoffic er
Ġf ell
ud e
Ġp red
Ġpl ans
Ġche m
Ġhund red
Ġmiss ion
Ġac qu
Ġl un
Ġleg isl
Ġcomplet ed
Ġfeat ured
Ġroman ized
Ġcand id
p ed
Ġd an
Ġsc re
Ġcrit ic
Ġtrans port
Ġresearc hers
Ġl ink
Ġm ach
Ġdo or
k en
Ġt akes
Ġsp anish
Ġob s
Ġmil k
Ġmil es
Ġmov ie
Ġlong er
Ġchrist ian
Ġcar ry
Ġanim al
il ities
d a
Ġn orm
Ġch ap
if f
Ġaward ed
r ay
g en
i res
Ġpr ison
Ġdest ro
im s
Ġepisod e
Ġquest ion
Ġre ached
l am
Ġen ergy
Ġv an
Ġwor d
Ġp ig
it ect
Ġplay s
ol ic
Ġcar s
am s
ab ility
Ġpie ce
Ġit al
Ġno vel
1 0
o es
Ġsc ott
os h
Ġturn ed
Ġcust om
Ġhor se
w here
Ġsm ith
al ed
Ġmin ute
ar ily
Ġin n
Ġg all
Ġfore ign
Ġsh ar
w h
Ġg as
itt ed
Ġarch itect
t im
Ġgovern or
Ġjo in
ne w
Ġbegin ning
med i
Ġhe ar
Ġcol on
Ġso ft
Ġc ard
Ġart ists
ent al
Ġdo ctor
Ġant i
Ġb ag
Ġnot ed
Ġw ol
Ġgo d
Ġmet hod
Ġspe ed
if t
Ġthem selves
Ġgen us
Ġdise ase
Ġro bert
Ġfound ation
Ġcre ate
Ġsub ject
Ġple ase
Ġh us
ot a
Ġde ep
ific ation
Ġevery thing
Ġam ount
Ġparl iam
ag on
ers on
Ġneed s
Ġglo bal
ign ed
ill s
op e
Ġform ula
se c
b and
Ġprinc ip
Ġl y
om m
Ġfem ale
Ġpri or
Ġrout e
u se
Ġtr ade
Ġlist ed
Ġparliam ent
Ġse ction
Ġsaf ety
s w
Ġc ath
b i
Ġn ar
Ġrel ated
Ġmanag er
Ġsub sequ
Ġh at
Ġsp ring
Ġindepend ent
Ġb urn
Ġ18 5
Ġelect ric
Ġc ities
Ġact ive
Ġw ow
av ing
Ġiss ue
Ġmanag ement
Ġpar is
Ġf air
Ġbroad cast
Ġwin ter
Ġcons ist
Ġdoc ument
an o
Ġem erg
Ġsch ol
Ġest im
Ġm ine
Ġcont ribut
Ġtradition al
Ġcolle ction
Ġlab or
Ġce le
Ġbr az
Ġbo ys
Ġexec utive
Ġc ra
Ġlear n
z a
Ġfin anc
Ġbel ong
Ġw id
Ġprevious ly
Ġ18 4
Ġw ed
Ġcent re
ad a
Ġc red
Ġl ay
ent y
Ġexper ience
Ġr ain
Ġprov ided
Ġresp ect
w est
Ġleg al
Ġuk rain
Ġeconom ic
Ġgo als
ist ic
Ġcomm erc
Ġown ed
Ġcele br
i ation
Ġnews p
Ġ199 9
Ġ Â
Ġd om
o ff
v a
Ġbelie ve
or ing
Ġvirgin ia
Ġtrans fer
bo ard
Ġstart ing
Ġjapan ese
ar ies
Ġsw im
Ġl ack
Ġd ie
Ġn omin
o ke
Ġwe bs
Ġmin or
Ġat l
Ġend ed
Ġcult ure
Ġt un
Ġits elf
Ġcanad ian
w ell
Ġf ro
Ġe yes
Ġap art
Ġev idence
Ġtr uck
Ġp ack
os ition
Ġsqu ad
er ve
ac hes
Ġs ize
Ġteac hers
Ġrelations hip
Ġlaun ched
Ġw ide
Ġfam ous
Ġob ject
Ġcomput er
r is
Ġlad y
Ġse m
Ġiss ues
Ġc ow
Ġgr ant
Ġital ian
Ġperson al
Ġocc ur
an i
l s
Ġf ellow
Ġm aster
Ġcl osed
ab or
ol s
Ġatt ended
Ġ196 0
o e
Ġfin ally
Ġsh op
y er
Ġneed ed
Ġext ra
Ġorgan iz
p a
Ġcit iz
Ġsystem s
Ġpass ed
Ġquick ly
Ġw ing
pl ay
Ġking dom
r ound
Ġp urch
Ġjo bs
Ġmat ter
Ġm outh
h ab
Ġpl at
Ġgeor g
Ġincre ase
ic ian
Ġex cept
Ġbraz il
Ġk ar
Ġmeet ing
Ġth us
Ġfav or
Ġmost ly
se mb
Ġadminist ration
Ġsur ve
Ġneigh bor
Ġres ults
Ġnum bers
Ġd a
ir t
Ġch ann
Ġpract ice
Ġp ow
Ġatt ention
Ġsus p
Ġmo ving
Ġcons um
g ing
ail s
Ġ199 8
Ġmed ic
Ġve hic
um ents
w ards
Ġse at
Ġinterv iew
Ġsp read
Ġc ere
Ġfe ed
Ġar rest
if y
1 8
oc ks
Ġwor ds
Ġj ump
Ġcol d
Ġopen ing
Ġquar ter
Ġst ated
Ġocc up
Ġk er
Ġg i
Ġwr ite
Ġheav y
Ġoper ations
Ġsh all
Ġbe ach
Ġra ised
b c
ed y
Ġe ating
land s
Ġa z
Ġwr iter
Ġis lam
Ġover all
Ġd ress
Ġst ick
Ġsc ore
Ġag ency
Ġc ases
e x
Ġstud ied
Ġi re
z y
Ġintrod uced
he m
Ġon es
Ġins p
Ġrepl aced
ri age
Ġman uf
Ġ6 0
Ġimpro ve
Ġmanuf act
Ġgr ade
Ġindivid ual
1 2
Ġtar get
Ġbill ion
Ġc ab
Ġcarol ina
ist ry
Ġc oun
Ġc ry
it ch
Ġsp ort
Ġjose ph
Ġb ell
Ġproper ty
a q
Ġhur t
Ġsp ain
Ġfilm s
Ġcommerc ial
as k
Ġsqu are
ap t
Ġgu ard
Ġlim ited
Ġv ia
Ġor ange
Ġdisc uss
c y
Ġhig hest
Ġrem ains
Ġstand ard
= "
Ġvict or
Ġteac her
Ġs ister
Ġshow ed
Ġrepublic an
Ġproduct s
Ġg h
Ġf res
Ġst ars
Ġnav y
Ġann ual
Ġdri ve
3 0
Ġgl ass
i ents
Ġg iving
Ġapp le
Ġjust ice
Ġd omin
Ġlet ter
l or
Ġopp ortun
Ġfif th
Ġsing er
in y
Ġsh are
Ġrelig ious
Ġas semb
d ing
Ġext re
Ġd ance
Ġhon or
Ġim medi
em ic
ic ated
Ġbecom ing
Ġbase ball
ict ion
Ġfoc us
Ġphot ograp
Ġsecret ary
and a
Ġsurf ace
Ġprim ary
Ġbor der
s a
p ing
Ġpe ace
Ġfl ight
Ġchar les
Ġc row
ou l
i os
Ġag ric
Ġ199 6
Ġbe aut
Ġst ru
Ġnot hing
c her
ish op
b ook
Ġk m
Ġb a
Ġdis p
Ġhell o
Ġire land
im a
ib ility
Ġfight ing
Ġe t
Ġmay or
Ġtrans l
Ġca used
Ġchampionship s
Ġagric ult
Ġed itor
Ġsw ed
Ġm ir
Ġbel ow
Ġar ab
Ġear ned
k n
Ġst orm
Ġexp ected
Ġvot e
t ic
w w
ro ll
Ġf ru
id ay
k er
cl us
Ġapp lic
Ġsl ow
Ġget s
Ġhapp y
u it
Ġreg ard
Ġcolle ct
b ed
oc key
Ġl og
Ġb att
Ġf ill
r d
Ġb ang
Ġnat ure
Ġf it
Ġold er
Ġser ious
Ġtre es
Ġm ind
Ġd ream
Ġclass es
w ide
Ġcare ful
il i
Ġfor ced
Ġk itt
Ġbr and
Ġt ick
d own
Ġp ap
ad or
ir ty
Ġsome one
r am
Ġd un
Ġd ate
o id
Ġab s
Ġv en
Ġn ames
Ġcl in
Ġ199 7
Ġsur round
Ġcommun ic
Ġestab lish
Ġr ide
Ġad op
Ġs aint
Ġrest aur
Ġevery one
Ġsp l
Ġexp and
Ġ199 4
ri pt
Ġtheat re
Ġbe g
Ġthous ands
p re
Ġr ap
Ġdemocr atic
Ġpac ific
Ġparticular ly
1 4
Ġp age
gy pt
Ġo x
Ġst one
d on
Ġo w
Ġartic le
Ġw ays
Ġch ick
Ġwh om
Ġc atch
Ġvict ory
Ġstru gg
um e
Ġtem per
Ġair port
Ġ ess
Ġent ered
g u
n el
Ġ199 5
Ġus es
em s
Ġexper ts
Ġoper ation
Ġrepresent ed
Ġs ir
and er
ens ion
Ġcor por
Ġt ried
Ġpri ze
ig an
Ġsil ver
Ġreg ional
h ouse
Ġpl ants
Ġ199 2
anc ed
Ġrich ard
Ġe gypt
Ġb ath
Ġpain t
Ġmart in
Ġby e
Ġanc ient
Ġdisco vered
Ġmain t
Ġrem ain
Ġfre qu
Ġtr ue
Ġ201 9
Ġlar ger
Ġcontin ue
y m
he ast
Ġv oc
Ġun l
Ġwr ong
Ġcomp lete
Ġ199 1
Ġne cess
Ġtr ou
Ġpro gress
Ġpol l
Ġret ired
Ġinit ially
Ġl ord
Ġha w
Ġvol un
Ġwe ap
Ġst ories
Ġread ing
Ġrequ ire
ound s
Ġp sy
il s
Ġsp ot
j a
Ġo pt
Ġmic ro
Ġfig ure
Ġf ine
Ġl ie
Ġprev ent
Ġr ub
ri al
r s
Ġsur pr
Ġsele cted
y an
Ġdem on
Ġdefe ated
Ġ195 0
st e
Ġp ath
Ġar r
Ġaddition al
Ġwebs ite
Ġcomp lex
Ġpo et
Ġoffic ers
Ġb oo
ad ed
k ing
Ġr ate
m ore
Ġsh own
Ġm ale
Ġro ss
Ġpre p
Ġlear ning
Å «
Ġst ad
Ġhen ry
Ġref uge
Ġassoci ated
Ġcont ains
Ġr are
om a
Ġincre ased
Ġtow ards
Ġactiv ities
Ġte en
Ġtr ust
Ġintern et
Ġrequ ired
Ġbe at
in ct
Ġpain ting
Ġg one
Ġsub st
Ġse arch
Ġbene f
ip s
Ġpart ners
Ġpar ish
Ġpict ures
Ġal le
Ġco vered
Ġfrancis co
Ġc oo
Ġcapt ain
Ġsal es
yl v
w are
it a
che n
un e
Ġdo gs
Ġbl ood
un g
Ġatt ract
Ġlab el
Ġbeh av
Ġal tern
ip e
Ġtow er
Ġcath olic
Ġgu itar
Ġa head
Ġ199 3
Ġr ang
Ġtri p
le ct
Ġmajor ity
Ġpur p
Ġsa fe
Ġchar ge
Ġk ick
Ġn ations
Ġque en
ell ed
Ġcre w
Ġgener ally
Ġc d
ylv ania
Ġch oo
1 5
Ġwe ar
Ġres our
ing er
ro ad
Ġser ving
Ġv ac
Ġcons ider
Ġl if
Ġfun ny
Ġfel t
por ary
Ġp ra
Ġgre w
Ġisland s
Ġe ye
Ġcult ural
Ġd ry
Ġam b
Ġenc our
Ġtrack s
Ġres idents
Ġsy n
Ġkn e
Ġbo at
Ġir aq
Ġmat ches
Ġnear by
on se
il ed
Ġle aving
Ġeff orts
Ġl ines
Ġr h
Ġcr ime
Ġmus l
Ġn ick
Ġan al
b on
u als
s p
Ġlevel s
Ġarri ved
Ġinst r
Ġtro ops
ur ies
h an
k ins
Ġj im
Ġun it
u a
Ġrecord ing
Ġfinanc ial
Ġh ockey
k o
Ġt all
Ġchair man
z en
Ġsim p
Ġincre asing
u ction
Ġmem or
Ġbelie ved
Ġcoll abor
Ġbr ain
al and
b re
m it
ver t
Ġend emic
Ġcol umb
Ġhun g
Ġr ab
Ġm ond
Ġstruct ure
Ġb ri
Ġsmall er
Ġst uff
ip l
Ġbo ston
Ġown ers
h ire
in i
ans as
te en
Ġph one
Ġcond itions
Ġit aly
Ġk en
Ġcon fl
Ġtreat ment
Ġsar ah
Ġso v
Ġn ap
Ġchall en
Ġfail ed
Ġris k
f ect
Ġh uge
Ġoff er
Ġsc ot
Ġem b
n et
ot e
Ġad am
Ġla ura
g al
Ġco al
Ġpa id
Ġ198 9
h i
t r
ant ic
ph one
Ġsold iers
s ylvania
Ġv ice
Ġed ition
Ġre form
Ġmus ical
Ġob t
ven ue
Ġhabit at
ul ations
d o
Ġsp ok
Ġsp ir
h ar
Ġgrow th
Ġpsy ch
Ġbe y
Ġa ri
Ġse ed
Ġdou b
Ġkitt y
Ġmo b
qu ar
Ġsov iet
ast ic
Ġappro xim
Ġto ys
olog ist
h ol
Ġshe l
Ġte xt
Ġchann el
g l
Ġlat in
Ġdef ense
Ġpenn sylvania
ul ated
Ġoff ered
Ġr ing
Ġfre ed
s es
Ġno se
Ġb ol
j an
Ġl ic
Ġk id
Ġloc ation
Ġassist ant
Ġappear ance
ipp ed
Ġbird s
1 7
is her
Ġst ock
Ġjun ior
Ġresp onse
Ġdig ital
Ġmot or
uck y
Ġsupport ed
Ġenvironment al
Ġdis app
Ġi v
ric k
Ġ18 3
Ġke pt
en a
Ġm as
o y
Ġhus band
Ġnewsp aper
Ġcont r
Ġhistor ical
Ġstad ium
ag ing
Ġsh ut
Ġr id
Ġpie ces
iz ing
Ġchem ical
o le
Ġvar iety
Ġrespons ible
l ight
Ġco ol
Ġgu y
Ġacc om
is ions
Ġm cc
Ġh ors
Ġengine ering
Ġhe ard
Ġrev olution
ch an
Ġmar riage
Ġaut om
Ġlook ed
Ġdr um
Ġnum erous
Ġjud ge
k in
Ġsour ce
Ġpe ak
Ġcitiz ens
ath an
Ġrem o
m as
Ġt ail
i ro
as ion
Ġju ice
Ġscre en
Ġcan cer
Ġent er
Ġpr int
Ġfres h
ail y
Ġer a
Ġdem and
Ġtr aff
Ġsc hed
Ġmean ing
Ġolymp ics
Ġs anta
Ġgradu ated
1 1
Ġ <
Ġse v
Ġbo b
Ġ ic
Ġd ar
ell a
ian a
Ġappro ach
Ġqu ality
Ġt ropical
Ġs ad
Ġex am
Ġfeat ure
Ã³ n
Ġt enn
Ġp us
i i
Ġtw enty
Ġc art
Ġdra ft
Ġd ed
Ġ198 8
Ġc ru
Ġcoup le
in n
Ġhy d
Ġeff ort
Ġle aves
Ġtalk ing
al i
Ġg reek
Ġyou n
Ġhom es
er ved
Ġf ul
oo p
ess ion
Ġpr ime
Ġw el
Ġhigh way
Ġd aily
Ġchamp ion
Ġze aland
Ġsen ate
Ġassemb ly
w ater
Ġhum ans
Ġle e
/ /
Ġar ms
Ġc ateg
Ġd uck
ut ions
Ġto y
Ġvo ice
Ġsupp osed
: //
Ġwe ather
Ġg ives
all ed
ve re
Ġwe ight
Ġsun day
Ġu pper
Ġcall s
Ġro se
Ġequ ip
Ġbirth day
Ġb omb
Ġk a
Ġclim ate
Ġm and
Ġn ut
az z
Ġm ention
Ġatt end
ren ces
Ġas h
ab les
Ġprov ides
Ġfor ward
Ġ3 5
1 3
Ġs ud
Ġconf ir
Ġmar ine
il ing
Ġk iss
Ġchar l
at o
Ġsk ills
u ing
v in
anc y
Ġru le
Ġjew ish
Ġmedic ine
o ver
Ġhold ing
Ġb ishop
Ġnot able
Ġcompet ed
ou d
Ġfl ag
Ġexper i
in et
w r
Ġfly ing
Ġsoc cer
Ġs or
ol k
Ġdou ble
Ġpress ure
Ġfarm ers
Ġp ak
Ġyoun ger
Ġ7 0
Ġt ape
Ġadd ress
Ġe ll
Ġseason s
as a
Ġstat us
Ġcast le
Ġb on
Ġwin ner
Ä ĩ
Ġbut ter
Ġbro ken
Ġcom ment
Ġsing les
act ion
Ġimm igr
Ġhous es
Ġen s
Ġres c
Ġir on
Ġpos itive
Ġr am
Ġ198 4
Ġs ens
Ġser ve
Ġal one
Ġcar ried
Ġviol ence
w a
Ġcontro ll
Ġagre ement
ac ts
Ġsepar ate
Ġstra ight
Ġsubsequ ently
Ġproject s
Ġdep ut
ian ce
ri e
Ġter ms
Ġj ul
Ġsa ve
Ġsy ria
Ġmain ly
Ġvolun te
i en
Ġequip ment
Ġm ama
Ġfun ction
Ġr ug
uc le
Ġche ck
Ġplan et
Ġapproxim ately
Ġal t
Ġcharac ters
ut ed
Ġbr anch
Ġab ility
Ġ8 0
Ġneighbor hood
Ġmult ip
Ġk it
Ġegg s
Ġch ance
Ġgeorg ia
iz es
Ġgre ater
ub e
Ġattack s
Ġ198 7
Ġchall eng
m ond
Ġf ans
ro s
ir ing
ap ed
Ġro w
Ġmix ed
am m
Ġoper ated
Ġschol ars
Ġun its
Ġproduc er
Ġh ang
ch ange
Ġv iet
Ġimp act
Ġtell s
g reg
u le
Ġfir m
ren d
Ġscient ific
Ġwhe el
Ġf red
Ġun d
Ġele v
g ers
Ġo d
Ġcar l
Ġdut ch
Ġn om
Ġin hab
ing u
Ġn ic
s en
Ġbow l
l ied
Ġz oo
Ġelect ron
Ġf at
Ġmond ay
um n
Ġk r
Ġcommun ities
Ġteach ing
Ġm ah
ut h
Ġas ia
ct ors
Ġent ertain
Ġr ough
Ġnot e
Ġwor th
Ġsen se
1 6
if ul
Ġ198 5
Ġint e
Ġd rop
y r
Ġpl ane
c ome
Ġr at
Ġmet al
Å ¡
Ġclaim ed
Ġadminist r
Ġs r
Ġst an
Ġf ox
Ġcoo per
l ife
Ġg il
Ġappe ars
or ters
Ġtur key
rib ution
Ġphys ical
Ġdro pped
Ġchallen ge
Ġbro ke
Ġimmedi ately
t ies
or ter
Ġgr ass
Ġco ff
Ġprodu ce
Ġeffect s
Ġpro min
v i
Ġind ic
Ġfound er
Ġplat form
c ks
Ġemplo y
Ġp ed
Ġcomp l
Ġcomp ared
g le
Ġt an
Ġb ought
Ġj ones
ce ment
ap h
at ures
Ġ9 0
Ġhot el
Ġt on
ict ed
Ġlear ned
Ġye p
Ġpolit ician
Ġinit i
Ġk il
Ġch am
Ġro d
at ively
Ġauthor ities
Ġ198 6
Ġdang erous
Ġto ward
Ġk ent
w an
Ġe ld
Ã ¤
Ġgen e
Ġagre ed
Ġs ac
Ġn ucle
Ġbr on
Ġeas y
h old
Ġo s
Ġgener ation
Ġme ant
Ġ198 2
Ġfreed om
Ġbar b
Ġir ish
f ast
Ġcrit ics
Ġbrother s
Ġcon cept
r ison
Ġmanag ed
Ġput ting
Ġf igh
Ġter min
it ude
Ġg al
Ġstand ing
Ġreve aled
Ġprop osed
Ġhe at
ad el
Ġsp r
Ġpot ential
ig ration
us ing
Ġprot est
ent ed
Ġpr ince
Ġhundred s
Ġmo on
Ġt ast
pp ing
a x
Ġhapp en
Ġarr ang
Ġl uc
Ġad j
Ġele ph
Å į
Ġcomp os
ograp hy
a res
in ing
Ġu t
Ġv eter
Ġbusiness es
s et
Ġcamer a
Ġsk y
Ġpresent ed
Ġachie ve
Ġkne w
Ġsimp ly
Ġ5 00
Ġplann ed
Ġbl ocks
it ation
Ġun f
Ġdec ades
Ġtw ice
Ġsu c
Ġact or
Ġbig gest
Ġma x
Ġjohn son
Ġhelp s
Ġcandid ate
Ġ194 5
Ġdru g
Ġextre m
Ġinte gr
Ġst ations
Ġ3 2
Ġown er
Ġacqu ired
Ġs itting
out s
Ġterr or
t ime
ot hes
Ġkore a
re l
j i
Ġb ull
Ġan sw
Ġmich igan
ian o
Ġsc ene
Ġs om
Ġ197 2
Ġfield s
Ġmeas ure
Ġbri ef
Ġcost s
Ġr ay
Ġform s
Ġsu it
Ġme chan
et te
b ach
r or
Ġrep orts
Ġmin im
Ġwon der
Ġdam age
Ġdestro yed
Ġ id
oo ps
ys is
Ġsit es
Ġsuc ceed
Ġa im
Ġm ath
Ġbr ig
Ġlet ters
c i
Ġele ment
re y
Ġw et
Ġm oo
Ġtown ship
Ġtr ail
ace ae
Ġwe b
Ġaff ect
Ġadv oc
Ġjer sey
in al
ino is
Ġpak istan
Ġukrain e
Ġthe ory
Ġpr ice
Ġcondu cted
m o
Ġcont em
Ġtem ple
Ġbey ond
Ġt aught
am ing
Ġqu ite
Ġcook ie
Ġcell s
Ġdemon str
Ġcont est
Ġactiv ity
er o
Ġc aught
Ġrem aining
Ġindust rial
Ġbeaut iful
Ġrep e
Ġwed nes
it ory
el a
k h
Ġen jo
Ġship s
Ġmin istry
if ying
Ġacadem ic
Ġcr imin
ee ch
Ġiss ued
Ġphil ipp
Ġislam ic
Ġt ues
Ġsp end
Ġ194 0
Ġur ban
g ian
ell ing
Ġed ward
Ġoff ers
Ġexper iment
ord in
led ge
Ġtr a
Ġ193 0
el ess
Ġhigh ly
n ic
or por
Ġsitu ation
Ġh u
ren g
Ġpar ks
Ġsp eech
Ġpromot ed
Ġdeter min
Ġhelp ing
Ġill inois
Ġse qu
wor ks
Ġan th
sh ire
Ġbott om
Ġs ick
Ġper m
il a
Ġul tim
Ġsub t
ish ing
Ġgard en
Ġst ores
Ġun c
Ġc as
Ġdire ction
Ġj ac
Ġme at
Ġdis play
Ġestim ated
r ated
Ġr ic
Ġbrit ain
Ġmemor ial
Ġ198 3
Ġdri ving
on ic
Ġb ann
qu es
n o
ke e
Ġpat tern
Ġmach ine
Ġoh io
Ġtyp es
Ġflow ers
Ġre fe
Ġleaders hip
Ġindivid uals
ap es
Ġ197 9
ell ig
Ġthan ks
Ġstop ped
Ġ18 2
Ġvisit ors
Ġj on
Ġlun ch
Ġdirect ly
Ġweap ons
as ka
Ġexper t
Ġprotect ion
Ġs her
Ġ3 6
Ġelect ions
Ġtues day
Ġsy m
Ġj es
Ġlos ing
Ġorgan is
Ġlist en
gh an
Ġappear ances
Ġsu pre
Ġparticip ated
Ġbo d
Ġmultip le
rop h
Ġsat ur
man n
Ġsurve y
Ġest ate
Ġacc ident
c an
Ġdis ney
Ġalbum s
Ġr ise
Ġresour ces
Ġmexic an
ste in
ab eth
Ġl es
al ing
Ġex erc
Ġd ol
il ly
ak s
Ġ198 1
Ġdist ance
Ġp ad
Ġcoff ee
Ġcons ists
Ġval ue
Ġreg ister
Ġolymp ic
Ġconc ert
Ġe b
Ġex act
Ġsy mb
enc ies
Ġs amp
Ġfru it
tt ps
Ġint ellig
Ġmunicip al
Ġw ales
Ġlat ter
e en
Ġw it
ab ad
Ġ192 0
Ġdeput y
Ġ ille
Ġres ident
Ġwild life
Ġresp ond
Ġstri ke
Ġentertain ment
Ġon to
Ġwednes day
un t
Ġ197 5
Ġd iam
j e
ag er
Ġorgan ized
Ġl ion
Ġsweet ie
Ġtrou ble
ous ly
Ġcont act
em ents
Ġs ides
Ġro of
Ġquest ions
et ts
Ġconserv ation
Ġst reng
Ġg oo
Ġcoun ter
uc ks
Ġadv anced
m ark
Ġsugg est
Ġthreat ened
Ġseem s
ic ed
Ġt iny
Ġsc en
l ies
Ġthere fore
Ġrec omm
Ġgu ess
Ġkn ock
Ġwilliam s
ro l
st ra
Ġchrist mas
Ġbur ied
Ġforest s
Ġcomp osed
Ġsm art
t own
Ġp ink
ric ts
Ġide as
Ġtri al
Ġg ay
Ġinc ome
es h
Ġn fl
un k
Ġcontin ues
Ġl ots
Ġsil ly
Ġv ent
Ġcho ice
Ġremo ved
Ġd anc
Ġinit ial
Ġy ards
Ġscot land
Ġm ut
Ġrece ive
bur gh
Ġg a
Ġ197 6
Ġemp ire
Ġte eth
Ġreg iment
Ġorganiz ations
Ã §
ou ri
Ġexp ect
Ġ196 8
Ġc ert
Ġdo gg
Ġper fect
Ġsix th
Ġjo e
Ġcamp us
Ġy ay
ib ly
Ġsupp ly
Ġdr ama
Ġbehav ior
Ġsell ing
Ġm ist
Ġfund ing
Ġ ign
Ġfind ing
Ġtit led
Ġaff airs
Ġdecl ared
Ġp in
Ġh ind
Ġco de
Ġord ered
ach us
Ġ18 0
Ġsim ple
st one
Ġcrit ical
Ġ197 4
at i
Ġor che
Ġfr iday
Ã ¨
Ġ3 00
Ġhe ro
Ġres ist
Ġa st
Ġcommand er
Ġlaun ch
i est
Ġve get
Ġk im
Ġwe aring
Ġport ug
Ġii i
a ult
u ct
Ġwind ow
Ġspir it
Ġf ash
um my
Ġro t
Ġb ound
Ġdist ricts
Ġphil os
Ġhar v
Ġmount ains
Ġc em
Ġp urs
Ġinsp ired
Ġad ults
Ġ197 8
is ters
Ġas ian
er b
an y
Ġhapp ens
Ġand rew
se e
Ġdan iel
Ġaf ghan
Ġbre ed
ar m
and on
ill a
ĠâĢ ĺ
Ġwat ers
adel ph
Ġs end
Ġh ug
Ġprim arily
Ġele ments
Ġmass achus
Ġdin os
Ġbun ny
Ġswim ming
Ġbr ad
Ġcolumb ia
Ġmassachus etts
Ġshort ly
wor th
Ġsh r
Ġun cle
ru pt
Ġhous ing
ru ction
Ġdef in
Ġsc r
Ġofficial ly
Ġconfl ict
adelph ia
il es
Ġstand ards
Ġinflu ence
Ġshoot ing
i h
Ġc reek
Ġ4 5
Ġ196 9
Ġm igr
Ġbreak fast
Ġeconom y
Ġg ol
Ġel iz
Ġ194 4
Ġthem e
Ġjo int
Ġthink ing
Ġarch ae
Ġarrest ed
Ġo oh
Ġk enn
Ġtr ains
Ġres erve
br idge
Ġm oth
Ġext ended
el ly
el and
Ġad vert
Ġm is
Ġsoft ware
Ġpat ients
Ġun s
we ight
Ġf c
Ġclub s
Ġcem eter
f ish
y ard
Ġvill ages
Ġliter ature
Ġact ing
Ġbud get
4 0
Ġinf ant
Ġ197 1
Ġje ff
Ġconstru cted
Ġf al
Ġcont ent
Ġfollow s
Ġinj ury
Ġdefe at
Ġprincip al
Ġsupre me
Ġb uck
Ġj r
Ġ3 3
Ġcap ac
Ġs urn
ut s
Ġmo s
Ġ197 7
f ort
Ġpre c
n ie
Ġbecom es
Ġsc ale
Ġrefer red
g n
ol n
Ġcon vers
Ġtraff ic
Ġwind ows
Ġplann ing
ig a
Ġfeat uring
on ia
Ġl ies
Ġper man
te red
Ġchang ing
Ġfash ion
Ġdiffe rence
Ġauthor ity
Ġa k
ul ed
m ans
Ġl ind
Ġbe ars
Ġpo ver
Ġopportun ity
Ġpu pp
Ġsh oes
Ġra ise
Ġhe ight
Ġwr it
Ġmar s
Ġaut h
8 0
cl es
Ġcro wn
Ġpover ty
h s
Ġsol o
Ġterr itory
Ġd ipl
Ġcorn er
wh ile
Ġwid ely
Ġserv es
Ġg ri
Ġ196 7
Ġtransfer red
Ġconst ant
Ġallow s
Ġpower ful
sel a
Ġreview s
Ġcom edy
new sela
Ġanal ysis
r id
Ġp oo
âĢ Ļ
Ġtyp ically
Ġstat ement
Ġc in
est ic
Ġen em
Ġcr ack
Ġlar g
Ġalong side
Ġass igned
Ġmom ent
Ġb es
ar io
Ġab andon
Ġwin s
3 3
Ġcall ing
Ġcond ition
Ġex change
Ġreg ist
Ġfl ood
Ġmaterial s
h aps
ch a
Ġj azz
Ġt am
ot ed
iv ity
Ġbas ic
Ġarg ent
Ġsu gar
Ġformer ly
Ġgold en
et ic
Ġper haps
Ġcr is
Ġbig ger
Ġ197 3
Ġpurp ose
Ġfe ar
Ġclim b
Ġcustom ers
Ġa id
Ġm ike
Ġen for
Ġdiv ided
Ġcapt ured
Ġt ay
Ġcontro vers
Ġwalk ing
it o
Ġwar m
Ġtest s
Ġfavor ite
Ġsatur day
u x
at he
Ġser b
Ġnorm al
or ation
ac ing
Ġus a
ter y
inc oln
Ġgradu ate
Ġd ur
Ġf ought
Ġback ground
Ġl as
Ġwh oops
Ġcomplet ely
ut en
Ġcl a
Ġsurn ame
Ġc ric
ly ing
ul f
Ġpromin ent
Ġfoc used
Ġded icated
Ġatt orn
Ġimp ress
Ġcrow d
Ġprem ie
Ġed ge
Ġreturn ing
b ury
ur t
Ġk al
Ġcon sec
m ine
Ġp ool
Ġun ique
Ġdri ver
Ġfac ilities
Ġnecess ary
Ġlarg ely
Ġsour ces
Ġw oo
Ġdis s
Ġsy d
Ġphil adelphia
Ġfootball er
Ġsugg ested
Ġaccept ed
Ġsuff ered
ing ton
Ġpl ate
Ġnew ly
Ġ196 5
on ents
Ġknow ledge
Ġ196 4
Ġreason s
Ġfl at
Ġem ot
Ġbr ight
Ġgr ay
Ġrecogn ized
i y
w ise
Ġb ass
Ġcon clud
Ġne p
Ġpartners hip
Ġeliz abeth
Ġcolor ado
Ġprop os
Ġcir cle
Ġt el
Ġsc oring
Ġadop ted
Ġwil son
Ġl incoln
Ġcontem porary
Ġar med
Ġcol omb
re es
ad s
Ġcre ating
Ġcor ps
Ġconfir med
Ġdo ctors
Ġimp lement
Ġrac ing
Ġcric ket
Ġch a
oc ol
Ġact ress
Ġnucle ar
Ġan aly
Ġim ag
Ġcommun ist
Ġw isc
Ġbeg ins
Ġcl othes
Ġgun s
Ġpurch ased
Ġw ings
Ġm ap
om s
Ġrest rict
Ġrestaur ant
ak a
Ġab d
c el
Ġg ang
Ġbut ton
Ġim age
quar ters
i as
Ġh ong
Ġj am
Ġmar sh
ons in
Ġmess age
Ġkore an
Ġwisc onsin
az on
5 00
Ġr and
it age
Ġr ice
Ġfind s
Ġrepresent atives
Ġz one
Ġeduc ational
Ġconn ected
th ur
Ġcont ain
Ġhop es
Ġfact ory
Ġly ric
Ġsyd ney
Ġse attle
ist ics
Ġav oid
Ġnomin ated
Ġspl it
Ġinhab it
Ġ3 4
Ġinterest ed
Ġprov iding
Ġsl ight
che ster
ribut ed
Ġtrans form
Ġbill board
Ġari z
Ġcrimin al
Ġpal est
Ġo ri
Ġrepresent ative
Ġident ified
re ct
Ġn az
om an
Ġsk in
Ġvar i
Ġcop ies
Ġsem i
k es
Ġstart s
Ġadv is
Ġhold s
Ã¡ n
l av
Ġk o
Ġact ions
m ony
Ġf aced
Ġsal t
Ġinvestig ation
Ġpart ner
Ġair pl
Ġhead quarters
Ġ194 6
Ġvehic les
iam i
Ġscient ist
Ġcolle cted
Ġpolit ics
Ġjack son
Ġinstr ument
Ġg ained
Ġhun ting
r ig
Ġa venue
he im
ir a
Ġchick en
9 0
Ġins ur
r ich
Ġt s
Ġma xim
Ġr ivers
Ġfin als
Ġcons ult
Ġthe ater
Ġel imin
an es
ik a
Ġad ult
Ġgro wn
g i
Ġf isher
ch i
Ġind ones
Ġtechn ical
Ġopp osition
Ġfig ures
w in
Ġd na
Ġh ay
Ġpres ence
Ġsm ok
Ġn iger
Ġrec ru
Ġcomb at
Ġf u
Ġim per
Ã ±
Ġb h
Ġl em
Ġcon ver
os en
Ġinc orpor
Ġpil ot
Ġnorth west
Ġchr is
Ġcomb ined
igh th
Ġher itage
Ġfish ing
Ġconserv ative
Ġmiss ing
b ird
Ġth urs
Ġemerg ency
Ġsh ape
Ġclaim s
u an
Ġbl ow
Ġpr in
Ġkill ing
or der
ic i
em an
Ġ196 6
Ġrec o
Ġmusl im
Ġp ump
Ġrec on
6 0
Ġsp ending
Ġmean while
Ġwall s
Ġmur der
Ġoccur red
Ġcapac ity
2 5
Ġtest ing
Ġbas is
w ar
Ġd im
Ġsci ences
Ġche ese
iver se
b el
Ġloc k
Ġmiss ouri
w as
ah am
Ġret ire
Ġcub a
Ġs ons
Ġe ve
Ġab e
aw a
Ġtur k
Ġfl ower
Ġ15 0
Ġintellig ence
h ah
Ġany one
Ġtown s
Ġste el
Ġengine er
Ġs ant
Ġk ong
Ġknow s
Ġ196 3
Ġfew er
Ġsa v
h ttps
Ġne ck
Ġworld wide
Ġrank ed
ion e
Ġse es
Ġher self
Ġstre ets
le ts
ag a
Ġa er
Ġs ab
Ġno ise
Ġthink s
b l
Ġrail road
Ġf an
Ġwar s
Ġ194 2
ye es
Ġemplo yees
Ġoper ating
Ġc rop
Ġw rest
Ġhealth y
id ers
ic ient
Ġdevelop ing
Ġscott ish
Ġrug by
Ġpaint ings
Ġ3 7
Ġlo an
Ġatl antic
Ġviet nam
Ġred uced
Ġro s
Ġapp lied
Ġsecond ary
m akers
Ġint ended
on to
Ġt ask
Ġp air
Ġsc ul
Ġbus h
i ot
Ġop in
Ġlangu ages
Ġbo om
Ġpresident ial
Ġcemeter y
Ġpart ies
Ġcorpor ation
Ġspok es
Ġst uck
Ġgall ery
2 00
e es
Ġs ort
Ġmary land
m et
ch ar
Ġwatch ing
Ġrap id
Ġcan al
Ġathlet es
Ġch osen
Ġstre t
Ġcal c
Ġpe ek
p ro
Ġto ols
Ġsu st
hen s
Ġrelig ion
Ġnar row
ins on
res p
Ġmem ory
Ġdin ner
Ġvir t
Ġhost ed
Ġaud ience
Ġaccom pan
Ġsome body
Ġpol ish
Ġful ly
g ie
Ġbr ick
Ġmal ays
Ġperform ing
Ġthurs day
Ġtr ained
Ġh its
Ġshow ing
Ġmill ions
Ġfac ult
n ight
or a
Ġnot es
Ġgre y
i ber
Ġun kn
Ġdist ingu
Ġvis ited
Ġallow ing
Ġhyd ro
Ġsub ur
Ġsign s
it ter
Ġdr ones
Ġref used
Ġk ansas
Ġwas h
Ġcon cent
Ġappro ved
Ġwol f
av a
Ġent r
Ġren amed
Ġj enn
ag an
Ġcateg ory
Ġcol ors
Ġste ve
Ġsor ry
Ġariz ona
Ġse ats
Ġevery body
Ġagricult ure
aw s
Ġmob ile
Ġsp ect
Ġprot ests
Ġber n
Ġsett lement
Ġfill ed
Ġro cks
se ct
Ġmy ster
Ġy og
Ġag ent
Ġus ers
o ir
Ġb bc
Ġsub s
Ġspe aking
Ġliber al
Ġdisapp e
Ġmanufact ure
Ġ eric
er a
Ġsh irt
Ġopp os
p o
Ġle w
Ġcy cl
Ġshe ll
Ġend ing
c on
Ġc av
Ġmin nes
Ġeduc ated
Ġuh oh
Ġfall s
Ġwho a
Ġdisco very
he t
i Äĩ
Ġal bert
Ġexp ensive
l ers
w ich
if orm
Ġmention ed
Ġcontroll ed
it an
Ġan ton
Ġ195 4
ĠÂ £
Ġlim it
Ġpain ted
Ġm ail
Ġred uce
op hy
Ġle ct
Ġtur t
ol ved
Ã ¸
Ġbac ter
Ġattorn ey
Ġlik es
Ġd y
Ġalex ander
Ġunkn own
Ġrefuge es
Ġc ore
Ġm iami
Ġmat hem
Ġb ond
ri ption
Ġgr am
Ġnet her
Ġcondu ct
Ġtransport ation
b ro
Ġfr ame
Ġbron ze
Ġl ions
Ġswed ish
Ġgr an
Ġpu zz
Ġh orn
ul ate
Ġpro s
Ġset ting
Ġvehic le
Ġb ure
Ġl in
Ġreg ions
Ġsound s
Ġm it
Ġmod els
Ä į
au g
Ġyour self
Ġturn ing
Ġeas ily
bour ne
Ġsquad ron
Ġultim ately
Ġexpand ed
Ġkit chen
Ġbod ies
Ġvictor ia
Ġwith d
Ġent ry
Ġminnes ota
Ġhead s
Ġ196 2
Ġdist inct
Ġdraw ing
Ġimmigr ants
Ġan ne
Ġ195 8
Ġsing ing
Ġtre ated
Ġp ric
Ġview s
Ġqu iet
Ġs lo
Ġk ir
Ġinhabit ants
is hes
en ger
Ġk at
Ġ195 9
Ġt ank
um ed
Ġmat t
Ġd irty
am in
el ve
Ġfac ility
Ġexist ing
Ġdec ade
Ġperforman ces
Ġv ess
Ġbl ank
Ġset s
Ġs ale
Ġ194 8
Ġt u
Ġpos itions
Ġfeder ation
Ġem per
Ġend s
Ġprem ier
Ġhors es
erb ai
Ġb om
Ġfle et
Ġaltern ative
f a
Ġf inger
Ġth ir
Ġre ject
Ġ194 1
Ġdesign ated
Ġunl ike
b ye
Ġaz erbai
er n
Ġoper a
Ġlie uten
Ġf uel
eng ers
Ġpol y
Ġill ust
Ġsubt ropical
Ġmag n
Ġcommon ly
Ġho le
Ġconstit ution
Ġn athan
Ġwe alth
Ġcris is
Ġg ather
are t
Ġpa rent
Ġca uses
Ġrece iving
Ġtit les
Ġ196 1
Ġwit ness
Ġco vers
Ġepisod es
Ġinj ured
Ġesc ape
Ġit ems
Ġturn s
Ġje an
ag ues
Ġte a
en der
Ġm erc
Ġg ree
Ġe ag
Ġis ol
Ġj ord
Ġun us
Ġrel atively
Ġtor onto
Ġscul pt
Ġim ages
Ġd ial
Ġ195 6
Ġexpl ained
ri er
Ġun able
m es
ad ing
Ġm ent
Ġpick ed
Ġb ite
Ġ4 00
Ġcour ses
Ġadv ant
Ġinfant ry
Ġp iano
Ġbar on
Ġland s
Ġtw elve
it ors
Ġsp in
Ġz h
Ġvis ual
gar ian
Ġsitu ated
Ġafghan istan
Ġw y
Ġpro ceed
the w
Ġprof it
Ġst ood
Ġi p
Ġcl oth
Ġconnect ion
v is
Ġsp oke
itz er
Ġl yn
Ġact s
Ġna ima
Ġcre ation
Ġinv ited
Ġber lin
l i
uel a
e z
Ġ194 7
Ġsen ator
Ġsh ared
b les
o a
Ġt ight
Ġm ental
ar ian
Ġres erv
Ġresc ue
Ġnom i
r an
Ġm all
Ġro les
Ġsupp orters
Ġf ame
bo x
Ġlieuten ant
Ġexc ell
Ġl ose
Ġweek ly
Ġadv ent
Ġeffect ive
Ġmark ed
Ġnav al
Ġdocument ary
Ġeleph ant
Ġp ier
Ġpur ple
Ġinn ov
Ġo ops
ist ed
ful ly
Ġleg s
Ġform at
re ll
ag n
Ġdis m
Ġ194 3
Ġagricult ural
Ġsurround ing
Ġapp a
Ġsol id
Ġpen al
Ġn urs
Ġrepresent ing
Ġwa iting
Ġth irty
Ġstud ying
Ġdet ail
Ġdoll ars
Ġt ired
Ġto b
Ġsout heast
Ġexist ence
Ġb id
le g
Ġwas te
Ġ195 5
Ġfacult y
Ġadv ance
Ġsched uled
Ġsecond s
Ġgi ant
Ġcat al
Ġexhib ition
Ġen roll
Ġroad s
Ġdet ect
Ġnether lands
Ġse vere
Ġa ired
Ġque ens
7 0
Ġt ack
Ġt ai
Ġgu ys
Ġlaw yer
Ġclos ely
Ġfor g
Ġpro te
ak h
pt y
Ġsee ing
ay a
Ġr ising
Ġtay lor
Ġg ain
Ġpromot ion
Ġsex ual
Ġappa rent
Ġf oss
Ġl ap
az a
Ġhill s
Ġeb ola
Ġp ock
Ġartic les
Ġs in
Ġchap el
Ġn in
Ġcent ers
Ġresult ed
re p
Ġre ality
cl aim
Ġmusic ians
it i
Ġse g
Ġ17 9
Ġform ation
Ġt ig
Ġdec ide
Ġmat thew
Ġjour ney
Ġemper or
Ġb ah
Ġtre as
Ġch ain
Ġar thur
Ġcarry ing
in der
Ġspe ak
ca a
Ġp up
Ġshe ep
Ġnort heast
Ġt ie
Ġo t
Ġmar g
r us
le c
Ġre in
Ġc oc
Ġd ub
reg on
Ġcre am
Ġv in
Ġpromot e
Ġban ks
Ġcin em
Ġo regon
an th
is a
Ġdr am
Ġcere mony
Ġperman ent
Ġpr ay
h l
Ġr ates
Ġgu est
Ġin e
Ġn asa
Ġso il
Ġfl u
Ġdeb ate
pect s
Ġm ile
og ue
Ġpoet ry
Ġla id
Ġdetermin ed
Ġt ries
Ġpass ing
Ġstand s
ze ch
Ġvide os
Ġconcer ns
Ġansw er
Ġ3 8
Ġindepend ence
Ġkh an
Ġobt ained
Ġazerbai jan
ound ed
Ġcr ay
Ġaff ord
ly wood
Ġold est
Ġo ak
Ġd iet
id el
Ġear n
Ġexp ed
Ġca ve
Äģ n
Ġcommission ed
u ro
y d
Ġb ub
es ters
Ġeas ier
al le
Ġattack ed
Ġvot es
Ġunderstand ing
Ġrespect ively
Ġc zech
Ġp ale
Ġall iance
Ġacc used
Ġpass engers
Ġbring ing
Ġh ook
Ġsupport ing
Ġimm igration
Ġr on
Ġmin ing
Ġhaw ai
Ġass ess
Ġgrant ed
ic y
Ġimper ial
2 1
Ġbar n
Ġdeter mine
ac ement
Ġmal es
Ġtouch down
Ġcham ber
olog ists
Ġdev ices
ww w
Ġt ed
ack s
Ġqual ified
Ġswed en
à ¤
Ġt end
ol i
Ġob l
Ġorche stra
Ġsp ell
Ġgen es
Ġret ail
Ġvot ed
Ġn caa
rop ri
Ġland sc
tim ore
Ġdie go
ot yp
Ġdef end
Ġdav is
Ġarg ued
on ent
Ġar k
Ġcl ar
Ġstr ateg
Ġathlet ic
Ġport ra
Ġwh ales
Ġwor ried
Ġexp ans
Ġbro ok
Ġairpl ane
Ġp ul
Ġp ip
Ġm ouse
Ġ195 2
Ġstar ring
Ġu til
Ġhar ry
Ġjord an
Ġw ard
Ġlead s
Ġdet ails
Ġ il
Ġt ag
Ġ195 3
Ġsol ar
Ġdoc uments
Ġelement ary
m ad
Ġbac hel
e ed
Ġf o
am i
Ġj ur
Ġsh aped
c ar
Ġpat ri
Ġocc asion
Ġearth qu
resp ond
Ġcon sequ
Ġdist ribution
Ġste am
Ġ195 7
Ġkeep ing
Ġbu ff
Ġclass ic
Ġex clus
Ġident ity
us al
Ġcor respond
Ġwe ak
Ġvol ume
u z
pt on
Ġann oun
Ġh ired
ill ed
Ġchar ges
Ġca using
Ġcandid ates
Ġb ord
Ġfound ing
Ġequ al
Ġch ur
ak ed
Ġsy rian
ony m
Ġunivers ities
Ġshar p
Ġsh ore
ress ion
Ġbe e
Ġtr ick
Ġprot ected
Ġ193 9
Ġbelie ves
Ġexact ly
2 2
Ġt ort
Ġd rew
Ġwor se
Ġisrael i
Ġmethod s
Ġminim um
Ġslight ly
Ġr ib
Ġwin ners
il er
Ġmo ist
Ġlat est
Ġh ip
ot i
Ġmeas ures
z o
in ary
Ġl ily
Ġscholars hip
Ġaff ili
don ald
m ont
ro it
Ġjew s
Ġb os
Ġinterest ing
Ġb ones
Ġcar bon
Ġref lect
Ġpain ter
i ar
un der
Ġ7 5
Ġfood s
Ġang ry
Ġs ought
Ġm az
ol is
Ġstud ios
Ġhol y
re al
Ġag ree
Ġclos er
Ġtemper ature
ian g
Ġrom e
Ġlouis iana
Ġpra ised
Ġdeg rees
Ġreach ing
Ġr ick
Ġph ase
Ġheav ily
Ġobs erv
Ġabandon ed
Ġl t
Ġag es
Ġ194 9
Ġt rop
or i
Ġsc he
Ġhel ic
Ġprofess ion
Ġelectron ic
Ġv ic
Ġcont ained
Ġclass room
f all
Ġb ats
al u
Ġspecific ally
Ġhung ry
Ġs el
Ġch ocol
Ġpublic ation
in ity
Ġs oph
Ġth or
Ġover se
Ġattempt s
Ġapplic ation
Ġg ab
Ġkn ight
Ġpol and
er al
Ġeth nic
it led
Ġl ut
Ġinter act
Ġrepublic ans
Ġsett led
ch ing
Ġbr ush
Ġstep hen
ul es
Ġlink ed
l ines
Ġo tt
id den
ut ional
Ġ6 5
Ġlab our
Ġinj uries
Ġbachel or
Ġt ong
Ġfun ds
w art
Ġsud den
Ġinc ident
Ġpass es
Ġd or
Ġyou t
Ġgu ine
Ġweek end
Ġfrequ ently
was hington
Ġb rian
Ġpop e
Ġoffic es
Ġm amm
Ġat m
Ġhom eless
t ag
Ġc ash
Ġf ab
Ġp or
Ġco ordin
Ġsucceed ed
Ġauth ors
Ġth ick
Ġal f
Ġal i
Ġ4 4
Ġstep s
on so
ic ians
Ġch ose
ap ers
Ġadd ing
Ġinf ect
Ġadministr ative
3 5
Ġmo sc
Ġvict ims
Ġdipl om
Ġtell ing
Ġposs ibly
b ec
p ut
Ġcred it
Ġwrit ers
all as
ren e
Ġhur ric
i at
Ġf m
hed ral
m outh
Ġt y
Ġw ave
Ġg ym
Ġal ab
Ġhead ed
Ġc ot
Ġm ol
os es
Ġte ens
Ġfeel ing
Ġneg ative
Ġchur ches
Ġro ber
Ġ195 1
Ġt ang
Ġpl astic
Ġd v
Ġj ane
Ġkind s
Ġfa ith
Ġinsur ance
Ġa qu
Ġvoc al
Ġup d
Ġopp osed
Ġexerc ise
d am
ain ts
Ġcol our
Ġjournal ist
c ript
Ġmar c
Ġ4 2
erg us
b ar
Ġm ort
Ġ191 8
Ġdu ke
Ġstreng th
æ Ŀ
Ġh an
Ġn ad
Ġalle ged
Ġcomp ar
Ġ5 5
Ġal aska
Ġchar ged
Ġprep ared
ĠâĢ ¦
Ġrough ly
Ġn est
Ġhun t
Ġmel bourne
Ġs ang
Ġl it
Ġcent uries
Ġloc ations
r ad
Ġcr ash
Ġdown town
Ġbal timore
wr iter
Ġc ig
el ine
Ġaff ected
Ġchocol ate
o om
Ġinter p
Ġstay ed
Ġfinish ing
p ass
Ġc m
Ġdet roit
Ġox ford
Ġre ference
Ġlic ens
Ġalab ama
Ġt ough
Ġn one
ly n
iv als
Ġdec or
Ġ193 7
Ġshop ping
Ġchar ity
Ġrepres ents
Ġfall ing
Ġresult ing
Ġhon our
Ġon t
enn a
Ġprot esters
Ġyout ube
Ġsa x
Ġdes ert
Ġmic roph
ent ially
Ġdev ice
Ġbure au
Ġsurv ived
Ġa x
ot ic
Ġout bre
ograp h
Ġsele ction
Ġp ir
Ġpap ers
Ġbenef its
Ġsev enth
Ġconsec utive
ost er
Ġlu x
Ġhelic op
Ġl am
Ġsouth west
f r
f ather
Ġc ous
Ġgree ce
Ġv on
Ġ4 8
Ġem ph
Ġpop ulations
Ġ193 6
Ġroom s
Ġcook ies
m ates
Ġt orn
Ġachie ved
Ġjoin ing
Ġregist ered
ene z
r imin
Ġgood s
Ġmosc ow
Ġchoo se
ri f
Ġsugg ests
Ġtast e
Ġf iction
Ġhe aring
Ġsh a
Ġpass enger
Ġsleep ing
Ġbott le
Ġv el
Ġor th
Ġsc ar
Ġfar ms
Ġin sect
Ġr yan
Ġ4 9
Ġsymb ol
Ġr iding
ell er
Ġphilipp ines
Ġmer ch
Ġextrem ely
Ġatm osp
Ġ â
Ġdef ined
Ġhapp ening
Ġdaugh ters
u ous
Ġg ord
er ves
Ġun iform
Ġnor we
Ġmov ies
Ġmathem at
Ġp ounds
Ġl oo
Ġcour ts
Ġindian a
Ġimpro ved
Ġconclud ed
Ġretire ment
Ġbar ack
Ġask ing
Ġpal ace
Ġvers ions
Ġmot ion
Ġconcer n
Ġarchitect ure
ã Ģ
Ġanc est
Ġw ake
Ġpalest in
Ġc ards
Ġille gal
Ġchild hood
Ġconv ention
Ġdom estic
Ġf olk
Ġag encies
ik i
n i
Ġf ired
Ġmar ia
Ġyes ter
Ġsuccessful ly
Ġwel come
Ġd ivers
Ġclass ical
Ġinvol ve
Ġclin ton
Ġcolomb ia
y cl
Ġp ill
Ġdep lo
ij ing
Ġlew is
ig en
oc ese
Ġany more
Ġdiffe rences
Ġterr itor
u v
Ġh ou
Ġv ision
Ġad apt
Ġbab ies
Ġpl us
Ġ193 4
Ġrequ est
Ġinstit utions
Ġdiam ond
Ġtai wan
Ġexpans ion
Ġdra wn
Ġimport ance
Ġinvest ment
Ġst ress
Ġwor ry
Ġfr anch
Ġsc ript
Ġrecogn ition
Ġdo zen
Ġsh ock
Ġscen es
Ġsubs id
Ġadvant age
Ġc hes
Ġother wise
Ġface book
stand ing
Ġstruct ures
Ġdut y
Ġdogg ie
Ġde an
Ġenfor cement
Ġyester day
Ġf ant
Ġinst all
ov a
Ġindones ia
7 5
Ġfor d
Ġstr ing
Ġ Î
Ġbus y
ipp ing
Ġ191 9
Ġtenn is
Ġbrig ade
o ch
Ġc ats
Ġ191 7
Ġth ro
Ġj ay
Ġdeath s
Ġeld er
ill ing
l ah
s k
Ġp ione
Ġg ent
Ġlegisl ative
Ġregard ing
Ġr us
Ġno v
Ġag ed
2 4
Ġprogram me
Ġbre aking
Ġ193 8
Ġconf eder
Ġpay ing
Ġr ud
Ġqu ant
ergus on
Ġg ate
op her
Ġwor st
Ġdr one
Ġcommunic ation
Ġrab bit
Ġm ud
Ġ19 00
Ġfil es
Ġeven ing
Ġgreat est
f ly
Ġk am
Ġyour s
Ġemplo yed
Ġsal v
f am
Ġele ctor
Ġcompet e
Ġneg oti
im ents
Ġcomp lic
Ġintern al
g ood
Ġre ar
Ġrepe ated
ol es
ag ers
Ġl ane
op p
um es
Ġcontribut ed
us ion
Ġ( ;
Ġconsist ed
Ġconcer ned
Ġopportun ities
n oon
Ġal g
Ġro y
Ġcat hedral
v ant
Ġb erg
Ġe ighth
Ġch im
Ġlaw makers
Ġmag ic
Ġpost ed
b ered
Ġn am
ann y
Ġnor way
Ġsubsequ ent
Ġatl anta
Ġ3 9
Ġmon itor
Ġinter ior
Ġliter ary
Ġoccup ied
Ġemph as
Ġo m
c s
Ġj ail
Ġmet rop
Ġmur d
Ġphilos ophy
Ġnorwe gian
Ġcomp r
Ġ192 8
Ġvot ers
Ġrul ed
Ġcontr ast
a very
t ical
Ġmon key
Ġext ensive
Ġvis iting
Ġinstit ution
Ġcritic ized
Ġrestaur ants
Ġwh it
Ġsp oon
Ġafter noon
Ġexp lo
Ġsw itch
Ġport ion
Ġre act
Ġco aches
Ġra j
Ġphot os
Ġunus ual
c ol
Ġf aster
Ġto ol
end ent
Ġpolic ies
Ã ¢
Ġfif a
ades h
Ġukrain ian
Ġmaxim um
Ġord ers
Ġadm itted
Ġlegisl ation
ar an
as hed
ac he
Ġinst alled
Ġont ario
Ġent itled
Ġtyp ical
Ġvir us
Ġpric es
Ġr if
ab oo
Ġhouse hold
Ġfix ed
w estern
Ġf ed
Ġm erg
Ġsn ake
Ġce o
Ġfigh ters
Ġst or
Ġle on
Ġleg end
Ġassist ance
Ġapplic ations
Ġs ke
Ġcross ing
Ġtun nel
Ġseed s
b orn
Ġf erguson
Ġch ile
Ġfriend ly
Ġdebut ed
Ġpow ers
Ġmicroph one
Ġk u
Ġcl ay
Ġbr id
olog ies
Ġappe al
d d
Ġc ant
Ġtr uth
Ġeth an
Ġt iger
Ġbre ad
Ġpoint ed
Ġdrink ing
st ream
Ġcl ock
Ġchap ter
Ġb ot
ag en
Ġseem ed
Ġattempt ed
ãĢ ģ
Ġs ession
Ġg or
Ġcre ative
Ġinterest s
Ġregular ly
Ġcolon el
Ġenem y
Ġal ive
Ġaw a
Ġrem em
Ġturk ish
b u
Ġs oul
Ġso le
Ġ4 6
Ġsw itzer
Ġsim on
Ġmalays ia
Ġjun ction
Ġref ers
Ġmult i
Ġbenef it
Ġb le
Ġr um
Ġgr av
Ġfac ing
Ġpit ts
Ġlyric s
d i
Ġins pect
Ġproper ties
Ġincreasing ly
Ġsh ah
Ġbatt al
Ġvolunte ers
Ġn ina
Ġg ast
Ġmo lec
Ġsh ad
Ġsp ons
Ġnathan iel
Ġdep th
ange red
Ã© e
Ġport ray
Ġobject s
Ġend angered
wh at
ar ia
Ġman s
Ġhar m
Ġdel ay
Ġinflu enced
æĿ ĳ
r as
Ġsee k
Ġmill er
ger y
Ġcor rect
Ġec u
Ġd allas
Ġfem ales
Ġentire ly
Ġdru gs
ag u
Ġem pty
ol itan
Ġsee king
Ġ193 5
Ġr ival
Ġcol umn
Ġjes us
ra w
Ġform al
Ġmet res
Ġcommunic ations
Ġexperi enced
Ġswitzer land
Ġcap e
Ġpract ices
Ġexpress ed
ac co
Ġac res
Ġentr ance
Ġeng aged
Ġtele phone
Ġbelie f
Ġparticip ate
Ġhigh light
Ġgol f
Ġin aug
ic ts
Ġoper ate
Ġmiss ed
Ġassoci ate
Ġcirc uit
er ick
Ġmarket ing
or row
Ġse ctor
Ġdang er
b ell
Ġp y
ab et
Ġsl ide
kn ow
Ġdinos aur
Ġpat rick
Ġloss es
Ġpoll ution
r it
Ġsurv ive
Ġb apt
Ġok lah
Ġatt ached
Ġcommission er
Ġcoast al
Ġtom orrow
Ġpubl ishing
Ġsw ing
Ġcab inet
g as
re te
Ġl akes
Ġpl ot
Ġconv ent
Ġpit ched
Ġ193 3
Ġwood en
l an
Ġs ight
Ġc ake
Ġsub m
Ġcolon ial
Ġgu ide
Ġexpl os
Ġm p
Ġv enez
os lav
Ġprov inc
Ġc el
Ġg ulf
Ġst em
Ġr hy
Ġocc urs
Ġhistor ian
Ġdam aged
Ġh yp
Ġwind s
Ġet c
Ġkent ucky
Ġcar p
Ġsol ution
Ġfav our
b ra
Ġill ness
Ġproduc ing
Ġstrugg le
Ġw ire
Ġcont aining
Ġele ven
Ġmiss iss
Ġmass ive
Ġpull ed
Ġpock et
f oot
ro t
Ġcam bridge
Ġens ure
Ġoklah oma
Ġa y
Ġd ates
ou red
Ġh ide
Ġr hod
og en
Ġfact or
Ġtemper atures
b ul
f it
Ġj osh
ming ham
2 3
Ġr aces
Ġpro ved
uc ing
Ġres igned
Ġsupp orts
Ġnet works
Ġtrib e
iv a
ast y
h al
Ġp ant
ang el
Ġev olution
Ġargent ina
Ġn y
Ġcop y
Ġtenn es
Ġpuzz le
b age
Ġoff ering
Ġapp ropri
Äģ b
Ġext ension
Ġpus hed
Ġtob acco
Ġtennes see
om ot
Ġpro sec
lo ad
Ġ191 0
Ġdress ed
Ġn an
Ġcom ic
Ġwal ter
Ġdanc ing
el d
ive red
Ġsc rew
Ġhis pan
if er
Ġbl ues
t i
Ġb ib
Ġgen etic
Ġdisco ver
Ġal ph
Ġbo ats
Ġecu ador
d ie
Ġbacter ia
Ġcolle ges
Ġwat ched
Ġpo ison
Ġdisc rimin
i ques
o is
Å Ĥ
Ġre new
Ġle af
Ġju an
Ġ191 2
Ġwalk er
Ġdy nam
Ġguine a
m at
Ġrequ ires
Ġtravel ed
is y
ic ide
Ġfe els
pl ace
Ġhol lywood
Ġdirect ors
Ġsubject s
Ġdr ag
Ġdel ivered
Ġs ed
Ġrespons ibility
Ġharv ard
Ġt ied
Ġplay off
Ġra ising
Ġeconom ics
Ġdise ases
Ġdistingu ished
Ġst y
Ġ6 4
ipp i
Ġsusp ended
Ġcom fort
Ġli qu
Ġwork er
Ġgord on
Ġpre fer
Ġsupp lies
ather ine
Ġmaint ained
h u
Ġt ens
Ġc ass
Ġtr ucks
Ġ191 4
is er
it als
Ġr av
ct ic
in als
Ġev alu
Ġph ill
Ġam ate
Ġestablish ment
Ġj ury
ard o
Ġ17 8
Ġeu ro
Ġsubst it
Ġd yn
ang le
Ġtrib une
ott ed
Ġder ived
Ġiniti ative
Ġe re
az ing
Ġocc as
Ġexpl ore
Ġtig ers
o or
t v
Ġt ub
Ġwhe els
Ġpurch ase
Ġegypt ian
Ġinterp ret
Ġf aces
Ġp as
Ġperson nel
Ġchalleng es
r m
Ġbe ijing
Ġdist ributed
Ġland ing
Ġ191 6
Ġclear ly
r ition
Ã º
Ġat e
Ġ192 5
Ġexped ition
Ġsh if
Ġbre ath
Ġcollabor ation
Ġgoo gle
Ġkenn edy
b ow
Ġag ents
Ġcomb ination
Ġcommitt ed
Ġbir mingham
Ġy ard
Ġ192 4
Ġcapt ure
Ġfail ure
Ġs isters
Ġh amp
ess ions
od e
ier ra
Ġviol ent
Ġniger ia
Ġche n
he as
Ġc her
ap ore
Ġac know
Ġdec re
Ġpri est
Ġf ing
Ġand erson
ain e
Ġbel g
ham mad
athe red
Ġpremie red
c ing
Ġy ug
Ġa hm
Ġ192 1
Ġground s
Ġc ad
Ġfar mer
Ġmc donald
Ġsurpr ise
Ġhou ston
Ġs i
Ġp ic
st airs
Ġk ings
Ġ192 6
Ġarm en
Ġprovinc ial
Ġf urn
Ġh art
il ton
Ġu g
Ġwill ing
Ġview ers
Ġpro hib
Ġgre g
Ġfind ings
Ġdef ence
Ġad ap
vel and
iss ions
Ġbroadcast ing
Ġschol ar
ow a
Ġres idence
Ġfar ming
Ġcut ting
Ġexamp les
Ġwh ale
clus ion
p ack
Ġl augh
Ġsub sc
Ġann ivers
Ġportug ues
fam ily
Ġmississ ippi
Ã £
Ġd j
Ġinv asion
Ġb ump
Ġn ich
ant ly
Ġstre am
Ġ193 2
Ġsele ct
Ġrober ts
Ġ192 7
ky o
Ġobs erved
Ġt as
Ġt ill
Ġar c
Ġfr ag
Ġunder ground
Ġs ri
Ġgr ab
Ġsm o
Ġeng ines
Ġsett le
Ġqueens land
good ness
ud i
rib le
Ġdis pl
Ġband s
Ġdram atic
f riend
est yle
Ġdec isions
Ġlight s
v o
Ġt iss
et ime
ak i
Ġlo b
Ġ192 9
Ġartist ic
Ġconstit u
Ġhurric ane
Ġs ie
al o
Ġsa il
Ġrob ot
Ġorganis ation
Ġannivers ary
2 9
Ġb c
Ġmed als
Ġdri vers
Ġpitts burgh
Ġan ch
il ation
am ent
os is
Ġres olution
Ġsing apore
Ġresist ance
Ġy up
el le
Ġsh an
Ġam end
Ġstr ate
bo y
e per
as y
Ġdesign s
Ġdisc ip
Ġrepl ace
Ġb ou
ber ry
Ġcomm it
Ġfil ed
Ġtrop hy
p art
Ġb are
Ġsuff ering
Ġfer n
m un
Ġqual ifying
Ġstrate gy
Ġg osh
Ġk l
Ġmr s
Ġsurround ed
Ġconver ted
Ġst ages
Ġgrand father
Ġslow ly
e h
Ġt ony
in er
Ġw aves
Ġsp ots
heas tern
Ġc ute
Ġst ating
Ġal co
Ġen l
Ġinst ance
Ġmembers hip
Ġstri p
um a
Ġhard er
go ing
Ġgh ost
Ġt ap
Ġw ine
Ġh ans
Ġk ur
Ġmo ves
Ġent ering
com ing
Ġdecl ined
Ġmir ror
usal em
Ġportugues e
Ġr ating
Ġreturn s
Ġcy cle
] (
Ġd al
Ġh iding
Ġto oth
Ġfr an
Ġdon ald
Ġmeet ings
Ġfigh ter
Ġadvert ising
Ġsmok ing
Ġare na
Ġwork sh
Ġmiss ions
Ġdel iver
ograp hic
Ġdo ors
Ġaddition ally
o ons
Ġb one
Ġout do
Ġac id
Ġ4 3
Ġexp os
Ġk an
Ġdis aster
gr ad
Ġpat ient
Ġrh in
Ġcrop s
Ġpeek aboo
2 8
Ġhand ed
Ġsat ell
Ġle ban
Ġbrazil ian
4 5
d r
Ġd at
st ers
Ġrel ief
Ġpun ish
Ġexperi ences
Ġmed ium
Ġspe aker
Ġlim its
m ers
Ġthe rap
is f
iel der
Ġtal ent
o z
Ġd ak
Ġnorm ally
Ġvoc als
Ġc os
Ġd ump
Ġg ib
Ġtr ump
Ġen h
Ġout standing
Ġdescrib es
Ġdi ocese
Ġark ansas
Ġde leg
Ġmusl ims
Ġveter ans
Ġopin ion
Ġw ounded
Ġfl ed
Ġsm oke
Ġstr uck
Ġhol iday
Ġhabit ats
Ġalle g
Ġhawai i
/ ?
re ck
ina e
Ġprin cess
Ġcloth ing
Ġpri x
Ġkil omet
w er
Ġy an
Ġbl ind
Ġdri ven
Ġphot o
Ġut ah
Ġh ut
Ġpro ced
Ġsh oe
Ġ4 7
Ġact ual
Ġcoun sel
ver se
Ġpe ar
od ox
Ġjud ges
Ġcritic ism
Ġresident ial
Ġyug oslav
Ġgovernment s
Ġ191 5
Ġcomput ers
Ġoppos ite
f c
u ch
Ġw age
Ġ- -
Ġdr agon
Ġsl avery
Ġpret end
Ġelectric ity
Ġamate ur
Ä ±
Ġbr anc
Ġear s
Ġhand le
Ġreb u
Ġcompos er
Ġd ick
Ġto kyo
Ġch anc
Ġper u
Ġlo ves
ph ones
Ġlou d
Ġpan el
Ġfranch ise
Ġautom atic
Ġnut rition
Ġanton io
b ing
Ġident ify
a a
p ers
Ġab b
Ġengine ers
Ġfro g
Ġb oss
Ġf ried
Ġcount ies
Ġche w
Ġsign al
Ġ192 3
Ġrob in
omm od
Ġmetrop olitan
i ors
Ġp enc
ve y
Ġjer usalem
Ġdism iss
Ġas c
Ġloc omot
Ġaust ria
Ġexpl ain
Ġapart ment
Ġsust ain
d ale
Ġre action
Ġup set
Ġsur gery
Ġsh ake
Ġrul ing
Ġp ond
Ġtw itter
Ġacc ommod
Ġmaint ain
Ġinstr uments
Ġneigh bour
Ġmanufact uring
Ġp ages
Ġg athered
un a
Ġval ues
c op
Ġco verage
Ġp av
Ġv a
Ġun iverse
Ġgr aph
Ġmet ers
Ġcommun e
Ġann ually
Ġtrans m
Ġfact ors
2 6
Ġa le
Ġc ord
at in
Ġk elly
Ġmic hel
Ġfing ers
Ġ +
Ġa unt
re z
Ġo ption
Ġv ast
Ġno body
Ġtest ed
Ġsepar ated
Ġw ides
Ġ193 1
Ġmag net
ra id
Ġind ex
Ġass ault
Ġav iation
Ġstor age
Ġcover ing
Ġb art
Ġi b
Ġn ur
ch y
Ġrem ark
Ġ192 2
Ġsold ier
Ġthous and
r ane
Ġd ave
Ġdecl ine
Ġnar r
Ġmoo re
Ġr aw
Ġtr act
Ġsing h
Ġaust in
Ġcle veland
Ġgar bage
ow ed
Ġne ither
Ġdis ab
Ġgu il
Ġ6 6
Ġconsist ing
m us
Ġfl ows
Ġtem porary
Ġcamer as
Ġfin ance
Ġenter pr
Ġb eng
Ġro ots
Ġbl og
Ġrep ut
Ġent rep
ic an
Ġst amp
Ġpre par
Ġvot ing
ust er
ious ly
Ġcand y
Ġpen ins
onso red
Ġ _
Ġd ies
Ġcl ark
Ġrec ip
Ġmin es
Ġgard ens
Ġvac c
Ġcru z
9 9
w ick
Ġp el
Ġsh ir
Ġdef ensive
Ġrock y
Ġbelong s
Ġentrep rene
Ġm ong
Ġne v
Ġall en
Ġsome where
Ġunivers al
Äģ d
Ġstrong ly
Ġparticip ants
Ġbat tery
Ã ¥
Ġn ash
Ġr ated
Ġunder t
Ġra f
Ġ25 0
Ġactiv ists
Ġc attle
Ġk ay
Ġbu ying
Ġmusic ian
Ġelse where
Ġdv d
l ad
m ble
Ġcut s
Ġnick n
Ġbrief ly
Ġc um
it ely
ul s
Ġsub family
Ġmed ie
Ġgrand ma
Ġtreat y
Ġaim ed
Ġbelg ium
Ġfor get
Ġcompet ing
Ġpus hing
Ġmedie val
c ase
Ġind ians
Ġkeep s
Ġphys ics
Ġadm ir
Ġbes ides
Ġahm ad
ol as
Ġrecord ings
ert o
Ġpopular ity
Ġcertain ly
Ġlegisl ature
Ġpropos al
p read
Ġst rict
Ġconc rete
Ġsp onsored
Ġsc ores
Ġdel ic
Ġwalk ed
Ã£ o
Ġwides pread
w s
Ġse ctions
iss a
Ġroll ing
Ġb out
ure r
Ġchart s
Ġproduct ions
Ġconsum ers
Ġm ack
Ġdo d
ell o
Ġafter wards
Ġmon ument
Ġintrod uction
Ġproduc ers
Ġlabor atory
Ġextre me
Ġannoun cement
Ġs ierra
Ġk y
Ġtrans ition
Ġphil ip
Ġn ba
Ġless ons
Ġcro at
Ġsign ing
Ġ17 7
Ġpupp y
s ch
Ġp ants
Ġth rew
os a
Ġnot ice
Ġaf raid
Ġjo h
Ġval u
Ġkill er
Ã¼ r
Ġbeg un
Ġsmo oth
Ġsh ark
ort ed
ruct ure
Ġanth ony
Ġf ra
ic ut
Ġrec alled
Ġ5 2
Ġpublic ations
Ġdeb t
Ġcharl ie
Ġb icy
ist a
Ġ5 3
Ġbann ed
Ġp hen
Ġg amb
Ġemploy ment
Ġspokes man
ann e
Ġbutter fly
Ġcr imes
en h
Ġl ith
Ġtw e
Ġcol ony
Ġus er
Ġinn ings
Ġamb ass
Ġemot ional
Ġmerg ed
Ġb in
Ġdou gl
Ġbi ke
Ġcra zy
Ġacc ur
ik h
Ġham mer
Ġf old
Ġdemocr ats
Ġden ied
el son
Ġoutbre ak
Ġqu ack
Ġhun garian
Ġmarket s
Ġc u
Ġb aker
ial s
Ġsw iss
Ġclass ified
che ll
Ġo sc
Ġr y
Ġact ors
Ġcur t
Ġsurpr ised
Ġaccom pl
Ġco d
Ġmach ines
r um
Ġj et
Ġsp aces
Ġtw in
Ġmar ie
Ġcar ter
Ġcontin uing
Ġincorpor ated
2 7
v ak
in ction
Ġw ick
Ġh idden
Ġre venue
Ġj os
Ġcomp osition
Ġmar ry
Ġmove ments
Ġsubst ant
Ġsh ift
Ġli ver
Ġmon aster
Ġrel oc
Ġdi agn
Ġcoal ition
z h
Ġp od
Ġg arc
Ġpar alle
Ġw ish
at us
Ġin her
Ġre ign
ag h
Ġhow ard
tern al
Ġdem ol
Ġmor ris
sp ec
Ġton ight
Ġveget ables
Ġcot ton
r ast
Ġche st
Ġdesc end
Ġsocial ist
Ġtrib es
Ġenjo y
w oman
x y
Ġd ust
Ġg ross
Ġob es
Ġapparent ly
Ġbord ers
Ġd ating
Ġsh aring
Ġapp re
Ġmain e
Ġnep al
Ġfor b
Ġ5 4
Ġmont real
Ġwed ding
ĠÂ °
y ers
Ġg ap
Ġk ang
Ġrec re
Ġbye bye
le ton
Ġgen der
Ġ12 0
Ġvolunte er
Ġpenal ty
Ġlandsc ape
Ġearthqu ake
p ool
Ġachieve ment
m i
Ġn ag
Ġst ol
Ġregard ed
Ġadop t
Ġoverse as
Ã Ł
Ġr ig
Ġwhat ever
Ġform ing
Ġpar aly
iet ies
Ġmet ro
Ġoper ates
Ġcry ing
h r
ac ent
Ġchr onic
Ġpu erto
Ġcub an
Ġmas ters
z ens
Ġm ason
Ġ5 6
Ġsub mar
Ġhar ris
Ġcamp s
Ġgrow s
Ġaud io
Ġfrank lin
ic o
Ġsa ved
Ġbu g
Ġke vin
Ġlaw rence
Ġcra w
Ġbreed ing
Ġcous in
Ġl anc
Ġread ers
Ġnation wide
a ver
ed s
ill ery
iv ia
Ġen zy
Ġab use
Ġprogram ming
Ġdoub les
Ġorth odox
r ate
Ġ6 3
Ġsur ge
ÃŃ a
Ġcontribut ions
Ġc ited
Ġg ill
Ġpl ain
Ġpeak ed
Ġd irt
Ġover l
Ġinv ent
Ġtechn iques
Ġwood s
Ġconv inc
Ġbeaut y
p ie
Ġ |
Ġsc out
ru ption
Ġcompet itive
Ġsum mit
Ġdom ain
b ie
v ens
Ġf ib
ac le
Ġwhe at
Ġinvol ving
Ġarri val
Ġnewsp apers
Ġc ul
il st
Ġi owa
Ġapp ly
Ġreg ulations
Ġcolle ctions
Ġgro cer
Ġcere al
Ġreput ation
Ġand re
Ġbr un
Ġencour aged
om en
ot o
Ġle v
Ġmar ks
Ġvis its
z ard
Ġm ck
Ġsamp les
m ate
Ġlo yal
Ġrel ative
Ġrank ing
Ġdyn asty
ar n
Ġprom ised
Ġbud d
Ġreject ed
Ġup gr
Ġmy th
Ġadj ust
or ph
Ġsy nd
Ġdep ending
Ġfun ctions
Ġconnect icut
Ġshar ks
Ġcred its
Ġaccompan ied
Ġportra it
l ot
Ġd um
Ġth in
ill o
Ġz im
Ġdon ated
Ġexc ited
Ġtal ks
Ġminor ity
Ġjim my
Ġmotor cy
Ġnot ably
Ġprom pt
Ġhor iz
Ġfund ed
Ġaccount s
Ġconsum er
we iler
Ġfred erick
Ġguil ty
Ġa ver
Ġs oup
Ġg ust
Ġ190 8
pect ive
Ġl on
Ġrec order
Ġdesign er
Ġparticip ation
Ġcontrovers ial
Ġbattal ion
Ġ4 1
Ġuse ful
Ġdefe ating
h us
Ġt act
Ġact ed
Ġob v
Ġsl ave
Ġstr ange
Ġgl ac
Ġrequire ments
Ġperm ission
Ġa ster
Ġcar go
ash t
Ġpercent age
Ġopt im
Ġrecomm end
Ġturt le
Ġexcell ent
f ielder
Ġs ending
Ġc ou
on ian
Ġm i
Ġd ing
Ġl od
Ġco le
Ġcar ib
Ġth under
Ġtr ig
Ġwar ri
Ġland ed
Ġwrest ling
Ġm ak
uc cess
Ġchar ter
Ġbre ast
Ġ191 1
Ġ191 3
Ġgl ad
Ġ188 0
Ġthre ats
Ġ Ã©
om p
Ġspec im
Ġcap s
Ġuns uccess
o en
Ġcan c
ks hire
Ġhen d
Ġpil ots
Ġsignificant ly
Ġc atherine
Ġin ner
al f
Ġl au
st al
Ġwh ilst
Ġcon qu
Ġrele g
Ġs ne
Ġh ud
Ġto mb
Ġwar ning
Ġnaz i
Ġl um
Ġde ar
Ġpro ve
Ġserb ia
p oint
om ing
Ġas ks
Ġhun ter
Ġpit ch
Ġburn ed
Ġtransl ation
4 7
j ab
Ġref le
be an
med ia
Ġtechn ologies
Ġ189 0
Ġpow ered
Ġken ya
ar on
al ia
Ġbu gs
Ġevery where
Ġge ar
Ġindust ries
Ġnav ig
Ġren ov
h um
Ġl ists
Ġjo y
Ġsong writer
Ġbal ance
se x
ess ed
Ġgu ests
Ġviol in
m el
ail and
Ġmat ters
Ġprote in
Ġoff ensive
Ġfl av
Ġrem ove
Ġteac hes
Ġexpress ion
Ġathlet ics
Ġabs ol
Ġspr ings
Ġmyster y
Ġt ons
Ġp our
Ġexp osed
Ġpers ons
Ġappro val
Ġsand y
Ġtick le
Ġowners hip
Ġobes ity
Ġs ib
Ġc er
igh ter
Ġhosp itals
Ġlic ense
Ġd ated
Ġth ailand
Ġk az
Ġv it
Ġsec ure
Ġreg ul
Ġse min
Ġsp ider
Ġman chester
Ġres ign
Ġed ited
Ġopp onents
Ġfire f
Ġstat ue
Ġg ur
Ġme ets
cept ion
Ġarrang ed
Ġblank et
Ġadap ted
th a
Ġportug al
Ġp orts
id ency
th is
Ġrem ote
Ġgrad es
Ġdi aper
Ġspok en
Ġreserv oir
Ġe ch
Ġmar gin
Ġind eed
Ġatt ending
Ġactiv ist
greg ation
g ro
Ġw es
io let
Ġma ur
Ġel ig
Ġcap able
Ġwol ves
Ġencour age
Ġm es
Ġr ou
Ġk le
Ġequ ipped
Ġinf rast
Ġsudden ly
ubl in
Ġaut onom
n ell
Ġall ied
Ġbel t
Ġblack s
Ġearl iest
Ġisol ated
Ġa str
as er
Ġk ath
Ġdo zens
Ġrest ored
Ġnon pro
Ġdemocr acy
Ġsym ph
Ġfe ather
Ġlo ved
rib ute
Ġprison ers
l os
Ġ *
il it
Ġrep air
Ġpr oud
Ġste ad
Ġyoung est
Ġand y
rom e
Ġsp ark
gh ai
Ġcorpor ate
Ġun less
Ġpre gn
Ġ5 8
Ġcr ab
Ġpass age
Ġhop ing
Ġgradu ating
Ġsche me
r ant
Ġp iz
Ġab road
Ġstar red
Ġcook ing
Ġacknow led
l ings
Ġm aced
Ġfro zen
Ġpurp oses
a j
k ov
Ġw ang
Ġl iv
Ġmod ified
Ġcra ig
tr ack
Ġpattern s
Ġc able
Ġy or
we alth
Ġrece pt
Ġcompet itions
c ious
ur ally
Ġadv ice
Ġcooper ation
l en
Ġp ure
em p
rop od
Ġbas in
Ġ190 4
re r
Ġv ul
Ġrob inson
Ġdougl as
Ġp s
ab il
Ġart illery
Ġrel atives
Ġsam uel
Ġgent le
Ġst akes
Ġcan n
Ġtour ism
Ġgrand pa
Ġcommon wealth
Ġdoll ar
Ġcav al
4 8
Ġal an
Ġsc ared
Ġany where
Ġ190 6
w all
Ġb ars
Ġl ank
Ġr idge
Ġcirc um
Ġestim ates
Ġexperiment al
st ate
Ġwe igh
ah a
Ġ5 1
Ġmon ster
Ġass ign
Ġham ilton
ul um
ens is
Ġimp oss
Ġgener ations
Ġcost a
Ġmor gan
Ġhonor ary
33 1
Ġatmosp here
Ġc ock
Ġcr us
Ġf oster
Ġn ik
Ġsm ell
Ġ6 00
Ġrev ol
Ġbill s
ret t
Ġplan ets
Å Ł
Ġc raft
Ġf ence
is ation
and o
Ġso ap
Ġbranc hes
Ġg ift
ens ity
Ġvalu able
c at
h o
Ġt ut
Ġh ipp
Ġpro l
Ġ7 7
Ġrapid ly
h ist
l u
enc ing
Ġreal ized
is i
Ġm s
Ġl ip
Ġv s
Ġint el
Ġco at
Ġ5 7
Ġdep os
Ġ16 0
Ġtrib al
Ġprint ed
Ġmill s
Ġext inct
