#version: 0.2 - Trained by `huggingface/tokenizers`
Ġ t
Ġ a
h e
i n
Ġt he
Ġ s
Ġ .
r e
Ġ o
Ġ w
e r
Ġ c
Ġ ,
a t
o n
Ġ b
a n
Ġ f
i s
i t
Ġ p
e d
e n
Ġ m
o r
Ġ in
e s
Ġa n
Ġ d
o u
a r
a l
Ġ h
Ġo f
in g
a s
Ġt o
Ġ l
Ġan d
Ġ n
i c
Ġt h
Ġ g
r o
Ġ "
i on
i l
l e
Ġ re
Ġ y
Ġ he
Ġ e
Ġ '
en t
o m
s t
a m
i d
Ġo n
e l
Ġ is
e t
Ġ 1
a y
Ġ u
Ġs t
o l
Ġ it
a d
a c
Ġw h
o w
Ġw as
o t
Ġf or
v e
Ġ ?
i g
u t
Ġb e
Ġth at
i r
Ġ r
Ġy ou
u r
i m
l y
v er
Ġ -
c h
Ġa s
c t
Ġa l
at ion
s e
Ġ 2
Ġ j
Ġ k
it h
t er
Ġw ith
Ġa t
Ġs e
c e
Ġc h
Ġw e
he r
Ġd e
u l
is t
Ġ i
Ġ v
an d
u n
u s
a g
Ġd o
Ġp ro
Ġ1 9
Ġb y
ou n
t h
Ġc om
Ġc on
Ġ2 0
o o
er s
il l
Ġa re
r i
ro m
a in
Ġ )
o p
l d
Ġ (
u m
ig h
Ġn e
a k
Ġu n
Ġm o
Ġh a
Ġf rom
e m
es t
an t
Ġh is
Ġp l
al l
Ġs h
i es
p p
a b
ar t
u d
re s
Ġo r
re d
Ġs p
Ġl e
o s
Ġwh at
o c
i f
Ġs u
Ġs a
at e
i v
it y
Ġth is
Ġthe y
igh t
Ġw he
Ġa r
b er
Ġt r
Ġe x
q u
a p
Ġn ot
Ġg o
or t
es s
ar d
Ġy e
Ġha ve
el l
Ġw or
â Ģ
i a
i e
m ent
Ġs he
g h
i ve
u st
Ġ en
g e
ou r
ic h
ac k
as t
Ġ20 1
oun d
Ġon e
re n
i an
at ed
om e
on g
Ġsa id
Ġ ro
ou ld
Ġa b
Ġh as
Ġwe re
am e
Ġc an
k e
ou t
Ġc l
Ġthe re
i p
Ġwh o
Ġt e
Ġg r
Ġn o
Ġb ut
' t
i al
s o
Ġa f
in e
ar y
Ġm e
ou gh
t her
Ġal so
Ġhe r
Ġal l
id e
Ġl i
Ġcom p
Ġ âĢ
u b
e ct
Ġne w
0 0
Ġs c
Ġm an
Ġ Ċ
d er
oo k
Ġthe ir
is h
Ġa m
Ġu p
Ġb r
Ġwh ich
ic e
oo d
o re
Ġh ad
Ġye ar
Ġa d
a v
Ġo ut
en d
Ġf ir
Ġp e
Ġt w
ow n
al ly
c l
ag e
a h
r y
Ġ20 0
u c
Ġpl ay
ion s
Ġin t
Ġa g
Ġm ar
Ġc ol
Ġa c
Ġfir st
on e
Ġk n
ak e
ou s
Ġc o
p er
p t
oun t
u re
Ġp art
Ġit s
r ic
Ġs ch
an s
Ġof f
Ġs o
u e
Ġmo re
i z
or d
Ġu s
at er
r a
as s
Ġ #
o g
Ġo ther
Ġs er
Ġt im
Ġwor k
Ġbe c
a u
Ġf e
Ġaf ter
o ol
t s
Ġcon t
i re
re e
Ġs ome
Ġb o
an g
Ġp er
il d
Ġwhe re
Ġcom m
ig n
Ġo h
Ġtw o
Ġab out
ac e
ac h
it t
Ġwhe n
he d
Ġo ver
in d
Ġw ill
Ġre c
Ġ :
or n
w n
Ġli ke
Ġre s
Ġh ow
Ġsch ool
Ġb l
ic al
Ġbe en
Ġre p
ver s
Ġj o
Ġ 3
on d
Ġ1 8
Ġa pp
f f
e c
Ġthe m
Ġst ud
m an
Ġd id
Ġ im
r u
ent s
Ġpe op
Ġw ould
Ġo k
Ġpeop le
en s
a re
ac t
Ġe v
Ġd is
it e
Ġg et
Ġin d
ic k
ver y
ad e
in k
ation al
Ġyou r
am p
Ġtim e
l l
v ed
it ion
at es
Ġok ay
Ġse e
Ġc ar
ation s
Ġf l
ct ion
Ġ !
Ġw ant
Ġc ount
Ġhe re
cl ud
Ġth an
Ġl a
Ġ qu
Ġb u
or s
a il
o d
Ġp r
Ġp res
or y
Ġr ight
l and
ing s
il e
Ġm ay
Ġp o
Ġp re
ay s
i b
Ġn ow
Ġin clud
w e
Ġh im
ul t
Ġp ol
en ce
as e
Ġd es
ur n
ub l
an ce
Ġfor m
Ġc ent
ter n
Ġint o
f e
er ic
Ġse c
Ġb et
Ġj ust
it ed
e p
k s
o se
el y
Ġ ;
ur ing
Ġl ook
i ed
v el
or m
as ed
Ġf in
l es
Ġp ar
ab le
Ġthe n
Ġyear s
Ġf r
Ġd ist
Ġf am
is s
Ġf ound
ol d
t e
at h
Ġam eric
Ġw ell
al s
Ġ 4
Ġp ut
Ġun der
Ġg en
Ġa ct
il y
Ġ ed
ou p
Ġat t
Ġp h
Ġe ar
Ġe le
Ġman y
Ġto o
Ġb ack
Ġg re
Ġac c
Ġex p
an n
as on
g an
i vers
Ġag ain
Ġ19 9
Ġye ah
Ġre g
Ġi f
Ġ 5
Ġe m
Ġm in
ol l
Ġsp ec
Ġd uring
Ġon ly
Ġm on
Ġl oc
Ġa w
Ġte am
Ġb ro
Ġc r
Ġs y
Ġmo st
t on
g r
Ġc all
Ġkn ow
Ġg ood
an c
Ġl et
in ce
f t
Ġs m
Ġhe l
em ber
Ġwor ld
ĠâĢ Ķ
Ġas s
id ent
Ġw ar
u g
au se
Ġ z
h ip
ro p
Ġthe se
res s
Ġl o
Ġre m
Ġth r
Ġth ree
Ġcon s
Ġim p
i o
ren t
ot her
Ġp ubl
Ġd own
ot h
Ġg u
Ġh igh
i ous
ver n
Ġth ink
Ġm u
n e
ic t
i x
Ġc ould
Ġgr oup
ou se
ri b
Ġp op
Ġen d
Ġun ivers
in t
Ġthr ough
a z
Ġf il
Ġm us
Ġen g
Ġm ade
Ġgo vern
at ing
ou th
Ġst ate
Ġn ational
Ġar t
Ġsh ow
ist s
Ġm y
Ġcol le
Ġsu b
f ore
Ġpro d
he s
Ġs ay
Ġm ake
âĢ ĵ
on s
is hed
Ġn or
h ing
m y
Ġpro v
Ġhel p
p h
c c
Ġdo es
Ġan y
Ġre t
Ġn a
ro w
y s
en c
Ġ19 8
Ġch ild
Ġ 6
ol og
Ġbec ause
d ay
Ġd r
ric t
Ġre l
Ġw r
ter s
Ġm a
f orm
t y
Ġunivers ity
Ġo p
Ġse ason
Ġc ity
Ġde p
o ot
a ir
Ġs ur
Ġl itt
Ġin st
Ġch ar
Ġm ed
Ġl ater
v ing
Ġsu pp
r al
Ġn um
Ġlitt le
Ġbe fore
Ġf our
Ġwh ile
we en
Ġsec ond
Ġe l
it ies
Ġbet ween
Ġb el
if e
Ġde c
l o
Ġre le
Ġc re
oll ow
Ġcomp an
Ġin v
b all
Ġl ong
Ġst ates
ic s
t ing
Ġb ook
ul ar
Ġf ollow
Ġst art
Ġin c
Ġkn own
Ġa ir
i el
Ġfil m
am es
Ġo b
Ġs ing
Ġrec ord
Ġk e
Ġc a
Ġameric an
m ber
u p
or k
an k
Ġl ar
Ġb ig
Ġw in
Ġm at
Ġus ed
Ġbe ing
Ġle ad
Ġun ited
Ġ very
is ion
Ġo ld
i er
an ge
Ġfam ily
Ġ ent
in a
at her
Ġsu ch
Ġs outh
at ive
Ġh ouse
Ġd ire
Ġgovern ment
Ġ19 7
s s
Ġdist rict
Ġth ose
Ġoff ic
Ġad d
Ġd if
Ġm il
Ġo wn
Ġp a
Ġ 7
n ing
Ġla w
al e
Ġb orn
ct ed
c k
Ġr un
Ġg on
ar s
Ġcom e
Ġcall ed
Ġs oc
if ic
Ġsc i
b le
Ġs et
Ġne ed
ir d
ak ing
00 0
Ġt ake
ur al
om et
i et
ard s
it s
e red
j ect
Ġgen er
Ġgo ing
Ġop en
Ġs l
Ġa p
Ġbu ild
Ġc ap
in es
Ġw ater
f ul
Ġt er
Ġser v
Ġd ay
Ġh ome
Ġal b
Ġl ast
Ġnor th
is e
Ġm ill
Ġ201 3
Ġb us
ul l
Ġs w
Ġw ay
Ġh ist
Ġhe ad
Ġagain st
u al
Ġp os
Ġs ince
Ġb ar
Ġtr ans
Ġm et
Ġc al
Ġ1 0
Ġf ar
d y
Ġb oth
Ġc he
t il
u res
o st
Ġ19 6
le t
e ver
Ġg ot
oc k
iz ed
Ġin ter
b r
Ġre d
Ġmus ic
g et
Ġs ong
Ġ 8
Ġan other
Ġe very
vel op
c o
Ġj un
Ġcomm un
one y
Ġs ign
in s
Ġcl ass
Ġf un
er t
Ġar ound
Ġin tern
u h
g er
Ġu se
a ve
gr am
Ġv ill
al k
iv ed
Ġc our
Ġn ame
Ġ ir
el f
Ġinclud ing
Ġm em
Ġf oot
uc k
Ġbec ame
Ġde velop
c es
Ġa ut
Ġc are
Ġev en
ant s
v en
us s
Ġ est
Ġstud ents
ough t
Ġj u
i red
Ġpro gram
i k
Ġan n
i am
Ġpro f
ow er
Ġst r
Ġre ad
Ġchild ren
Ġg ame
ct or
ie w
Ġre f
l ed
Ġw om
Ġmu ch
Ġpres ident
Ġst ill
Ġne ar
Ġb re
Ġhow ever
Ġpubl ic
Ġapp e
b ers
at t
Ġc ur
Ġs omet
Ġalb um
m in
h n
Ġ1 7
Ġ19 4
Ġun til
Ġm ain
ĠâĢ ĵ
u ally
Ġ 9
en n
Ġex t
Ġcompan y
e k
g g
ain ed
m s
Ġnum ber
t o
ur y
iv es
oun c
ag ue
Ġp ri
iel d
Ġg e
Ġw on
Ġ1 5
Ġs im
Ġs ame
Ġo per
le y
Ġplay ed
Ġre ce
Ġg er
Ġdif fe
s on
ion al
an e
Ġin s
Ġcount y
w ay
Ġ19 5
Ġ $
Ġh and
am a
u es
a red
Ġt urn
e e
Ġm om
Ġsm all
ut e
x t
Ġe ach
Ġl and
at s
ro ss
as h
Ġ1 6
Ġre se
Ġf ind
v es
Ġsh ould
Ġspec ies
Ġp ers
Ġor gan
k et
Ġde f
ur ch
Ġle g
ak es
Ġrele ased
Ġjo hn
Ã ©
ul ation
Ġr a
am ed
Ġse ver
Ġde m
ain s
Ġ1 2
st em
ri ed
y e
ar ch
Ġpro t
Ġcount ry
Ġle ague
Ġt re
Ġpl ace
Ġsever al
y ing
Ġh ar
Ġprod u
et er
e re
al th
Ġw est
ort s
i ver
n er
Ġcl ub
Ġp ass
Ġp at
f l
Ġc amp
Ġl ife
Ġare a
Ġst re
Ġe ff
Ġ /
Ġser ies
m er
in ed
Ġsy stem
Ġdes ign
Ġha pp
o v
c ent
el s
Ġs k
os ed
Ġcon st
Ġc or
y p
n g
Ġch amp
Ġh un
ut ion
a w
Ġa ug
a e
Ġh um
Ġfollow ing
Ġy es
Ġvill age
Ġed uc
Ġst e
ann a
Ġtoo k
Ġret urn
Ġform er
Ġcolle ge
Ġm id
Ġfoot ball
on t
Ġbl ack
Ġto p
Ġor ig
Ġj an
Ġm iss
ment s
is m
Ġcont in
Ġex per
au gh
Ġto wn
Ġd iv
Ġo ct
Ġse pt
Ġprof ess
ot t
Ġl ist
Ġf ive
ib le
Ġch r
Ġb ab
Ġu h
Ġear ly
Ġres p
Ġe u
Ġre v
Ġb as
b e
Ġv is
ri es
in ess
Ġs ays
Ġb ased
Ġt our
Ġaug ust
ic ip
Ġoffic ial
Ġg ir
Ġl os
Ġa ust
it al
Ġma j
Ġdiffe rent
Ġwh y
Ġ rom
Ġorig in
Ġv ar
Ġbe gan
Ġte ch
Ġpar k
o k
b s
em ent
Ġre st
p l
Ġs it
is ed
Ġs en
Ġ19 3
olog y
Ġger man
Ġwom en
Ġs ix
Ġintern ational
c ess
Ġmar ch
ag es
Ġsept ember
oc i
Ġb est
Ġ201 2
Ġf ore
Ġfe at
id ed
ĠâĢ Ļ
Ġf ood
Ġst and
o ber
Ġpop ulation
er g
Ġw anna
i or
Ġgre at
Ġt ell
Ġdo ing
Ġad v
Ġass oci
Ġjun e
Ġoct ober
Ġs n
a i
Ġc le
Ġle ft
Ġmill ion
t en
Ġv al
c he
Ġg l
Ġ201 1
Ġy ork
Ġal ong
Ġsupp ort
Ġl ine
Ġa v
im e
Ġwh ite
Ġo ur
is ter
Ġs al
at ch
Ġ1 1
ar k
Ġju ly
Ġmon th
b y
u ary
Ġbus iness
Ġgir l
Ġ es
Ġmaj or
en g
Ġw ent
ic es
Ġcomp et
Ġacc ord
Ġg ames
ain ing
c er
u red
Ġhe alth
Ġpre v
iv ing
ce pt
re ad
m ed
Ġd el
et s
Ġ201 4
Ġan g
Ġan im
Ġb ill
Ġpol it
il t
Ġk ill
Ġm ember
r il
her n
Ġne xt
Ġb and
Ġsci ent
Ġ19 2
al ity
p s
Ġaw ay
Ġhe ld
g in
ac ed
l ing
Ġyou ng
Ġm oney
Ġe ast
it ing
Ġm ag
il ity
s h
Ġm en
Ġrep res
Ġpers on
Ġch urch
it er
Ġwe ek
Ġmem bers
Ġtech n
Ġjan uary
Ġc ame
r ap
Ġe c
l ish
Ġ1 3
uc ed
at or
Ġcal if
on es
Ġfe w
id es
Ġno ve
Ġdes c
ian s
Ġnove mber
Ġde ce
Ġp ort
Ġ1 4
end ed
Ġall ow
Ġaccord ing
i um
Ġrep ort
Ġcont ro
Ġmo ve
u ed
Ġbuild ing
en e
Ġsomet hing
i pp
Ġch ang
ri end
Ġd ra
Ġgener al
Ġev ent
Ġn at
Ġap ril
st er
Ġk ing
Ġchamp ions
Ġbr it
id s
Ġ200 6
Ġs um
Ġde b
Ġ19 1
Ġh al
Ġaw ard
Ġt it
b o
ent ly
Ġloc al
in c
Ġg row
Ġmom my
Ġeu rop
Ġpart y
Ġloc ated
Ġimp ort
Ġdece mber
Ġt est
Ġl ab
Ġpro m
Ġdep art
m e
Ġb all
Ġs on
Ġs ide
Ġman ag
Ġserv ice
Ġd ad
Ġp ain
Ġaf ric
Ġsu cc
Ġt a
Ġ %
Ġh ard
ect ed
Ġpro ble
Ġn amed
ial ly
Ġs ol
Ġo cc
Ġd ri
Ġeurop e
ot s
en ed
Ġam ong
Ġfin al
Ġe as
Ġg ive
Ġcalif orn
Ġaut h
Ġd ied
Ġpro ject
Ġt ri
Ġe at
Ġr uss
ren ce
Ġe p
Ġstart ed
her s
n ess
Ġs qu
Ġsucc ess
Ġcon d
Ġth ird
Ġj e
Ġchr ist
Ġst ation
Ġh old
Ġnew s
Ġre ally
Ġrece ived
Ġbab y
w ard
Ġlar ge
Ġh uh
Ġcaliforn ia
Ġsing le
Ġbet ter
Ġde ath
Ġrepres ent
Ġtim es
Ġs un
Ġ201 0
is on
Ġro ad
Ġle vel
Ġr ad
Ġs an
re t
Ġmo d
Ġ200 7
Ġstud y
Ġh op
Ġre al
Ġser ved
Ġ er
Ġmil it
Ġbu ilt
Ġsp e
h m
y l
Ġper cent
Ġf riend
Ġaust ral
Ġhist ory
s ide
Ġcur rent
Ġbe h
Ġcent ral
c hed
n a
at ic
Ġaf f
on om
Ġele ct
ent ion
Ġf ather
Ġo pp
Ä ģ
Ġrese arch
Ġis land
Ġinc re
Ġsh ort
Ġp ower
Ġre qu
Ġh m
Ġst ory
Ġcon f
er v
Ġth ough
Ġt yp
Ġpo st
Ġte le
Ġgr ad
p ort
f or
Ġis s
Ġgr and
n ed
Ġcour t
Ġcent ury
Ġgre en
Ġto day
Ġr iver
Ġke ep
o red
Ġst ar
Ġcent er
Ġpol ice
Ġpl an
ap er
r act
Ġl ess
Ġchampions hip
Ġc up
Ġm aking
a ff
Ġl ive
Ġan t
ed er
n am
an a
um p
Ġinclud e
at ely
Ġle ar
us ed
z e
us h
c om
Ġge or
Ġhist or
Ġf ield
Ġest ab
il le
Ġar ch
Ġro ck
t ed
Ġfam il
Ġapp ro
ac es
Ġfe b
g ress
Ġwill iam
Ġn ight
Ġbel ie
p or
Ġf re
es e
Ġk ind
Ġeduc ation
on y
Ġto get
Ġspec ial
iet y
Ġtoget her
Ġne ver
Ġbo y
Ġschool s
Ġ3 0
Ġtr ack
Ġcommun ity
Ġn et
enc y
Ġas k
s elf
le x
Ġth ings
Ġst op
if ied
Ġme an
Ġsu per
ru ary
Ġrom an
Ġm ount
Ġl ed
Ġfeb ruary
Ġw a
er ing
Ġdis c
Ġm ight
Ġco st
ur s
ne y
h y
r ing
Ġwith in
Ġs old
Ġm al
Ġem p
Ġpo int
as ter
Ġdesc rib
Ġv i
Ġph il
Ġf act
Ġdire ctor
Ġ ide
Ġwork ing
Ġd ue
Ġof ten
Ġbec ome
it ions
iz e
Ġha ving
Ġs il
Ġf ire
Ġm un
Ġch ange
Ġimport ant
Ġmilit ary
Ġv ide
Ġsoc ial
Ġatt ack
Ġr ound
Ġ2 5
Ġh ol
Ġd ays
Ġin form
Ġr ail
Ġcr it
og rap
Ġpubl ished
d s
Ġc at
Ġtr ad
iz ation
Ġwork s
Ġdad dy
Ġv ict
Ġauth or
Ġf all
ke y
h am
Ġ x
Ġ200 8
Ġwas hing
ber t
Ġadd ition
m b
c hes
Ġl ight
he n
ap e
Ġdepart ment
Ġf ree
Ġs out
os p
Ġm other
Ġi i
iss ion
Ġel se
Ġpres ent
Ġpos s
Ġexp l
Ġprov ince
ic ally
Ġbrit ish
Ġfamil ies
Ġcan ad
Ġt alk
att le
Ġt em
Ġwith out
r ation
Ġb ur
Ġt ur
Ġv ol
Ġa ge
Ġon ce
Ġor der
Ġe qu
a im
Ġm ust
Ġinst it
Ġv ot
Ġmo ved
Ġeng ine
Ġus ing
Ġcol or
qu e
m a
iv al
Ġ200 9
ar ing
Ġother s
r on
Ġl ang
Ġhal f
Ġar my
Ġeng lish
w ork
Ġrep ubl
Ġst at
Ġn on
iv en
Ġper form
Ġact iv
i ent
r ight
m ing
b ur
Ġl ate
as es
ell ow
Ġv ir
Ġc am
Ġcare er
Ġp al
ru ct
Ġind ust
Ġf ish
x ic
om in
Ġplay ing
Ġs ent
Ġal th
s c
Ġinclud ed
Ġc ult
Ġwashing ton
Ġf ac
Ġalth ough
Ġl im
Ġinv est
Ġ &
Ġ ve
id ge
l ine
i od
Ġc ounc
Ġp ay
Ġf ight
Ġrepubl ic
Ġl ot
g ed
Ġcomm on
Ġd et
d e
Ġlo ve
Ġ201 5
es tern
n y
Ġstre et
Ġhum an
Ġin f
Ġj our
d le
Ġw ind
Ġres ult
ap an
Ġbro ther
Ġl at
ren ch
o f
Ġm hm
Ġch air
Ġcon n
Ġplay er
Ġc e
th ing
ounc ed
Ġd i
in o
ere st
ro te
Ġh ig
Ġdiv ision
Ġchar ac
Ġf ur
Ġl ow
Ġf eder
ie f
Ġassoci ation
Ġc ast
is ing
Ġint erest
Ġmar k
ens us
Ġj apan
Ġg old
Ġro om
Ġh on
Ġwork ed
Ġscient ists
Ġc ut
er c
Ġd av
Ġinv ol
Ġeff ect
m p
Ġcounc il
Ã ¡
Ġtr av
Ġm or
Ġper iod
Ġec onom
at a
Ġ19 0
Ġn ort
Ġte ac
Ġf ull
Ġw rote
c le
Ġto w
o int
Ġcap t
Ġlo st
Ġac ross
b it
ad em
Ġbo x
Ġmu se
f ord
g s
Ġf rench
w ays
Ġdevelop ment
Ġd on
Ġb ird
it or
s el
ren ts
g es
Ġch ina
Ġp ast
g est
Ġp ict
Ġh ot
Ġ vers
Ġgr ound
Ġprev ious
Ġc ensus
Ġlang u
ert ain
Ġrep l
op s
end ing
Ġbro wn
ar a
Ġm m
Ġg iven
Ġde v
Ġh our
Ġc iv
re w
Ġr ul
Ġbl ue
ro d
Ġli k
Ġw alk
Ġp ie
Ġ1 00
ve red
Ġgo es
ab ly
Ġme et
d en
Ġin it
Ġse a
l er
Ġal m
Ġb ad
iv ely
um ent
Ġh ur
Ġvide o
Ġp ick
Ġpres s
Ġac adem
Ġr ich
Ġu k
Ġ2 1
Ġw ood
Ġen ough
Ġr ural
Ġbo ard
Ġfar m
p le
il ar
Ġs ound
Ġsum mer
Ġpro p
Ġameric a
Ġmuse um
v ision
Ġann ounced
Ġinform ation
Ġcontro l
Ġm c
Ġm ot
Ġb er
Ġp ot
Ġto t
Ġsh ip
Ġk ids
g o
Ġsci ence
Ġb al
Ġdra w
itt en
Ġbre ak
Ġpre t
Ġtr y
Ġd ou
Ġab le
Ġt en
im es
Ġm ich
Ġoff ice
Ġme xic
Ġpro cess
y le
Ġf ace
Ġb i
ag o
Ġplay ers
ak en
um b
Ġcount ries
he l
al y
re st
ul a
read y
Ġm ic
rib ut
Ġal ready
t t
Ġc ase
Ġh om
Ġfl o
Ġ ill
y n
Ġst ay
Ġmar ket
Ġprom ot
Ġsp ace
Ġc ross
ar c
Ġbro ad
Ġpa rents
Ġc ir
at ors
Ġth ought
Ġs ite
Ġn av
Ġre n
Ġpr act
Ġsa w
Ġbr ing
Ġpl ant
Ġappe ar
Ġhe n
Ġw estern
Ġar g
Ġl ou
Ġir an
Ġj ud
Ġsim ilar
Ġ201 6
Ġv iew
Ġw atch
Ġdeb ut
Ġal right
u el
o b
Ġl ond
Ġp et
id a
Ġcom b
Ġ2 4
Ġun ion
k a
Ġse en
p ar
Ġh or
o h
Ġlond on
ac hed
Ġconst ru
Ġciv il
Ġpop ular
Ġh it
Ġd augh
Ġind ian
Ġprodu ct
Ġdescrib ed
Ġc ook
Ġdire ct
c ed
Ġb ase
Ġex amp
Ġd am
Ġcomm itt
Ġe ight
Ġe ver
Ġd one
Ġpr im
ow s
Ġh all
Ġjo ined
Ġcomp let
Ġmun icip
Ġpart ic
Ġfe el
Ġb ir
Ġcre ated
Ġ18 9
y al
Ġfr ont
Ġstr ong
Ġg un
Ġ =
Ġcl ose
Ġpolit ical
f er
Ġgrad u
Ġ ver
Ġm ass
id er
Ġu r
Ġrev iew
Ġte x
Ġalm ost
Ġout side
al es
Ġg ave
Ġs at
Ġmid dle
Ġcomm and
Ġa h
e ad
or ies
Ġse ven
Ġro le
Ġestab l
Ġn ice
in ts
Ġdis co
a pp
Ġanim als
anc es
Ġreg ion
st on
Ġs and
Ġget ting
n al
Ġpri v
er y
od y
ra ft
Ġestabl ished
Ġy a
Ġmonth s
Ġorigin al
Ġto ld
Ġsout hern
Ġgroup s
Ġad min
av es
Ġb ed
Ġter r
Ġ2 2
Ġtit le
ĠâĢ ľ
Ġh oney
Ġtele vision
Ġp ur
Ġprot ect
Ġteam s
Ġang el
Ġofficial s
Ġb or
Ġcl aim
oc r
Ġpart icip
ĠâĢ Ŀ
b or
Ġadd ed
Ġwr itten
l ic
Ġf if
Ġbo dy
Ġcol l
Ġqu est
Ġtr ain
Ġsoc iety
Ġsu re
Ġy et
i ence
Ġfur ther
Ġjo b
Ġla un
fe rence
Ġm art
Ġso on
Ġare as
Ġsec ret
Ġt ou
Ġen v
Ġs we
Ġserv ices
id ing
y ed
Ġ18 8
Ġbook s
st and
Ġ2 3
Ġthan k
Ġmo der
Ġh ost
Ġch ief
Ġfor ce
Ġrad io
en se
Ġeng land
Ġvar ious
Ġ18 6
Ġreturn ed
o on
Ġadmin ist
Ġw all
Ġprofess ional
Ġele ction
Ġprod uced
Ġh ill
Ġpol ic
Ġob ama
Ġbe gin
Ġ ident
Ġfin ished
Ġtechn ology
Ġtot al
o ve
Ġfound ed
enc es
a f
im in
ver age
Ġst ep
Ġk h
Ġag o
Ġcomm ission
1 9
Ġh osp
Ġprodu ction
Ġgerman y
Ġf oc
Ġd est
Ġfore st
Ġco ast
Ġwork ers
ir on
Ġvi ol
Ġh am
Ġep is
Ġear l
Ġ5 0
Ġc op
Ġar m
Ġst ri
Ġr ace
Ġs le
a ign
Ġde fe
Ġmat ch
Ġlead ers
al d
Ġro b
Ġp le
Ġs us
ic a
Ġright s
a ur
et h
Ġbeh ind
at ure
Ġf em
Ġcl im
Ġph ot
Ġimp ro
Ġm akes
Ġper for
he re
u k
Ġpro per
ul ts
Ġth om
ag ed
em pt
Ġth ing
Ġemp lo
Ġfeder al
u ge
ac y
ines e
Ġim m
ye ar
iv id
Ġar ri
Ġear th
Ġperfor man
n es
Ġm el
Ġh y
Ġenv iron
Ġfun d
Ġinst ead
Ġcamp aign
Ġmar ried
Ġcompan ies
Ġreport ed
Ġt aking
Ġf ig
Ġind ia
Ġref er
ad es
Ġcon v
Ġpa ul
Ġt aken
h a
Ġch inese
Ġkill ed
id ence
Ġle ast
l in
Ġde g
ep end
Ġl iving
c ast
h ib
Ġtrad ition
Ġo ly
Ġqu e
Ġsign ed
n ers
g y
Ġhe av
Ġde cl
Ġlangu age
Ġg ar
Ġp it
Ġapp oint
Ġw ife
Ġli br
Ġpartic ular
Ġc and
Ġdem ocr
Ġass ist
Ġsp orts
Ġ200 5
u ff
Ġgo al
Ġfr ance
it her
Ġag re
Ġuh h
Ġind epend
Ġjour nal
Ġcon gress
Ġind ivid
Ġf ut
Ġtr aining
Ġlook ing
Ġprofess or
Ġfl or
Ġproble m
Ġse le
ut es
Ġ q
Ġw ild
Ġtr ying
Ġto m
Ġd en
Ġopen ed
Ġexamp le
Ġ [
Ġpos ition
Ġn ation
Ġcurrent ly
Ġide a
Ġin fl
Ġg lo
Ġr an
est s
Ġm ur
Ġmay be
Ġf ly
Ġfr anc
Ġ201 7
Ġele cted
Ġstud ies
Ġeurope an
Ġj ack
og n
Ġv o
Ġc orn
Ġt ar
Ġde al
Ġdo c
Ġrem ember
h ic
p ect
Ġ200 4
i ke
Ġmed ia
Ġph ys
v ille
om b
Ġf ail
Ġrecord ed
ide red
p r
and s
Ġ2 6
Ġcl os
Ġtre at
pp ed
Ġex ec
g ar
Ġint rod
Ġconn ect
Ġsomet imes
Ã ³
Ġ ice
Ġwant ed
Ġb an
Ġcom es
Ġt v
Ġco ach
Ġb ank
2 0
Ġnat ural
Ġth re
Ġepis od
Ġdaugh ter
Ġcharac ter
Ġs ell
Ġcons idered
Ġen c
Ġ. .
Ġ2 7
Ġf est
Ġf av
Ġre ason
Ġ2 8
Ġgeor ge
i ers
Ġr out
Ġaustral ia
re am
Ġrele ase
Ġc ro
Ġl ad
im ent
Ġc ell
Ġm ult
Ġex c
Ġenviron ment
Ġro yal
Ġset t
Ġpro b
Ġse em
Ġav ail
Ġmoder n
Ġafric an
l ess
Ġsu ff
Ġj ames
Ġrel ations
pt ion
f ic
Ġes p
Ġs ar
a el
Ġch ic
Ġm ary
a ut
Ġtex as
Ã ¼
Ġ18 7
Ġmo v
Ġsong s
Ġgirl s
Ġdav id
Ġrec ogn
Ġhapp ened
o x
it ive
Ġnort hern
un d
Ġrecord s
Ġcontin ued
ig r
Ġb attle
Ġtrav el
Ġcom ing
Ġb ay
Ġfriend s
Ġp an
Ġl ake
Ġex ist
Ġafric a
Ġin j
Ġs am
Ġm ater
Ġpo ints
Ġask ed
Ġoly mp
k y
Ġ20 00
Ġmin ister
Ġle ave
Ġal ways
y a
Ġd u
os s
air s
Ġatt empt
Ġprod uc
Ġhim self
Ġp en
Ġm ix
Ġh i
Ġcon cer
Ġart ist
Ġp u
Ġc y
h ood
Ġp aper
Ġne igh
Ġg ro
ol ution
Ġvis it
Ġshow s
ens ive
Ġl ives
Ġch all
Ġpret ty
c raft
Ġrel ig
bur g
Ġb at
Ġproble ms
Ġappe ared
e f
Ġcomp ut
Ġsu gg
Ġlos s
Ġread y
ap s
Ġb it
Ġr u
Ġr ac
Ġat h
Ġev ents
se qu
Ġins ide
Ġdes p
Ġme as
Ġbec om
Ġm er
Ġor d
Ġtour nam
Ġt rib
Ġd ig
Ġh ous
Ġstud ent
Ġa lex
Ġindust ry
Ġf a
Ġd in
Ġsur v
b al
Ġme ans
er ous
Ġ 0
Ġpo or
Ġpre m
ur a
ri a
b ody
Ġrun s
h od
Ġdevelop ed
olog ical
Ġst ore
ut ive
Ġ4 0
p an
Ġwant s
Ġreg ular
Ġchic ago
Ġinstit ute
Ġm ad
Ġhosp ital
he ad
Ġwe e
Ġsle ep
Ġw at
Ġlar gest
Ġt ro
Ġcommitt ee
Ġangel es
j o
Ġt able
Ġorgan ization
Ġnet work
Ġdis e
Ġuhh uh
Ġvers ion
Ġmag az
an ish
Ġcons erv
Ġsuccess ful
Ġavail able
Ġform ed
Ġameric ans
m on
Ġcon c
Ġter m
Ġinvest ig
x im
ro om
Ġqu ick
Ġse par
Ġje w
Ġ.. .
Ġd er
Ġdec ided
Ġflor ida
Ġb en
an ia
Ġha ir
Ġhelp ed
Ġn ative
Ġart ic
Ġfe et
Ġbas ket
o res
am b
Ġnear ly
Ġinvol ved
Ġa ud
Ġre b
Ġfut ure
st r
Ġfor ces
Ġs our
Ġb ow
ri an
Ġevent ually
Ġcanad a
Ġdr ink
Ġwho se
is es
Ġfin ish
Ġsn ow
f ield
Ġj er
Ġacc ess
Ġconstru ction
Ġa verage
re g
Ġqu al
Ġst ruct
Ġ199 0
al a
Ġthom as
Ġb ul
Ġsa f
Ġ >
ak er
Ġbe ar
Ġmexic o
Ġrec ent
Ġpriv ate
Ġbr ought
Ġrun ning
5 0
ist an
n s
Ġst yle
Ġlook s
Ġpart s
Ġ ]
Ġch art
Ġ201 8
Ġu m
op h
Ġb ud
Ġr ange
Ġ200 3
Ġhe art
Ġinclud es
Ġsign ific
Ġinfl u
Ġdesp ite
Ġf ast
Ġf er
Ġ2 9
Ġa ch
Ġruss ian
Ġwa it
Ġwhe ther
b an
Ġm ess
Ġthrough out
t a
Ġd ut
Ġre ach
Ġm orn
id ae
Ġmater ial
Ġbir th
Ġw il
Ġy ellow
Ġl u
Ġcont ract
it es
Ġd oll
Ġh o
is l
Ġexp ress
Ġf ix
s hip
Ġappoint ed
w ood
Ġfour th
e y
Ġco ver
Ġrese arc
Ġqu ar
Ġcle ar
Ġmunicip ality
Ġruss ia
Ġus ually
m ar
Ġo ce
Ġpl aces
Ġst age
is c
Ġp ull
ree k
Ġrail way
Ġan c
Ġresp ons
as ing
Ġe ither
le ment
ur ity
Ġdesign ed
n d
Ġlibr ary
Ġo l
Ġl iter
Ġbl ock
Ġdo g
Ã Ń
i us
Ġcompet ition
z z
Ġw o
it z
Ġallow ed
Ġeas tern
Ġhour s
Ġunder stand
Ġfor t
r ain
Ġsur f
Ġst aff
Ġposs ible
Ġsp ent
Ġmorn ing
Ġc ust
ce ed
v al
Ġo il
Ġhe y
Ġmed ical
Ġlik ely
Ġchang ed
Ġup on
augh t
Ġd ata
i j
c a
Ġcle an
Ġorigin ally
Ġthre at
Ġ200 1
ol a
Ġro ll
Ġa ction
Ġc it
w or
Ġc ertain
Ġ200 2
Ġent ire
Ġwom an
Ġtournam ent
Ġjo se
Ġsen ior
Ġcond u
Ġcar ol
Ġab ove
id ents
Ġd ro
erg y
Ġpict ure
Ġlou is
Ġs ant
Ġp un
Ġtyp e
Ġaustral ian
Ġacadem y
ber g
Ġ198 0
Ġrul es
Ġsay ing
Ġfest ival
Ġwr iting
Ġar ts
Ġprob ably
Ġwin ning
on a
Ġc ause
Ġm r
Ġst ra
Ġmin utes
Ġta x
Ġmed al
Ġlead ing
Ġfranc is
Ġcour se
Ġp enn
Ġsit u
Ġt or
Ġlead er
i que
Ġperforman ce
ain t
Ġbu y
Ġre ve
ra el
an ch
ct ions
d om
Ġpl ann
Ġmagaz ine
Ġwho le
ad o
Ġfeat ures
Ġvir gin
Ġpr inc
Ġmich ael
Ġb ott
Ġdec ision
Ġte ach
Ġd eter
Ġe gg
Ġchang es
Ġcon ference
Ġhig her
Ġes c
Ġmove ment
Ġe th
Ġprogram s
Ġt al
Ġon line
Ġha bit
us es
Ġp eter
ak ers
Ġl eng
Ġtou ch
itt ing
Ġn ine
Ġk ore
Ġke y
en ing
Ġinter v
Ġu l
Ġbr idge
Ġl ower
Ġde ad
Ġprov ide
Ġdif fic
Ġflo or
Ġcam er
rop ical
Ġearl ier
et y
Ġr ank
Ġli ber
Ġdiffic ult
s y
Ġspec ific
Ġmod el
Ġm ac
Ġr is
Ġf el
Ġt ree
et t
b ack
Ġhe ll
Ġw al
Ġs elf
Ġp il
Ã ¶
Ġthe at
Ġsec urity
Ġmount ain
Ġsh oot
Ġc oup
Ġf le
Ġyou th
Ġac cept
ent h
Ġb un
Ġc ub
Ġse x
Ġfollow ed
Ġdire cted
Ġsh ot
at ives
Ġis rael
Ġsignific ant
g a
Ġfl ow
Ġwee ks
u f
u ce
y es
Ġd ark
Ġhistor ic
k i
Ġgrow ing
Ġhop e
Ġth row
Ġz e
Ġstud io
Ġfr ank
Ġact ually
Ä «
sel ves
Ġg ard
Ġleng th
he st
Ġperform ed
Ġcap ital
Ġacc ount
at ory
Ġrec ently
ent ial
Ġconst it
b our
Ġp ush
end s
ar i
pp er
Ġmon t
Ġad m
Ġcir c
Ġd an
gr ound
Ġth ous
Ġp ac
Ġ3 1
Ġb ene
Ġr ather
Ġch o
p e
Ġlaw s
Ġex hib
Ġro bert
Ġswe et
Ġl ived
it ar
Ġany thing
enc ed
Ġpar l
m en
Ġhun d
le te
Ġhand s
in ation
Ġdeg ree
Ġair craft
Ġesp ec
ate g
ig er
se y
Ġoce an
Ġbuild ings
Ġb ac
Ġespec ially
y ou
Ġd ang
Ġd ru
Ġath let
Ġaw ards
est ed
Ġbasket ball
Ġsc ored
Ġ197 0
Ġpl aced
Ġne g
Ġval ley
ort un
Ġach ie
Ġpolic y
Ġrem ained
Ġoffic er
as c
Ġf ell
Ġp red
Ġche m
Ġhund red
ud e
Ġpl ans
Ġl un
Ġmiss ion
Ġac qu
Ġleg isl
Ġcomplet ed
b a
Ġfeat ured
l a
Ġroman ized
Ġcand id
Ġsc re
Ġchrist ian
Ġresearc hers
Ġtrans port
Ġcrit ic
Ġm ach
Ġl ink
Ġch ap
Ġdo or
Ġmil k
Ġn orm
Ġt akes
Ġsp anish
Ġmil es
Ġob s
Ġmov ie
Ġanim al
Ġcar ry
Ġlong er
Ġv an
il ities
p ed
if f
Ġaward ed
Ġsc ott
i res
Ġpr ison
Ġdest ro
Ġepisod e
Ġen ergy
k en
im s
Ġquest ion
Ġre ached
Ġp ig
Ġwor d
l am
it ect
Ġsh ar
d a
Ġplay s
Ġit al
Ġcar s
ol ic
ab ility
Ġpie ce
am s
Ġno vel
Ġhor se
Ġcust om
Ġb ag
Ġsm ith
Ġturn ed
Ġin n
o es
Ġcol on
1 0
Ġg all
Ġmin ute
ar ily
al ed
Ġg as
Ġfore ign
r ay
os h
Ġarch itect
itt ed
Ġgovern or
Ġjo in
g en
Ġbegin ning
Ġhe ar
Ġso ft
Ġc ard
med i
Ġw ol
Ġdo ctor
Ġgo d
Ġart ists
Ġant i
ent al
Ġnot ed
Ġmet hod
Ġspe ed
if t
Ġthem selves
Ġgen us
w here
Ġdise ase
Ġde ep
Ġfound ation
Ġsub ject
Ġcre ate
Ġple ase
Ġh us
Ġparl iam
t im
Ġl y
Ġevery thing
ot a
ific ation
Ġam ount
Ġglo bal
Ġneed s
ers on
ign ed
Ġform ula
Ġrout e
Ġprinc ip
ill s
Ġn ar
Ġparliam ent
Ġfem ale
Ġpri or
om m
ag on
Ġtr ade
se c
Ġpar is
Ġlist ed
Ġc ath
u se
Ġse ction
Ġsp ring
Ġsaf ety
b and
Ġb urn
Ġh at
op e
Ġrel ated
Ġelect ric
Ġmanag er
Ġindepend ent
Ġsub sequ
Ġ18 5
Ġc ities
Ġact ive
Ġw ow
Ġf air
b i
Ġwin ter
av ing
Ġmanag ement
Ġiss ue
Ġbroad cast
s w
Ġem erg
Ġcons ist
Ġc ra
Ġdoc ument
an o
Ġsch ol
Ġm ine
Ġbr az
Ġtradition al
Ġest im
Ġcont ribut
Ġcolle ction
Ġce le
Ġat l
Ġlab or
Ġexec utive
Ġbo ys
Ġlear n
Ġr ain
Ġl ay
Ġfin anc
Ġw ed
Ġw id
Ġbel ong
z a
Ġprevious ly
Ġ18 4
Ġcent re
Ġc red
ent y
Ġexper ience
he m
Ġprov ided
Ġresp ect
ad a
Ġd om
Ġuk rain
Ġleg al
Ġeconom ic
Ġd ie
Ġgo als
Ġcele br
Ġcomm erc
Ġvirgin ia
ist ic
Ġown ed
i ation
Ġ Â
Ġnews p
Ġ199 9
Ġbelie ve
or ing
Ġt un
Ġsw im
Ġtrans fer
Ġstart ing
bo ard
Ġjapan ese
o ff
ar ies
Ġl ack
v a
Ġn omin
Ġmin or
Ġwe bs
Ġcult ure
o ke
Ġend ed
w est
Ġf ro
Ġcanad ian
Ġk ar
Ġits elf
Ġe yes
Ġap art
Ġev idence
Ġp ack
Ġtr uck
er ve
os ition
Ġsqu ad
Ġgr ant
Ġs ize
ac hes
Ġteac hers
Ġrelations hip
Ġlaun ched
Ġw ide
Ġfam ous
Ġse m
Ġlad y
Ġob ject
Ġc ow
Ġcomput er
Ġital ian
Ġperson al
Ġiss ues
Ġf ellow
Ġocc ur
Ġm aster
an i
Ġcl osed
ab or
Ġatt ended
Ġ196 0
w ell
Ġfin ally
ol s
Ġsh op
t he
y er
Ġgeor g
Ġneed ed
Ġorgan iz
Ġcit iz
Ġext ra
o e
l s
Ġsystem s
Ġpass ed
Ġpl at
r is
Ġw ing
Ġquick ly
Ġking dom
Ġd a
Ġp urch
Ġmat ter
Ġjo bs
Ġm outh
Ġbraz il
r ound
Ġincre ase
Ġex cept
pl ay
ic ian
ne w
Ġmeet ing
Ġth us
Ġfav or
Ġmost ly
se mb
Ġadminist ration
h ab
ir t
Ġsur ve
Ġjose ph
Ġneigh bor
Ġres ults
Ġmed ic
Ġnum bers
Ġp ow
Ġch ann
Ġmo ving
Ġatt ention
Ġpract ice
Ġsus p
Ġchar les
Ġcons um
ail s
Ġ199 8
g ing
Ġve hic
Ġg i
um ents
w ards
Ġk er
Ġse at
Ġsp read
Ġa z
Ġc ere
Ġinterv iew
Ġfe ed
Ġar rest
if y
1 8
oc ks
Ġcol d
Ġwor ds
Ġopen ing
Ġj ump
Ġquar ter
Ġocc up
Ġis lam
Ġe t
Ġst ated
Ġsh all
Ġbe ach
Ġwr ite
Ġheav y
Ġoper ations
Ġra ised
ed y
Ġe ating
land s
b c
Ġst ick
Ġwr iter
Ġd ress
Ġover all
y m
Ġsc ore
Ġi re
Ġag ency
Ġc ases
Ġstud ied
Ġvict or
Ġg h
Ġins p
Ġintrod uced
Ġon es
Ġrepl aced
Ġc ry
ri age
Ġman uf
Ġc ab
Ġgr ade
Ġ6 0
Ġimpro ve
Ġmanuf act
Ġindivid ual
Ġsp ort
Ġtar get
Ġb ell
Ġbill ion
Ġcarol ina
ist ry
Ġc oun
it ch
1 2
Ġor ange
Ġsp ain
Ġf res
Ġhur t
Ġproper ty
Ġfilm s
Ġsqu are
Ġcommerc ial
w h
Ġgu ard
a q
Ġv ia
Ġlim ited
Ġdisc uss
as k
p a
Ġstand ard
Ġhig hest
e x
Ġrem ains
= "
Ġs ister
Ġd omin
Ġrepublic an
Ġteac her
Ġshow ed
Ġproduct s
Ġst ars
Ġnav y
ap t
Ġapp le
Ġdri ve
Ġann ual
Ġjust ice
Ġgl ass
3 0
Ġg iving
i ents
Ġlet ter
Ġfif th
Ġsing er
Ġopp ortun
Ġas semb
Ġsh are
Ġrelig ious
in y
Ġext re
d ing
Ġd ance
Ġb a
Ġs ir
Ġhon or
c y
l or
Ġim medi
em ic
ic ated
Ġbase ball
Ġbecom ing
ict ion
Ġfoc us
Ġphot ograp
Ġsecret ary
Ġsurf ace
and a
Ġprim ary
Ġm ir
Ġbor der
Ġpe ace
Ġc row
Ġfl ight
Ġbe aut
p ing
Ġk m
Ġnot hing
ou l
Ġst ru
Ġag ric
Ġ199 6
i os
Ġhell o
ish op
Ġbel ow
Ġire land
Ġdis p
Ġmay or
ib ility
Ġfight ing
Ġtrans l
b ook
Ġca used
Ġsw ed
c her
im a
Ġchampionship s
Ġagric ult
Ġs aint
Ġar ab
Ġst orm
Ġed itor
Ġrich ard
Ġear ned
Ġexp ected
Ġvot e
Ġf ru
t ic
Ġhapp y
w w
id ay
Ġsl ow
cl us
Ġapp lic
s a
Ġget s
u it
Ġb ang
Ġreg ard
Ġcolle ct
Ġp ap
ro ll
Ġb att
Ġl og
oc key
Ġf ill
Ġatl ant
Ġd un
r d
Ġnat ure
k er
Ġbr and
k n
Ġf it
Ġm ind
Ġd ream
Ġold er
b ed
Ġser ious
Ġtre es
Ġk itt
Ġclass es
Ġcare ful
w ide
Ġfor ced
il i
Ġt ick
Ġcl in
Ġv en
Ġsome one
ir ty
ad or
Ġd ate
Ġab s
o id
d own
Ġbe g
Ġo w
Ġn ames
Ġr ide
Ġ199 7
Ġsur round
Ġcommun ic
Ġevery one
Ġestab lish
Ġad op
Ġrest aur
Ġthous ands
Ġsp l
Ġo x
Ġr ap
Ġexp and
Ġ199 4
Ġpac ific
ri pt
Ġtheat re
Ġdemocr atic
Ġparticular ly
Ġp age
1 4
Ġst one
Ġoper ation
gy pt
Ġartic le
Ġch ick
Ġw ays
Ġmart in
Ġhen ry
p re
Ġc atch
Ġwh om
Ġ ess
Ġair port
Ġvict ory
Ġstru gg
Ġtem per
um e
Ġent ered
Ġ199 5
Ġexper ts
Ġus es
r am
em s
Ġrepresent ed
Ġcor por
Ġsil ver
ens ion
n el
Ġt ried
and er
Ġpri ze
Ġb ath
Ġ <
Ġreg ional
ig an
Ġe gypt
ut h
Ġby e
Ġpl ants
anc ed
Ġanc ient
h ouse
Ġ199 2
Ġtr ue
Ġpain t
Ġl ie
Ġmain t
Ġfre qu
Ġdisco vered
Ġrem ain
Ġ201 9
z y
Ġlar ger
Ġcontin ue
he ast
Ġun l
Ġv oc
Ġp sy
Ġha w
Ġwr ong
Ġtr ou
y an
Ġl ord
Ġcomp lete
Ġ199 1
Ġne cess
Ġmic ro
Ġpol l
Ġpro gress
Ġret ired
Ġvol un
d on
Ġinit ially
Ġst ories
Ġr ub
Ġwe ap
Ġread ing
Ġsp ot
Ġrequ ire
Ġo pt
il s
ound s
Ġfig ure
Ġf ine
Ġprev ent
Ġsur pr
ri al
Ġsele cted
r s
Ġp ath
Ġdem on
Ġro ss
Ġdefe ated
j a
Ġ195 0
Ġar r
Ġaddition al
Ġm ale
Ġpo et
Ġwebs ite
Ġcomp lex
Ġoffic ers
Ġb oo
ad ed
Ġr ate
Ġsh own
Ġpre p
g u
Ġst ad
Ġlear ning
Å «
Ġref uge
Ġassoci ated
Ġfrancis co
Ġr are
Ġcont ains
Ġincre ased
Ġte en
Ġtow ards
om a
Ġtr ust
Ġactiv ities
Ġintern et
Ġbe at
Ġg one
Ġrequ ired
in ct
Ġsub st
Ġpain ting
m ore
Ġse arch
Ġcapt ain
Ġbene f
Ġal le
k ing
Ġpict ures
ip s
Ġpart ners
Ġpar ish
Ġco vered
Ġbl ood
Ġc oo
Ġdo gs
Ġsal es
w are
it a
Ġal tern
Ġatt ract
yl v
Ġbeh av
Ġr ang
Ġlab el
Ġtow er
Ġcath olic
ip e
un e
Ġgu itar
Ġtri p
Ġa head
Ġ199 3
Ġk ick
Ġmajor ity
Ġpur p
Ġsa fe
Ġchar ge
Ġque en
Ġam b
Ġn ations
ell ed
Ġcre w
Ġr h
Ġc d
le ct
Ġgener ally
Ġj im
che n
ylv ania
Ġch oo
Ġwe ar
Ġp ra
Ġv ac
Ġsy n
Ġres our
1 5
Ġn ick
Ġser ving
un g
Ġl if
Ġd ry
ing er
Ġcons ider
st e
Ġfun ny
Ġfel t
Ġe ye
Ġisland s
por ary
Ġbo ston
Ġgre w
Ġcult ural
Ġres idents
Ġenc our
Ġtrack s
Ġkn e
ro ad
Ġbo at
Ġir aq
Ġcr ime
Ġmat ches
Ġnear by
on se
il ed
Ġle aving
Ġeff orts
Ġl ines
Ġmus l
Ġcol umb
Ġan al
u als
Ġt all
Ġinst r
Ġlevel s
Ġarri ved
Ġr ab
Ġtro ops
ur ies
Ġun it
Ġsar ah
Ġh ockey
k ins
Ġrecord ing
Ġfinanc ial
Ġsim p
Ġk en
u a
Ġchair man
Ġmem or
Ġincre asing
Ġcoll abor
u ction
Ġad am
Ġhun g
Ġbelie ved
Ġbr ain
Ġm ond
al and
z en
Ġend emic
Ġb ri
Ġper m
h ire
b on
Ġla ura
ver t
Ġstruct ure
Ġsmall er
Ġst uff
ip l
Ġown ers
Ġn ap
in i
ans as
Ġsc ot
Ġit aly
Ġph one
Ġcond itions
Ġcon fl
Ġso v
te en
Ġtreat ment
Ġchall en
Ġfail ed
Ġris k
f ect
Ġh uge
Ġoff er
Ġem b
k o
Ġpenn s
ot e
Ġv ice
b re
Ġa ri
Ġco al
Ġpa id
Ġ198 9
Ġsold iers
Ġpsy ch
ph one
Ġi v
Ġpenns ylvania
Ġed ition
Ġmus ical
Ġd ar
Ġre form
Ġob t
Ġsp ir
Ġsp ok
ven ue
Ġbe y
Ġmo b
Ġhabit at
ul ations
Ġgrow th
i ro
n et
Ġse ed
Ġkitt y
Ġdou b
Ġst ock
Ġsov iet
Ġshe l
Ġto ys
Ġb ol
qu ar
ast ic
Ġappro xim
Ġm as
olog ist
Ġte xt
Ġr ing
Ġchann el
g al
Ġl ic
Ġlat in
Ġfre ed
Ġdef ense
ul ated
Ġoff ered
Ġk id
Ġno se
s p
s es
Ġmot or
Ġsant a
o y
Ġassist ant
Ġloc ation
Ġjun ior
Ġbird s
Ġappear ance
Ġdig ital
ipp ed
Ġenvironment al
is her
Ġresp onse
uck y
Ġdis app
Ġsupport ed
1 7
Ġ18 3
Ġke pt
Ġr id
en a
Ġcont r
Ġhus band
Ġnewsp aper
Ġhistor ical
Ġpie ces
Ġgu y
Ġstad ium
ag ing
Ġsh ut
Ġco ol
iz ing
Ġvar iety
Ġchem ical
ric k
Ġh ors
Ġrespons ible
Ġbo b
Ġm cc
h ol
Ġacc om
is ions
Ġengine ering
l ight
Ġhe ard
Ġrev olution
Ġaut om
Ġjud ge
Ġmar riage
Ġnum erous
Ġdr um
Ġlook ed
Ġsour ce
Ġcitiz ens
ch an
Ġpe ak
o le
Ġrem o
Ġt ail
Ġju ice
as ion
ath an
g l
Ġent er
Ġscre en
j an
Ġ ic
k in
Ġs ad
Ġcan cer
Ġpr int
Ġer a
Ġfres h
Ġtr aff
ail y
Ġdem and
Ġse v
Ġsc hed
Ġmean ing
h an
Ġgradu ated
Ġolymp ics
ian a
Ġhy d
Ġt ropical
ell a
Ġappro ach
i i
Ġqu ality
Ġp us
Ġex am
1 1
Ġt enn
Ġle e
Ġfeat ure
Ã³ n
Ġas h
Ġtw enty
d o
m as
Ġc ru
Ġc art
Ġd ed
Ġ198 8
Ġdra ft
Ġf ul
Ġhigh way
Ġcoup le
Ġw el
Ġtalk ing
Ġeff ort
Ġyou n
Ġg reek
Ġle aves
Ġhom es
er ved
Ġchar l
ess ion
Ġpr ime
oo p
Ġd aily
Ġchamp ion
Ġze aland
Ġk a
in n
Ġhum ans
Ġd uck
Ġassemb ly
Ġsen ate
/ /
h i
Ġar ms
Ġro se
Ġc ateg
t r
Ġto y
Ġm and
Ġj ul
ut ions
Ġvo ice
w ater
Ġsupp osed
: //
Ġwe ather
Ġg ives
Ġu pper
Ġsun day
all ed
Ġwe ight
ve re
Ġcall s
Ġclim ate
Ġbirth day
Ġb omb
Ġequ ip
Ġb ishop
Ġs ud
Ġr am
Ġm ention
Ġatt end
ren ces
az z
Ġ3 5
Ġfor ward
ab les
Ġprov ides
Ġk iss
Ġs or
Ġmar ine
Ġconf ir
Ġf red
il ing
1 3
Ġn ut
Ġjew ish
Ġe ll
Ġfl ag
Ġsk ills
Ġb on
u ing
Ġnot able
anc y
Ġhold ing
Ġru le
Ġmedic ine
w r
at o
Ġp ak
in et
Ġcompet ed
Ġfly ing
Ġexper i
ou d
Ġsoc cer
Ġdou ble
Ġfarm ers
ol k
Ġpress ure
o ver
Ġyoun ger
al i
Ġ7 0
Ġcast le
Ġt ape
Ġir on
Ġadd ress
Ġseason s
Ġbut ter
Ġstat us
Ġwin ner
Ġbro ken
v in
Ä ĩ
as a
Ġcom ment
Ġsing les
ap h
Ġen s
Ġimm igr
Ġhous es
act ion
Ġres c
Ġs ens
Ġ198 4
Ġpos itive
Ġal one
Ġser ve
Ġcar ried
Ġviol ence
Ġcontro ll
Ġagre ement
Ġsepar ate
ac ts
Ġstra ight
Ġsubsequ ently
Ġdep ut
Ġproject s
ian ce
Ġsa ve
Ġter ms
i en
Ġcar l
Ġsy ria
Ġmain ly
Ġvolun te
Ġal t
w a
Ġm ama
ri e
Ġr ug
Ġequip ment
Ġplan et
Ġn ic
Ġfun ction
Ġbr anch
Ġche ck
uc le
Ġapproxim ately
Ġcharac ters
ut ed
Ġk r
Ġab ility
Ġgeorg ia
Ġk it
Ġm ah
Ġ8 0
Ġmult ip
Ġneighbor hood
h ar
Ġch ance
Ġegg s
Ġro w
Ġgre ater
iz es
Ġattack s
ub e
Ġ198 7
Ġchall eng
Ġmix ed
Ġf ans
ir ing
m ond
ap ed
Ġo d
Ġh ang
Ġst an
am m
Ġoper ated
Ġschol ars
Ġv iet
Ġun its
Ġproduc er
Ġn om
Ġimp act
ch ange
Ġwhe el
Ġtell s
s en
Ġf at
Ġun d
Ġfir m
Ġele v
Ġscient ific
ren d
Ġdut ch
g ers
u le
ing u
Ġin hab
Ġg il
Ġz oo
Ġelect ron
l ied
Ġbow l
y r
Ġmond ay
um n
Ġas ia
Ġcommun ities
Ġteach ing
Ġent ertain
Ġr ough
ct ors
Ġwor th
Ġint e
Ġd rop
Ġr at
Ġnot e
Ġsen se
Ġ198 5
Ġp ed
if ul
1 6
Ġf ox
ro s
Ġpl ane
Ġs r
Ġmet al
Ġt an
g reg
Å ¡
Ġclaim ed
or ter
Ġadminist r
Ġtur key
Ġcoo per
Ġgr ass
Ġappe ars
or ters
Ġphys ical
rib ution
Ġdro pped
Ġchallen ge
Ġbro ke
Ġimmedi ately
Ġco ff
t ies
Ġl uc
Ġch am
Ġro d
Ġprodu ce
Ġeffect s
Ġpro min
Ġind ic
Ġt on
Ġj ones
Ġfound er
Ġplat form
c ks
Ġemplo y
Ġcomp l
Ġcomp ared
l ife
g le
Ġb ought
Ġk il
Ġgen e
Ġhot el
Ġs ac
ce ment
at ures
Ġg al
Ġ9 0
Ġo s
Ġye p
ict ed
Ġlear ned
Ġbar b
Ġpolit ician
Ġinit i
Ġk ent
at ively
Ġdang erous
c ome
Ġe ld
Ġauthor ities
Ġ198 6
Ġto ward
Ã ¤
w an
Ġbr on
Ġn ucle
Ġfreed om
v i
Ġeas y
Ġagre ed
Ġgener ation
Ġpr ince
Ġme ant
Ġ198 2
Ġir ish
Ġbrother s
Ġcon cept
Ġcrit ics
h old
f ast
r ison
Ġput ting
Ġter min
Ġmanag ed
Ġf igh
Ġu t
Ġreve aled
it ude
Ġsp r
Ġstand ing
Ġhe at
Ġprop osed
Ġr ay
Ġmo on
Ġprot est
Ġhundred s
Ġt ast
Ġpot ential
ig ration
Ġed ward
Ġma x
ent ed
us ing
Ġv eter
Ġad j
Ġhapp en
Ġarr ang
Ġele ph
a x
a res
Å į
in ing
Ġcomp os
Ġsk y
ograp hy
Ġbusiness es
Ġcamer a
s et
Ġsimp ly
ad el
Ġpresent ed
Ġachie ve
Ġkne w
pp ing
Ġ5 00
Ġh u
Ġplann ed
Ġbl ocks
Ġun f
Ġjohn son
it ation
Ġdec ades
Ġtw ice
Ġsu c
Ġact or
Ġbig gest
Ġinte gr
Ġs om
Ġ3 2
Ġhelp s
Ġdru g
Ġcandid ate
Ġextre m
Ġ194 5
Ġterr or
Ġs itting
Ġb ull
Ġst ations
Ġown er
Ġacqu ired
Ġa k
ot hes
out s
Ġkore a
Ġan sw
Ġmich igan
Ġan th
ian o
Ġ id
Ġsc ene
Ġbr ig
Ġ197 2
Ġfield s
Ġmeas ure
Ġbri ef
re l
Ġcost s
t ime
Ġme chan
Ġform s
Ġsu it
j i
Ġm ath
Ġwon der
b ach
Ġrep orts
Ġmin im
Ġdam age
Ġdestro yed
r or
et te
oo ps
Ġa im
ys is
Ġsit es
Ġlet ters
Ġsuc ceed
Ġele ment
Ġm oo
Ġw et
Ġwe b
Ġtr ail
Ġj on
Ġtown ship
ace ae
c i
Ġpak istan
Ġaff ect
Ġjer sey
re y
Ġadv oc
Ġtem ple
ino is
Ġukrain e
Ġpr ice
in al
Ġthe ory
Ġbey ond
Ġj ac
Ġcondu cted
Ġcont em
Ġphil ipp
Ġt aught
am ing
Ġqu ite
Ġcook ie
Ġcell s
Ġdemon str
Ġbeaut iful
Ġcont est
Ġactiv ity
Ġur ban
Ġwed nes
Ġc aught
Ġmin istry
Ġrem aining
Ġindust rial
er o
Ġrep e
it ory
Ġacadem ic
Ġen jo
Ġship s
Ġcr imin
if ying
Ġislam ic
el a
Ġsp end
Ġiss ued
Ġt ues
Ġ194 0
Ġexper iment
ee ch
Ġoff ers
led ge
ord in
ell ing
Ġ193 0
Ġsitu ation
el ess
Ġhigh ly
Ġr ic
Ġpar ks
Ġc as
Ġsp eech
ren g
Ġpromot ed
Ġdeter min
or por
Ġun c
Ġse qu
Ġhelp ing
Ġill inois
g ian
Ġs ick
wor ks
Ġul tim
il a
Ġbott om
Ġgard en
Ġl es
Ġsub t
ish ing
Ġelect ions
sh ire
Ġst ores
Ġdire ction
Ġme at
Ġdis play
Ġestim ated
r ated
Ġmemor ial
Ġ198 3
Ġbrit ain
Ġdri ving
Ġb ann
Ġsy m
on ic
Ġoh io
un k
qu es
Ġmach ine
Ġpat tern
Ġvisit ors
Ġj es
Ġtyp es
Ġflow ers
Ġre fe
Ġleaders hip
m it
Ġs her
Ġthan ks
Ġ197 9
Ġindivid uals
ap es
ke e
ell ig
Ġstop ped
Ġ18 2
n ic
Ġlun ch
Ġexper t
Ġdirect ly
Ġweap ons
as ka
Ġprotect ion
Ġ3 6
Ġbo d
Ġtues day
rop h
Ġlist en
Ġlos ing
Ġd ol
Ġorgan is
Ġsu pre
Ġappear ances
gh an
Ġparticip ated
Ġmultip le
Ġr ise
Ġsat ur
man n
ab eth
Ġp ad
Ġsurve y
Ġdis ney
Ġest ate
Ġacc ident
Ġalbum s
Ġmexic an
Ġresour ces
Ġe b
Ġex erc
al ing
Ġ198 1
Ġdan iel
ak s
Ġdist ance
Ġolymp ic
Ġfru it
ste in
Ġcoff ee
Ġsy mb
Ġcons ists
Ġval ue
m o
Ġreg ister
Ġconc ert
Ġs amp
Ġex act
enc ies
Ġint ellig
Ġmunicip al
il ly
tt ps
Ġw it
Ġw ales
Ġlat ter
e en
Ġa st
Ġdeput y
Ġ ille
Ġ192 0
ab ad
Ġwild life
Ġres ident
Ġd iam
Ġstri ke
Ġentertain ment
Ġwednes day
Ġl ion
Ġresp ond
Ġon to
Ġ197 5
Ġsweet ie
Ġorgan ized
Ġtrou ble
ag er
un t
ous ly
Ġcont act
Ġs ides
em ents
Ġro of
Ġquest ions
Ġg a
Ġg oo
et ts
Ġconserv ation
Ġand rew
Ġst reng
Ġjo e
Ġadv anced
Ġcoun ter
Ġthreat ened
uc ks
Ġwilliam s
Ġsugg est
Ġsc en
Ġchrist mas
Ġseem s
es h
ic ed
Ġgu ess
Ġt iny
Ġp ink
Ġthere fore
Ġrec omm
Ġg ay
Ġk im
Ġkn ock
Ġsm art
l ies
Ġbur ied
Ġforest s
Ġcomp osed
Ġv ent
ric ts
Ġide as
t own
Ġn fl
Ġinc ome
Ġtri al
Ġd anc
Ġl ots
Ġcontin ues
Ġ ign
Ġemp ire
Ġsil ly
Ġcho ice
Ġremo ved
Ġte eth
Ġinit ial
an y
Ġy ards
Ġscot land
ro l
Ġy ay
Ġ197 6
Ġrece ive
bur gh
Ġreg iment
Ġorganiz ations
Ã §
ou ri
Ġexp ect
Ġ196 8
Ġc ert
Ġdo gg
Ġm ist
Ġper fect
Ġcamp us
Ġsix th
Ġp in
Ġro t
Ġco de
ib ly
Ġsupp ly
Ġbehav ior
Ġh ind
Ġdr ama
Ġsell ing
Ġfind ing
Ġfund ing
Ġtit led
Ġaff airs
Ġcrit ical
Ġdecl ared
Ġm ut
Ġ18 0
Ġsim ple
Ġord ered
ach us
Ġhe ro
st one
Ġ197 4
Ġfr iday
Ġor che
Ġres ist
i h
Ã ¨
Ġ3 00
Ġje ff
Ġii i
Ġwind ow
Ġcommand er
Ġspir it
Ġf ash
Ġport ug
Ġve get
Ġlaun ch
st ra
Ġwe aring
i est
Ġse attle
Ġbr ad
Ġhar v
a ult
u ct
Ġb ound
Ġk enn
Ġg ol
um my
Ġphil os
Ġmount ains
Ġc em
at i
Ġdist ricts
Ġp urs
Ġh ug
Ġas ian
Ġ197 8
Ġinsp ired
Ġad ults
is ters
Ġcolumb ia
Ġhapp ens
Ġbre ed
Ġaf ghan
Ġdin os
ĠâĢ ĺ
er b
Ġwat ers
adel ph
Ġs end
Ġswim ming
and on
Ġele ments
Ġel iz
Ġprim arily
Ġmass achus
wor th
Ġbun ny
Ġsh r
Ġmassachus etts
Ġun cle
Ġshort ly
Ġhous ing
ill a
Ġsc r
ru pt
ru ction
Ġdef in
Ġphil adelph
Ġofficial ly
Ġconfl ict
Ġarch ae
Ġshoot ing
Ġjo int
c an
Ġf c
Ġ196 9
Ġstand ards
Ġbreak fast
Ġinflu ence
Ġo oh
Ġc reek
Ġ4 5
Ġm igr
Ġeconom y
Ġm is
Ġthem e
Ġ194 4
Ġthink ing
Ġarrest ed
Ġres erve
Ġphiladelph ia
Ġinf ant
Ġm oth
il es
Ġtr ains
Ġext ended
el and
se e
Ġsoft ware
Ġf al
Ġad vert
m ark
n o
el ly
br idge
Ġun s
Ġpat ients
Ġmo s
Ġliter ature
Ġclub s
we ight
Ġcem eter
y ard
Ġvill ages
4 0
Ġb uck
Ġact ing
Ġbud get
f ish
Ġl ind
Ġ197 1
Ġcont ent
Ġconstru cted
Ġfollow s
Ġinj ury
Ġdefe at
Ġprincip al
Ġsupre me
Ġj r
Ġcap ac
Ġ3 3
Ġs urn
Ġpre c
Ġ197 7
ut s
Ġsc ale
Ġbecom es
ar m
Ġwind ows
Ġrefer red
n ie
Ġcon vers
Ġtraff ic
ol n
Ġplann ing
g n
ig a
Ġfash ion
Ġl ies
Ġper man
Ġfeat uring
Ġchang ing
h s
te red
Ġdiffe rence
Ġauthor ity
Ġmar s
Ġk al
ul ed
Ġd ipl
Ġbe ars
Ġpo ver
Ġopportun ity
on ia
Ġpu pp
Ġsh oes
Ġra ise
Ġconst ant
Ġhe ight
Ġwr it
Ġsol o
Ġcro wn
cl es
Ġcorn er
Ġpover ty
Ġg ri
Ġterr itory
8 0
Ġp oo
Ġwid ely
Ġm ike
Ġl as
Ġserv es
Ġ196 7
Ġtransfer red
Ġallow s
Ġpower ful
Ġb es
Ġcom edy
sel a
Ġreview s
Ġt am
new sela
Ġanal ysis
wh ile
Ġc in
Ġtyp ically
Ġstat ement
âĢ Ļ
Ġlar g
Ġcr ack
est ic
Ġen em
Ġalong side
Ġt ay
Ġass igned
Ġmom ent
j e
Ġsu gar
Ġab andon
Ġcall ing
Ġwin s
Ġgold en
3 3
Ġj azz
m ans
Ġarg ent
ar io
Ġcond ition
Ġex change
Ġreg ist
Ġfl ood
Ġbas ic
Ġmaterial s
h aps
r id
ot ed
iv ity
Ġar th
Ġcr is
Ġformer ly
Ġd ur
Ġper haps
Ġ197 3
Ġpurp ose
Ġa id
Ġfe ar
Ġbig ger
Ġclim b
et ic
Ġcustom ers
Ġwalk ing
ch a
Ġwar m
Ġen for
Ġdiv ided
Ġcapt ured
Ġsatur day
Ġser b
Ġcontro vers
Ġab d
Ġtest s
Ġfavor ite
Ġnorm al
or ation
it o
Ġl inc
Ġus a
ac ing
ter y
Ġcl a
Ġgradu ate
Ġf ought
ut en
Ġback ground
Ġwh oops
Ġsy d
Ġcomplet ely
at he
Ġc ric
Ġded icated
Ġsurn ame
u x
Ġpromin ent
Ġfoc used
Ġcrow d
i y
Ġatt orn
Ġimp ress
Ġreturn ing
Ġt el
ul f
Ġed ge
Ġprem ie
Ġeliz abeth
ly ing
b ury
Ġp ool
f ort
Ġcon sec
Ġw oo
Ġun ique
Ġdri ver
Ġfac ilities
Ġnecess ary
Ġcolor ado
Ġsour ces
Ġlarg ely
Ġlinc oln
Ġdis s
m ine
Ġj am
Ġim ag
Ġpl ate
Ġfootball er
Ġsugg ested
Ġaccept ed
Ġne p
Ġsuff ered
Ġwil son
Ġgr ay
Ġnew ly
Ġem ot
Ġ196 5
on ents
Ġb ass
Ġbr ight
Ġfl at
Ġknow ledge
Ġ196 4
Ġreason s
Ġcir cle
Ġrecogn ized
Ġpartners hip
Ġr and
Ġcon clud
ur t
Ġch a
Ġcol omb
Ġprop os
w ise
ing ton
Ġsc oring
Ġadop ted
Ġcontem porary
c el
ir a
Ġar med
Ġmar sh
Ġcre ating
Ġm ap
Ġcor ps
Ġgun s
Ġrac ing
Ġconfir med
Ġcric ket
ad s
Ġdo ctors
Ġact ress
Ġimp lement
Ġnucle ar
re es
oc ol
Ġcommun ist
Ġan aly
Ġg ang
Ġsyd ney
Ġw isc
Ġbeg ins
Ġh ong
Ġcl othes
Ġpurch ased
Ġw ings
Ġk o
Ġrest rict
Ġrestaur ant
Ġkore an
ak a
Ġbut ton
Ġim age
i as
om s
ons in
Ġmess age
quar ters
Ġr ice
Ġwisc onsin
or a
az on
5 00
it age
Ġfind s
Ġrepresent atives
Ġn az
Ġz one
Ġeduc ational
Ġconn ected
Ġcont ain
Ġhop es
Ġfact ory
Ġly ric
ist ics
Ġav oid
Ġnomin ated
Ġtrans form
Ġspl it
Ġinhab it
Ġ3 4
Ġsl ight
Ġinterest ed
Ġcrimin al
Ġprov iding
Ġchr is
ribut ed
Ġbill board
Ġari z
Ġo ri
Ġhun ting
Ġvar i
Ġpal est
Ġsal t
Ġrepresent ative
Ġident ified
Ġsem i
Ġt s
Ġb h
Ġloc k
Ġsk in
he im
Ġf u
che ster
Ġjack son
re ct
Ġcop ies
om an
Ġstart s
Ġadv is
Ġhold s
Ã¡ n
Ġact ions
Ġair pl
m ony
Ġf aced
Ġinvestig ation
Ġpart ner
Ġma xim
Ġhead quarters
Ġ194 6
k es
Ġvehic les
iam i
Ġscient ist
Ġcolle cted
Ġpolit ics
Ġinstr ument
Ġg ained
Ġchick en
Ġa venue
Ġind ones
Ġins ur
9 0
Ġf isher
Ġh ay
Ġr ivers
Ġthe ater
Ġpr in
Ġfin als
Ġcons ult
r ig
Ġel imin
l av
Ġl em
ik a
Ġd na
Ġtechn ical
Ġn iger
Ġad ult
Ġgro wn
Ġnorth west
Ġopp osition
Ġcomb ined
Ġfig ures
an es
Ġsm ok
Ġrec ru
Ġim per
Ġpres ence
Ġcomb at
Ġcon ver
Ã ±
os en
Ġinc orpor
Ġpil ot
Ġb ah
Ġher itage
Ġemerg ency
ch i
igh th
Ġfish ing
Ġconserv ative
Ġd im
Ġth urs
Ġmiss ing
Ġm iami
Ġkill ing
b ird
Ġsh ape
Ġbl ow
Ġclaim s
Ġab e
ic i
Ġ196 6
or der
Ġrec o
Ġmusl im
Ġp ump
Ġmur der
Ġrec on
6 0
Ġsp ending
Ġmean while
Ġwall s
Ġoccur red
Ġcapac ity
Ġtest ing
em an
Ġche ese
2 5
Ġbas is
Ġs ab
Ġsci ences
iver se
Ġe ve
Ġsa v
Ġmiss ouri
Ġany one
Ġtur k
Ġcub a
Ġs ons
Ġret ire
Ġste el
Ġintellig ence
Ġfl ower
h ah
Ġa er
Ġ15 0
Ġtown s
Ġk ong
g i
w in
aw a
Ġengine er
Ġfew er
Ġknow s
Ġ196 3
h ttps
Ġne ck
Ġf an
Ġse es
Ġro s
Ġworld wide
Ġrank ed
Ġk ansas
Ġher self
Ġwar s
Ġstre ets
ion e
le ts
ag a
Ġno ise
Ġthink s
Ġ194 2
Ġc rop
Ġrail road
ye es
hen s
Ġemplo yees
Ġw rest
Ġoper ating
Ġrug by
u an
Ġan ton
Ġhealth y
id ers
Ġscott ish
ic ient
Ġdevelop ing
Ġviet nam
Ġpaint ings
Ġ3 7
Ġlo an
Ġatlant ic
Ġapp lied
Ġred uced
Ġal bert
Ġmary land
Ġt ask
Ġtr a
Ġsecond ary
on to
Ġint ended
m akers
w ar
Ġpresident ial
Ġp air
Ġop in
Ġbus h
Ġsc ul
i ot
Ġlangu ages
Ġbo om
Ġcemeter y
Ġpart ies
Ġcal c
Ġber n
Ġcorpor ation
Ġspok es
Ġst uck
Ġgall ery
e es
Ġs ort
Ġcan al
Ġwatch ing
Ġrap id
Ġathlet es
Ġch osen
Ġstre t
2 00
Ġj enn
Ġste ve
Ġpe ek
Ġalex ander
Ġsu st
Ġrelig ion
Ġto ols
Ġdin ner
Ġnar row
ins on
Ġmem ory
Ġcy cl
Ġvir t
res p
l ers
Ġ eric
Ġm it
Ġsome body
Ġmill ions
Ġaud ience
Ġmal ays
Ġhost ed
Ġwol f
Ġaccom pan
Ġpol ish
Ġful ly
Ġbr ick
Ġthurs day
g ie
Ġperform ing
Ġhyd ro
Ġtr ained
Ġfac ult
Ġh its
Ġgre y
Ġun kn
Ġnot es
Ġshow ing
Ġdist ingu
Ġvis ited
Ġallow ing
Ġdr ones
Ġsub ur
Ġsign s
Ġref used
Ġwas h
Ġcon cent
Ġle w
Ġappro ved
Ġent r
Ġevery body
Ġren amed
Ġcateg ory
Ġsor ry
Ġariz ona
n ight
Ġc av
Ġcol ors
Ġmob ile
Ġb bc
Ġse ats
ag an
i ber
Ġsp ect
Ġje an
Ġagricult ure
Ġy og
Ġmy ster
Ġro cks
Ġprot ests
Ġsett lement
Ġfill ed
b el
se ct
Ġag ent
Ġus ers
aw s
Ġspe aking
Ġliber al
o ir
Ġsub s
Ġdisapp e
Ġshe ll
Ġopp os
Ġmanufact ure
Ġsh irt
Ġd y
Ġmin nes
Ġend ing
Ġdisco very
Ġwho a
Ġuh oh
Ġfall s
Ġeduc ated
er a
i Äĩ
Ġexp ensive
Ġm ail
Ġan ne
Ġk at
if orm
Ġmention ed
Ġcontroll ed
Ġc ore
av a
Ġ195 4
ĠÂ £
k h
he t
Ġpain ted
Ġlim it
Ġl in
it an
Ġred uce
Ġtur t
op hy
Ġle ct
Ġgr an
Ġbac ter
ol ved
Ã ¸
Ġattorn ey
Ġlik es
Ġunkn own
Ġh orn
Ġmat hem
Ġb ond
Ġpro s
Ġnet her
Ġvictor ia
Ġrefuge es
it ter
Ġtransport ation
Ġswed ish
ri ption
Ġgr am
Ġcondu ct
Ġbron ze
Ġl ions
Ġfr ame
Ġmat t
w ich
p o
Ġvehic le
Ġb ure
Ġk ir
Ġsound s
Ġpu zz
ul ate
Ġset ting
Ġlie uten
Ġreg ions
m et
Ġs lo
Ġmod els
Ä į
Ġyour self
Ġturn ing
Ġeas ily
bour ne
Ġsquad ron
Ġkit chen
Ġultim ately
Ġexpand ed
Ġbod ies
Ġent ry
Ġt u
Ġminnes ota
Ġwith d
Ġhead s
Ġ196 2
Ġdist inct
Ġdraw ing
Ġimmigr ants
Ġp ric
Ġn athan
Ġpol y
Ġ195 8
Ġsing ing
Ġtre ated
Ġber lin
r ich
Ġbl ank
Ġqu iet
Ġview s
Ġd irty
Ġmag n
Ġinhabit ants
Ġs ale
Ġt ank
is hes
Ġ195 9
um ed
Ġfac ility
Ġexist ing
Ġb om
el ve
Ġv ess
Ġdec ade
Ġperforman ces
en ger
am in
Ġset s
Ġ194 8
Ġth ir
Ġfeder ation
Ġem per
Ġpos itions
Ġunl ike
Ġaltern ative
Ġend s
Ġprem ier
Ġfle et
Ġaz erb
Ġhors es
Ġf inger
Ġ194 1
Ġre ject
Ġz h
Ġoper a
Ġdesign ated
Ġazerb ai
Ġp ier
Ġj ord
Ġf uel
Ġill ust
au g
eng ers
Ġsubt ropical
Ġl yn
Ġcommon ly
Ġho le
Ġconstit ution
are t
Ġarth ur
Ġcris is
Ġwe alth
Ġmat the
Ġpa rent
Ġlieuten ant
b ro
Ġm erc
Ġg ather
b ye
f a
Ġca uses
Ġtit les
Ġe ag
Ġrece iving
Ġg ree
Ġ196 1
Ġesc ape
Ġwit ness
Ġco vers
Ġepisod es
Ġinj ured
p ro
Ġis ol
Ġit ems
Ġte a
Ġturn s
ag ues
Ġw y
en der
Ġd ial
Ġun us
Ġtor onto
Ġrel atively
Ġscul pt
Ġm ent
Ġim ages
Ġb ite
Ġ195 6
Ġexpl ained
ri er
Ġun able
Ġbar on
Ġadv ant
Ġpick ed
Ġp iano
ad ing
Ġtw elve
Ġ4 00
Ġcour ses
Ġland s
Ġinfant ry
Ġi p
Ġvis ual
Ġsp in
Ġafghan istan
gar ian
Ġsitu ated
Ġpro ceed
Ġprof it
Ġnom i
Ġst ood
Ġcl oth
Ġconnect ion
Ġsp oke
Ġna ima
itz er
Ġm all
Ġact s
Ġcre ation
Ġinv ited
Ġsen ator
Ġmatthe w
uel a
c on
Ġsh ared
Ġ194 7
Ġm ental
Ġresc ue
b les
Ġt ight
Ġf ame
Ġres erv
Ġnav al
o a
Ġro les
Ġsupp orters
ar ian
Ġadv ent
Ġb id
it ors
Ġexc ell
Ġl ose
Ġmar g
Ġinn ov
Ġweek ly
bo x
Ġsol id
Ġeleph ant
Ġin e
Ġto b
Ġmark ed
Ġeffect ive
Ġdocument ary
Ġdis m
Ġpur ple
Ġo ops
ist ed
ful ly
Ġleg s
h l
re ll
Ġform at
Ġagricult ural
Ġth irty
Ġapp a
Ġ194 3
Ġsurround ing
Ġwa iting
Ġpen al
Ġn urs
Ġrepresent ing
Ġt ai
Ġstud ying
Ġdet ail
Ġdoll ars
Ġfacult y
Ġt ired
Ġsout heast
Ġexist ence
Ġtay lor
h r
Ġwas te
Ġ195 5
Ġadv ance
Ġo ak
er n
Ġcat al
Ġsched uled
Ġo t
Ġsecond s
Ġgi ant
Ġse vere
Ġdet ect
Ġroad s
Ġexhib ition
Ġen roll
Ġnether lands
b l
Ġfor g
Ġque ens
Ġs in
Ġchap el
Ġt ack
Ġa ired
Ġl ap
Ġr on
Ġv in
le g
Ġgu ys
Ġlaw yer
Ġclos ely
Ġf oss
Ġr ising
Ġpro te
Ġsee ing
Ġhill s
7 0
Ġg ain
ay a
Ġpromot ion
Ġsex ual
Ġeb ola
Ġp ock
Ġd ub
az a
Ġappa rent
Ġn in
Ġartic les
Ġre ality
Ġse g
pt y
Ġcent ers
Ġresult ed
Ġre in
cl aim
Ġmusic ians
Ġjour ney
Ġn asa
ag n
ah am
Ġ17 9
Ġt ig
it i
Ġform ation
Ġtre as
Ġp up
Ġdec ide
Ġemper or
Ġspe ak
re p
Ġch ain
Ġnort heast
Ġcarry ing
in der
Ġc oc
le c
Ġshe ep
ca a
Ġt ie
is a
Ġkh an
reg on
Ġhar ry
Ġo regon
Ġhol ly
Ġban ks
Ġcin em
Ġ il
Ġcre am
Ġdr am
Ġob l
Ġpromot e
Ġindepend ence
Ġcere mony
Ġperman ent
Ġm ile
Ġpr ay
Ġso il
Ġr ates
Ġfl u
Ġgu est
r us
Ġdeb ate
e z
Ġd iet
pect s
Ġpoet ry
og ue
Ġla id
Ġansw er
Ġdetermin ed
Ġt ries
Ġpass ing
Ġstand s
ze ch
Ġvide os
Ġconcer ns
Ġazerbai jan
Ġ3 8
Ġexp ed
Ġaff ord
Ġobt ained
Ġcr ay
Ġb ub
Ġold est
y d
Ġp ale
Ġca ve
Ġear n
Äģ n
Ġcommission ed
es ters
id el
Ġeas ier
Ġc zech
Ġpass engers
Ġattack ed
Ġvot es
Ġunderstand ing
Ġrespect ively
Ġh ook
Ġall iance
Ġacc used
Ġbar n
Ġbring ing
Ġk u
Ġmin ing
Ġsupport ing
Ġimm igration
Ġdie go
Ġhaw ai
Ġw ound
Ġt ed
Ġass ess
Ġm az
ic y
Ġgrant ed
Ġswed en
Ġimper ial
2 1
Ġmal es
Ġdeter mine
al le
ac ement
Ġcl ar
Ġtouch down
Ġcham ber
Ġar k
Ġgen es
olog ists
Ġdev ices
Ġp ip
ack s
Ġbro ok
Ġret ail
Ġqual ified
ww w
Ġjord an
à ¤
Ġt end
Ġorche stra
an th
Ġsp ell
Ġland sc
Ġvot ed
Ġdav is
Ġn caa
rop ri
Ġdef end
Ġport ra
tim ore
Ġstr ateg
ol i
ot yp
Ġsh ore
Ġarg ued
Ġt ag
on ent
Ġp ul
Ġathlet ic
Ġairpl ane
Ġwh ales
Ġwor ried
Ġexp ans
Ġw ard
Ġm ouse
Ġ195 2
Ġstar ring
Ġu til
Ġsol ar
Ġj ur
Ġs oph
Ġlead s
Ġpat ri
Ġdet ails
Ġdoc uments
Ġbac hel
Ġelement ary
Ġf o
ak h
Ġ195 3
Ġal i
Ġsh aped
Ġbu ff
Ġste am
e ed
Ġearth qu
Ġd all
Ġocc asion
resp ond
Ġcon sequ
Ġdist ribution
Ġclass ic
Ġd or
Ġ195 7
Ġkeep ing
Ġb os
Ġal f
Ġvol ume
Ġbal timore
Ġident ity
am i
Ġex clus
Ġstep hen
us al
Ġcor respond
Ġb ord
Ġr ib
Ġch ur
Ġwe ak
Ġh ired
Ġchar ges
Ġann oun
Ġt ort
ill ed
Ġca using
Ġcandid ates
Ġfound ing
Ġsy rian
Ġequ al
v is
Ġbe e
ak ed
ony m
Ġb rian
Ġd rew
Ġunivers ities
Ġtr ick
ress ion
pt on
Ġprot ected
Ġ193 9
Ġbelie ves
Ġisrael i
Ġmethod s
Ġexact ly
Ġslight ly
Ġg ab
Ġwor se
Ġminim um
l i
z o
Ġr ick
Ġhel ic
Ġwin ners
2 2
Ġh ip
il er
Ġmo ist
Ġlat est
in ary
Ġl ily
Ġmeas ures
ot i
Ġs el
Ġcar bon
Ġrom e
Ġscholars hip
Ġaff ili
Ġhol y
ro it
Ġjew s
Ġb ones
Ġinterest ing
Ġref lect
Ġpain ter
i ar
Ġt rop
Ġl t
Ġ7 5
Ġfood s
Ġang ry
Ġs ought
Ġsc he
Ġstud ios
Ġph ase
Ġclos er
Ġth or
ol is
Ġv ic
Ġag ree
Ġmar c
Ġreach ing
Ġlouis iana
Ġtemper ature
Ġf ab
ian g
Ġpra ised
Ġo tt
Ġdeg rees
Ġp or
Ġheav ily
Ġobs erv
Ġabandon ed
Ġelectron ic
Ġag es
Ġ194 9
Ġprofess ion
ch ar
Ġch ocol
Ġmo sc
Ġb ats
Ġcont ained
Ġclass room
Ġhung ry
Ġspecific ally
Ġt ong
Ġkn ight
Ġover se
Ġpublic ation
Ġt ang
in ity
Ġattempt s
Ġshar p
Ġapplic ation
Ġpol and
Ġeth nic
it led
un der
Ġinter act
Ġrepublic ans
Ġsett led
f all
Ġf erg
Ġbr ush
Ġbachel or
Ġt y
ch ing
Ġ6 5
Ġlab our
Ġinj uries
Ġlink ed
l ines
Ġm amm
ut ional
Ġro ber
Ġpop e
id den
Ġfun ds
w art
al u
Ġsud den
Ġyou t
Ġinc ident
don ald
Ġm ol
or i
Ġg ym
Ġpass es
Ġweek end
Ġj ane
Ġgu ine
Ġfrequ ently
ul es
Ġoffic es
Ġc ot
Ġat m
Ġhom eless
Ġs ang
Ġc ash
Ġco ordin
Ġauth ors
Ġsucceed ed
Ġdipl om
Ġth ick
Ġ4 4
Ġstep s
on so
ic ians
Ġch ose
ap ers
Ġadd ing
Ġinf ect
Ġadministr ative
Ġvict ims
Ġdet roit
Ġn ad
Ġtell ing
Ġposs ibly
3 5
u ro
Ġhur ric
Ġcred it
i at
m ont
Ġh an
Ġwrit ers
Ġal ab
t ag
Ġw ave
Ġf m
hed ral
Ġa qu
re al
Ġhead ed
m outh
Ġm ort
Ġte ens
Ġfeel ing
Ġneg ative
Ġchur ches
Ġ195 1
Ġfa ith
Ġpl astic
Ġd v
os es
ren e
Ġkind s
Ġinsur ance
Ġup d
Ġvoc al
Ġexerc ise
Ġopp osed
Ġdu ke
Ġl it
Ġal aska
ain ts
Ġcol our
Ġjournal ist
c ript
Ġc m
Ġ4 2
Ġ191 8
Ġstreng th
m ad
æ Ŀ
Ġhun t
Ġalle ged
Ġl am
Ġn est
Ġcomp ar
Ġ5 5
Ġmel bourne
ĠâĢ ¦
Ġchar ged
Ġprep ared
Ġp ir
Ġsh a
Ġrough ly
Ġmosc ow
Ġcent uries
Ġloc ations
Ġcr ash
Ġdown town
Ġchocol ate
Ġc ig
wr iter
o om
Ġaff ected
er al
Ġr yan
Ġinter p
Ġstay ed
Ġfinish ing
Ġg ord
Ġre ference
el ine
Ġchar ity
Ġox ford
Ġalab ama
iv als
Ġdes ert
Ġdec or
Ġ193 7
Ġfall ing
Ġshop ping
Ġatlant a
Ġlic ens
p ut
Ġt ough
Ġn one
Ġsa x
Ġyout ube
Ġon t
Ġrepres ents
Ġresult ing
Ġhon our
Ġa x
Ġprot esters
Ġmic roph
Ġlu x
Ġv el
ent ially
Ġor th
enn a
Ġdev ice
Ġbure au
Ġsouth west
Ġsurv ived
Ġh ou
Ġv on
Ġout bre
Ġmar ia
ograp h
Ġsele ction
ot ic
Ġpap ers
Ġbenef its
Ġsev enth
Ġconsec utive
Ġgree ce
Ġc ous
Ġhelic op
b ec
Ġt orn
Ġc hes
Ġroom s
Ġcook ies
Ġ4 8
Ġem ph
Ġpop ulations
Ġ193 6
m ates
Ġsc ar
ene z
Ġachie ved
Ġjoin ing
Ġregist ered
Ġgood s
ost er
Ġtast e
Ġchoo se
Ġbott le
d am
f ather
p ass
r imin
ri f
Ġsugg ests
Ġf iction
Ġhe aring
Ġr ud
Ġr iding
Ġk am
Ġpass enger
Ġsleep ing
ly n
Ġfar ms
Ġin sect
Ġ4 9
Ġsymb ol
Ġlew is
Ġmer ch
Ġextrem ely
Ġphilipp ines
Ġatm osp
Ġ â
Ġl oo
ell er
Ġnor we
Ġdef ined
Ġhapp ening
Ġdaugh ters
u ous
er ves
Ġun iform
Ġmov ies
Ġmathem at
Ġferg us
Ġw ake
Ġp ounds
Ġcour ts
Ġindian a
Ġimpro ved
Ġwel come
Ġconclud ed
Ġretire ment
Ġdall as
Ġbar ack
Ġask ing
Ġpal ace
Ġvers ions
Ġmot ion
Ġconcer n
Ġanc est
Ġarchitect ure
ã Ģ
Ġpalest in
Ġc ards
Ġille gal
Ġno v
Ġdom estic
Ġj ay
Ġchild hood
Ġconv ention
Ġf olk
Ġd ivers
Ġbe ij
Ġde an
Ġag encies
ik i
Ġclin ton
Ġcolomb ia
Ġf ired
Ġyes ter
Ġsuccessful ly
Ġdiam ond
Ġp ill
Ġclass ical
Ġinvol ve
Ġper u
Ġqu ant
Ġdep lo
Ġtai wan
Ġf ant
ig en
oc ese
Ġad apt
Ġany more
Ġdiffe rences
Ġterr itor
Ġv ision
Ġpl us
Ġbab ies
Ġindones ia
Ġle on
Ġ193 4
Ġrequ est
Ġinstit utions
Ġexpans ion
Ġdra wn
Ġimport ance
Ġinvest ment
Ġface book
as hed
Ġst ress
Ġwor ry
Ġfr anch
Ġsh ock
Ġsc ript
Ġpit ts
Ġrecogn ition
Ġscen es
Ġdo zen
Ġother wise
Ġgreat est
Ġdogg ie
Ġsubs id
Ġadvant age
Ġbeij ing
stand ing
Ġstruct ures
Ġdut y
m es
Ġenfor cement
Ġyester day
Ġfor d
Ġinst all
Ġ Î
Ġr us
Ġstr ing
ov a
7 5
Ġc ats
Ġp ione
Ġg ent
Ġbus y
ipp ing
Ġ191 7
Ġ191 9
Ġtenn is
Ġbrig ade
n i
v ant
Ġm ud
Ġth ro
Ġsal v
Ġdeath s
Ġeld er
Ġro y
Ġlegisl ative
Ġregard ing
Ġo m
Ġsh ah
Ġag ed
Ġprogram me
Ġra j
ill ing
Ġbre aking
Ġ193 8
Ġconf eder
Ġpay ing
o ch
Ġn am
Ġrab bit
Ġfergus on
2 4
Ġg ate
Ġre ar
op her
Ġwor st
Ġdr one
Ġeven ing
Ġcommunic ation
Ġ19 00
Ġyour s
Ġfil es
Ġele ctor
Ġemplo yed
f ly
Ġb erg
l ah
Ġch im
Ġcompet e
Ġneg oti
im ents
Ġcomp lic
Ġintern al
c s
Ġmag ic
Ġrepe ated
Ġl ane
ag ers
Ġcat hedral
ol es
Ġal g
um es
Ġcontribut ed
us ion
Ġ( ;
Ġconsist ed
Ġconcer ned
Ġopportun ities
y cl
Ġlaw makers
Ġmet rop
Ġsim on
Ġe ighth
Ġnor way
Ġpost ed
Ġvot ers
b ered
n oon
Ġ3 9
ann y
Ġinter ior
Ġliter ary
Ġsubsequ ent
f am
Ġg or
Ġwh it
Ġcomp r
Ġmon itor
Ġmur d
Ġoccup ied
Ġemph as
Ġnorwe gian
Ġcolon el
Ġphilos ophy
ar an
Ġj ail
Ġcontr ast
Ġvis iting
Ġ192 8
Ġrul ed
Ġsp oon
Ġmon key
Ġext ensive
Ġinstit ution
Ġcritic ized
Ġrestaur ants
a very
t ical
u z
Ġafter noon
Ġexp lo
Ġsw itch
Ġport ion
Ġunus ual
Ġf ed
Ġto ol
Ġre act
Ġcl ay
Ġco aches
Ġfif a
Ġphot os
r ad
Ġf aster
op p
end ent
Ġpat rick
Ġpolic ies
d d
Ã ¢
ades h
Ġukrain ian
Ġmaxim um
Ġp y
Ġord ers
Ġadm itted
Ġlegisl ation
s k
Ġc ant
ar ia
Ġst or
Ġinst alled
Ġtyp ical
Ġont ario
Ġent itled
Ġsn ake
Ġvir us
Ġpric es
Ġs ke
Ġm erg
Ġr if
ab oo
Ġhouse hold
Ġfix ed
ac he
Ġbr id
Ġce o
Ġwal ter
Ġfigh ters
Ġleg end
Ġassist ance
Ġapplic ations
Ġcross ing
Ġeth an
Ġtun nel
r ont
Ġs oul
Ġsh ad
Ġseed s
Ġch ile
Ġfriend ly
Ġdebut ed
Ġpow ers
Ġmicroph one
olog ies
Ġappe al
Ġb le
Ġr um
Ġtr uth
Ġgr av
Ġman s
Ġchap ter
Ġb ot
Ġg ast
Ġjo h
Ġt iger
Ġbre ad
Ġnathan iel
g ood
w estern
Ġal ive
Ġcl ock
Ġpoint ed
Ġdrink ing
st ream
ag en
Ġcre ative
Ġseem ed
Ġattempt ed
Ġturk ish
ãĢ ģ
Ġs ession
Ġaw a
Ġinterest s
Ġregular ly
Ġenem y
Ġso le
Ġrem em
Ġsw itzer
Ġmalays ia
Ġmo lec
Ġ4 6
Ġcap e
Ġmult i
Ġjun ction
Ġref ers
Ġbenef it
Ġn ina
Ġfac ing
Ġlyric s
Ġins pect
Ġproper ties
Ġbatt al
Ġincreasing ly
Ġvolunte ers
Ġsp ons
Ġend ange
Ġdep th
Ã© e
Ġhar m
Ġport ray
Ġobject s
Ġendange red
Ġj osh
Ġsee k
Ġmill er
Ġh yp
Ġdel ay
Ġec u
Ġinflu enced
æĿ ĳ
ger y
Ġcor rect
Ġem pty
Ġfem ales
Ġentire ly
Ġdru gs
b orn
ol itan
Ġr hy
Ġsee king
Ġ193 5
Ġr ival
ag u
Ġcol umn
Ġform al
Ġtele phone
Ġjes us
Ġswitzer land
Ġmet res
Ġcommunic ations
Ġexperi enced
Ġgol f
Ġpract ices
Ġexpress ed
ac co
Ġac res
Ġbelie f
Ġentr ance
Ġhigh light
Ġeng aged
Ġparticip ate
Ġcirc uit
Ġin aug
ic ts
Ġoper ate
Ġmiss ed
Ġassoci ate
Ġa y
Ġju an
Ġmarket ing
b u
er ick
Ġse ctor
Ġdang er
Ġb apt
Ġok lah
or row
Ġsl ide
Ġcoast al
Ġdinos aur
Ġc el
Ġloss es
Ġpoll ution
Ġp ant
Ġcommission er
Ġsurv ive
ra w
Ġatt ached
Ġsw ing
Ġtom orrow
Ġpl ot
Ġpubl ishing
Ġconv ent
Ġcab inet
kn ow
Ġl akes
Ġcar p
Ġpit ched
Ġcolon ial
re te
Ġr hod
ab et
Ġprov inc
Ġ193 3
Ġwood en
r an
r it
Ġs ight
Ġc ake
Ġm p
Ġn y
Ġst em
Ġv enez
Ġsub m
b ell
Ġg ulf
Ġgu ide
Ġexpl os
Ġkent ucky
Ġn an
os lav
Ġwind s
d i
Ġocc urs
Ġhistor ian
Ġcam bridge
Ġdam aged
Ġet c
Ġoklah oma
c ar
Ġmiss iss
Ġsol ution
Ġfav our
Ġpock et
Ġk l
Ġill ness
Ġmass ive
Ġproduc ing
Ġstrugg le
g as
Ġw ire
Ġcont aining
Ġele ven
Ġpull ed
Äģ b
Ġens ure
Ġd ates
ou red
Ġh ide
ro t
Ġal ph
Ġfact or
Ġtemper atures
og en
Ġev olution
ming ham
Ġargent ina
f it
Ġr aces
Ġpro ved
uc ing
Ġres igned
Ġsupp orts
Ġnet works
Ġtrib e
Ġtob acco
2 3
iv a
ast y
Ġcop y
Ġtenn es
Ġdanc ing
Ġpuzz le
Ġgord on
b age
Ġb ib
Ġoff ering
Ġapp ropri
Ġext ension
Ġdress ed
Ġs ed
Ġpus hed
Ġtennes see
om ot
Ġpro sec
Ġhis pan
Ġ191 0
f oot
Ġcom ic
Ġsc rew
lo ad
ive red
Ġpitts burgh
if er
Ġbl ues
Ġgen etic
Ġecu ador
Ġbo ats
Ġdisco ver
Ġholly wood
Ġdy nam
Ġbacter ia
b ra
ic ide
el d
Ġr av
Ġdr ag
i ques
o is
Ġcolle ges
Ġwalk er
Ġwat ched
b ar
Ġa hm
Ġc ass
Ġre new
Ġpo ison
Ġdisc rimin
r as
Å Ĥ
Ġle af
Ġ191 2
Ġguine a
b ul
Ġrequ ires
Ġtravel ed
Ġsubject s
Ġharv ard
t i
is y
Ġst y
Ġfe els
Ġche n
Ġdirect ors
Ġph ill
Ġgre g
Ġdel ivered
pl ace
Ġrespons ibility
Ġt ied
Ġli qu
Ġra ising
Ġhou ston
Ġcom fort
Ġplay off
Ġeconom ics
Ġdise ases
Ġdistingu ished
Ġwork er
Ġ6 4
ipp i
Ġsusp ended
ang el
Ġt ens
Ġp as
Ġpre fer
Ġsupp lies
ather ine
Ġmaint ained
Ġtr ucks
Ġeu ro
Ġ191 4
Ġc her
is er
it als
Ġe re
hel ess
in als
Ġam ate
Ġev alu
Ġan ch
Ġn ich
ct ic
Ġestablish ment
Ġd yn
Ġj ury
Ġsh an
Ġ17 8
Ġsubst it
Ġt ub
ard o
h al
Ġtrib une
Ġegypt ian
ang le
ott ed
ham mad
Ġder ived
Ġiniti ative
Ġtig ers
Ġwhe els
az ing
Ġocc as
Ġexpl ore
Ġkenn edy
t v
Ġpurch ase
Ġinterp ret
Ġf aces
Ġdist ributed
Ġperson nel
Ġbir mingham
Ġchalleng es
Ġgoo gle
d ie
Ġh art
Ġand erson
Ġland ing
Ġ191 6
Ġclear ly
Ġexped ition
r ition
Ã º
Ġat e
Ġbre ath
Ġ192 5
o or
Ġs i
Ġsh if
Ġarm en
Ġcollabor ation
Ġh amp
Ġag ents
Ġcomb ination
Ġcommitt ed
Ġfail ure
Ġniger ia
Ġs isters
Ġy ard
Ġ192 4
Ġcapt ure
Ġc ad
ess ions
ier ra
Ġviol ent
he as
Ġf ing
Ġp ic
Ġy ug
Ġu g
ap ore
Ġac know
Ġbel g
Ġdec re
Ġpri est
Ġh ans
Ġfar mer
Ġmc donald
Ġsurpr ise
athe red
Ġpremie red
c ing
Ġk ings
ain e
Ġprovinc ial
Ġd j
ow a
od e
Ġ192 1
Ġground s
Ġfr an
Ġfar ming
Ġ192 6
Ġf urn
st airs
Ġwill ing
Ġview ers
Ġt ony
Ġpro hib
Ġfind ings
Ġdef ence
Ġbroadcast ing
Ġschol ar
ut her
Ġar c
Ġad ap
vel and
iss ions
Ġcut ting
Ġfer n
Ġmississ ippi
Ġt as
Ġt ill
Ġres idence
Ġexamp les
Ġl augh
Ġwh ale
Ġdon ald
clus ion
Ġrober ts
Ġs ri
Ġto ky
Ġk an
Ġsub sc
Ġann ivers
Ġportug ues
Ã £
Ġb ump
Ġinv asion
ant ly
Ġlo b
Ġstre am
Ġ193 2
Ġsele ct
p ack
Ġgr ab
Ġfr ag
Ġs ie
il ton
Ġ192 7
Ġobs erved
fam ily
b ow
Ġunder ground
Ġsm o
Ġqueens land
Ġb c
Ġb ou
Ġeng ines
Ġsett le
good ness
Ġk ur
rib le
Ġlight s
Ġhurric ane
l an
Ġdis pl
Ġband s
Ġartist ic
Ġdram atic
Ġb are
est yle
ud i
Ġdec isions
Ġmic hel
Ġrob ot
Ġconstit u
Ġt iss
Ġa le
et ime
ak i
Ġsa il
Ġ192 9
Ġanton io
f riend
Ġorganis ation
Ġresist ance
Ġannivers ary
Ġt ap
Ġmed als
Ġsing apore
Ġdri vers
Ġd al
il ation
Ġy up
os is
Ġres olution
Ġdisc ip
2 9
Ġc os
am ent
Ġam end
Ġstr ate
e per
Ġdesign s
Ġrepl ace
Ġcomm it
Ġfil ed
Ġqual ifying
Ġmr s
Ġtrop hy
el le
Ġsuff ering
Ġg osh
Ġgh ost
Ġtoky o
Ġstrate gy
as y
ber ry
Ġslow ly
Ġsurround ed
Ġconver ted
h u
Ġst ages
Ġsp ots
Ġgrand father
Ġw aves
Ġc ute
al o
heas tern
in er
Ġw ine
Ġst ating
Ġal co
Ġen l
Ġinst ance
Ġent ering
Ġmembers hip
Ġstri p
Ġmir ror
c ol
um a
bo y
Ġhard er
go ing
Ġmo ves
Ġdecl ined
Ġprin cess
usal em
Ġportugues e
Ġr ating
Ġac id
Ġreturn s
Ġcy cle
Ġsmok ing
] (
Ġd ak
Ġh iding
Ġto oth
Ġj os
Ġare na
Ġmeet ings
Ġfigh ter
Ġadvert ising
Ġb one
Ġwork sh
Ġ4 3
Ġmiss ions
Ġdel iver
com ing
Ġrh in
Ġd at
Ġdo ors
Ġaddition ally
m at
o ons
Ġout do
Ġexp os
ograp hic
Ġjer usalem
Ġle ban
Ġdis aster
Ġpat ient
Ġcrop s
Ġpeek aboo
2 8
Ġhand ed
Ġdi ocese
Ġsat ell
Ġbrazil ian
Ġmed ium
4 5
Ġp av
st ers
Ġrel ief
Ġpun ish
Ġtal ent
Ġexperi ences
is f
Ġpe ar
Ġspe aker
Ġlim its
o z
Ġthe rap
Ġg ib
Ġab b
gr ad
iel der
Ġnorm ally
Ġark ansas
Ġvoc als
Ġalle g
Ġveter ans
Ġopin ion
Ġd ump
Ġtr ump
Ġen h
Ġout standing
Ġsm oke
Ġdescrib es
a a
m ers
r ate
Ġf ried
Ġy an
Ġde leg
Ġfl ed
Ġhol iday
Ġmusl ims
m un
p art
Ġdr agon
Ġstr uck
Ġhabit ats
Ġhawai i
Ġwound ed
/ ?
Ġh ut
Ġsh oe
Ġbl ind
ina e
Ġrob in
Ġcloth ing
Ġpri x
Ġkil omet
Ġd ick
Ġdri ven
Ġphot o
Ġut ah
Ġpro ced
Ġ4 7
Ġact ual
Ġcoun sel
Ġyug oslav
ver se
od ox
Ġjud ges
Ġcritic ism
Ġresident ial
re ck
Ġgovernment s
Ġaust in
Ġ191 5
Ġpret end
Ġcomput ers
Ġoppos ite
Ġamate ur
Ġw age
Ġ- -
Ġbr anc
Ġsl avery
Ġelectric ity
Ä ±
Ġd ave
Ġear s
e h
Ġc u
Ġch anc
Ġhand le
Ġreb u
Ġcompos er
Ġb oss
Ġlo ves
ph ones
Ġlou d
Ġpan el
Ġfranch ise
Ġautom atic
Ġnut rition
ve y
Ġident ify
Ġfro g
Ġmetrop olitan
Ġp enc
Ġsh ake
Ġche w
Ġsign al
Ġra f
Ġengine ers
omm od
Ġas c
Ġgr aph
Ġcount ies
Ġloc omot
Ġaust ria
Ġ192 3
b ing
i ors
v o
Ġc ord
Ġsust ain
Ġdism iss
w er
Ġexpl ain
Ġapart ment
f c
Ġb art
Ġre action
Ġv a
Ġup set
Ġsur gery
p ers
Ġacc ommod
Ġcle veland
Ġrul ing
Ġinstr uments
Ġp ond
Ġk elly
Ġtw itter
Ġmaint ain
Ġp ages
Ġi b
Ġneigh bour
Ġmanufact uring
Ġg athered
Ġval ues
Ġn ur
Ġno body
Ġco verage
Ġcommun e
Ġahm ad
Ġun iverse
Ġsh ir
Ġmet ers
Ġann ually
Ġanth ony
d ale
Ġn ash
Ġv ast
Ġtrans m
Ġfact ors
Ġa unt
Ġfing ers
2 6
Ġ +
Ġo ption
Ġav iation
Ġtest ed
Ġpal at
Ġsepar ated
Ġ _
Ġw ides
un a
ant ic
Ġind ex
Ġ193 1
Ġmag net
Ġstor age
Ġass ault
ch y
ra id
Ġgu il
Ġphil ip
Ġcover ing
Ġp el
Ġthous and
Ġk ay
Ġrem ark
Ġ192 2
Ġsold ier
Ġall en
Ġsing h
Ġdecl ine
r ane
Ġmoo re
Ġtr act
Ġcl ark
Ġdis ab
Ġ6 6
Ġgar bage
re z
Ġb eng
ow ed
Ġne ither
Ġrock y
Ġconsist ing
r m
Ġk y
Ġfl ows
Ġtem porary
Ġcamer as
Ġenter pr
w ick
Ġfin ance
Ġdou gl
Ġvac c
Ġro ots
Ġbl og
Ġrep ut
Ġpre par
Ġent rep
Ġcand y
Ġcru z
c op
Ġst amp
Ġfor get
Ġne v
Ġunivers al
Ġvot ing
Ġd ies
ust er
ious ly
Ġpen ins
onso red
Ġm ong
Ġsome where
Ġrec ip
Äģ d
Ġgard ens
9 9
u ch
Ġdef ensive
Ġbat tery
Ġbelong s
Ġentrep rene
Ġmin es
Ġstrong ly
Ġparticip ants
Ã ¥
Ġc um
Ġc attle
Ġr ated
Ġunder t
Ġmusic ian
Ġ25 0
Ġactiv ists
Ġadm ir
Ġnick n
ic an
Ġbu ying
Ġelse where
Ġdv d
m ble
Ġdo d
Ġcut s
Ġbrief ly
it ely
Ġsub family
Ġmed ie
Ġgrand ma
Ġtreat y
Ġpus hing
Ġaim ed
Ġbelg ium
ul s
Ġcompet ing
Ġmedie val
Ġind ians
ert o
Ġkeep s
Ġphys ics
Ġbes ides
ol as
Ġrecord ings
Ġpopular ity
Ġcertain ly
Ġlegisl ature
Ġpropos al
p read
Ġst rict
Ġdel ic
Ġconc rete
Ġm ack
Ġsp onsored
Ġsc ores
Ġwalk ed
Ã£ o
Ġwides pread
w s
Ġb out
Ġse ctions
Ġke vin
Ġroll ing
Ġfred erick
ure r
iss a
Ġmon ument
Ġcro at
Ġchart s
Ġextre me
Ġs ierra
Ġo sc
Ġl ith
Ġproduct ions
Ġconsum ers
ell o
Ġafter wards
Ġkill er
Ġintrod uction
Ġproduc ers
Ġnar r
Ġlabor atory
Ġcharl ie
Ġannoun cement
Ġand re
Ġn ba
Ġtrans ition
Ġless ons
Ġp hen
Ġhow ard
Ġval u
Ġmar ie
Ġsign ing
Ġ17 7
Ġra w
Ġpupp y
Ġb icy
Ġf ra
Ġp ants
Ġth rew
Ġsh ark
Ġnot ice
Ġaf raid
Ã¼ r
Ġbeg un
Ġsmo oth
Ġg amb
Ġr y
ort ed
Ġdeb t
ruct ure
Ġb in
Ġb aker
ic ut
Ġrec alled
Ġ5 2
Ġlaw rence
Ġpublic ations
en h
Ġ5 3
Ġbann ed
c ase
r um
ist a
Ġcr imes
Ġcur t
Ġbutter fly
Ġemploy ment
Ġspokes man
m us
Ġamb ass
Ġemot ional
el son
Ġcol ony
Ġus er
l ad
Ġp od
Ġtw e
Ġham mer
Ġinn ings
Ġmerg ed
Ġbi ke
Ġcra zy
Ġn ag
Ġtw in
Ġacc ur
Ġhun garian
Ġf old
os a
Ġdemocr ats
Ġden ied
ik h
Ġoutbre ak
v ak
Ġli ver
Ġco d
Ġqu ack
Ġclass ified
Ġmarket s
ial s
Ġcar ter
Ġsw iss
Ġw ick
Ġj et
Ġact ors
Ġsurpr ised
Ġaccom pl
Ġh idden
Ġsp aces
Ġmor ris
Ġmach ines
Ġg arc
Ġcontin uing
che ll
Ġincorpor ated
Ġcot ton
r ast
in ction
Ġd ust
Ġre venue
Ġcomp osition
Ġmar ry
2 7
tern al
Ġmon aster
Ġmove ments
Ġsubst ant
Ġton ight
Ġw ish
Ġsh ift
Ġover l
Ġpar alle
Ġrel oc
Ġsocial ist
Ġdi agn
Ġcoal ition
Ġg ross
Ġk ang
Ġmont real
Ġin her
Ġre ign
Ġdem ol
Ġdesc end
Ġfrank lin
Ġveget ables
Ġnep al
at us
Ġfor b
Ġob es
Ġche st
app ed
Ġtrib es
Ġenjo y
Ġsh aring
Ġapparent ly
Ġbord ers
Ġm ason
Ġd ating
Ġapp re
Ġmain e
y ers
Ġgen der
Ġ5 4
Ġwed ding
ĠÂ °
Ġbye bye
sp ec
Ġg ill
Ġg ap
Ġst ol
Ġr ig
Ġbr un
Ġrec re
Ġmet ro
Ġvolunte er
Ġlandsc ape
w oman
ed s
le ton
Ġ12 0
Ġpenal ty
Ġearthqu ake
Ġwhat ever
Ġachieve ment
Ġoverse as
Ġpar aly
Ġchr onic
Ġpu erto
Ġcra w
Ġregard ed
Ġadop t
Ã Ł
Ġle v
Ġform ing
iet ies
Ġoper ates
Ġaud io
Ġcub an
Ġcry ing
Ġmas ters
p ool
Ġl anc
Ġg ust
ac ent
Ġbu g
ann e
Ġsub mar
Ġhar ris
Ġcous in
z ens
Ġ5 6
Ġcamp s
Ġgrow s
a ver
Ġi owa
Ġsa ved
Ġbreed ing
Ġread ers
Ġnation wide
Ġ Ã©
iv ia
Ġab use
Ġsur ge
Ġprogram ming
Ġdoub les
Ġorth odox
in ate
ill ery
Ġ6 3
Ġsum mit
Ġwood s
ÃŃ a
Ġcontribut ions
Ġbeaut y
z h
Ġc ited
Ġd irt
Ġpl ain
Ġwhe at
Ġpeak ed
x y
Ġc ul
Ġf ib
Ġinv ent
Ġtechn iques
Ġconv inc
Ġ |
Ġsc out
ru ption
Ġcolle ctions
Ġcompet itive
Ġdom ain
Ġm ak
ar th
ac le
Ġinvol ving
Ġarri val
Ġnewsp apers
il st
Ġapp ly
Ġreg ulations
Ġgro cer
Ġcere al
Ġreput ation
b ie
Ġm ck
Ġd um
Ġbud d
Ġjim my
Ġencour aged
v ens
Ġm i
Ġl au
Ġmar ks
Ġvis its
Ġl on
ot o
Ġmotor cy
Ġsamp les
Ġportra it
Ġlo yal
Ġrel ative
Ġrank ing
Ġdyn asty
m i
or ph
Ġsy nd
Ġmy th
Ġprom ised
Ġhor iz
Ġsam uel
Ġreject ed
Ġup gr
Ġz im
Ġconnect icut
Ġadj ust
p ie
Ġth in
Ġdep ending
Ġfun ctions
Ġhen d
Ġshar ks
Ġcred its
Ġaccompan ied
Ġa ster
Ġl od
Ġdon ated
Ġexc ited
Ġtal ks
Ġminor ity
z ard
ill o
Ġnot ably
Ġprom pt
Ġfund ed
Ġaccount s
Ġconsum er
Ġguil ty
m ate
Ġa ver
Ġs oup
Ġth under
we iler
Ġ190 8
pect ive
Ġco le
Ġrec order
Ġdesign er
Ġparticip ation
Ġcontrovers ial
Ġbattal ion
Ġc ou
Ġ4 1
Ġuse ful
Ġstr ange
Ġgl ad
Ġdefe ating
Ġt act
Ġact ed
Ġob v
Ġsl ave
Ġgl ac
Ġrequire ments
Ġopt im
Ġperm ission
Ġd ing
Ġk az
Ġcar ib
Ġcar go
Ġma ur
Ġpercent age
Ġrecomm end
Ġwrest ling
Ġturt le
Ġexcell ent
f ielder
Ġs ending
on ian
Ġtr ig
Ġwar ri
u v
Ġc atherine
Ġl um
Ġg ur
Ġbre ast
Ġland ed
Ġm es
Ġh ud
uc cess
Ġchar ter
ash t
Ġ191 1
Ġ191 3
h us
Ġs ib
Ġk ath
Ġspec im
Ġcap s
Ġ188 0
Ġthre ats
Ġjo y
Ġuns uccess
Ġs ne
Ġto mb
Ġwh ilst
Ġcon qu
Ġcan c
ks hire
Ġhun ter
Ġpil ots
Ġsignificant ly
Ġin ner
Ġal an
Ġrele g
Ġnaz i
o en
st al
Ġwar ning
Ġserb ia
Ġc er
om p
om en
Ġpro ve
Ġref le
Ġken ya
Ġdougl as
Ġw es
om ing
Ġas ks
ess ed
Ġpit ch
Ġburn ed
Ġtransl ation
4 7
Ġfl av
be an
Ġtechn ologies
Ġnav ig
Ġ189 0
Ġsand y
Ġpow ered
Ġl ists
Ġn ik
Ġk le
Ġv it
Ġbu gs
Ġevery where
Ġge ar
med ia
Ġindust ries
Ġren ov
Ġw ang
Ġsong writer
Ġbal ance
Ġgu ests
Ġviol in
Ġathlet ics
Ġmyster y
Ġprote in
n ell
Ġp our
al ia
ail and
Ġmat ters
Ġabs ol
Ġspr ings
Ġoff ensive
Ġrem ove
Ġpers ons
Ġteac hes
Ġexpress ion
Ġt ons
Ġexp osed
Ġappro val
Ġcra ig
Ġtick le
Ġowners hip
Ġobes ity
igh ter
Ġsp ider
Ġman chester
Ġhosp itals
Ġlic ense
Ġd ated
Ġth ailand
Ġe ch
se x
Ġse min
Ġsec ure
Ġreg ul
Ġstat ue
Ġblank et
p oint
Ġres ign
Ġed ited
Ġopp onents
Ġfire f
Ġportug al
s ch
Ġp s
Ġme ets
Ġrem ote
cept ion
Ġarrang ed
Ġadap ted
Ġa str
Ġp orts
Ġwol ves
id ency
Ġr ou
Ġgrad es
Ġdi aper
Ġspok en
Ġreserv oir
l ot
r ant
Ġand y
Ġmar gin
Ġind eed
Ġatt ending
Ġactiv ist
greg ation
Ġshan gh
Ġde ar
io let
Ġel ig
Ġcap able
Ġencour age
Ġall ied
Ġequ ipped
Ġinf rast
Ġsym ph
Ġsudden ly
j ab
ubl in
Ġaut onom
Ġr io
Ġbel t
Ġblack s
Ġearl iest
Ġisol ated
ar on
Ġdo zens
Ġfe ather
Ġrest ored
Ġnon pro
Ġdemocr acy
Ġpr oud
Ġlo ved
rib ute
Ġste ad
Ġprison ers
Ġcorpor ate
Ġ *
Ġsp ark
Ġrep air
Ġyoung est
ar n
as er
Ġl iv
Ġcr ab
Ġun less
Ġpre gn
Ġ5 8
Ġpass age
Ġhop ing
Ġcook ing
Ġgradu ating
Ġsche me
a j
h um
Ġp iz
Ġm aced
il it
Ġab road
Ġstar red
Ġfro zen
Ġacknow led
l ings
Ġmod ified
Ġpurp oses
Ġy or
Ġpattern s
Ġc able
Ġp ure
Ġv ul
we alth
Ġrece pt
Ġcompet itions
Ġshangh ai
c ious
ur ally
Ġbas in
Ġadv ice
Ġmor gan
tr ack
Ġcooper ation
k ov
ic o
Ġ190 4
Ġrob inson
re r
Ġcan n
rop od
Ġjac ob
Ġgent le
Ġh ipp
rom e
Ġart illery
Ġjohn ny
Ġcost a
Ġmon ster
Ġrel atives
Ġtour ism
Ġgrand pa
Ġham ilton
Ġst akes
Ġr idge
ag h
th a
ab il
Ġcommon wealth
Ġ190 6
Ġdoll ar
Ġparliament ary
Ġstan ford
Ġcav al
Ġb ars
Ġj ason
Ġsc ared
Ġany where
Ġcirc um
Ġexperiment al
4 8
Ġl ank
Ġimp oss
Ġestim ates
Ġwe igh
Ġ5 1
Ġcr us
Ġass ign
Ġhonor ary
Ġt ut
Ġc ock
en burg
ul um
ens is
Ġgener ations
33 1
Ġatmosp here
Ġm s
Ġl ip
Ġrev ol
Ġb ert
Ġf oster
Ġpro l
ah a
Ġsm ell
Ġ6 00
Ġbill s
Ġplan ets
Å Ł
Ġc raft
Ġf ence
is ation
Ġso ap
Ġalex and
Ġbranc hes
Ġg ift
ens ity
Ġann a
Ġpal m
Ġvalu able
and o
em p
Ġ7 7
Ġchrist opher
Ġrapid ly
Ġmarg aret
Ġjoh ann
Ġro ger
Ġint el
enc ing
Ġreal ized
Ġtrib al
g ro
is i
Ġv s
Ġco at
Ġ5 7
Ġdep os
Ġmill s
Ġext inct
