{"[MASK]":0,"[LONG]":1,"<pad>":2,"<unk>":3,"<s>":4,"</s>":5,"!":6,"\"":7,"#":8,"$":9,"%":10,"&":11,"'":12,"(":13,")":14,"*":15,"+":16,",":17,"-":18,".":19,"/":20,"0":21,"1":22,"2":23,"3":24,"4":25,"5":26,"6":27,"7":28,"8":29,"9":30,":":31,";":32,"<":33,"=":34,">":35,"?":36,"@":37,"A":38,"B":39,"C":40,"D":41,"E":42,"F":43,"G":44,"H":45,"I":46,"J":47,"K":48,"L":49,"M":50,"N":51,"O":52,"P":53,"Q":54,"R":55,"S":56,"T":57,"U":58,"V":59,"W":60,"X":61,"Y":62,"Z":63,"[":64,"\\":65,"]":66,"^":67,"_":68,"`":69,"a":70,"b":71,"c":72,"d":73,"e":74,"f":75,"g":76,"h":77,"i":78,"j":79,"k":80,"l":81,"m":82,"n":83,"o":84,"p":85,"q":86,"r":87,"s":88,"t":89,"u":90,"v":91,"w":92,"x":93,"y":94,"z":95,"{":96,"|":97,"}":98,"~":99,"¡":100,"¢":101,"£":102,"¤":103,"¥":104,"¦":105,"§":106,"¨":107,"©":108,"ª":109,"«":110,"¬":111,"®":112,"¯":113,"°":114,"±":115,"²":116,"³":117,"´":118,"µ":119,"¶":120,"·":121,"¸":122,"¹":123,"º":124,"»":125,"¼":126,"½":127,"¾":128,"¿":129,"À":130,"Á":131,"Â":132,"Ã":133,"Ä":134,"Å":135,"Æ":136,"Ç":137,"È":138,"É":139,"Ê":140,"Ë":141,"Ì":142,"Í":143,"Î":144,"Ï":145,"Ð":146,"Ñ":147,"Ò":148,"Ó":149,"Ô":150,"Õ":151,"Ö":152,"×":153,"Ø":154,"Ù":155,"Ú":156,"Û":157,"Ü":158,"Ý":159,"Þ":160,"ß":161,"à":162,"á":163,"â":164,"ã":165,"ä":166,"å":167,"æ":168,"ç":169,"è":170,"é":171,"ê":172,"ë":173,"ì":174,"í":175,"î":176,"ï":177,"ð":178,"ñ":179,"ò":180,"ó":181,"ô":182,"õ":183,"ö":184,"÷":185,"ø":186,"ù":187,"ú":188,"û":189,"ü":190,"ý":191,"þ":192,"ÿ":193,"Ā":194,"ā":195,"Ă":196,"ă":197,"Ą":198,"ą":199,"Ć":200,"ć":201,"Ĉ":202,"ĉ":203,"Ċ":204,"ċ":205,"Č":206,"č":207,"Ď":208,"ď":209,"Đ":210,"đ":211,"Ē":212,"ē":213,"Ĕ":214,"ĕ":215,"Ė":216,"ė":217,"Ę":218,"ę":219,"Ě":220,"ě":221,"Ĝ":222,"ĝ":223,"Ğ":224,"ğ":225,"Ġ":226,"ġ":227,"Ģ":228,"ģ":229,"Ĥ":230,"ĥ":231,"Ħ":232,"ħ":233,"Ĩ":234,"ĩ":235,"Ī":236,"ī":237,"Ĭ":238,"ĭ":239,"Į":240,"į":241,"İ":242,"ı":243,"Ĳ":244,"ĳ":245,"Ĵ":246,"ĵ":247,"Ķ":248,"ķ":249,"ĸ":250,"Ĺ":251,"ĺ":252,"Ļ":253,"ļ":254,"Ľ":255,"ľ":256,"Ŀ":257,"ŀ":258,"Ł":259,"ł":260,"Ń":261,"Ġt":262,"Ġa":263,"he":264,"in":265,"Ġthe":266,"Ġs":267,"Ġ.":268,"re":269,"Ġo":270,"Ġw":271,"er":272,"Ġc":273,"Ġ,":274,"at":275,"on":276,"Ġb":277,"an":278,"Ġf":279,"is":280,"it":281,"Ġp":282,"ed":283,"en":284,"Ġm":285,"or":286,"Ġin":287,"es":288,"Ġan":289,"Ġd":290,"ou":291,"ar":292,"al":293,"Ġh":294,"Ġof":295,"ing":296,"as":297,"Ġto":298,"Ġl":299,"Ġand":300,"Ġn":301,"ic":302,"Ġth":303,"Ġg":304,"ro":305,"Ġ\"":306,"ion":307,"il":308,"le":309,"Ġre":310,"Ġy":311,"Ġhe":312,"Ġe":313,"Ġ'":314,"ent":315,"om":316,"st":317,"am":318,"id":319,"Ġon":320,"el":321,"Ġis":322,"et":323,"Ġ1":324,"ay":325,"Ġu":326,"ol":327,"Ġst":328,"Ġit":329,"ad":330,"ac":331,"Ġwh":332,"ow":333,"ot":334,"Ġwas":335,"Ġfor":336,"ve":337,"Ġ?":338,"ig":339,"ut":340,"Ġbe":341,"Ġthat":342,"ir":343,"Ġr":344,"Ġyou":345,"ur":346,"im":347,"ly":348,"ver":349,"Ġ-":350,"ch":351,"Ġas":352,"ct":353,"Ġal":354,"se":355,"ation":356,"Ġ2":357,"Ġj":358,"Ġk":359,"ith":360,"ter":361,"Ġwith":362,"Ġat":363,"Ġse":364,"ce":365,"Ġch":366,"Ġwe":367,"her":368,"Ġde":369,"ul":370,"ist":371,"Ġi":372,"Ġv":373,"and":374,"un":375,"us":376,"ag":377,"Ġdo":378,"Ġ19":379,"Ġpro":380,"th":381,"Ġby":382,"oun":383,"Ġcom":384,"Ġcon":385,"Ġ20":386,"oo":387,"ers":388,"ill":389,"Ġare":390,"ri":391,"rom":392,"ain":393,"Ġ)":394,"op":395,"ld":396,"Ġ(":397,"um":398,"igh":399,"Ġne":400,"ak":401,"Ġun":402,"Ġmo":403,"Ġha":404,"Ġfrom":405,"em":406,"est":407,"ant":408,"Ġhis":409,"Ġpl":410,"all":411,"Ġsh":412,"ies":413,"pp":414,"ab":415,"art":416,"ud":417,"res":418,"Ġor":419,"red":420,"Ġsp":421,"Ġle":422,"os":423,"Ġwhat":424,"oc":425,"if":426,"Ġsu":427,"Ġsa":428,"ate":429,"iv":430,"ity":431,"Ġthey":432,"Ġthis":433,"ight":434,"Ġwhe":435,"ber":436,"Ġar":437,"Ġtr":438,"Ġex":439,"qu":440,"ap":441,"Ġnot":442,"Ġgo":443,"ort":444,"ess":445,"ard":446,"Ġye":447,"Ġhave":448,"ell":449,"Ġwor":450,"âĢ":451,"ia":452,"ie":453,"ment":454,"Ġshe":455,"gh":456,"ive":457,"ust":458,"Ġen":459,"ge":460,"our":461,"ich":462,"ack":463,"ast":464,"Ġ201":465,"ound":466,"Ġone":467,"ren":468,"ian":469,"ated":470,"ome":471,"ong":472,"Ġsaid":473,"ould":474,"Ġhas":475,"Ġab":476,"Ġro":477,"Ġwere":478,"ame":479,"Ġcan":480,"ke":481,"out":482,"Ġcl":483,"Ġthere":484,"ip":485,"Ġwho":486,"Ġte":487,"Ġgr":488,"Ġno":489,"Ġbut":490,"'t":491,"so":492,"ial":493,"Ġaf":494,"ine":495,"ary":496,"Ġme":497,"ough":498,"ther":499,"Ġalso":500,"Ġher":501,"Ġall":502,"ide":503,"Ġcomp":504,"Ġli":505,"ĠâĢ":506,"ub":507,"ect":508,"Ġnew":509,"00":510,"Ġsc":511,"Ġman":512,"der":513,"ook":514,"Ġtheir":515,"ish":516,"ĠĊ":517,"Ġup":518,"Ġam":519,"Ġbr":520,"Ġwhich":521,"ice":522,"ood":523,"ore":524,"Ġhad":525,"Ġyear":526,"Ġad":527,"av":528,"Ġout":529,"end":530,"Ġfir":531,"Ġpe":532,"Ġtw":533,"cl":534,"own":535,"ally":536,"ah":537,"ry":538,"age":539,"Ġ200":540,"uc":541,"Ġplay":542,"ions":543,"Ġint":544,"Ġag":545,"Ġcol":546,"Ġmar":547,"Ġac":548,"one":549,"Ġfirst":550,"ake":551,"Ġkn":552,"ous":553,"Ġco":554,"per":555,"pt":556,"ount":557,"ure":558,"Ġpart":559,"Ġits":560,"ric":561,"Ġsch":562,"ans":563,"Ġoff":564,"Ġso":565,"ue":566,"Ġmore":567,"iz":568,"ord":569,"ra":570,"ater":571,"ass":572,"og":573,"Ġus":574,"Ġ#":575,"Ġother":576,"Ġser":577,"Ġtim":578,"Ġwork":579,"Ġbec":580,"au":581,"Ġfe":582,"Ġafter":583,"ool":584,"ts":585,"Ġcont":586,"ire":587,"ree":588,"Ġsome":589,"ang":590,"Ġbo":591,"Ġper":592,"ild":593,"Ġwhere":594,"Ġcomm":595,"ign":596,"Ġtwo":597,"Ġoh":598,"Ġabout":599,"ace":600,"ach":601,"itt":602,"Ġwhen":603,"hed":604,"ind":605,"Ġover":606,"Ġ:":607,"Ġrec":608,"Ġwill":609,"orn":610,"wn":611,"Ġlike":612,"Ġres":613,"Ġhow":614,"Ġschool":615,"ical":616,"Ġbl":617,"Ġbeen":618,"Ġrep":619,"vers":620,"ond":621,"Ġ3":622,"Ġ18":623,"ff":624,"Ġapp":625,"ec":626,"Ġthem":627,"Ġjo":628,"Ġstud":629,"man":630,"Ġdid":631,"ru":632,"Ġim":633,"ents":634,"ople":635,"Ġwould":636,"Ġpeople":637,"ens":638,"are":639,"Ġok":640,"act":641,"Ġdis":642,"Ġev":643,"ite":644,"Ġget":645,"Ġind":646,"ick":647,"very":648,"ade":649,"ink":650,"amp":651,"ational":652,"Ġyour":653,"Ġtime":654,"ll":655,"ved":656,"ition":657,"ates":658,"Ġsee":659,"Ġokay":660,"Ġcar":661,"ations":662,"ction":663,"Ġfl":664,"Ġ!":665,"Ġwant":666,"Ġcount":667,"clud":668,"Ġhere":669,"Ġthan":670,"Ġqu":671,"Ġla":672,"Ġbu":673,"ors":674,"ail":675,"od":676,"Ġpres":677,"Ġpr":678,"ory":679,"Ġright":680,"land":681,"ings":682,"ile":683,"Ġmay":684,"Ġpo":685,"Ġpre":686,"ays":687,"ib":688,"Ġinclud":689,"we":690,"Ġnow":691,"Ġhim":692,"ult":693,"Ġpol":694,"ence":695,"ase":696,"urn":697,"Ġdes":698,"ubl":699,"ance":700,"Ġform":701,"tern":702,"Ġcent":703,"Ġinto":704,"fe":705,"eric":706,"Ġsec":707,"ep":708,"ited":709,"Ġbet":710,"Ġjust":711,"ose":712,"ks":713,"ely":714,"Ġ;":715,"uring":716,"Ġlook":717,"ied":718,"vel":719,"orm":720,"les":721,"ased":722,"Ġfin":723,"able":724,"Ġpar":725,"Ġthen":726,"Ġyears":727,"Ġdist":728,"Ġfam":729,"iss":730,"Ġfr":731,"Ġfound":732,"te":733,"old":734,"ath":735,"Ġameric":736,"Ġwell":737,"als":738,"Ġ4":739,"Ġput":740,"Ġunder":741,"Ġact":742,"ily":743,"Ġgen":744,"oup":745,"Ġatt":746,"Ġed":747,"Ġph":748,"Ġear":749,"Ġmany":750,"Ġele":751,"Ġtoo":752,"Ġback":753,"ann":754,"Ġacc":755,"Ġexp":756,"Ġgre":757,"gan":758,"ason":759,"ivers":760,"Ġagain":761,"Ġ199":762,"Ġreg":763,"Ġif":764,"Ġyeah":765,"Ġ5":766,"Ġem":767,"Ġmin":768,"oll":769,"Ġspec":770,"Ġduring":771,"Ġonly":772,"Ġloc":773,"Ġaw":774,"Ġteam":775,"gr":776,"Ġbro":777,"Ġmon":778,"Ġmost":779,"ton":780,"Ġcr":781,"Ġsy":782,"Ġcall":783,"Ġknow":784,"anc":785,"Ġgood":786,"ince":787,"ft":788,"Ġlet":789,"Ġsm":790,"Ġhel":791,"ember":792,"Ġworld":793,"ĠâĢĶ":794,"Ġass":795,"ident":796,"Ġwar":797,"ause":798,"ug":799,"hip":800,"rop":801,"Ġthese":802,"Ġz":803,"ress":804,"Ġrem":805,"Ġthr":806,"Ġlo":807,"Ġthree":808,"Ġcons":809,"Ġimp":810,"io":811,"rent":812,"other":813,"ne":814,"Ġpubl":815,"Ġdown":816,"oth":817,"ious":818,"Ġhigh":819,"Ġgu":820,"vern":821,"Ġthink":822,"Ġmu":823,"ict":824,"ix":825,"Ġcould":826,"Ġgroup":827,"ouse":828,"rib":829,"Ġpop":830,"Ġend":831,"int":832,"Ġunivers":833,"Ġthrough":834,"az":835,"Ġfil":836,"Ġmus":837,"Ġeng":838,"Ġmade":839,"Ġgovern":840,"ating":841,"outh":842,"Ġstate":843,"Ġnational":844,"Ġshow":845,"Ġart":846,"ists":847,"Ġcolle":848,"Ġsub":849,"fore":850,"Ġmy":851,"Ġprod":852,"hes":853,"Ġsay":854,"ons":855,"Ġmake":856,"âĢĵ":857,"ph":858,"ished":859,"my":860,"hing":861,"Ġprov":862,"Ġhelp":863,"Ġnor":864,"Ġdoes":865,"cc":866,"Ġany":867,"Ġret":868,"row":869,"Ġna":870,"ys":871,"enc":872,"Ġ198":873,"Ġchild":874,"Ġ6":875,"olog":876,"Ġbecause":877,"day":878,"rict":879,"Ġrel":880,"Ġdr":881,"Ġwr":882,"ters":883,"form":884,"ty":885,"Ġma":886,"Ġuniversity":887,"Ġop":888,"Ġseason":889,"Ġcity":890,"air":891,"oot":892,"Ġdep":893,"Ġsur":894,"Ġinst":895,"Ġlitt":896,"ral":897,"Ġlater":898,"ving":899,"Ġmed":900,"Ġsupp":901,"Ġnum":902,"Ġbefore":903,"Ġlittle":904,"Ġfour":905,"Ġwhile":906,"ween":907,"Ġchar":908,"Ġsecond":909,"ities":910,"lo":911,"Ġbetween":912,"ife":913,"Ġbel":914,"Ġdec":915,"Ġel":916,"Ġrele":917,"ollow":918,"Ġcre":919,"Ġcompan":920,"Ġinv":921,"ball":922,"Ġstates":923,"Ġlong":924,"ics":925,"ting":926,"Ġbook":927,"ular":928,"Ġfollow":929,"Ġstart":930,"Ġinc":931,"Ġknown":932,"iel":933,"Ġair":934,"Ġfilm":935,"ames":936,"Ġob":937,"Ġrecord":938,"Ġsing":939,"Ġamerican":940,"mber":941,"up":942,"Ġca":943,"ank":944,"ork":945,"Ġke":946,"Ġbig":947,"Ġwin":948,"Ġlar":949,"Ġused":950,"Ġmat":951,"Ġbeing":952,"Ġlead":953,"Ġvery":954,"Ġunited":955,"ision":956,"ier":957,"Ġold":958,"ange":959,"Ġfamily":960,"ina":961,"ather":962,"Ġsuch":963,"Ġent":964,"ative":965,"Ġhouse":966,"Ġsouth":967,"Ġdire":968,"Ġgovernment":969,"ss":970,"Ġ197":971,"Ġdistrict":972,"Ġthose":973,"Ġoffic":974,"Ġadd":975,"Ġdif":976,"Ġown":977,"ning":978,"ale":979,"Ġ7":980,"Ġmil":981,"Ġlaw":982,"Ġpa":983,"Ġborn":984,"cted":985,"ck":986,"Ġrun":987,"ars":988,"Ġgon":989,"Ġcalled":990,"Ġcome":991,"Ġsoc":992,"ific":993,"ble":994,"Ġset":995,"Ġneed":996,"Ġsci":997,"ird":998,"aking":999,"000":1000,"ural":1001,"Ġtake":1002,"omet":1003,"iet":1004,"ards":1005,"its":1006,"ered":1007,"ject":1008,"Ġgoing":1009,"Ġgener":1010,"Ġopen":1011,"Ġsl":1012,"Ġbuild":1013,"Ġap":1014,"ines":1015,"Ġcap":1016,"ful":1017,"Ġwater":1018,"Ġserv":1019,"Ġter":1020,"Ġday":1021,"Ġhome":1022,"Ġalb":1023,"ise":1024,"Ġlast":1025,"Ġ2013":1026,"Ġmill":1027,"Ġbus":1028,"ull":1029,"Ġnorth":1030,"Ġsw":1031,"Ġhist":1032,"Ġway":1033,"Ġhead":1034,"Ġagainst":1035,"ual":1036,"Ġpos":1037,"Ġsince":1038,"Ġtrans":1039,"Ġ10":1040,"Ġmet":1041,"ost":1042,"Ġbar":1043,"dy":1044,"Ġcal":1045,"Ġboth":1046,"the":1047,"til":1048,"Ġfar":1049,"ures":1050,"let":1051,"Ġ196":1052,"Ġche":1053,"ever":1054,"br":1055,"Ġgot":1056,"ock":1057,"ized":1058,"Ġinter":1059,"get":1060,"Ġmusic":1061,"Ġred":1062,"Ġsong":1063,"Ġ8":1064,"co":1065,"Ġanother":1066,"Ġevery":1067,"velop":1068,"oney":1069,"Ġjun":1070,"Ġcommun":1071,"Ġsign":1072,"ger":1073,"ins":1074,"Ġclass":1075,"Ġfun":1076,"Ġaround":1077,"uh":1078,"Ġintern":1079,"ert":1080,"Ġuse":1081,"ave":1082,"gram":1083,"alk":1084,"ived":1085,"Ġname":1086,"Ġcour":1087,"elf":1088,"uss":1089,"Ġincluding":1090,"Ġvill":1091,"uck":1092,"Ġmem":1093,"Ġfoot":1094,"Ġir":1095,"Ġbecame":1096,"Ġdevelop":1097,"ces":1098,"Ġaut":1099,"Ġeven":1100,"Ġcare":1101,"ants":1102,"ven":1103,"ought":1104,"Ġstudents":1105,"Ġest":1106,"ired":1107,"Ġprogram":1108,"Ġju":1109,"ik":1110,"iam":1111,"Ġann":1112,"ower":1113,"Ġread":1114,"Ġprof":1115,"Ġstr":1116,"Ġchildren":1117,"Ġgame":1118,"ctor":1119,"iew":1120,"Ġref":1121,"led":1122,"Ġwom":1123,"Ġmuch":1124,"Ġpresident":1125,"Ġstill":1126,"Ġnear":1127,"Ġhowever":1128,"Ġappe":1129,"Ġpublic":1130,"min":1131,"Ġbre":1132,"bers":1133,"att":1134,"Ġalbum":1135,"Ġcur":1136,"Ġsomet":1137,"hn":1138,"Ġ17":1139,"Ġ194":1140,"Ġuntil":1141,"ĠâĢĵ":1142,"ually":1143,"Ġmain":1144,"Ġ9":1145,"enn":1146,"ek":1147,"Ġcompany":1148,"Ġext":1149,"to":1150,"gg":1151,"ained":1152,"ms":1153,"Ġnumber":1154,"ury":1155,"ives":1156,"ounc":1157,"ague":1158,"ield":1159,"Ġpri":1160,"Ġwon":1161,"Ġ15":1162,"Ġsame":1163,"Ġoper":1164,"Ġsim":1165,"ley":1166,"Ġplayed":1167,"Ġrece":1168,"Ġdiffe":1169,"son":1170,"ional":1171,"Ġger":1172,"Ġge":1173,"ane":1174,"Ġins":1175,"Ġcounty":1176,"way":1177,"Ġ195":1178,"Ġ$":1179,"Ġhand":1180,"ama":1181,"ues":1182,"ared":1183,"Ġturn":1184,"ee":1185,"Ġmom":1186,"ute":1187,"xt":1188,"Ġsmall":1189,"Ġeach":1190,"Ġland":1191,"ats":1192,"ross":1193,"ash":1194,"Ġ16":1195,"Ġfind":1196,"Ġrese":1197,"ves":1198,"Ġshould":1199,"Ġspecies":1200,"Ġpers":1201,"Ġorgan":1202,"ket":1203,"Ġdef":1204,"urch":1205,"akes":1206,"Ġreleased":1207,"Ġleg":1208,"Ã©":1209,"ulation":1210,"aw":1211,"ye":1212,"amed":1213,"Ġsever":1214,"ains":1215,"stem":1216,"Ġ12":1217,"Ġdem":1218,"ried":1219,"arch":1220,"Ġcountry":1221,"Ġprot":1222,"Ġleague":1223,"Ġplace":1224,"Ġseveral":1225,"ying":1226,"Ġtre":1227,"Ġprodu":1228,"ere":1229,"eter":1230,"alth":1231,"fl":1232,"Ġwest":1233,"orts":1234,"iver":1235,"ner":1236,"Ġjohn":1237,"Ġclub":1238,"Ġpass":1239,"Ġhar":1240,"Ġlife":1241,"Ġarea":1242,"Ġpat":1243,"Ġcamp":1244,"Ġstre":1245,"Ġeff":1246,"mer":1247,"Ġ/":1248,"Ġseries":1249,"ov":1250,"cent":1251,"ined":1252,"Ġsystem":1253,"Ġdesign":1254,"Ġhapp":1255,"els":1256,"osed":1257,"Ġsk":1258,"ae":1259,"Ġconst":1260,"ng":1261,"yp":1262,"Ġcor":1263,"Ġchamp":1264,"ution":1265,"Ġhun":1266,"Ġaug":1267,"Ġfollowing":1268,"Ġhum":1269,"Ġvillage":1270,"Ġyes":1271,"anna":1272,"Ġeduc":1273,"Ġra":1274,"Ġtook":1275,"Ġreturn":1276,"Ġformer":1277,"ont":1278,"Ġcollege":1279,"Ġfootball":1280,"Ġmid":1281,"Ġste":1282,"Ġorig":1283,"Ġtop":1284,"Ġblack":1285,"be":1286,"ism":1287,"ments":1288,"Ġmiss":1289,"Ġjan":1290,"Ġcontin":1291,"Ġexper":1292,"augh":1293,"Ġtown":1294,"Ġdiv":1295,"Ġoct":1296,"ott":1297,"Ġsept":1298,"Ġprofess":1299,"ible":1300,"Ġlist":1301,"Ġfive":1302,"Ġearly":1303,"Ġuh":1304,"Ġbab":1305,"Ġresp":1306,"Ġrev":1307,"Ġbas":1308,"ries":1309,"iness":1310,"Ġsays":1311,"Ġvis":1312,"Ġchr":1313,"ok":1314,"Ġeu":1315,"Ġbased":1316,"Ġtour":1317,"icip":1318,"Ġofficial":1319,"Ġaugust":1320,"Ġgir":1321,"ital":1322,"Ġaust":1323,"Ġdifferent":1324,"Ġorigin":1325,"Ġmaj":1326,"Ġwhy":1327,"pl":1328,"Ġbegan":1329,"Ġrom":1330,"Ġtech":1331,"Ġvar":1332,"Ġpark":1333,"bs":1334,"Ġrest":1335,"ement":1336,"Ġsit":1337,"ised":1338,"Ġsen":1339,"Ġ193":1340,"ology":1341,"Ġgerman":1342,"Ġsix":1343,"Ġwomen":1344,"cess":1345,"Ġinternational":1346,"ages":1347,"Ġmarch":1348,"oci":1349,"Ġ2012":1350,"Ġseptember":1351,"Ġbest":1352,"Ġfeat":1353,"Ġfore":1354,"ided":1355,"ĠâĢĻ":1356,"Ġfood":1357,"ober":1358,"erg":1359,"Ġpopulation":1360,"Ġstand":1361,"ior":1362,"Ġwanna":1363,"ai":1364,"che":1365,"Ġdoing":1366,"Ġtell":1367,"Ġoctober":1368,"Ġassoci":1369,"Ġjune":1370,"Ġadv":1371,"Ġgreat":1372,"Ġsn":1373,"Ġleft":1374,"Ġmillion":1375,"ten":1376,"Ġcle":1377,"Ġlos":1378,"Ġ2011":1379,"Ġyork":1380,"Ġalong":1381,"Ġval":1382,"Ġgl":1383,"Ġsupport":1384,"Ġline":1385,"ark":1386,"ime":1387,"Ġwhite":1388,"Ġav":1389,"atch":1390,"ister":1391,"Ġour":1392,"Ġ11":1393,"Ġsal":1394,"Ġjuly":1395,"by":1396,"Ġmonth":1397,"uary":1398,"Ġbusiness":1399,"eng":1400,"Ġgirl":1401,"Ġwent":1402,"Ġmajor":1403,"sh":1404,"ices":1405,"Ġcompet":1406,"Ġaccord":1407,"cer":1408,"Ġes":1409,"Ġgames":1410,"aining":1411,"ured":1412,"Ġhealth":1413,"Ġprev":1414,"med":1415,"iving":1416,"read":1417,"cept":1418,"Ġ2014":1419,"ets":1420,"Ġanim":1421,"Ġdel":1422,"Ġpolit":1423,"ilt":1424,"Ġbill":1425,"Ġang":1426,"Ġkill":1427,"hern":1428,"ril":1429,"Ġmember":1430,"Ġnext":1431,"Ġ192":1432,"Ġband":1433,"ality":1434,"gin":1435,"ps":1436,"Ġaway":1437,"Ġheld":1438,"Ġscient":1439,"ling":1440,"aced":1441,"Ġyoung":1442,"Ġmoney":1443,"iting":1444,"ility":1445,"Ġeast":1446,"Ġrepres":1447,"Ġperson":1448,"Ġchurch":1449,"Ġmen":1450,"iter":1451,"Ġmembers":1452,"Ġweek":1453,"Ġmag":1454,"Ġtechn":1455,"Ġjanuary":1456,"rap":1457,"Ġcame":1458,"lish":1459,"Ġec":1460,"uced":1461,"Ġ13":1462,"ator":1463,"ones":1464,"Ġcalif":1465,"Ġfew":1466,"ides":1467,"Ġnove":1468,"Ġdesc":1469,"ians":1470,"Ġnovember":1471,"Ġdece":1472,"Ġ14":1473,"ended":1474,"Ġport":1475,"Ġallow":1476,"ium":1477,"Ġreport":1478,"Ġaccording":1479,"Ġcontro":1480,"Ġmove":1481,"ued":1482,"ene":1483,"Ġbuilding":1484,"ipp":1485,"Ġsomething":1486,"riend":1487,"Ġchang":1488,"Ġdra":1489,"bo":1490,"Ġevent":1491,"Ġgeneral":1492,"ster":1493,"Ġapril":1494,"Ġchampions":1495,"Ġnat":1496,"ids":1497,"Ġ2006":1498,"me":1499,"Ġbrit":1500,"Ġ191":1501,"Ġking":1502,"Ġsum":1503,"Ġdeb":1504,"Ġaward":1505,"Ġtit":1506,"ently":1507,"Ġhal":1508,"inc":1509,"Ġlocal":1510,"Ġgrow":1511,"Ġmommy":1512,"Ġparty":1513,"Ġlocated":1514,"Ġeurop":1515,"Ġimport":1516,"Ġdecember":1517,"Ġtest":1518,"Ġlab":1519,"Ġdepart":1520,"Ġprom":1521,"Ġball":1522,"Ġside":1523,"Ġmanag":1524,"Ġson":1525,"Ġservice":1526,"Ġdad":1527,"Ġpain":1528,"Ġafric":1529,"Ġsucc":1530,"Ġ%":1531,"ected":1532,"Ġhard":1533,"Ġproble":1534,"ially":1535,"Ġnamed":1536,"Ġta":1537,"Ġocc":1538,"Ġdri":1539,"Ġeurope":1540,"Ġsol":1541,"ots":1542,"ened":1543,"Ġamong":1544,"Ġfinal":1545,"Ġeas":1546,"Ġgive":1547,"hor":1548,"Ġcaliforn":1549,"Ġdied":1550,"Ġproject":1551,"hers":1552,"rence":1553,"Ġstarted":1554,"ness":1555,"Ġtri":1556,"Ġeat":1557,"Ġsuccess":1558,"Ġruss":1559,"Ġsqu":1560,"Ġthird":1561,"Ġcond":1562,"Ġep":1563,"Ġstation":1564,"Ġhold":1565,"Ġreally":1566,"Ġnews":1567,"Ġreceived":1568,"ward":1569,"Ġbaby":1570,"Ġlarge":1571,"Ġsingle":1572,"Ġbetter":1573,"Ġchrist":1574,"Ġcalifornia":1575,"Ġhuh":1576,"Ġrepresent":1577,"Ġdeath":1578,"Ġtimes":1579,"Ġ2010":1580,"Ġje":1581,"ison":1582,"Ġroad":1583,"Ġlevel":1584,"Ġsun":1585,"ret":1586,"Ġ2007":1587,"Ġstudy":1588,"Ġmod":1589,"Ġrad":1590,"Ġreal":1591,"Ġserved":1592,"Ġhop":1593,"Ġbuilt":1594,"Ġmilit":1595,"hm":1596,"Ġspe":1597,"Ġpercent":1598,"yl":1599,"Ġfriend":1600,"Ġaustral":1601,"Ġhistory":1602,"side":1603,"na":1604,"Ġer":1605,"Ġcurrent":1606,"ched":1607,"Ġbeh":1608,"Ġcentral":1609,"atic":1610,"Ġsan":1611,"Ġaff":1612,"onom":1613,"ention":1614,"Ġfather":1615,"Äģ":1616,"Ġopp":1617,"Ġresearch":1618,"Ġisland":1619,"Ġincre":1620,"for":1621,"Ġelect":1622,"Ġshort":1623,"Ġpower":1624,"Ġrequ":1625,"Ġstory":1626,"erv":1627,"Ġthough":1628,"Ġconf":1629,"port":1630,"Ġtyp":1631,"Ġpost":1632,"Ġhm":1633,"Ġtele":1634,"Ġgrad":1635,"Ġiss":1636,"ned":1637,"Ġgrand":1638,"Ġcourt":1639,"Ġcentury":1640,"Ġkeep":1641,"ored":1642,"Ġriver":1643,"Ġtoday":1644,"Ġcenter":1645,"Ġpolice":1646,"Ġgreen":1647,"aper":1648,"Ġstar":1649,"Ġplan":1650,"ract":1651,"Ġchampionship":1652,"Ġless":1653,"aff":1654,"Ġmaking":1655,"nam":1656,"Ġcup":1657,"ana":1658,"eder":1659,"com":1660,"ump":1661,"Ġlive":1662,"Ġinclude":1663,"ze":1664,"ately":1665,"used":1666,"Ġlear":1667,"ush":1668,"Ġhistor":1669,"Ġfield":1670,"ille":1671,"Ġestab":1672,"ted":1673,"Ġappro":1674,"Ġfamil":1675,"aces":1676,"por":1677,"gress":1678,"Ġfeb":1679,"Ġbelie":1680,"Ġrock":1681,"Ġnight":1682,"ese":1683,"Ġarch":1684,"Ġkind":1685,"Ġeducation":1686,"ony":1687,"Ġtoget":1688,"Ġspecial":1689,"Ġfre":1690,"iety":1691,"Ġtogether":1692,"Ġnever":1693,"Ġschools":1694,"Ġ30":1695,"Ġcommunity":1696,"Ġtrack":1697,"Ġboy":1698,"ency":1699,"Ġnet":1700,"self":1701,"Ġask":1702,"Ġgeor":1703,"Ġthings":1704,"Ġstop":1705,"ified":1706,"Ġmean":1707,"Ġant":1708,"Ġsuper":1709,"ruary":1710,"hy":1711,"Ġfebruary":1712,"Ġled":1713,"Ġroman":1714,"ering":1715,"lex":1716,"Ġwa":1717,"Ġmight":1718,"Ġdisc":1719,"urs":1720,"ring":1721,"Ġmount":1722,"ney":1723,"Ġcost":1724,"Ġwithin":1725,"Ġsold":1726,"Ġwilliam":1727,"Ġemp":1728,"Ġpoint":1729,"aster":1730,"Ġdescrib":1731,"Ġfact":1732,"Ġdirector":1733,"Ġide":1734,"Ġworking":1735,"Ġmal":1736,"Ġdue":1737,"Ġvi":1738,"Ġoften":1739,"Ġbecome":1740,"itions":1741,"ize":1742,"Ġhaving":1743,"Ġfire":1744,"Ġchange":1745,"Ġimportant":1746,"Ġmun":1747,"Ġmilitary":1748,"Ġsil":1749,"Ġvide":1750,"Ġsocial":1751,"Ġattack":1752,"Ġround":1753,"Ġ25":1754,"Ġdays":1755,"Ġphil":1756,"Ġinform":1757,"Ġrail":1758,"ograp":1759,"Ġcrit":1760,"Ġpublished":1761,"Ġhol":1762,"ds":1763,"Ġtrad":1764,"Ġcat":1765,"ization":1766,"Ġworks":1767,"Ġdaddy":1768,"ham":1769,"Ġauthor":1770,"key":1771,"Ġfall":1772,"Ġvict":1773,"ches":1774,"Ġ2008":1775,"bert":1776,"mb":1777,"Ġaddition":1778,"ape":1779,"Ġdepartment":1780,"Ġlight":1781,"Ġfree":1782,"ma":1783,"Ġx":1784,"osp":1785,"ission":1786,"Ġmother":1787,"Ġii":1788,"Ġsout":1789,"Ġelse":1790,"Ġpresent":1791,"Ġexpl":1792,"Ġposs":1793,"Ġprovince":1794,"ically":1795,"Ġfamilies":1796,"Ġcanad":1797,"Ġbritish":1798,"attle":1799,"Ġtalk":1800,"Ġwithout":1801,"ration":1802,"Ġtem":1803,"hen":1804,"aim":1805,"Ġage":1806,"Ġorder":1807,"Ġonce":1808,"Ġtur":1809,"Ġequ":1810,"Ġvol":1811,"Ġmoved":1812,"Ġinstit":1813,"ron":1814,"Ġvot":1815,"Ġengine":1816,"Ġusing":1817,"Ġmust":1818,"Ġbur":1819,"que":1820,"Ġcolor":1821,"ival":1822,"Ġ2009":1823,"aring":1824,"Ġothers":1825,"Ġlang":1826,"work":1827,"Ġhalf":1828,"Ġarmy":1829,"Ġenglish":1830,"Ġrepubl":1831,"ient":1832,"bur":1833,"sc":1834,"Ġnon":1835,"Ġstat":1836,"iven":1837,"Ġperform":1838,"Ġactiv":1839,"right":1840,"de":1841,"ming":1842,"Ġlate":1843,"ases":1844,"ellow":1845,"hington":1846,"Ġcareer":1847,"ruct":1848,"Ġindust":1849,"Ġvir":1850,"xic":1851,"Ġfish":1852,"omin":1853,"Ġplaying":1854,"Ġsent":1855,"Ġalth":1856,"Ġincluded":1857,"Ġcam":1858,"Ġcult":1859,"Ġalthough":1860,"Ġfac":1861,"Ġinvest":1862,"Ġ&":1863,"Ġpal":1864,"idge":1865,"line":1866,"Ġlim":1867,"iod":1868,"Ġve":1869,"Ġcounc":1870,"Ġrepublic":1871,"Ġfight":1872,"Ġpay":1873,"Ġlot":1874,"ged":1875,"Ġcommon":1876,"ny":1877,"estern":1878,"Ġ2015":1879,"Ġdet":1880,"Ġlove":1881,"Ġhuman":1882,"Ġstreet":1883,"Ġinf":1884,"dle":1885,"Ġjour":1886,"of":1887,"apan":1888,"Ġresult":1889,"Ġbrother":1890,"rench":1891,"Ġwind":1892,"Ġlat":1893,"Ġchair":1894,"Ġmhm":1895,"Ġconn":1896,"Ġplayer":1897,"thing":1898,"ounced":1899,"ino":1900,"erest":1901,"Ġce":1902,"rote":1903,"Ġhig":1904,"Ġdi":1905,"Ġdivision":1906,"Ġcharac":1907,"Ġfur":1908,"Ġlow":1909,"ief":1910,"Ġassociation":1911,"Ġfeder":1912,"ising":1913,"Ġinterest":1914,"ensus":1915,"Ġjapan":1916,"Ġgold":1917,"Ġcast":1918,"Ġroom":1919,"Ġworked":1920,"Ġcut":1921,"Ġinvol":1922,"Ġhon":1923,"cle":1924,"Ġeffect":1925,"mp":1926,"Ġcouncil":1927,"Ã¡":1928,"erc":1929,"Ġmark":1930,"Ġscientists":1931,"Ġperiod":1932,"Ġtrav":1933,"ata":1934,"Ġeconom":1935,"oint":1936,"Ġ190":1937,"Ġteac":1938,"Ġwrote":1939,"Ġfull":1940,"Ġnort":1941,"Ġtow":1942,"bit":1943,"Ġacross":1944,"Ġmor":1945,"Ġlost":1946,"adem":1947,"Ġcapt":1948,"Ġbox":1949,"ford":1950,"ways":1951,"Ġmuse":1952,"gs":1953,"Ġfrench":1954,"Ġdevelopment":1955,"sel":1956,"Ġbird":1957,"itor":1958,"rents":1959,"ges":1960,"Ġchina":1961,"Ġdon":1962,"gest":1963,"Ġpast":1964,"Ġdav":1965,"Ġpict":1966,"Ġground":1967,"Ġvers":1968,"Ġprevious":1969,"Ġhot":1970,"ara":1971,"Ġcensus":1972,"Ġlangu":1973,"ertain":1974,"ops":1975,"Ġrepl":1976,"ending":1977,"Ġgiven":1978,"rod":1979,"Ġbrown":1980,"rew":1981,"Ġmm":1982,"Ġhour":1983,"Ġciv":1984,"Ġdev":1985,"Ġrul":1986,"Ġlik":1987,"Ġwalk":1988,"Ġ100":1989,"den":1990,"Ġpie":1991,"Ġblue":1992,"vered":1993,"Ġgoes":1994,"ably":1995,"Ġmeet":1996,"Ġinit":1997,"ler":1998,"ively":1999,"Ġsea":2000,"Ġalm":2001,"ument":2002,"Ġbad":2003,"Ġvideo":2004,"Ġhur":2005,"Ġpress":2006,"Ġpick":2007,"Ġacadem":2008,"ple":2009,"Ġuk":2010,"Ġ21":2011,"Ġenough":2012,"Ġrural":2013,"Ġboard":2014,"ilar":2015,"Ġfarm":2016,"Ġsound":2017,"Ġwood":2018,"Ġsummer":2019,"Ġamerica":2020,"Ġmuseum":2021,"Ġprop":2022,"vision":2023,"Ġannounced":2024,"Ġinformation":2025,"Ġcontrol":2026,"go":2027,"Ġmc":2028,"Ġtot":2029,"Ġship":2030,"Ġkids":2031,"Ġmot":2032,"Ġpot":2033,"Ġscience":2034,"Ġdraw":2035,"Ġrich":2036,"itten":2037,"Ġbreak":2038,"Ġable":2039,"Ġpret":2040,"Ġtry":2041,"imes":2042,"Ġoffice":2043,"oh":2044,"yle":2045,"Ġprocess":2046,"Ġten":2047,"Ġface":2048,"Ġdou":2049,"ago":2050,"Ġplayers":2051,"arc":2052,"aken":2053,"umb":2054,"Ġbi":2055,"aly":2056,"Ġcountries":2057,"rest":2058,"Ġmexic":2059,"ready":2060,"ula":2061,"par":2062,"Ġber":2063,"ribut":2064,"Ġalready":2065,"Ġcase":2066,"Ġstay":2067,"Ġill":2068,"yn":2069,"Ġbal":2070,"Ġpromot":2071,"Ġmarket":2072,"Ġhom":2073,"Ġflo":2074,"tt":2075,"Ġspace":2076,"Ġparents":2077,"Ġbroad":2078,"Ġcross":2079,"Ġwashington":2080,"ators":2081,"Ġmic":2082,"Ġcir":2083,"Ġthought":2084,"Ġsite":2085,"Ġpract":2086,"Ġsaw":2087,"Ġbring":2088,"Ġnav":2089,"Ġplant":2090,"Ġappear":2091,"Ġmich":2092,"ob":2093,"Ġren":2094,"Ġwestern":2095,"Ġiran":2096,"Ġsimilar":2097,"Ġ2016":2098,"Ġarg":2099,"Ġview":2100,"Ġdebut":2101,"ka":2102,"Ġwatch":2103,"uel":2104,"Ġjud":2105,"ondon":2106,"ida":2107,"Ġalright":2108,"Ġlou":2109,"Ġ24":2110,"Ġseen":2111,"Ġcomb":2112,"Ġunion":2113,"ached":2114,"Ġconstru":2115,"Ġpopular":2116,"Ġcivil":2117,"Ġdaugh":2118,"ced":2119,"Ġhit":2120,"Ġproduct":2121,"Ġdescribed":2122,"Ġhor":2123,"Ġdirect":2124,"Ġbase":2125,"Ġcook":2126,"Ġexamp":2127,"Ġpet":2128,"Ġcommitt":2129,"Ġindian":2130,"Ġeight":2131,"Ġdone":2132,"Ġever":2133,"Ġprim":2134,"ows":2135,"Ġjoined":2136,"Ġdam":2137,"Ġhen":2138,"Ġcomplet":2139,"Ġmunicip":2140,"Ġpartic":2141,"Ġhall":2142,"Ġfeel":2143,"fer":2144,"Ġcreated":2145,"Ġ189":2146,"yal":2147,"Ġfront":2148,"Ġver":2149,"Ġbir":2150,"Ġstrong":2151,"Ġlondon":2152,"Ġ=":2153,"Ġpolitical":2154,"Ġclose":2155,"Ġgradu":2156,"ha":2157,"Ġgun":2158,"ider":2159,"Ġmass":2160,"Ġreview":2161,"ales":2162,"Ġoutside":2163,"Ġgave":2164,"Ġalmost":2165,"Ġtex":2166,"Ġmiddle":2167,"Ġcommand":2168,"ead":2169,"Ġsat":2170,"ories":2171,"Ġur":2172,"Ġseven":2173,"Ġrole":2174,"Ġestabl":2175,"ints":2176,"Ġnice":2177,"Ġdisco":2178,"Ġanimals":2179,"ances":2180,"Ġregion":2181,"less":2182,"nal":2183,"Ġgetting":2184,"Ġpriv":2185,"pped":2186,"ody":2187,"ery":2188,"Ġsand":2189,"raft":2190,"ston":2191,"Ġestablished":2192,"Ġmonths":2193,"Ġoriginal":2194,"Ġtold":2195,"Ġah":2196,"Ġya":2197,"Ġgroups":2198,"aves":2199,"Ġadmin":2200,"Ġsouthern":2201,"Ġtitle":2202,"Ġ22":2203,"Ġterr":2204,"ĠâĢľ":2205,"Ġbed":2206,"Ġtelevision":2207,"Ġhoney":2208,"bor":2209,"Ġpur":2210,"Ġprotect":2211,"Ġteams":2212,"Ġofficials":2213,"lic":2214,"Ġclaim":2215,"ocr":2216,"Ġparticip":2217,"ĠâĢĿ":2218,"Ġangel":2219,"Ġadded":2220,"Ġwritten":2221,"Ġbody":2222,"Ġtrain":2223,"Ġquest":2224,"Ġsociety":2225,"Ġfif":2226,"Ġbor":2227,"ience":2228,"Ġcoll":2229,"Ġyet":2230,"Ġfurther":2231,"Ġsure":2232,"Ġjob":2233,"ference":2234,"Ġlaun":2235,"vir":2236,"Ġareas":2237,"Ġsoon":2238,"Ġsecret":2239,"Ġtou":2240,"yed":2241,"stand":2242,"Ġservices":2243,"iding":2244,"Ġ188":2245,"Ġbooks":2246,"Ġswe":2247,"Ġ23":2248,"Ġhost":2249,"Ġmoder":2250,"Ġforce":2251,"Ġthank":2252,"Ġchief":2253,"ense":2254,"Ġradio":2255,"Ġvarious":2256,"Ġengland":2257,"oon":2258,"Ġ186":2259,"Ġreturned":2260,"Ġmart":2261,"Ġadminist":2262,"Ġprofessional":2263,"Ġelection":2264,"Ġwall":2265,"Ġproduced":2266,"Ġpolic":2267,"Ġobama":2268,"Ġbegin":2269,"Ġfinished":2270,"Ġident":2271,"ove":2272,"Ġhill":2273,"Ġtechnology":2274,"Ġtotal":2275,"ences":2276,"19":2277,"imin":2278,"Ġfounded":2279,"verage":2280,"Ġago":2281,"Ġcommission":2282,"af":2283,"Ġhosp":2284,"Ġproduction":2285,"Ġfoc":2286,"Ġgermany":2287,"Ġforest":2288,"Ġdest":2289,"ica":2290,"here":2291,"Ġcoast":2292,"Ġworkers":2293,"aur":2294,"ald":2295,"Ġstep":2296,"Ġviol":2297,"Ġ50":2298,"Ġepis":2299,"Ġearl":2300,"Ġstri":2301,"Ġrace":2302,"aign":2303,"Ġdefe":2304,"Ġsle":2305,"Ġarm":2306,"Ġmatch":2307,"Ġleaders":2308,"Ġham":2309,"Ġcop":2310,"Ġrights":2311,"uk":2312,"ature":2313,"Ġbehind":2314,"eth":2315,"Ġfem":2316,"Ġimpro":2317,"Ġmakes":2318,"Ġphot":2319,"Ġclim":2320,"Ġperfor":2321,"Ġsus":2322,"Ġproper":2323,"ults":2324,"aged":2325,"Ġrob":2326,"Ġple":2327,"empt":2328,"Ġthing":2329,"Ġemplo":2330,"uge":2331,"Ġfederal":2332,"acy":2333,"inese":2334,"nes":2335,"Ġenvir":2336,"year":2337,"ivid":2338,"Ġperforman":2339,"Ġimm":2340,"Ġarri":2341,"Ġearth":2342,"lin":2343,"Ġenviron":2344,"Ġinstead":2345,"Ġfund":2346,"Ġcampaign":2347,"Ġmarried":2348,"Ġreported":2349,"Ġcompanies":2350,"Ġtaking":2351,"ades":2352,"Ġrefer":2353,"Ġindia":2354,"Ġfig":2355,"Ġtaken":2356,"Ġhy":2357,"Ġconv":2358,"cast":2359,"Ġkilled":2360,"Ġchinese":2361,"idence":2362,"Ġleast":2363,"Ġdeg":2364,"epend":2365,"gy":2366,"Ġmel":2367,"hib":2368,"Ġliving":2369,"Ġtradition":2370,"Ġsigned":2371,"ners":2372,"Ġque":2373,"Ġoly":2374,"Ġheav":2375,"Ġdecl":2376,"Ġlanguage":2377,"Ġappoint":2378,"Ġwife":2379,"Ġparticular":2380,"Ġlibr":2381,"Ġassist":2382,"Ġdemocr":2383,"Ġthom":2384,"uff":2385,"Ġsports":2386,"Ġcand":2387,"Ġ2005":2388,"Ġgoal":2389,"ither":2390,"jo":2391,"Ġagre":2392,"Ġfrance":2393,"Ġpaul":2394,"Ġgar":2395,"Ġcongress":2396,"Ġuhh":2397,"Ġjournal":2398,"Ġindepend":2399,"Ġindivid":2400,"Ġtraining":2401,"Ġlooking":2402,"Ġproblem":2403,"Ġfut":2404,"Ġsele":2405,"pr":2406,"utes":2407,"Ġflor":2408,"Ġprofessor":2409,"Ġtrying":2410,"Ġpit":2411,"hel":2412,"Ġexample":2413,"Ġopened":2414,"Ġwild":2415,"Ġposition":2416,"Ġnation":2417,"Ġ[":2418,"Ġcurrently":2419,"Ġidea":2420,"Ġinfl":2421,"ests":2422,"Ġden":2423,"Ġran":2424,"Ġglo":2425,"Ġmaybe":2426,"Ġfly":2427,"Ġ2017":2428,"Ġelected":2429,"Ġstudies":2430,"Ġkh":2431,"ogn":2432,"Ġeuropean":2433,"Ġmur":2434,"Ġvo":2435,"pect":2436,"Ġdeal":2437,"Ġremember":2438,"Ġdoc":2439,"Ġtom":2440,"hic":2441,"ike":2442,"Ġ2004":2443,"gar":2444,"Ġmedia":2445,"Ġcorn":2446,"ville":2447,"omb":2448,"Ġfail":2449,"Ġrecorded":2450,"Ġphys":2451,"Ġtar":2452,"idered":2453,"ands":2454,"Ġ26":2455,"Ġtreat":2456,"Ġclos":2457,"Ġexec":2458,"Ġjack":2459,"20":2460,"Ġintrod":2461,"Ġconnect":2462,"Ã³":2463,"Ġwanted":2464,"Ġsometimes":2465,"Ġcomes":2466,"Ġfranc":2467,"Ġice":2468,"Ġcoach":2469,"Ġtv":2470,"Ġnatural":2471,"Ġepisod":2472,"Ġthre":2473,"Ġdaughter":2474,"Ġbank":2475,"Ġcharacter":2476,"Ġconsidered":2477,"Ġsell":2478,"Ġban":2479,"Ġ..":2480,"Ġ27":2481,"Ġfav":2482,"Ġreason":2483,"Ġ28":2484,"Ġenc":2485,"iers":2486,"Ġfest":2487,"Ġaustralia":2488,"ream":2489,"Ġrelease":2490,"Ġrout":2491,"iment":2492,"Ġcell":2493,"Ġmult":2494,"Ġenvironment":2495,"Ġcro":2496,"Ġexc":2497,"Ġsett":2498,"Ġlad":2499,"Ġprob":2500,"Ġroyal":2501,"Ġseem":2502,"Ġavail":2503,"ael":2504,"fic":2505,"Ġmodern":2506,"Ġafrican":2507,"Ġsuff":2508,"Ġrelations":2509,"aut":2510,"ption":2511,"Ġesp":2512,"ox":2513,"und":2514,"Ã¼":2515,"Ġ187":2516,"Ġtexas":2517,"Ġmov":2518,"Ġrecogn":2519,"Ġsongs":2520,"Ġhappened":2521,"Ġgirls":2522,"itive":2523,"Ġcontinued":2524,"igr":2525,"Ġrecords":2526,"Ġnorthern":2527,"Ġtravel":2528,"Ġbattle":2529,"Ġcoming":2530,"ky":2531,"Ġfriends":2532,"Ġexist":2533,"Ġafrica":2534,"ya":2535,"Ġq":2536,"Ġmary":2537,"Ġbay":2538,"Ġinj":2539,"Ġmater":2540,"Ġpoints":2541,"Ġasked":2542,"bal":2543,"Ġminister":2544,"Ġpan":2545,"Ġ2000":2546,"Ġolymp":2547,"Ġleave":2548,"oss":2549,"Ġalways":2550,"airs":2551,"Ġgeorge":2552,"Ġattempt":2553,"Ġproduc":2554,"Ġhimself":2555,"Ġsar":2556,"Ġmix":2557,"Ġpen":2558,"Ġconcer":2559,"Ġlake":2560,"Ġartist":2561,"hood":2562,"Ġdu":2563,"app":2564,"Ġpaper":2565,"Ġneigh":2566,"Ġpu":2567,"ef":2568,"olution":2569,"Ġshows":2570,"ensive":2571,"Ġlives":2572,"Ġchall":2573,"burg":2574,"Ġpretty":2575,"craft":2576,"Ġrelig":2577,"Ġvisit":2578,"Ġhi":2579,"Ġproblems":2580,"Ġappeared":2581,"Ġbat":2582,"Ġsugg":2583,"Ġloss":2584,"aps":2585,"Ġcomput":2586,"Ġgro":2587,"Ġready":2588,"Ġsam":2589,"Ġbit":2590,"sequ":2591,"Ġrac":2592,"Ġdesp":2593,"Ġmeas":2594,"Ġinside":2595,"Ġbecom":2596,"Ġru":2597,"Ġath":2598,"Ġtournam":2599,"Ġord":2600,"Ġjames":2601,"Ġdavid":2602,"Ġcy":2603,"Ġhous":2604,"Ġtrib":2605,"Ġstudent":2606,"Ġdig":2607,"Ġindustry":2608,"Ġsurv":2609,"Ġmeans":2610,"erous":2611,"Ġfa":2612,"Ġ0":2613,"Ġmer":2614,"Ġpoor":2615,"Ġprem":2616,"Ġdin":2617,"icago":2618,"pan":2619,"ria":2620,"Ġruns":2621,"body":2622,"hod":2623,"Ġdeveloped":2624,"ological":2625,"Ġevents":2626,"ura":2627,"Ġstore":2628,"utive":2629,"Ġ40":2630,"Ġwants":2631,"Ġregular":2632,"mon":2633,"Ġinstitute":2634,"mar":2635,"head":2636,"Ġhospital":2637,"Ġwee":2638,"Ġsleep":2639,"Ġlargest":2640,"Ġcommittee":2641,"Ġalex":2642,"Ġangeles":2643,"Ġorganization":2644,"Ġwat":2645,"Ġnetwork":2646,"Ġtable":2647,"Ġdise":2648,"Ġversion":2649,"Ġconserv":2650,"Ġmagaz":2651,"anish":2652,"Ġuhhuh":2653,"Ġtro":2654,"Ġsuccessful":2655,"Ġavailable":2656,"Ġmad":2657,"Ġformed":2658,"Ġamericans":2659,"Ġinvestig":2660,"Ġconc":2661,"xim":2662,"room":2663,"Ġterm":2664,"Ġquick":2665,"Ġsepar":2666,"Ġjew":2667,"Ġ...":2668,"amb":2669,"Ġdecided":2670,"Ġflorida":2671,"ania":2672,"Ġhair":2673,"str":2674,"Ġhelped":2675,"Ġder":2676,"reg":2677,"Ġfeet":2678,"Ġartic":2679,"Ġnative":2680,"ores":2681,"Ġnearly":2682,"Ġinvolved":2683,"Ġbasket":2684,"Ġforces":2685,"Ġfuture":2686,"Ġaud":2687,"Ġsour":2688,"rian":2689,"Ġreb":2690,"Ġeventually":2691,"Ġcanada":2692,"Ġbow":2693,"Ġdrink":2694,"ises":2695,"ala":2696,"Ġfinish":2697,"field":2698,"Ġwhose":2699,"Ġsnow":2700,"Ġconstruction":2701,"Ġaccess":2702,"Ġaverage":2703,"Ġben":2704,"Ġstruct":2705,"ns":2706,"Ġqual":2707,"ta":2708,"Ġ1990":2709,"Ġ>":2710,"aker":2711,"Ġsaf":2712,"Ġbear":2713,"Ġrecent":2714,"istan":2715,"Ġbul":2716,"Ġbrought":2717,"Ġrunning":2718,"Ġprivate":2719,"50":2720,"Ġstyle":2721,"Ġlooks":2722,"Ġparts":2723,"Ġjer":2724,"Ġ2018":2725,"ban":2726,"Ġ]":2727,"Ġchart":2728,"Ġrange":2729,"Ġ2003":2730,"Ġincludes":2731,"Ġheart":2732,"Ġinflu":2733,"Ġdespite":2734,"Ġsignific":2735,"Ġmexico":2736,"Ġfast":2737,"Ġ29":2738,"Ġbud":2739,"Ġwhether":2740,"Ġmess":2741,"Ġwait":2742,"Ġrussian":2743,"Ġthroughout":2744,"Ġdut":2745,"Ġreach":2746,"idae":2747,"Ġchicago":2748,"Ġmaterial":2749,"isl":2750,"Ġach":2751,"Ġmorn":2752,"Ġbirth":2753,"ites":2754,"Ġyellow":2755,"wood":2756,"Ġcontract":2757,"Ġfer":2758,"Ġdoll":2759,"Ġum":2760,"ship":2761,"Ġexpress":2762,"Ġfix":2763,"Ġho":2764,"ey":2765,"Ġappointed":2766,"Ġfourth":2767,"Ġcover":2768,"Ġwil":2769,"Ġresearc":2770,"Ġquar":2771,"Ġclear":2772,"Ġmunicipality":2773,"Ġrussia":2774,"Ġusually":2775,"isc":2776,"Ġoce":2777,"Ġplaces":2778,"val":2779,"Ġstage":2780,"Ġpull":2781,"reek":2782,"Ġrespons":2783,"Ġrailway":2784,"nd":2785,"asing":2786,"Ġeither":2787,"lement":2788,"urity":2789,"Ġdesigned":2790,"Ġlu":2791,"Ġlibrary":2792,"Ġthomas":2793,"Ġblock":2794,"Ġliter":2795,"Ġanc":2796,"ÃŃ":2797,"Ġdog":2798,"Ġcompetition":2799,"ius":2800,"ca":2801,"itz":2802,"zz":2803,"rain":2804,"Ġallowed":2805,"Ġwo":2806,"Ġeastern":2807,"Ġunderstand":2808,"Ġhours":2809,"Ġpossible":2810,"Ġstaff":2811,"Ġspent":2812,"Ġsurf":2813,"ceed":2814,"Ġmorning":2815,"Ġcust":2816,"Ġoil":2817,"Ġol":2818,"oph":2819,"Ġmedical":2820,"ij":2821,"Ġlikely":2822,"Ġchanged":2823,"Ġupon":2824,"aught":2825,"Ġdata":2826,"wor":2827,"Ġoriginally":2828,"Ġclean":2829,"ola":2830,"Ġthreat":2831,"Ġ2001":2832,"Ġhey":2833,"Ġaction":2834,"Ġcertain":2835,"Ġ2002":2836,"Ġentire":2837,"Ġtournament":2838,"Ġcit":2839,"Ġroll":2840,"Ġwoman":2841,"Ġsenior":2842,"Ġcondu":2843,"idents":2844,"Ġabove":2845,"ergy":2846,"Ġfort":2847,"Ġpicture":2848,"Ġdro":2849,"berg":2850,"Ġtype":2851,"Ġcarol":2852,"Ġacademy":2853,"Ġaustralian":2854,"Ġsaying":2855,"Ġ1980":2856,"Ġrules":2857,"Ġpun":2858,"Ġfestival":2859,"Ġwriting":2860,"Ġarts":2861,"Ġprobably":2862,"ona":2863,"Ġwinning":2864,"anch":2865,"Ġcause":2866,"Ġlouis":2867,"ctions":2868,"Ġstra":2869,"Ġminutes":2870,"Ġmedal":2871,"Ġtax":2872,"Ġleading":2873,"Ġcourse":2874,"Ġsitu":2875,"Ġmr":2876,"dom":2877,"Ġleader":2878,"ique":2879,"Ġperformance":2880,"aint":2881,"Ġbuy":2882,"rael":2883,"Ġreve":2884,"Ġplann":2885,"Ġmagazine":2886,"ado":2887,"Ġwhole":2888,"Ġfeatures":2889,"anta":2890,"Ġdecision":2891,"Ġpenn":2892,"Ġbott":2893,"Ġprinc":2894,"Ġjose":2895,"sy":2896,"Ġdeter":2897,"Ġteach":2898,"Ġchanges":2899,"Ġconference":2900,"Ġtor":2901,"Ġvirgin":2902,"Ġhigher":2903,"Ġmovement":2904,"Ġprograms":2905,"Ġegg":2906,"Ġeth":2907,"Ġesc":2908,"Ġonline":2909,"Ġhabit":2910,"uses":2911,"akers":2912,"Ġleng":2913,"itting":2914,"Ġtouch":2915,"you":2916,"Ġtal":2917,"Ġfrancis":2918,"ening":2919,"Ġkore":2920,"Ġnine":2921,"Ġinterv":2922,"Ġkey":2923,"Ġbridge":2924,"Ġprovide":2925,"Ġlower":2926,"Ġdiffic":2927,"Ġfloor":2928,"ety":2929,"ropical":2930,"Ġrank":2931,"Ġearlier":2932,"Ġdead":2933,"back":2934,"Ġdifficult":2935,"Ġspecific":2936,"Ġmodel":2937,"yes":2938,"Ġcamer":2939,"Ġul":2940,"Ġris":2941,"ett":2942,"Ġliber":2943,"Ġtree":2944,"Ã¶":2945,"Ġtheat":2946,"Ġsecurity":2947,"Ġpil":2948,"Ġfel":2949,"pe":2950,"Ġcoup":2951,"Ġshoot":2952,"Ġself":2953,"Ġyouth":2954,"Ġhell":2955,"ga":2956,"Ġaccept":2957,"Ġfle":2958,"Ġmountain":2959,"Ġbun":2960,"Ġmac":2961,"Ġfollowed":2962,"Ġdirected":2963,"enth":2964,"Ġcub":2965,"Ġsex":2966,"Ġshot":2967,"uf":2968,"atives":2969,"ki":2970,"Ġsignificant":2971,"Ġflow":2972,"Ġweeks":2973,"Ġpeter":2974,"Ġisrael":2975,"Ġhistoric":2976,"Ġgrowing":2977,"Ġthrow":2978,"uce":2979,"Ġdark":2980,"Ġstudio":2981,"Ġactually":2982,"Ä«":2983,"selves":2984,"Ġmichael":2985,"Ġlength":2986,"Ġze":2987,"Ġperformed":2988,"ari":2989,"Ġhope":2990,"Ġaccount":2991,"Ġwal":2992,"atory":2993,"Ġcapital":2994,"Ġgard":2995,"ential":2996,"Ġrecently":2997,"bour":2998,"Ġconstit":2999,"pper":3000,"ends":3001,"la":3002,"Ġpush":3003,"hest":3004,"ground":3005,"Ġadm":3006,"Ġcirc":3007,"Ġ31":3008,"Ġrather":3009,"Ġbene":3010,"Ġthous":3011,"men":3012,"Ġpac":3013,"Ġlaws":3014,"Ġexhib":3015,"itar":3016,"Ġlived":3017,"sey":3018,"Ġsweet":3019,"Ġmont":3020,"Ġanything":3021,"enced":3022,"Ġcho":3023,"Ġfrank":3024,"lete":3025,"Ġhund":3026,"ination":3027,"Ġhands":3028,"Ġdegree":3029,"Ġaircraft":3030,"Ġespec":3031,"Ġparl":3032,"ateg":3033,"iger":3034,"Ġbuildings":3035,"Ġocean":3036,"ba":3037,"Ġespecially":3038,"Ġdru":3039,"Ġathlet":3040,"Ġawards":3041,"ested":3042,"Ġscored":3043,"Ġ1970":3044,"Ġdang":3045,"Ġplaced":3046,"Ġbac":3047,"Ġbasketball":3048,"ortun":3049,"Ġneg":3050,"Ġvalley":3051,"Ġachie":3052,"asc":3053,"Ġpolicy":3054,"Ġremained":3055,"Ġofficer":3056,"Ġfell":3057,"ude":3058,"Ġpred":3059,"Ġplans":3060,"Ġchem":3061,"Ġhundred":3062,"Ġmission":3063,"Ġacqu":3064,"Ġlun":3065,"Ġlegisl":3066,"Ġcompleted":3067,"Ġfeatured":3068,"Ġromanized":3069,"Ġcandid":3070,"ped":3071,"Ġdan":3072,"Ġscre":3073,"Ġcritic":3074,"Ġtransport":3075,"Ġresearchers":3076,"Ġlink":3077,"Ġmach":3078,"Ġdoor":3079,"ken":3080,"Ġtakes":3081,"Ġspanish":3082,"Ġobs":3083,"Ġmilk":3084,"Ġmiles":3085,"Ġmovie":3086,"Ġlonger":3087,"Ġchristian":3088,"Ġcarry":3089,"Ġanimal":3090,"ilities":3091,"da":3092,"Ġnorm":3093,"Ġchap":3094,"iff":3095,"Ġawarded":3096,"ray":3097,"gen":3098,"ires":3099,"Ġprison":3100,"Ġdestro":3101,"ims":3102,"Ġepisode":3103,"Ġquestion":3104,"Ġreached":3105,"lam":3106,"Ġenergy":3107,"Ġvan":3108,"Ġword":3109,"Ġpig":3110,"itect":3111,"Ġplays":3112,"olic":3113,"Ġcars":3114,"ams":3115,"ability":3116,"Ġpiece":3117,"Ġital":3118,"Ġnovel":3119,"10":3120,"oes":3121,"Ġscott":3122,"osh":3123,"Ġturned":3124,"Ġcustom":3125,"Ġhorse":3126,"where":3127,"Ġsmith":3128,"aled":3129,"Ġminute":3130,"arily":3131,"Ġinn":3132,"Ġgall":3133,"Ġforeign":3134,"Ġshar":3135,"wh":3136,"Ġgas":3137,"itted":3138,"Ġarchitect":3139,"tim":3140,"Ġgovernor":3141,"Ġjoin":3142,"new":3143,"Ġbeginning":3144,"medi":3145,"Ġhear":3146,"Ġcolon":3147,"Ġsoft":3148,"Ġcard":3149,"Ġartists":3150,"ental":3151,"Ġdoctor":3152,"Ġanti":3153,"Ġbag":3154,"Ġnoted":3155,"Ġwol":3156,"Ġgod":3157,"Ġmethod":3158,"Ġspeed":3159,"ift":3160,"Ġthemselves":3161,"Ġgenus":3162,"Ġdisease":3163,"Ġrobert":3164,"Ġfoundation":3165,"Ġcreate":3166,"Ġsubject":3167,"Ġplease":3168,"Ġhus":3169,"ota":3170,"Ġdeep":3171,"ification":3172,"Ġeverything":3173,"Ġamount":3174,"Ġparliam":3175,"agon":3176,"erson":3177,"Ġneeds":3178,"Ġglobal":3179,"igned":3180,"ills":3181,"ope":3182,"Ġformula":3183,"sec":3184,"band":3185,"Ġprincip":3186,"Ġly":3187,"omm":3188,"Ġfemale":3189,"Ġprior":3190,"Ġroute":3191,"use":3192,"Ġtrade":3193,"Ġlisted":3194,"Ġparliament":3195,"Ġsection":3196,"Ġsafety":3197,"sw":3198,"Ġcath":3199,"bi":3200,"Ġnar":3201,"Ġrelated":3202,"Ġmanager":3203,"Ġsubsequ":3204,"Ġhat":3205,"Ġspring":3206,"Ġindependent":3207,"Ġburn":3208,"Ġ185":3209,"Ġelectric":3210,"Ġcities":3211,"Ġactive":3212,"Ġwow":3213,"aving":3214,"Ġissue":3215,"Ġmanagement":3216,"Ġparis":3217,"Ġfair":3218,"Ġbroadcast":3219,"Ġwinter":3220,"Ġconsist":3221,"Ġdocument":3222,"ano":3223,"Ġemerg":3224,"Ġschol":3225,"Ġestim":3226,"Ġmine":3227,"Ġcontribut":3228,"Ġtraditional":3229,"Ġcollection":3230,"Ġlabor":3231,"Ġcele":3232,"Ġbraz":3233,"Ġboys":3234,"Ġexecutive":3235,"Ġcra":3236,"Ġlearn":3237,"za":3238,"Ġfinanc":3239,"Ġbelong":3240,"Ġwid":3241,"Ġpreviously":3242,"Ġ184":3243,"Ġwed":3244,"Ġcentre":3245,"ada":3246,"Ġcred":3247,"Ġlay":3248,"enty":3249,"Ġexperience":3250,"Ġrain":3251,"Ġprovided":3252,"Ġrespect":3253,"west":3254,"Ġlegal":3255,"Ġukrain":3256,"Ġeconomic":3257,"Ġgoals":3258,"istic":3259,"Ġcommerc":3260,"Ġowned":3261,"Ġcelebr":3262,"iation":3263,"Ġnewsp":3264,"Ġ1999":3265,"ĠÂ":3266,"Ġdom":3267,"off":3268,"va":3269,"Ġbelieve":3270,"oring":3271,"Ġvirginia":3272,"Ġtransfer":3273,"board":3274,"Ġstarting":3275,"Ġjapanese":3276,"aries":3277,"Ġswim":3278,"Ġlack":3279,"Ġdie":3280,"Ġnomin":3281,"oke":3282,"Ġwebs":3283,"Ġminor":3284,"Ġatl":3285,"Ġended":3286,"Ġculture":3287,"Ġtun":3288,"Ġitself":3289,"Ġcanadian":3290,"well":3291,"Ġfro":3292,"Ġeyes":3293,"Ġapart":3294,"Ġevidence":3295,"Ġtruck":3296,"Ġpack":3297,"osition":3298,"Ġsquad":3299,"erve":3300,"aches":3301,"Ġsize":3302,"Ġteachers":3303,"Ġrelationship":3304,"Ġlaunched":3305,"Ġwide":3306,"Ġfamous":3307,"Ġobject":3308,"Ġcomputer":3309,"ris":3310,"Ġlady":3311,"Ġsem":3312,"Ġissues":3313,"Ġcow":3314,"Ġgrant":3315,"Ġitalian":3316,"Ġpersonal":3317,"Ġoccur":3318,"ani":3319,"ls":3320,"Ġfellow":3321,"Ġmaster":3322,"Ġclosed":3323,"abor":3324,"ols":3325,"Ġattended":3326,"Ġ1960":3327,"oe":3328,"Ġfinally":3329,"Ġshop":3330,"yer":3331,"Ġneeded":3332,"Ġextra":3333,"Ġorganiz":3334,"pa":3335,"Ġcitiz":3336,"Ġsystems":3337,"Ġpassed":3338,"Ġquickly":3339,"Ġwing":3340,"play":3341,"Ġkingdom":3342,"round":3343,"Ġpurch":3344,"Ġjobs":3345,"Ġmatter":3346,"Ġmouth":3347,"hab":3348,"Ġplat":3349,"Ġgeorg":3350,"Ġincrease":3351,"ician":3352,"Ġexcept":3353,"Ġbrazil":3354,"Ġkar":3355,"Ġmeeting":3356,"Ġthus":3357,"Ġfavor":3358,"Ġmostly":3359,"semb":3360,"Ġadministration":3361,"Ġsurve":3362,"Ġneighbor":3363,"Ġresults":3364,"Ġnumbers":3365,"Ġda":3366,"irt":3367,"Ġchann":3368,"Ġpractice":3369,"Ġpow":3370,"Ġattention":3371,"Ġsusp":3372,"Ġmoving":3373,"Ġconsum":3374,"ging":3375,"ails":3376,"Ġ1998":3377,"Ġmedic":3378,"Ġvehic":3379,"uments":3380,"wards":3381,"Ġseat":3382,"Ġinterview":3383,"Ġspread":3384,"Ġcere":3385,"Ġfeed":3386,"Ġarrest":3387,"ify":3388,"18":3389,"ocks":3390,"Ġwords":3391,"Ġjump":3392,"Ġcold":3393,"Ġopening":3394,"Ġquarter":3395,"Ġstated":3396,"Ġoccup":3397,"Ġker":3398,"Ġgi":3399,"Ġwrite":3400,"Ġheavy":3401,"Ġoperations":3402,"Ġshall":3403,"Ġbeach":3404,"Ġraised":3405,"bc":3406,"edy":3407,"Ġeating":3408,"lands":3409,"Ġaz":3410,"Ġwriter":3411,"Ġislam":3412,"Ġoverall":3413,"Ġdress":3414,"Ġstick":3415,"Ġscore":3416,"Ġagency":3417,"Ġcases":3418,"ex":3419,"Ġstudied":3420,"Ġire":3421,"zy":3422,"Ġintroduced":3423,"hem":3424,"Ġones":3425,"Ġinsp":3426,"Ġreplaced":3427,"riage":3428,"Ġmanuf":3429,"Ġ60":3430,"Ġimprove":3431,"Ġmanufact":3432,"Ġgrade":3433,"Ġindividual":3434,"12":3435,"Ġtarget":3436,"Ġbillion":3437,"Ġcab":3438,"Ġcarolina":3439,"istry":3440,"Ġcoun":3441,"Ġcry":3442,"itch":3443,"Ġsport":3444,"Ġjoseph":3445,"Ġbell":3446,"Ġproperty":3447,"aq":3448,"Ġhurt":3449,"Ġspain":3450,"Ġfilms":3451,"Ġcommercial":3452,"ask":3453,"Ġsquare":3454,"apt":3455,"Ġguard":3456,"Ġlimited":3457,"Ġvia":3458,"Ġorange":3459,"Ġdiscuss":3460,"cy":3461,"Ġhighest":3462,"Ġremains":3463,"Ġstandard":3464,"=\"":3465,"Ġvictor":3466,"Ġteacher":3467,"Ġsister":3468,"Ġshowed":3469,"Ġrepublican":3470,"Ġproducts":3471,"Ġgh":3472,"Ġfres":3473,"Ġstars":3474,"Ġnavy":3475,"Ġannual":3476,"Ġdrive":3477,"30":3478,"Ġglass":3479,"ients":3480,"Ġgiving":3481,"Ġapple":3482,"Ġjustice":3483,"Ġdomin":3484,"Ġletter":3485,"lor":3486,"Ġopportun":3487,"Ġfifth":3488,"Ġsinger":3489,"iny":3490,"Ġshare":3491,"Ġreligious":3492,"Ġassemb":3493,"ding":3494,"Ġextre":3495,"Ġdance":3496,"Ġhonor":3497,"Ġimmedi":3498,"emic":3499,"icated":3500,"Ġbecoming":3501,"Ġbaseball":3502,"iction":3503,"Ġfocus":3504,"Ġphotograp":3505,"Ġsecretary":3506,"anda":3507,"Ġsurface":3508,"Ġprimary":3509,"Ġborder":3510,"sa":3511,"ping":3512,"Ġpeace":3513,"Ġflight":3514,"Ġcharles":3515,"Ġcrow":3516,"oul":3517,"ios":3518,"Ġagric":3519,"Ġ1996":3520,"Ġbeaut":3521,"Ġstru":3522,"Ġnothing":3523,"cher":3524,"ishop":3525,"book":3526,"Ġkm":3527,"Ġba":3528,"Ġdisp":3529,"Ġhello":3530,"Ġireland":3531,"ima":3532,"ibility":3533,"Ġfighting":3534,"Ġet":3535,"Ġmayor":3536,"Ġtransl":3537,"Ġcaused":3538,"Ġchampionships":3539,"Ġagricult":3540,"Ġeditor":3541,"Ġswed":3542,"Ġmir":3543,"Ġbelow":3544,"Ġarab":3545,"Ġearned":3546,"kn":3547,"Ġstorm":3548,"Ġexpected":3549,"Ġvote":3550,"tic":3551,"ww":3552,"roll":3553,"Ġfru":3554,"iday":3555,"ker":3556,"clus":3557,"Ġapplic":3558,"Ġslow":3559,"Ġgets":3560,"Ġhappy":3561,"uit":3562,"Ġregard":3563,"Ġcollect":3564,"bed":3565,"ockey":3566,"Ġlog":3567,"Ġbatt":3568,"Ġfill":3569,"rd":3570,"Ġbang":3571,"Ġnature":3572,"Ġfit":3573,"Ġolder":3574,"Ġserious":3575,"Ġtrees":3576,"Ġmind":3577,"Ġdream":3578,"Ġclasses":3579,"wide":3580,"Ġcareful":3581,"ili":3582,"Ġforced":3583,"Ġkitt":3584,"Ġbrand":3585,"Ġtick":3586,"down":3587,"Ġpap":3588,"ador":3589,"irty":3590,"Ġsomeone":3591,"ram":3592,"Ġdun":3593,"Ġdate":3594,"oid":3595,"Ġabs":3596,"Ġven":3597,"Ġnames":3598,"Ġclin":3599,"Ġ1997":3600,"Ġsurround":3601,"Ġcommunic":3602,"Ġestablish":3603,"Ġride":3604,"Ġadop":3605,"Ġsaint":3606,"Ġrestaur":3607,"Ġeveryone":3608,"Ġspl":3609,"Ġexpand":3610,"Ġ1994":3611,"ript":3612,"Ġtheatre":3613,"Ġbeg":3614,"Ġthousands":3615,"pre":3616,"Ġrap":3617,"Ġdemocratic":3618,"Ġpacific":3619,"Ġparticularly":3620,"14":3621,"Ġpage":3622,"gypt":3623,"Ġox":3624,"Ġstone":3625,"don":3626,"Ġow":3627,"Ġarticle":3628,"Ġways":3629,"Ġchick":3630,"Ġwhom":3631,"Ġcatch":3632,"Ġvictory":3633,"Ġstrugg":3634,"ume":3635,"Ġtemper":3636,"Ġairport":3637,"Ġess":3638,"Ġentered":3639,"gu":3640,"nel":3641,"Ġ1995":3642,"Ġuses":3643,"ems":3644,"Ġexperts":3645,"Ġoperation":3646,"Ġrepresented":3647,"Ġsir":3648,"ander":3649,"ension":3650,"Ġcorpor":3651,"Ġtried":3652,"Ġprize":3653,"igan":3654,"Ġsilver":3655,"Ġregional":3656,"house":3657,"Ġplants":3658,"Ġ1992":3659,"anced":3660,"Ġrichard":3661,"Ġegypt":3662,"Ġbath":3663,"Ġpaint":3664,"Ġmartin":3665,"Ġbye":3666,"Ġancient":3667,"Ġdiscovered":3668,"Ġmaint":3669,"Ġremain":3670,"Ġfrequ":3671,"Ġtrue":3672,"Ġ2019":3673,"Ġlarger":3674,"Ġcontinue":3675,"ym":3676,"heast":3677,"Ġvoc":3678,"Ġunl":3679,"Ġwrong":3680,"Ġcomplete":3681,"Ġ1991":3682,"Ġnecess":3683,"Ġtrou":3684,"Ġprogress":3685,"Ġpoll":3686,"Ġretired":3687,"Ġinitially":3688,"Ġlord":3689,"Ġhaw":3690,"Ġvolun":3691,"Ġweap":3692,"Ġstories":3693,"Ġreading":3694,"Ġrequire":3695,"ounds":3696,"Ġpsy":3697,"ils":3698,"Ġspot":3699,"ja":3700,"Ġopt":3701,"Ġmicro":3702,"Ġfigure":3703,"Ġfine":3704,"Ġlie":3705,"Ġprevent":3706,"Ġrub":3707,"rial":3708,"rs":3709,"Ġsurpr":3710,"Ġselected":3711,"yan":3712,"Ġdemon":3713,"Ġdefeated":3714,"Ġ1950":3715,"ste":3716,"Ġpath":3717,"Ġarr":3718,"Ġadditional":3719,"Ġwebsite":3720,"Ġcomplex":3721,"Ġpoet":3722,"Ġofficers":3723,"Ġboo":3724,"aded":3725,"king":3726,"Ġrate":3727,"more":3728,"Ġshown":3729,"Ġmale":3730,"Ġross":3731,"Ġprep":3732,"Ġlearning":3733,"Å«":3734,"Ġstad":3735,"Ġhenry":3736,"Ġrefuge":3737,"Ġassociated":3738,"Ġcontains":3739,"Ġrare":3740,"oma":3741,"Ġincreased":3742,"Ġtowards":3743,"Ġactivities":3744,"Ġteen":3745,"Ġtrust":3746,"Ġinternet":3747,"Ġrequired":3748,"Ġbeat":3749,"inct":3750,"Ġpainting":3751,"Ġgone":3752,"Ġsubst":3753,"Ġsearch":3754,"Ġbenef":3755,"ips":3756,"Ġpartners":3757,"Ġparish":3758,"Ġpictures":3759,"Ġalle":3760,"Ġcovered":3761,"Ġfrancisco":3762,"Ġcoo":3763,"Ġcaptain":3764,"Ġsales":3765,"ylv":3766,"ware":3767,"ita":3768,"chen":3769,"une":3770,"Ġdogs":3771,"Ġblood":3772,"ung":3773,"Ġattract":3774,"Ġlabel":3775,"Ġbehav":3776,"Ġaltern":3777,"ipe":3778,"Ġtower":3779,"Ġcatholic":3780,"Ġguitar":3781,"Ġahead":3782,"Ġ1993":3783,"Ġrang":3784,"Ġtrip":3785,"lect":3786,"Ġmajority":3787,"Ġpurp":3788,"Ġsafe":3789,"Ġcharge":3790,"Ġkick":3791,"Ġnations":3792,"Ġqueen":3793,"elled":3794,"Ġcrew":3795,"Ġgenerally":3796,"Ġcd":3797,"ylvania":3798,"Ġchoo":3799,"15":3800,"Ġwear":3801,"Ġresour":3802,"inger":3803,"road":3804,"Ġserving":3805,"Ġvac":3806,"Ġconsider":3807,"Ġlif":3808,"Ġfunny":3809,"Ġfelt":3810,"porary":3811,"Ġpra":3812,"Ġgrew":3813,"Ġislands":3814,"Ġeye":3815,"Ġcultural":3816,"Ġdry":3817,"Ġamb":3818,"Ġencour":3819,"Ġtracks":3820,"Ġresidents":3821,"Ġsyn":3822,"Ġkne":3823,"Ġboat":3824,"Ġiraq":3825,"Ġmatches":3826,"Ġnearby":3827,"onse":3828,"iled":3829,"Ġleaving":3830,"Ġefforts":3831,"Ġlines":3832,"Ġrh":3833,"Ġcrime":3834,"Ġmusl":3835,"Ġnick":3836,"Ġanal":3837,"bon":3838,"uals":3839,"sp":3840,"Ġlevels":3841,"Ġarrived":3842,"Ġinstr":3843,"Ġtroops":3844,"uries":3845,"han":3846,"kins":3847,"Ġjim":3848,"Ġunit":3849,"ua":3850,"Ġrecording":3851,"Ġfinancial":3852,"Ġhockey":3853,"ko":3854,"Ġtall":3855,"Ġchairman":3856,"zen":3857,"Ġsimp":3858,"Ġincreasing":3859,"uction":3860,"Ġmemor":3861,"Ġbelieved":3862,"Ġcollabor":3863,"Ġbrain":3864,"aland":3865,"bre":3866,"mit":3867,"vert":3868,"Ġendemic":3869,"Ġcolumb":3870,"Ġhung":3871,"Ġrab":3872,"Ġmond":3873,"Ġstructure":3874,"Ġbri":3875,"Ġsmaller":3876,"Ġstuff":3877,"ipl":3878,"Ġboston":3879,"Ġowners":3880,"hire":3881,"ini":3882,"ansas":3883,"teen":3884,"Ġphone":3885,"Ġconditions":3886,"Ġitaly":3887,"Ġken":3888,"Ġconfl":3889,"Ġtreatment":3890,"Ġsarah":3891,"Ġsov":3892,"Ġnap":3893,"Ġchallen":3894,"Ġfailed":3895,"Ġrisk":3896,"fect":3897,"Ġhuge":3898,"Ġoffer":3899,"Ġscot":3900,"Ġemb":3901,"net":3902,"ote":3903,"Ġadam":3904,"Ġlaura":3905,"gal":3906,"Ġcoal":3907,"Ġpaid":3908,"Ġ1989":3909,"hi":3910,"tr":3911,"antic":3912,"phone":3913,"Ġsoldiers":3914,"sylvania":3915,"Ġvice":3916,"Ġedition":3917,"Ġreform":3918,"Ġmusical":3919,"Ġobt":3920,"venue":3921,"Ġhabitat":3922,"ulations":3923,"do":3924,"Ġspok":3925,"Ġspir":3926,"har":3927,"Ġgrowth":3928,"Ġpsych":3929,"Ġbey":3930,"Ġari":3931,"Ġseed":3932,"Ġdoub":3933,"Ġkitty":3934,"Ġmob":3935,"quar":3936,"Ġsoviet":3937,"astic":3938,"Ġapproxim":3939,"Ġtoys":3940,"ologist":3941,"hol":3942,"Ġshel":3943,"Ġtext":3944,"Ġchannel":3945,"gl":3946,"Ġlatin":3947,"Ġdefense":3948,"Ġpennsylvania":3949,"ulated":3950,"Ġoffered":3951,"Ġring":3952,"Ġfreed":3953,"ses":3954,"Ġnose":3955,"Ġbol":3956,"jan":3957,"Ġlic":3958,"Ġkid":3959,"Ġlocation":3960,"Ġassistant":3961,"Ġappearance":3962,"ipped":3963,"Ġbirds":3964,"17":3965,"isher":3966,"Ġstock":3967,"Ġjunior":3968,"Ġresponse":3969,"Ġdigital":3970,"Ġmotor":3971,"ucky":3972,"Ġsupported":3973,"Ġenvironmental":3974,"Ġdisapp":3975,"Ġiv":3976,"rick":3977,"Ġ183":3978,"Ġkept":3979,"ena":3980,"Ġmas":3981,"oy":3982,"Ġhusband":3983,"Ġnewspaper":3984,"Ġcontr":3985,"Ġhistorical":3986,"Ġstadium":3987,"aging":3988,"Ġshut":3989,"Ġrid":3990,"Ġpieces":3991,"izing":3992,"Ġchemical":3993,"ole":3994,"Ġvariety":3995,"Ġresponsible":3996,"light":3997,"Ġcool":3998,"Ġguy":3999,"Ġaccom":4000,"isions":4001,"Ġmcc":4002,"Ġhors":4003,"Ġengineering":4004,"Ġheard":4005,"Ġrevolution":4006,"chan":4007,"Ġmarriage":4008,"Ġautom":4009,"Ġlooked":4010,"Ġdrum":4011,"Ġnumerous":4012,"Ġjudge":4013,"kin":4014,"Ġsource":4015,"Ġpeak":4016,"Ġcitizens":4017,"athan":4018,"Ġremo":4019,"mas":4020,"Ġtail":4021,"iro":4022,"asion":4023,"Ġjuice":4024,"Ġscreen":4025,"Ġcancer":4026,"Ġenter":4027,"Ġprint":4028,"Ġfresh":4029,"aily":4030,"Ġera":4031,"Ġdemand":4032,"Ġtraff":4033,"Ġsched":4034,"Ġmeaning":4035,"Ġolympics":4036,"Ġsanta":4037,"Ġgraduated":4038,"11":4039,"Ġ<":4040,"Ġsev":4041,"Ġbob":4042,"Ġic":4043,"Ġdar":4044,"ella":4045,"iana":4046,"Ġapproach":4047,"Ġquality":4048,"Ġtropical":4049,"Ġsad":4050,"Ġexam":4051,"Ġfeature":4052,"Ã³n":4053,"Ġtenn":4054,"Ġpus":4055,"ii":4056,"Ġtwenty":4057,"Ġcart":4058,"Ġdraft":4059,"Ġded":4060,"Ġ1988":4061,"Ġcru":4062,"Ġcouple":4063,"inn":4064,"Ġhyd":4065,"Ġeffort":4066,"Ġleaves":4067,"Ġtalking":4068,"ali":4069,"Ġgreek":4070,"Ġyoun":4071,"Ġhomes":4072,"erved":4073,"Ġful":4074,"oop":4075,"ession":4076,"Ġprime":4077,"Ġwel":4078,"Ġhighway":4079,"Ġdaily":4080,"Ġchampion":4081,"Ġzealand":4082,"Ġsenate":4083,"Ġassembly":4084,"water":4085,"Ġhumans":4086,"Ġlee":4087,"//":4088,"Ġarms":4089,"Ġcateg":4090,"Ġduck":4091,"utions":4092,"Ġtoy":4093,"Ġvoice":4094,"Ġsupposed":4095,"://":4096,"Ġweather":4097,"Ġgives":4098,"alled":4099,"vere":4100,"Ġweight":4101,"Ġsunday":4102,"Ġupper":4103,"Ġcalls":4104,"Ġrose":4105,"Ġequip":4106,"Ġbirthday":4107,"Ġbomb":4108,"Ġka":4109,"Ġclimate":4110,"Ġmand":4111,"Ġnut":4112,"azz":4113,"Ġmention":4114,"Ġattend":4115,"rences":4116,"Ġash":4117,"ables":4118,"Ġprovides":4119,"Ġforward":4120,"Ġ35":4121,"13":4122,"Ġsud":4123,"Ġconfir":4124,"Ġmarine":4125,"iling":4126,"Ġkiss":4127,"Ġcharl":4128,"ato":4129,"Ġskills":4130,"uing":4131,"vin":4132,"ancy":4133,"Ġrule":4134,"Ġjewish":4135,"Ġmedicine":4136,"over":4137,"Ġholding":4138,"Ġbishop":4139,"Ġnotable":4140,"Ġcompeted":4141,"oud":4142,"Ġflag":4143,"Ġexperi":4144,"inet":4145,"wr":4146,"Ġflying":4147,"Ġsoccer":4148,"Ġsor":4149,"olk":4150,"Ġdouble":4151,"Ġpressure":4152,"Ġfarmers":4153,"Ġpak":4154,"Ġyounger":4155,"Ġ70":4156,"Ġtape":4157,"Ġaddress":4158,"Ġell":4159,"Ġseasons":4160,"asa":4161,"Ġstatus":4162,"Ġcastle":4163,"Ġbon":4164,"Ġwinner":4165,"Äĩ":4166,"Ġbutter":4167,"Ġbroken":4168,"Ġcomment":4169,"Ġsingles":4170,"action":4171,"Ġimmigr":4172,"Ġhouses":4173,"Ġens":4174,"Ġresc":4175,"Ġiron":4176,"Ġpositive":4177,"Ġram":4178,"Ġ1984":4179,"Ġsens":4180,"Ġserve":4181,"Ġalone":4182,"Ġcarried":4183,"Ġviolence":4184,"wa":4185,"Ġcontroll":4186,"Ġagreement":4187,"acts":4188,"Ġseparate":4189,"Ġstraight":4190,"Ġsubsequently":4191,"Ġprojects":4192,"Ġdeput":4193,"iance":4194,"rie":4195,"Ġterms":4196,"Ġjul":4197,"Ġsave":4198,"Ġsyria":4199,"Ġmainly":4200,"Ġvolunte":4201,"ien":4202,"Ġequipment":4203,"Ġmama":4204,"Ġfunction":4205,"Ġrug":4206,"ucle":4207,"Ġcheck":4208,"Ġplanet":4209,"Ġapproximately":4210,"Ġalt":4211,"Ġcharacters":4212,"uted":4213,"Ġbranch":4214,"Ġability":4215,"Ġ80":4216,"Ġneighborhood":4217,"Ġmultip":4218,"Ġkit":4219,"Ġeggs":4220,"Ġchance":4221,"Ġgeorgia":4222,"izes":4223,"Ġgreater":4224,"ube":4225,"Ġattacks":4226,"Ġ1987":4227,"Ġchalleng":4228,"mond":4229,"Ġfans":4230,"ros":4231,"iring":4232,"aped":4233,"Ġrow":4234,"Ġmixed":4235,"amm":4236,"Ġoperated":4237,"Ġscholars":4238,"Ġunits":4239,"Ġproducer":4240,"Ġhang":4241,"change":4242,"Ġviet":4243,"Ġimpact":4244,"Ġtells":4245,"greg":4246,"ule":4247,"Ġfirm":4248,"rend":4249,"Ġscientific":4250,"Ġwheel":4251,"Ġfred":4252,"Ġund":4253,"Ġelev":4254,"gers":4255,"Ġod":4256,"Ġcarl":4257,"Ġdutch":4258,"Ġnom":4259,"Ġinhab":4260,"ingu":4261,"Ġnic":4262,"sen":4263,"Ġbowl":4264,"lied":4265,"Ġzoo":4266,"Ġelectron":4267,"Ġfat":4268,"Ġmonday":4269,"umn":4270,"Ġkr":4271,"Ġcommunities":4272,"Ġteaching":4273,"Ġmah":4274,"uth":4275,"Ġasia":4276,"ctors":4277,"Ġentertain":4278,"Ġrough":4279,"Ġnote":4280,"Ġworth":4281,"Ġsense":4282,"16":4283,"iful":4284,"Ġ1985":4285,"Ġinte":4286,"Ġdrop":4287,"yr":4288,"Ġplane":4289,"come":4290,"Ġrat":4291,"Ġmetal":4292,"Å¡":4293,"Ġclaimed":4294,"Ġadministr":4295,"Ġsr":4296,"Ġstan":4297,"Ġfox":4298,"Ġcooper":4299,"life":4300,"Ġgil":4301,"Ġappears":4302,"orters":4303,"Ġturkey":4304,"ribution":4305,"Ġphysical":4306,"Ġdropped":4307,"Ġchallenge":4308,"Ġbroke":4309,"Ġimmediately":4310,"ties":4311,"orter":4312,"Ġgrass":4313,"Ġcoff":4314,"Ġproduce":4315,"Ġeffects":4316,"Ġpromin":4317,"vi":4318,"Ġindic":4319,"Ġfounder":4320,"Ġplatform":4321,"cks":4322,"Ġemploy":4323,"Ġped":4324,"Ġcompl":4325,"Ġcompared":4326,"gle":4327,"Ġtan":4328,"Ġbought":4329,"Ġjones":4330,"cement":4331,"aph":4332,"atures":4333,"Ġ90":4334,"Ġhotel":4335,"Ġton":4336,"icted":4337,"Ġlearned":4338,"Ġyep":4339,"Ġpolitician":4340,"Ġiniti":4341,"Ġkil":4342,"Ġcham":4343,"Ġrod":4344,"atively":4345,"Ġauthorities":4346,"Ġ1986":4347,"Ġdangerous":4348,"Ġtoward":4349,"Ġkent":4350,"wan":4351,"Ġeld":4352,"Ã¤":4353,"Ġgene":4354,"Ġagreed":4355,"Ġsac":4356,"Ġnucle":4357,"Ġbron":4358,"Ġeasy":4359,"hold":4360,"Ġos":4361,"Ġgeneration":4362,"Ġmeant":4363,"Ġ1982":4364,"Ġfreedom":4365,"Ġbarb":4366,"Ġirish":4367,"fast":4368,"Ġcritics":4369,"Ġbrothers":4370,"Ġconcept":4371,"rison":4372,"Ġmanaged":4373,"Ġputting":4374,"Ġfigh":4375,"Ġtermin":4376,"itude":4377,"Ġgal":4378,"Ġstanding":4379,"Ġrevealed":4380,"Ġproposed":4381,"Ġheat":4382,"adel":4383,"Ġspr":4384,"Ġpotential":4385,"igration":4386,"using":4387,"Ġprotest":4388,"ented":4389,"Ġprince":4390,"Ġhundreds":4391,"Ġmoon":4392,"Ġtast":4393,"pping":4394,"ax":4395,"Ġhappen":4396,"Ġarrang":4397,"Ġluc":4398,"Ġadj":4399,"Ġeleph":4400,"Åį":4401,"Ġcompos":4402,"ography":4403,"ares":4404,"ining":4405,"Ġut":4406,"Ġveter":4407,"Ġbusinesses":4408,"set":4409,"Ġcamera":4410,"Ġsky":4411,"Ġpresented":4412,"Ġachieve":4413,"Ġknew":4414,"Ġsimply":4415,"Ġ500":4416,"Ġplanned":4417,"Ġblocks":4418,"itation":4419,"Ġunf":4420,"Ġdecades":4421,"Ġtwice":4422,"Ġsuc":4423,"Ġactor":4424,"Ġbiggest":4425,"Ġmax":4426,"Ġjohnson":4427,"Ġhelps":4428,"Ġcandidate":4429,"Ġ1945":4430,"Ġdrug":4431,"Ġextrem":4432,"Ġintegr":4433,"Ġstations":4434,"Ġ32":4435,"Ġowner":4436,"Ġacquired":4437,"Ġsitting":4438,"outs":4439,"Ġterror":4440,"time":4441,"othes":4442,"Ġkorea":4443,"rel":4444,"ji":4445,"Ġbull":4446,"Ġansw":4447,"Ġmichigan":4448,"iano":4449,"Ġscene":4450,"Ġsom":4451,"Ġ1972":4452,"Ġfields":4453,"Ġmeasure":4454,"Ġbrief":4455,"Ġcosts":4456,"Ġray":4457,"Ġforms":4458,"Ġsuit":4459,"Ġmechan":4460,"ette":4461,"bach":4462,"ror":4463,"Ġreports":4464,"Ġminim":4465,"Ġwonder":4466,"Ġdamage":4467,"Ġdestroyed":4468,"Ġid":4469,"oops":4470,"ysis":4471,"Ġsites":4472,"Ġsucceed":4473,"Ġaim":4474,"Ġmath":4475,"Ġbrig":4476,"Ġletters":4477,"ci":4478,"Ġelement":4479,"rey":4480,"Ġwet":4481,"Ġmoo":4482,"Ġtownship":4483,"Ġtrail":4484,"aceae":4485,"Ġweb":4486,"Ġaffect":4487,"Ġadvoc":4488,"Ġjersey":4489,"inal":4490,"inois":4491,"Ġpakistan":4492,"Ġukraine":4493,"Ġtheory":4494,"Ġprice":4495,"Ġconducted":4496,"mo":4497,"Ġcontem":4498,"Ġtemple":4499,"Ġbeyond":4500,"Ġtaught":4501,"aming":4502,"Ġquite":4503,"Ġcookie":4504,"Ġcells":4505,"Ġdemonstr":4506,"Ġcontest":4507,"Ġactivity":4508,"ero":4509,"Ġcaught":4510,"Ġremaining":4511,"Ġindustrial":4512,"Ġbeautiful":4513,"Ġrepe":4514,"Ġwednes":4515,"itory":4516,"ela":4517,"kh":4518,"Ġenjo":4519,"Ġships":4520,"Ġministry":4521,"ifying":4522,"Ġacademic":4523,"Ġcrimin":4524,"eech":4525,"Ġissued":4526,"Ġphilipp":4527,"Ġislamic":4528,"Ġtues":4529,"Ġspend":4530,"Ġ1940":4531,"Ġurban":4532,"gian":4533,"elling":4534,"Ġedward":4535,"Ġoffers":4536,"Ġexperiment":4537,"ordin":4538,"ledge":4539,"Ġtra":4540,"Ġ1930":4541,"eless":4542,"Ġhighly":4543,"nic":4544,"orpor":4545,"Ġsituation":4546,"Ġhu":4547,"reng":4548,"Ġparks":4549,"Ġspeech":4550,"Ġpromoted":4551,"Ġdetermin":4552,"Ġhelping":4553,"Ġillinois":4554,"Ġsequ":4555,"works":4556,"Ġanth":4557,"shire":4558,"Ġbottom":4559,"Ġsick":4560,"Ġperm":4561,"ila":4562,"Ġultim":4563,"Ġsubt":4564,"ishing":4565,"Ġgarden":4566,"Ġstores":4567,"Ġunc":4568,"Ġcas":4569,"Ġdirection":4570,"Ġjac":4571,"Ġmeat":4572,"Ġdisplay":4573,"Ġestimated":4574,"rated":4575,"Ġric":4576,"Ġbritain":4577,"Ġmemorial":4578,"Ġ1983":4579,"Ġdriving":4580,"onic":4581,"Ġbann":4582,"ques":4583,"no":4584,"kee":4585,"Ġpattern":4586,"Ġmachine":4587,"Ġohio":4588,"Ġtypes":4589,"Ġflowers":4590,"Ġrefe":4591,"Ġleadership":4592,"Ġindividuals":4593,"apes":4594,"Ġ1979":4595,"ellig":4596,"Ġthanks":4597,"Ġstopped":4598,"Ġ182":4599,"Ġvisitors":4600,"Ġjon":4601,"Ġlunch":4602,"Ġdirectly":4603,"Ġweapons":4604,"aska":4605,"Ġexpert":4606,"Ġprotection":4607,"Ġsher":4608,"Ġ36":4609,"Ġelections":4610,"Ġtuesday":4611,"Ġsym":4612,"Ġjes":4613,"Ġlosing":4614,"Ġorganis":4615,"Ġlisten":4616,"ghan":4617,"Ġappearances":4618,"Ġsupre":4619,"Ġparticipated":4620,"Ġbod":4621,"Ġmultiple":4622,"roph":4623,"Ġsatur":4624,"mann":4625,"Ġsurvey":4626,"Ġestate":4627,"Ġaccident":4628,"can":4629,"Ġdisney":4630,"Ġalbums":4631,"Ġrise":4632,"Ġresources":4633,"Ġmexican":4634,"stein":4635,"abeth":4636,"Ġles":4637,"aling":4638,"Ġexerc":4639,"Ġdol":4640,"illy":4641,"aks":4642,"Ġ1981":4643,"Ġdistance":4644,"Ġpad":4645,"Ġcoffee":4646,"Ġconsists":4647,"Ġvalue":4648,"Ġregister":4649,"Ġolympic":4650,"Ġconcert":4651,"Ġeb":4652,"Ġexact":4653,"Ġsymb":4654,"encies":4655,"Ġsamp":4656,"Ġfruit":4657,"ttps":4658,"Ġintellig":4659,"Ġmunicipal":4660,"Ġwales":4661,"Ġlatter":4662,"een":4663,"Ġwit":4664,"abad":4665,"Ġ1920":4666,"Ġdeputy":4667,"Ġille":4668,"Ġresident":4669,"Ġwildlife":4670,"Ġrespond":4671,"Ġstrike":4672,"Ġentertainment":4673,"Ġonto":4674,"Ġwednesday":4675,"unt":4676,"Ġ1975":4677,"Ġdiam":4678,"je":4679,"ager":4680,"Ġorganized":4681,"Ġlion":4682,"Ġsweetie":4683,"Ġtrouble":4684,"ously":4685,"Ġcontact":4686,"ements":4687,"Ġsides":4688,"Ġroof":4689,"Ġquestions":4690,"etts":4691,"Ġconservation":4692,"Ġstreng":4693,"Ġgoo":4694,"Ġcounter":4695,"ucks":4696,"Ġadvanced":4697,"mark":4698,"Ġsuggest":4699,"Ġthreatened":4700,"Ġseems":4701,"iced":4702,"Ġtiny":4703,"Ġscen":4704,"lies":4705,"Ġtherefore":4706,"Ġrecomm":4707,"Ġguess":4708,"Ġknock":4709,"Ġwilliams":4710,"rol":4711,"stra":4712,"Ġchristmas":4713,"Ġburied":4714,"Ġforests":4715,"Ġcomposed":4716,"Ġsmart":4717,"town":4718,"Ġpink":4719,"ricts":4720,"Ġideas":4721,"Ġtrial":4722,"Ġgay":4723,"Ġincome":4724,"esh":4725,"Ġnfl":4726,"unk":4727,"Ġcontinues":4728,"Ġlots":4729,"Ġsilly":4730,"Ġvent":4731,"Ġchoice":4732,"Ġremoved":4733,"Ġdanc":4734,"Ġinitial":4735,"Ġyards":4736,"Ġscotland":4737,"Ġmut":4738,"Ġreceive":4739,"burgh":4740,"Ġga":4741,"Ġ1976":4742,"Ġempire":4743,"Ġteeth":4744,"Ġregiment":4745,"Ġorganizations":4746,"Ã§":4747,"ouri":4748,"Ġexpect":4749,"Ġ1968":4750,"Ġcert":4751,"Ġdogg":4752,"Ġperfect":4753,"Ġsixth":4754,"Ġjoe":4755,"Ġcampus":4756,"Ġyay":4757,"ibly":4758,"Ġsupply":4759,"Ġdrama":4760,"Ġbehavior":4761,"Ġselling":4762,"Ġmist":4763,"Ġfunding":4764,"Ġign":4765,"Ġfinding":4766,"Ġtitled":4767,"Ġaffairs":4768,"Ġdeclared":4769,"Ġpin":4770,"Ġhind":4771,"Ġcode":4772,"Ġordered":4773,"achus":4774,"Ġ180":4775,"Ġsimple":4776,"stone":4777,"Ġcritical":4778,"Ġ1974":4779,"ati":4780,"Ġorche":4781,"Ġfriday":4782,"Ã¨":4783,"Ġ300":4784,"Ġhero":4785,"Ġresist":4786,"Ġast":4787,"Ġcommander":4788,"Ġlaunch":4789,"iest":4790,"Ġveget":4791,"Ġkim":4792,"Ġwearing":4793,"Ġportug":4794,"Ġiii":4795,"ault":4796,"uct":4797,"Ġwindow":4798,"Ġspirit":4799,"Ġfash":4800,"ummy":4801,"Ġrot":4802,"Ġbound":4803,"Ġdistricts":4804,"Ġphilos":4805,"Ġharv":4806,"Ġmountains":4807,"Ġcem":4808,"Ġpurs":4809,"Ġinspired":4810,"Ġadults":4811,"Ġ1978":4812,"isters":4813,"Ġasian":4814,"erb":4815,"any":4816,"Ġhappens":4817,"Ġandrew":4818,"see":4819,"Ġdaniel":4820,"Ġafghan":4821,"Ġbreed":4822,"arm":4823,"andon":4824,"illa":4825,"ĠâĢĺ":4826,"Ġwaters":4827,"adelph":4828,"Ġsend":4829,"Ġhug":4830,"Ġprimarily":4831,"Ġelements":4832,"Ġmassachus":4833,"Ġdinos":4834,"Ġbunny":4835,"Ġswimming":4836,"Ġbrad":4837,"Ġcolumbia":4838,"Ġmassachusetts":4839,"Ġshortly":4840,"worth":4841,"Ġshr":4842,"Ġuncle":4843,"rupt":4844,"Ġhousing":4845,"ruction":4846,"Ġdefin":4847,"Ġscr":4848,"Ġofficially":4849,"Ġconflict":4850,"adelphia":4851,"iles":4852,"Ġstandards":4853,"Ġinfluence":4854,"Ġshooting":4855,"ih":4856,"Ġcreek":4857,"Ġ45":4858,"Ġ1969":4859,"Ġmigr":4860,"Ġbreakfast":4861,"Ġeconomy":4862,"Ġgol":4863,"Ġeliz":4864,"Ġ1944":4865,"Ġtheme":4866,"Ġjoint":4867,"Ġthinking":4868,"Ġarchae":4869,"Ġarrested":4870,"Ġooh":4871,"Ġkenn":4872,"Ġtrains":4873,"Ġreserve":4874,"bridge":4875,"Ġmoth":4876,"Ġextended":4877,"elly":4878,"eland":4879,"Ġadvert":4880,"Ġmis":4881,"Ġsoftware":4882,"Ġpatients":4883,"Ġuns":4884,"weight":4885,"Ġfc":4886,"Ġclubs":4887,"Ġcemeter":4888,"fish":4889,"yard":4890,"Ġvillages":4891,"Ġliterature":4892,"Ġacting":4893,"Ġbudget":4894,"40":4895,"Ġinfant":4896,"Ġ1971":4897,"Ġjeff":4898,"Ġconstructed":4899,"Ġfal":4900,"Ġcontent":4901,"Ġfollows":4902,"Ġinjury":4903,"Ġdefeat":4904,"Ġprincipal":4905,"Ġsupreme":4906,"Ġbuck":4907,"Ġjr":4908,"Ġ33":4909,"Ġcapac":4910,"Ġsurn":4911,"uts":4912,"Ġmos":4913,"Ġ1977":4914,"fort":4915,"Ġprec":4916,"nie":4917,"Ġbecomes":4918,"Ġscale":4919,"Ġreferred":4920,"gn":4921,"oln":4922,"Ġconvers":4923,"Ġtraffic":4924,"Ġwindows":4925,"Ġplanning":4926,"iga":4927,"Ġfeaturing":4928,"onia":4929,"Ġlies":4930,"Ġperman":4931,"tered":4932,"Ġchanging":4933,"Ġfashion":4934,"Ġdifference":4935,"Ġauthority":4936,"Ġak":4937,"uled":4938,"mans":4939,"Ġlind":4940,"Ġbears":4941,"Ġpover":4942,"Ġopportunity":4943,"Ġpupp":4944,"Ġshoes":4945,"Ġraise":4946,"Ġheight":4947,"Ġwrit":4948,"Ġmars":4949,"Ġauth":4950,"80":4951,"cles":4952,"Ġcrown":4953,"Ġpoverty":4954,"hs":4955,"Ġsolo":4956,"Ġterritory":4957,"Ġdipl":4958,"Ġcorner":4959,"while":4960,"Ġwidely":4961,"Ġserves":4962,"Ġgri":4963,"Ġ1967":4964,"Ġtransferred":4965,"Ġconstant":4966,"Ġallows":4967,"Ġpowerful":4968,"sela":4969,"Ġreviews":4970,"Ġcomedy":4971,"newsela":4972,"Ġanalysis":4973,"rid":4974,"Ġpoo":4975,"âĢĻ":4976,"Ġtypically":4977,"Ġstatement":4978,"Ġcin":4979,"estic":4980,"Ġenem":4981,"Ġcrack":4982,"Ġlarg":4983,"Ġalongside":4984,"Ġassigned":4985,"Ġmoment":4986,"Ġbes":4987,"ario":4988,"Ġabandon":4989,"Ġwins":4990,"33":4991,"Ġcalling":4992,"Ġcondition":4993,"Ġexchange":4994,"Ġregist":4995,"Ġflood":4996,"Ġmaterials":4997,"haps":4998,"cha":4999,"Ġjazz":5000,"Ġtam":5001,"oted":5002,"ivity":5003,"Ġbasic":5004,"Ġargent":5005,"Ġsugar":5006,"Ġformerly":5007,"Ġgolden":5008,"etic":5009,"Ġperhaps":5010,"Ġcris":5011,"Ġbigger":5012,"Ġ1973":5013,"Ġpurpose":5014,"Ġfear":5015,"Ġclimb":5016,"Ġcustomers":5017,"Ġaid":5018,"Ġmike":5019,"Ġenfor":5020,"Ġdivided":5021,"Ġcaptured":5022,"Ġtay":5023,"Ġcontrovers":5024,"Ġwalking":5025,"ito":5026,"Ġwarm":5027,"Ġtests":5028,"Ġfavorite":5029,"Ġsaturday":5030,"ux":5031,"athe":5032,"Ġserb":5033,"Ġnormal":5034,"oration":5035,"acing":5036,"Ġusa":5037,"tery":5038,"incoln":5039,"Ġgraduate":5040,"Ġdur":5041,"Ġfought":5042,"Ġbackground":5043,"Ġlas":5044,"Ġwhoops":5045,"Ġcompletely":5046,"uten":5047,"Ġcla":5048,"Ġsurname":5049,"Ġcric":5050,"lying":5051,"ulf":5052,"Ġprominent":5053,"Ġfocused":5054,"Ġdedicated":5055,"Ġattorn":5056,"Ġimpress":5057,"Ġcrowd":5058,"Ġpremie":5059,"Ġedge":5060,"Ġreturning":5061,"bury":5062,"urt":5063,"Ġkal":5064,"Ġconsec":5065,"mine":5066,"Ġpool":5067,"Ġunique":5068,"Ġdriver":5069,"Ġfacilities":5070,"Ġnecessary":5071,"Ġlargely":5072,"Ġsources":5073,"Ġwoo":5074,"Ġdiss":5075,"Ġsyd":5076,"Ġphiladelphia":5077,"Ġfootballer":5078,"Ġsuggested":5079,"Ġaccepted":5080,"Ġsuffered":5081,"ington":5082,"Ġplate":5083,"Ġnewly":5084,"Ġ1965":5085,"onents":5086,"Ġknowledge":5087,"Ġ1964":5088,"Ġreasons":5089,"Ġflat":5090,"Ġemot":5091,"Ġbright":5092,"Ġgray":5093,"Ġrecognized":5094,"iy":5095,"wise":5096,"Ġbass":5097,"Ġconclud":5098,"Ġnep":5099,"Ġpartnership":5100,"Ġelizabeth":5101,"Ġcolorado":5102,"Ġpropos":5103,"Ġcircle":5104,"Ġtel":5105,"Ġscoring":5106,"Ġadopted":5107,"Ġwilson":5108,"Ġlincoln":5109,"Ġcontemporary":5110,"Ġarmed":5111,"Ġcolomb":5112,"rees":5113,"ads":5114,"Ġcreating":5115,"Ġcorps":5116,"Ġconfirmed":5117,"Ġdoctors":5118,"Ġimplement":5119,"Ġracing":5120,"Ġcricket":5121,"Ġcha":5122,"ocol":5123,"Ġactress":5124,"Ġnuclear":5125,"Ġanaly":5126,"Ġimag":5127,"Ġcommunist":5128,"Ġwisc":5129,"Ġbegins":5130,"Ġclothes":5131,"Ġguns":5132,"Ġpurchased":5133,"Ġwings":5134,"Ġmap":5135,"oms":5136,"Ġrestrict":5137,"Ġrestaurant":5138,"aka":5139,"Ġabd":5140,"cel":5141,"Ġgang":5142,"Ġbutton":5143,"Ġimage":5144,"quarters":5145,"ias":5146,"Ġhong":5147,"Ġjam":5148,"Ġmarsh":5149,"onsin":5150,"Ġmessage":5151,"Ġkorean":5152,"Ġwisconsin":5153,"azon":5154,"500":5155,"Ġrand":5156,"itage":5157,"Ġrice":5158,"Ġfinds":5159,"Ġrepresentatives":5160,"Ġzone":5161,"Ġeducational":5162,"Ġconnected":5163,"thur":5164,"Ġcontain":5165,"Ġhopes":5166,"Ġfactory":5167,"Ġlyric":5168,"Ġsydney":5169,"Ġseattle":5170,"istics":5171,"Ġavoid":5172,"Ġnominated":5173,"Ġsplit":5174,"Ġinhabit":5175,"Ġ34":5176,"Ġinterested":5177,"Ġproviding":5178,"Ġslight":5179,"chester":5180,"ributed":5181,"Ġtransform":5182,"Ġbillboard":5183,"Ġariz":5184,"Ġcriminal":5185,"Ġpalest":5186,"Ġori":5187,"Ġrepresentative":5188,"Ġidentified":5189,"rect":5190,"Ġnaz":5191,"oman":5192,"Ġskin":5193,"Ġvari":5194,"Ġcopies":5195,"Ġsemi":5196,"kes":5197,"Ġstarts":5198,"Ġadvis":5199,"Ġholds":5200,"Ã¡n":5201,"lav":5202,"Ġko":5203,"Ġactions":5204,"mony":5205,"Ġfaced":5206,"Ġsalt":5207,"Ġinvestigation":5208,"Ġpartner":5209,"Ġairpl":5210,"Ġheadquarters":5211,"Ġ1946":5212,"Ġvehicles":5213,"iami":5214,"Ġscientist":5215,"Ġcollected":5216,"Ġpolitics":5217,"Ġjackson":5218,"Ġinstrument":5219,"Ġgained":5220,"Ġhunting":5221,"rig":5222,"Ġavenue":5223,"heim":5224,"ira":5225,"Ġchicken":5226,"90":5227,"Ġinsur":5228,"rich":5229,"Ġts":5230,"Ġmaxim":5231,"Ġrivers":5232,"Ġfinals":5233,"Ġconsult":5234,"Ġtheater":5235,"Ġelimin":5236,"anes":5237,"ika":5238,"Ġadult":5239,"Ġgrown":5240,"gi":5241,"Ġfisher":5242,"chi":5243,"Ġindones":5244,"Ġtechnical":5245,"Ġopposition":5246,"Ġfigures":5247,"win":5248,"Ġdna":5249,"Ġhay":5250,"Ġpresence":5251,"Ġsmok":5252,"Ġniger":5253,"Ġrecru":5254,"Ġcombat":5255,"Ġfu":5256,"Ġimper":5257,"Ã±":5258,"Ġbh":5259,"Ġlem":5260,"Ġconver":5261,"osen":5262,"Ġincorpor":5263,"Ġpilot":5264,"Ġnorthwest":5265,"Ġchris":5266,"Ġcombined":5267,"ighth":5268,"Ġheritage":5269,"Ġfishing":5270,"Ġconservative":5271,"Ġmissing":5272,"bird":5273,"Ġthurs":5274,"Ġemergency":5275,"Ġshape":5276,"Ġclaims":5277,"uan":5278,"Ġblow":5279,"Ġprin":5280,"Ġkilling":5281,"order":5282,"ici":5283,"eman":5284,"Ġ1966":5285,"Ġreco":5286,"Ġmuslim":5287,"Ġpump":5288,"Ġrecon":5289,"60":5290,"Ġspending":5291,"Ġmeanwhile":5292,"Ġwalls":5293,"Ġmurder":5294,"Ġoccurred":5295,"Ġcapacity":5296,"25":5297,"Ġtesting":5298,"Ġbasis":5299,"war":5300,"Ġdim":5301,"Ġsciences":5302,"Ġcheese":5303,"iverse":5304,"bel":5305,"Ġlock":5306,"Ġmissouri":5307,"was":5308,"aham":5309,"Ġretire":5310,"Ġcuba":5311,"Ġsons":5312,"Ġeve":5313,"Ġabe":5314,"awa":5315,"Ġturk":5316,"Ġflower":5317,"Ġ150":5318,"Ġintelligence":5319,"hah":5320,"Ġanyone":5321,"Ġtowns":5322,"Ġsteel":5323,"Ġengineer":5324,"Ġsant":5325,"Ġkong":5326,"Ġknows":5327,"Ġ1963":5328,"Ġfewer":5329,"Ġsav":5330,"https":5331,"Ġneck":5332,"Ġworldwide":5333,"Ġranked":5334,"ione":5335,"Ġsees":5336,"Ġherself":5337,"Ġstreets":5338,"lets":5339,"aga":5340,"Ġaer":5341,"Ġsab":5342,"Ġnoise":5343,"Ġthinks":5344,"bl":5345,"Ġrailroad":5346,"Ġfan":5347,"Ġwars":5348,"Ġ1942":5349,"yees":5350,"Ġemployees":5351,"Ġoperating":5352,"Ġcrop":5353,"Ġwrest":5354,"Ġhealthy":5355,"iders":5356,"icient":5357,"Ġdeveloping":5358,"Ġscottish":5359,"Ġrugby":5360,"Ġpaintings":5361,"Ġ37":5362,"Ġloan":5363,"Ġatlantic":5364,"Ġvietnam":5365,"Ġreduced":5366,"Ġros":5367,"Ġapplied":5368,"Ġsecondary":5369,"makers":5370,"Ġintended":5371,"onto":5372,"Ġtask":5373,"Ġpair":5374,"Ġscul":5375,"Ġbush":5376,"iot":5377,"Ġopin":5378,"Ġlanguages":5379,"Ġboom":5380,"Ġpresidential":5381,"Ġcemetery":5382,"Ġparties":5383,"Ġcorporation":5384,"Ġspokes":5385,"Ġstuck":5386,"Ġgallery":5387,"200":5388,"ees":5389,"Ġsort":5390,"Ġmaryland":5391,"met":5392,"char":5393,"Ġwatching":5394,"Ġrapid":5395,"Ġcanal":5396,"Ġathletes":5397,"Ġchosen":5398,"Ġstret":5399,"Ġcalc":5400,"Ġpeek":5401,"pro":5402,"Ġtools":5403,"Ġsust":5404,"hens":5405,"Ġreligion":5406,"Ġnarrow":5407,"inson":5408,"resp":5409,"Ġmemory":5410,"Ġdinner":5411,"Ġvirt":5412,"Ġhosted":5413,"Ġaudience":5414,"Ġaccompan":5415,"Ġsomebody":5416,"Ġpolish":5417,"Ġfully":5418,"gie":5419,"Ġbrick":5420,"Ġmalays":5421,"Ġperforming":5422,"Ġthursday":5423,"Ġtrained":5424,"Ġhits":5425,"Ġshowing":5426,"Ġmillions":5427,"Ġfacult":5428,"night":5429,"ora":5430,"Ġnotes":5431,"Ġgrey":5432,"iber":5433,"Ġunkn":5434,"Ġdistingu":5435,"Ġvisited":5436,"Ġallowing":5437,"Ġhydro":5438,"Ġsubur":5439,"Ġsigns":5440,"itter":5441,"Ġdrones":5442,"Ġrefused":5443,"Ġkansas":5444,"Ġwash":5445,"Ġconcent":5446,"Ġapproved":5447,"Ġwolf":5448,"ava":5449,"Ġentr":5450,"Ġrenamed":5451,"Ġjenn":5452,"agan":5453,"Ġcategory":5454,"Ġcolors":5455,"Ġsteve":5456,"Ġsorry":5457,"Ġarizona":5458,"Ġseats":5459,"Ġeverybody":5460,"Ġagriculture":5461,"aws":5462,"Ġmobile":5463,"Ġspect":5464,"Ġprotests":5465,"Ġbern":5466,"Ġsettlement":5467,"Ġfilled":5468,"Ġrocks":5469,"sect":5470,"Ġmyster":5471,"Ġyog":5472,"Ġagent":5473,"Ġusers":5474,"oir":5475,"Ġbbc":5476,"Ġsubs":5477,"Ġspeaking":5478,"Ġliberal":5479,"Ġdisappe":5480,"Ġmanufacture":5481,"Ġeric":5482,"era":5483,"Ġshirt":5484,"Ġoppos":5485,"po":5486,"Ġlew":5487,"Ġcycl":5488,"Ġshell":5489,"Ġending":5490,"con":5491,"Ġcav":5492,"Ġminnes":5493,"Ġeducated":5494,"Ġuhoh":5495,"Ġfalls":5496,"Ġwhoa":5497,"Ġdiscovery":5498,"het":5499,"iÄĩ":5500,"Ġalbert":5501,"Ġexpensive":5502,"lers":5503,"wich":5504,"iform":5505,"Ġmentioned":5506,"Ġcontrolled":5507,"itan":5508,"Ġanton":5509,"Ġ1954":5510,"ĠÂ£":5511,"Ġlimit":5512,"Ġpainted":5513,"Ġmail":5514,"Ġreduce":5515,"ophy":5516,"Ġlect":5517,"Ġturt":5518,"olved":5519,"Ã¸":5520,"Ġbacter":5521,"Ġattorney":5522,"Ġlikes":5523,"Ġdy":5524,"Ġalexander":5525,"Ġunknown":5526,"Ġrefugees":5527,"Ġcore":5528,"Ġmiami":5529,"Ġmathem":5530,"Ġbond":5531,"ription":5532,"Ġgram":5533,"Ġnether":5534,"Ġconduct":5535,"Ġtransportation":5536,"bro":5537,"Ġframe":5538,"Ġbronze":5539,"Ġlions":5540,"Ġswedish":5541,"Ġgran":5542,"Ġpuzz":5543,"Ġhorn":5544,"ulate":5545,"Ġpros":5546,"Ġsetting":5547,"Ġvehicle":5548,"Ġbure":5549,"Ġlin":5550,"Ġregions":5551,"Ġsounds":5552,"Ġmit":5553,"Ġmodels":5554,"Äį":5555,"aug":5556,"Ġyourself":5557,"Ġturning":5558,"Ġeasily":5559,"bourne":5560,"Ġsquadron":5561,"Ġultimately":5562,"Ġexpanded":5563,"Ġkitchen":5564,"Ġbodies":5565,"Ġvictoria":5566,"Ġwithd":5567,"Ġentry":5568,"Ġminnesota":5569,"Ġheads":5570,"Ġ1962":5571,"Ġdistinct":5572,"Ġdrawing":5573,"Ġimmigrants":5574,"Ġanne":5575,"Ġ1958":5576,"Ġsinging":5577,"Ġtreated":5578,"Ġpric":5579,"Ġviews":5580,"Ġquiet":5581,"Ġslo":5582,"Ġkir":5583,"Ġinhabitants":5584,"ishes":5585,"enger":5586,"Ġkat":5587,"Ġ1959":5588,"Ġtank":5589,"umed":5590,"Ġmatt":5591,"Ġdirty":5592,"amin":5593,"elve":5594,"Ġfacility":5595,"Ġexisting":5596,"Ġdecade":5597,"Ġperformances":5598,"Ġvess":5599,"Ġblank":5600,"Ġsets":5601,"Ġsale":5602,"Ġ1948":5603,"Ġtu":5604,"Ġpositions":5605,"Ġfederation":5606,"Ġemper":5607,"Ġends":5608,"Ġpremier":5609,"Ġhorses":5610,"erbai":5611,"Ġbom":5612,"Ġfleet":5613,"Ġalternative":5614,"fa":5615,"Ġfinger":5616,"Ġthir":5617,"Ġreject":5618,"Ġ1941":5619,"Ġdesignated":5620,"Ġunlike":5621,"bye":5622,"Ġazerbai":5623,"ern":5624,"Ġopera":5625,"Ġlieuten":5626,"Ġfuel":5627,"engers":5628,"Ġpoly":5629,"Ġillust":5630,"Ġsubtropical":5631,"Ġmagn":5632,"Ġcommonly":5633,"Ġhole":5634,"Ġconstitution":5635,"Ġnathan":5636,"Ġwealth":5637,"Ġcrisis":5638,"Ġgather":5639,"aret":5640,"Ġparent":5641,"Ġcauses":5642,"Ġreceiving":5643,"Ġtitles":5644,"Ġ1961":5645,"Ġwitness":5646,"Ġcovers":5647,"Ġepisodes":5648,"Ġinjured":5649,"Ġescape":5650,"Ġitems":5651,"Ġturns":5652,"Ġjean":5653,"agues":5654,"Ġtea":5655,"ender":5656,"Ġmerc":5657,"Ġgree":5658,"Ġeag":5659,"Ġisol":5660,"Ġjord":5661,"Ġunus":5662,"Ġrelatively":5663,"Ġtoronto":5664,"Ġsculpt":5665,"Ġimages":5666,"Ġdial":5667,"Ġ1956":5668,"Ġexplained":5669,"rier":5670,"Ġunable":5671,"mes":5672,"ading":5673,"Ġment":5674,"Ġpicked":5675,"Ġbite":5676,"Ġ400":5677,"Ġcourses":5678,"Ġadvant":5679,"Ġinfantry":5680,"Ġpiano":5681,"Ġbaron":5682,"Ġlands":5683,"Ġtwelve":5684,"itors":5685,"Ġspin":5686,"Ġzh":5687,"Ġvisual":5688,"garian":5689,"Ġsituated":5690,"Ġafghanistan":5691,"Ġwy":5692,"Ġproceed":5693,"thew":5694,"Ġprofit":5695,"Ġstood":5696,"Ġip":5697,"Ġcloth":5698,"Ġconnection":5699,"vis":5700,"Ġspoke":5701,"itzer":5702,"Ġlyn":5703,"Ġacts":5704,"Ġnaima":5705,"Ġcreation":5706,"Ġinvited":5707,"Ġberlin":5708,"li":5709,"uela":5710,"ez":5711,"Ġ1947":5712,"Ġsenator":5713,"Ġshared":5714,"bles":5715,"oa":5716,"Ġtight":5717,"Ġmental":5718,"arian":5719,"Ġreserv":5720,"Ġrescue":5721,"Ġnomi":5722,"ran":5723,"Ġmall":5724,"Ġroles":5725,"Ġsupporters":5726,"Ġfame":5727,"box":5728,"Ġlieutenant":5729,"Ġexcell":5730,"Ġlose":5731,"Ġweekly":5732,"Ġadvent":5733,"Ġeffective":5734,"Ġmarked":5735,"Ġnaval":5736,"Ġdocumentary":5737,"Ġelephant":5738,"Ġpier":5739,"Ġpurple":5740,"Ġinnov":5741,"Ġoops":5742,"isted":5743,"fully":5744,"Ġlegs":5745,"Ġformat":5746,"rell":5747,"agn":5748,"Ġdism":5749,"Ġ1943":5750,"Ġagricultural":5751,"Ġsurrounding":5752,"Ġappa":5753,"Ġsolid":5754,"Ġpenal":5755,"Ġnurs":5756,"Ġrepresenting":5757,"Ġwaiting":5758,"Ġthirty":5759,"Ġstudying":5760,"Ġdetail":5761,"Ġdollars":5762,"Ġtired":5763,"Ġtob":5764,"Ġsoutheast":5765,"Ġexistence":5766,"Ġbid":5767,"leg":5768,"Ġwaste":5769,"Ġ1955":5770,"Ġfaculty":5771,"Ġadvance":5772,"Ġscheduled":5773,"Ġseconds":5774,"Ġgiant":5775,"Ġcatal":5776,"Ġexhibition":5777,"Ġenroll":5778,"Ġroads":5779,"Ġdetect":5780,"Ġnetherlands":5781,"Ġsevere":5782,"Ġaired":5783,"Ġqueens":5784,"70":5785,"Ġtack":5786,"Ġtai":5787,"Ġguys":5788,"Ġlawyer":5789,"Ġclosely":5790,"Ġforg":5791,"Ġprote":5792,"akh":5793,"pty":5794,"Ġseeing":5795,"aya":5796,"Ġrising":5797,"Ġtaylor":5798,"Ġgain":5799,"Ġpromotion":5800,"Ġsexual":5801,"Ġapparent":5802,"Ġfoss":5803,"Ġlap":5804,"aza":5805,"Ġhills":5806,"Ġebola":5807,"Ġpock":5808,"Ġarticles":5809,"Ġsin":5810,"Ġchapel":5811,"Ġnin":5812,"Ġcenters":5813,"Ġresulted":5814,"rep":5815,"Ġreality":5816,"claim":5817,"Ġmusicians":5818,"iti":5819,"Ġseg":5820,"Ġ179":5821,"Ġformation":5822,"Ġtig":5823,"Ġdecide":5824,"Ġmatthew":5825,"Ġjourney":5826,"Ġemperor":5827,"Ġbah":5828,"Ġtreas":5829,"Ġchain":5830,"Ġarthur":5831,"Ġcarrying":5832,"inder":5833,"Ġspeak":5834,"caa":5835,"Ġpup":5836,"Ġsheep":5837,"Ġnortheast":5838,"Ġtie":5839,"Ġot":5840,"Ġmarg":5841,"rus":5842,"lec":5843,"Ġrein":5844,"Ġcoc":5845,"Ġdub":5846,"regon":5847,"Ġcream":5848,"Ġvin":5849,"Ġpromote":5850,"Ġbanks":5851,"Ġcinem":5852,"Ġoregon":5853,"anth":5854,"isa":5855,"Ġdram":5856,"Ġceremony":5857,"Ġpermanent":5858,"Ġpray":5859,"hl":5860,"Ġrates":5861,"Ġguest":5862,"Ġine":5863,"Ġnasa":5864,"Ġsoil":5865,"Ġflu":5866,"Ġdebate":5867,"pects":5868,"Ġmile":5869,"ogue":5870,"Ġpoetry":5871,"Ġlaid":5872,"Ġdetermined":5873,"Ġtries":5874,"Ġpassing":5875,"Ġstands":5876,"zech":5877,"Ġvideos":5878,"Ġconcerns":5879,"Ġanswer":5880,"Ġ38":5881,"Ġindependence":5882,"Ġkhan":5883,"Ġobtained":5884,"Ġazerbaijan":5885,"ounded":5886,"Ġcray":5887,"Ġafford":5888,"lywood":5889,"Ġoldest":5890,"Ġoak":5891,"Ġdiet":5892,"idel":5893,"Ġearn":5894,"Ġexped":5895,"Ġcave":5896,"Äģn":5897,"Ġcommissioned":5898,"uro":5899,"yd":5900,"Ġbub":5901,"esters":5902,"Ġeasier":5903,"alle":5904,"Ġattacked":5905,"Ġvotes":5906,"Ġunderstanding":5907,"Ġrespectively":5908,"Ġczech":5909,"Ġpale":5910,"Ġalliance":5911,"Ġaccused":5912,"Ġpassengers":5913,"Ġbringing":5914,"Ġhook":5915,"Ġsupporting":5916,"Ġimmigration":5917,"Ġron":5918,"Ġmining":5919,"Ġhawai":5920,"Ġassess":5921,"Ġgranted":5922,"icy":5923,"Ġimperial":5924,"21":5925,"Ġbarn":5926,"Ġdetermine":5927,"acement":5928,"Ġmales":5929,"Ġtouchdown":5930,"Ġchamber":5931,"ologists":5932,"Ġdevices":5933,"www":5934,"Ġted":5935,"acks":5936,"Ġqualified":5937,"Ġsweden":5938,"à¤":5939,"Ġtend":5940,"oli":5941,"Ġobl":5942,"Ġorchestra":5943,"Ġspell":5944,"Ġgenes":5945,"Ġretail":5946,"Ġvoted":5947,"Ġncaa":5948,"ropri":5949,"Ġlandsc":5950,"timore":5951,"Ġdiego":5952,"otyp":5953,"Ġdefend":5954,"Ġdavis":5955,"Ġargued":5956,"onent":5957,"Ġark":5958,"Ġclar":5959,"Ġstrateg":5960,"Ġathletic":5961,"Ġportra":5962,"Ġwhales":5963,"Ġworried":5964,"Ġexpans":5965,"Ġbrook":5966,"Ġairplane":5967,"Ġpul":5968,"Ġpip":5969,"Ġmouse":5970,"Ġ1952":5971,"Ġstarring":5972,"Ġutil":5973,"Ġharry":5974,"Ġjordan":5975,"Ġward":5976,"Ġleads":5977,"Ġdetails":5978,"Ġil":5979,"Ġtag":5980,"Ġ1953":5981,"Ġsolar":5982,"Ġdocuments":5983,"Ġelementary":5984,"mad":5985,"Ġbachel":5986,"eed":5987,"Ġfo":5988,"ami":5989,"Ġjur":5990,"Ġshaped":5991,"car":5992,"Ġpatri":5993,"Ġoccasion":5994,"Ġearthqu":5995,"respond":5996,"Ġconsequ":5997,"Ġdistribution":5998,"Ġsteam":5999,"Ġ1957":6000,"Ġkeeping":6001,"Ġbuff":6002,"Ġclassic":6003,"Ġexclus":6004,"Ġidentity":6005,"usal":6006,"Ġcorrespond":6007,"Ġweak":6008,"Ġvolume":6009,"uz":6010,"pton":6011,"Ġannoun":6012,"Ġhired":6013,"illed":6014,"Ġcharges":6015,"Ġcausing":6016,"Ġcandidates":6017,"Ġbord":6018,"Ġfounding":6019,"Ġequal":6020,"Ġchur":6021,"aked":6022,"Ġsyrian":6023,"onym":6024,"Ġuniversities":6025,"Ġsharp":6026,"Ġshore":6027,"ression":6028,"Ġbee":6029,"Ġtrick":6030,"Ġprotected":6031,"Ġ1939":6032,"Ġbelieves":6033,"Ġexactly":6034,"22":6035,"Ġtort":6036,"Ġdrew":6037,"Ġworse":6038,"Ġisraeli":6039,"Ġmethods":6040,"Ġminimum":6041,"Ġslightly":6042,"Ġrib":6043,"Ġwinners":6044,"iler":6045,"Ġmoist":6046,"Ġlatest":6047,"Ġhip":6048,"oti":6049,"Ġmeasures":6050,"zo":6051,"inary":6052,"Ġlily":6053,"Ġscholarship":6054,"Ġaffili":6055,"donald":6056,"mont":6057,"roit":6058,"Ġjews":6059,"Ġbos":6060,"Ġinteresting":6061,"Ġbones":6062,"Ġcarbon":6063,"Ġreflect":6064,"Ġpainter":6065,"iar":6066,"under":6067,"Ġ75":6068,"Ġfoods":6069,"Ġangry":6070,"Ġsought":6071,"Ġmaz":6072,"olis":6073,"Ġstudios":6074,"Ġholy":6075,"real":6076,"Ġagree":6077,"Ġcloser":6078,"Ġtemperature":6079,"iang":6080,"Ġrome":6081,"Ġlouisiana":6082,"Ġpraised":6083,"Ġdegrees":6084,"Ġreaching":6085,"Ġrick":6086,"Ġphase":6087,"Ġheavily":6088,"Ġobserv":6089,"Ġabandoned":6090,"Ġlt":6091,"Ġages":6092,"Ġ1949":6093,"Ġtrop":6094,"ori":6095,"Ġsche":6096,"Ġhelic":6097,"Ġprofession":6098,"Ġelectronic":6099,"Ġvic":6100,"Ġcontained":6101,"Ġclassroom":6102,"fall":6103,"Ġbats":6104,"alu":6105,"Ġspecifically":6106,"Ġhungry":6107,"Ġsel":6108,"Ġchocol":6109,"Ġpublication":6110,"inity":6111,"Ġsoph":6112,"Ġthor":6113,"Ġoverse":6114,"Ġattempts":6115,"Ġapplication":6116,"Ġgab":6117,"Ġknight":6118,"Ġpoland":6119,"eral":6120,"Ġethnic":6121,"itled":6122,"Ġlut":6123,"Ġinteract":6124,"Ġrepublicans":6125,"Ġsettled":6126,"ching":6127,"Ġbrush":6128,"Ġstephen":6129,"ules":6130,"Ġlinked":6131,"lines":6132,"Ġott":6133,"idden":6134,"utional":6135,"Ġ65":6136,"Ġlabour":6137,"Ġinjuries":6138,"Ġbachelor":6139,"Ġtong":6140,"Ġfunds":6141,"wart":6142,"Ġsudden":6143,"Ġincident":6144,"Ġpasses":6145,"Ġdor":6146,"Ġyout":6147,"Ġguine":6148,"Ġweekend":6149,"Ġfrequently":6150,"washington":6151,"Ġbrian":6152,"Ġpope":6153,"Ġoffices":6154,"Ġmamm":6155,"Ġatm":6156,"Ġhomeless":6157,"tag":6158,"Ġcash":6159,"Ġfab":6160,"Ġpor":6161,"Ġcoordin":6162,"Ġsucceeded":6163,"Ġauthors":6164,"Ġthick":6165,"Ġalf":6166,"Ġali":6167,"Ġ44":6168,"Ġsteps":6169,"onso":6170,"icians":6171,"Ġchose":6172,"apers":6173,"Ġadding":6174,"Ġinfect":6175,"Ġadministrative":6176,"35":6177,"Ġmosc":6178,"Ġvictims":6179,"Ġdiplom":6180,"Ġtelling":6181,"Ġpossibly":6182,"bec":6183,"put":6184,"Ġcredit":6185,"Ġwriters":6186,"allas":6187,"rene":6188,"Ġhurric":6189,"iat":6190,"Ġfm":6191,"hedral":6192,"mouth":6193,"Ġty":6194,"Ġwave":6195,"Ġgym":6196,"Ġalab":6197,"Ġheaded":6198,"Ġcot":6199,"Ġmol":6200,"oses":6201,"Ġteens":6202,"Ġfeeling":6203,"Ġnegative":6204,"Ġchurches":6205,"Ġrober":6206,"Ġ1951":6207,"Ġtang":6208,"Ġplastic":6209,"Ġdv":6210,"Ġjane":6211,"Ġkinds":6212,"Ġfaith":6213,"Ġinsurance":6214,"Ġaqu":6215,"Ġvocal":6216,"Ġupd":6217,"Ġopposed":6218,"Ġexercise":6219,"dam":6220,"aints":6221,"Ġcolour":6222,"Ġjournalist":6223,"cript":6224,"Ġmarc":6225,"Ġ42":6226,"ergus":6227,"bar":6228,"Ġmort":6229,"Ġ1918":6230,"Ġduke":6231,"Ġstrength":6232,"æĿ":6233,"Ġhan":6234,"Ġnad":6235,"Ġalleged":6236,"Ġcompar":6237,"Ġ55":6238,"Ġalaska":6239,"Ġcharged":6240,"Ġprepared":6241,"ĠâĢ¦":6242,"Ġroughly":6243,"Ġnest":6244,"Ġhunt":6245,"Ġmelbourne":6246,"Ġsang":6247,"Ġlit":6248,"Ġcenturies":6249,"Ġlocations":6250,"rad":6251,"Ġcrash":6252,"Ġdowntown":6253,"Ġbaltimore":6254,"writer":6255,"Ġcig":6256,"eline":6257,"Ġaffected":6258,"Ġchocolate":6259,"oom":6260,"Ġinterp":6261,"Ġstayed":6262,"Ġfinishing":6263,"pass":6264,"Ġcm":6265,"Ġdetroit":6266,"Ġoxford":6267,"Ġreference":6268,"Ġlicens":6269,"Ġalabama":6270,"Ġtough":6271,"Ġnone":6272,"lyn":6273,"ivals":6274,"Ġdecor":6275,"Ġ1937":6276,"Ġshopping":6277,"Ġcharity":6278,"Ġrepresents":6279,"Ġfalling":6280,"Ġresulting":6281,"Ġhonour":6282,"Ġont":6283,"enna":6284,"Ġprotesters":6285,"Ġyoutube":6286,"Ġsax":6287,"Ġdesert":6288,"Ġmicroph":6289,"entially":6290,"Ġdevice":6291,"Ġbureau":6292,"Ġsurvived":6293,"Ġax":6294,"otic":6295,"Ġoutbre":6296,"ograph":6297,"Ġselection":6298,"Ġpir":6299,"Ġpapers":6300,"Ġbenefits":6301,"Ġseventh":6302,"Ġconsecutive":6303,"oster":6304,"Ġlux":6305,"Ġhelicop":6306,"Ġlam":6307,"Ġsouthwest":6308,"fr":6309,"father":6310,"Ġcous":6311,"Ġgreece":6312,"Ġvon":6313,"Ġ48":6314,"Ġemph":6315,"Ġpopulations":6316,"Ġ1936":6317,"Ġrooms":6318,"Ġcookies":6319,"mates":6320,"Ġtorn":6321,"Ġachieved":6322,"Ġjoining":6323,"Ġregistered":6324,"enez":6325,"rimin":6326,"Ġgoods":6327,"Ġmoscow":6328,"Ġchoose":6329,"rif":6330,"Ġsuggests":6331,"Ġtaste":6332,"Ġfiction":6333,"Ġhearing":6334,"Ġsha":6335,"Ġpassenger":6336,"Ġsleeping":6337,"Ġbottle":6338,"Ġvel":6339,"Ġorth":6340,"Ġscar":6341,"Ġfarms":6342,"Ġinsect":6343,"Ġryan":6344,"Ġ49":6345,"Ġsymbol":6346,"Ġriding":6347,"eller":6348,"Ġphilippines":6349,"Ġmerch":6350,"Ġextremely":6351,"Ġatmosp":6352,"Ġâ":6353,"Ġdefined":6354,"Ġhappening":6355,"Ġdaughters":6356,"uous":6357,"Ġgord":6358,"erves":6359,"Ġuniform":6360,"Ġnorwe":6361,"Ġmovies":6362,"Ġmathemat":6363,"Ġpounds":6364,"Ġloo":6365,"Ġcourts":6366,"Ġindiana":6367,"Ġimproved":6368,"Ġconcluded":6369,"Ġretirement":6370,"Ġbarack":6371,"Ġasking":6372,"Ġpalace":6373,"Ġversions":6374,"Ġmotion":6375,"Ġconcern":6376,"Ġarchitecture":6377,"ãĢ":6378,"Ġancest":6379,"Ġwake":6380,"Ġpalestin":6381,"Ġcards":6382,"Ġillegal":6383,"Ġchildhood":6384,"Ġconvention":6385,"Ġdomestic":6386,"Ġfolk":6387,"Ġagencies":6388,"iki":6389,"ni":6390,"Ġfired":6391,"Ġmaria":6392,"Ġyester":6393,"Ġsuccessfully":6394,"Ġwelcome":6395,"Ġdivers":6396,"Ġclassical":6397,"Ġinvolve":6398,"Ġclinton":6399,"Ġcolombia":6400,"ycl":6401,"Ġpill":6402,"Ġdeplo":6403,"ijing":6404,"Ġlewis":6405,"igen":6406,"ocese":6407,"Ġanymore":6408,"Ġdifferences":6409,"Ġterritor":6410,"uv":6411,"Ġhou":6412,"Ġvision":6413,"Ġadapt":6414,"Ġbabies":6415,"Ġplus":6416,"Ġ1934":6417,"Ġrequest":6418,"Ġinstitutions":6419,"Ġdiamond":6420,"Ġtaiwan":6421,"Ġexpansion":6422,"Ġdrawn":6423,"Ġimportance":6424,"Ġinvestment":6425,"Ġstress":6426,"Ġworry":6427,"Ġfranch":6428,"Ġscript":6429,"Ġrecognition":6430,"Ġdozen":6431,"Ġshock":6432,"Ġscenes":6433,"Ġsubsid":6434,"Ġadvantage":6435,"Ġches":6436,"Ġotherwise":6437,"Ġfacebook":6438,"standing":6439,"Ġstructures":6440,"Ġduty":6441,"Ġdoggie":6442,"Ġdean":6443,"Ġenforcement":6444,"Ġyesterday":6445,"Ġfant":6446,"Ġinstall":6447,"ova":6448,"Ġindonesia":6449,"75":6450,"Ġford":6451,"Ġstring":6452,"ĠÎ":6453,"Ġbusy":6454,"ipping":6455,"Ġ1919":6456,"Ġtennis":6457,"Ġbrigade":6458,"och":6459,"Ġcats":6460,"Ġ1917":6461,"Ġthro":6462,"Ġjay":6463,"Ġdeaths":6464,"Ġelder":6465,"illing":6466,"lah":6467,"sk":6468,"Ġpione":6469,"Ġgent":6470,"Ġlegislative":6471,"Ġregarding":6472,"Ġrus":6473,"Ġnov":6474,"Ġaged":6475,"24":6476,"Ġprogramme":6477,"Ġbreaking":6478,"Ġ1938":6479,"Ġconfeder":6480,"Ġpaying":6481,"Ġrud":6482,"Ġquant":6483,"erguson":6484,"Ġgate":6485,"opher":6486,"Ġworst":6487,"Ġdrone":6488,"Ġcommunication":6489,"Ġrabbit":6490,"Ġmud":6491,"Ġ1900":6492,"Ġfiles":6493,"Ġevening":6494,"Ġgreatest":6495,"fly":6496,"Ġkam":6497,"Ġyours":6498,"Ġemployed":6499,"Ġsalv":6500,"fam":6501,"Ġelector":6502,"Ġcompete":6503,"Ġnegoti":6504,"iments":6505,"Ġcomplic":6506,"Ġinternal":6507,"good":6508,"Ġrear":6509,"Ġrepeated":6510,"oles":6511,"agers":6512,"Ġlane":6513,"opp":6514,"umes":6515,"Ġcontributed":6516,"usion":6517,"Ġ(;":6518,"Ġconsisted":6519,"Ġconcerned":6520,"Ġopportunities":6521,"noon":6522,"Ġalg":6523,"Ġroy":6524,"Ġcathedral":6525,"vant":6526,"Ġberg":6527,"Ġeighth":6528,"Ġchim":6529,"Ġlawmakers":6530,"Ġmagic":6531,"Ġposted":6532,"bered":6533,"Ġnam":6534,"anny":6535,"Ġnorway":6536,"Ġsubsequent":6537,"Ġatlanta":6538,"Ġ39":6539,"Ġmonitor":6540,"Ġinterior":6541,"Ġliterary":6542,"Ġoccupied":6543,"Ġemphas":6544,"Ġom":6545,"cs":6546,"Ġjail":6547,"Ġmetrop":6548,"Ġmurd":6549,"Ġphilosophy":6550,"Ġnorwegian":6551,"Ġcompr":6552,"Ġ1928":6553,"Ġvoters":6554,"Ġruled":6555,"Ġcontrast":6556,"avery":6557,"tical":6558,"Ġmonkey":6559,"Ġextensive":6560,"Ġvisiting":6561,"Ġinstitution":6562,"Ġcriticized":6563,"Ġrestaurants":6564,"Ġwhit":6565,"Ġspoon":6566,"Ġafternoon":6567,"Ġexplo":6568,"Ġswitch":6569,"Ġportion":6570,"Ġreact":6571,"Ġcoaches":6572,"Ġraj":6573,"Ġphotos":6574,"Ġunusual":6575,"col":6576,"Ġfaster":6577,"Ġtool":6578,"endent":6579,"Ġpolicies":6580,"Ã¢":6581,"Ġfifa":6582,"adesh":6583,"Ġukrainian":6584,"Ġmaximum":6585,"Ġorders":6586,"Ġadmitted":6587,"Ġlegislation":6588,"aran":6589,"ashed":6590,"ache":6591,"Ġinstalled":6592,"Ġontario":6593,"Ġentitled":6594,"Ġtypical":6595,"Ġvirus":6596,"Ġprices":6597,"Ġrif":6598,"aboo":6599,"Ġhousehold":6600,"Ġfixed":6601,"western":6602,"Ġfed":6603,"Ġmerg":6604,"Ġsnake":6605,"Ġceo":6606,"Ġfighters":6607,"Ġstor":6608,"Ġleon":6609,"Ġlegend":6610,"Ġassistance":6611,"Ġapplications":6612,"Ġske":6613,"Ġcrossing":6614,"Ġtunnel":6615,"Ġseeds":6616,"born":6617,"Ġferguson":6618,"Ġchile":6619,"Ġfriendly":6620,"Ġdebuted":6621,"Ġpowers":6622,"Ġmicrophone":6623,"Ġku":6624,"Ġclay":6625,"Ġbrid":6626,"ologies":6627,"Ġappeal":6628,"dd":6629,"Ġcant":6630,"Ġtruth":6631,"Ġethan":6632,"Ġtiger":6633,"Ġbread":6634,"Ġpointed":6635,"Ġdrinking":6636,"stream":6637,"Ġclock":6638,"Ġchapter":6639,"Ġbot":6640,"agen":6641,"Ġseemed":6642,"Ġattempted":6643,"ãĢģ":6644,"Ġsession":6645,"Ġgor":6646,"Ġcreative":6647,"Ġinterests":6648,"Ġregularly":6649,"Ġcolonel":6650,"Ġenemy":6651,"Ġalive":6652,"Ġawa":6653,"Ġremem":6654,"Ġturkish":6655,"bu":6656,"Ġsoul":6657,"Ġsole":6658,"Ġ46":6659,"Ġswitzer":6660,"Ġsimon":6661,"Ġmalaysia":6662,"Ġjunction":6663,"Ġrefers":6664,"Ġmulti":6665,"Ġbenefit":6666,"Ġble":6667,"Ġrum":6668,"Ġgrav":6669,"Ġfacing":6670,"Ġpitts":6671,"Ġlyrics":6672,"di":6673,"Ġinspect":6674,"Ġproperties":6675,"Ġincreasingly":6676,"Ġshah":6677,"Ġbattal":6678,"Ġvolunteers":6679,"Ġnina":6680,"Ġgast":6681,"Ġmolec":6682,"Ġshad":6683,"Ġspons":6684,"Ġnathaniel":6685,"Ġdepth":6686,"angered":6687,"Ã©e":6688,"Ġportray":6689,"Ġobjects":6690,"Ġendangered":6691,"what":6692,"aria":6693,"Ġmans":6694,"Ġharm":6695,"Ġdelay":6696,"Ġinfluenced":6697,"æĿĳ":6698,"ras":6699,"Ġseek":6700,"Ġmiller":6701,"gery":6702,"Ġcorrect":6703,"Ġecu":6704,"Ġdallas":6705,"Ġfemales":6706,"Ġentirely":6707,"Ġdrugs":6708,"agu":6709,"Ġempty":6710,"olitan":6711,"Ġseeking":6712,"Ġ1935":6713,"Ġrival":6714,"Ġcolumn":6715,"Ġjesus":6716,"raw":6717,"Ġformal":6718,"Ġmetres":6719,"Ġcommunications":6720,"Ġexperienced":6721,"Ġswitzerland":6722,"Ġcape":6723,"Ġpractices":6724,"Ġexpressed":6725,"acco":6726,"Ġacres":6727,"Ġentrance":6728,"Ġengaged":6729,"Ġtelephone":6730,"Ġbelief":6731,"Ġparticipate":6732,"Ġhighlight":6733,"Ġgolf":6734,"Ġinaug":6735,"icts":6736,"Ġoperate":6737,"Ġmissed":6738,"Ġassociate":6739,"Ġcircuit":6740,"erick":6741,"Ġmarketing":6742,"orrow":6743,"Ġsector":6744,"Ġdanger":6745,"bell":6746,"Ġpy":6747,"abet":6748,"Ġslide":6749,"know":6750,"Ġdinosaur":6751,"Ġpatrick":6752,"Ġlosses":6753,"Ġpollution":6754,"rit":6755,"Ġsurvive":6756,"Ġbapt":6757,"Ġoklah":6758,"Ġattached":6759,"Ġcommissioner":6760,"Ġcoastal":6761,"Ġtomorrow":6762,"Ġpublishing":6763,"Ġswing":6764,"Ġcabinet":6765,"gas":6766,"rete":6767,"Ġlakes":6768,"Ġplot":6769,"Ġconvent":6770,"Ġpitched":6771,"Ġ1933":6772,"Ġwooden":6773,"lan":6774,"Ġsight":6775,"Ġcake":6776,"Ġsubm":6777,"Ġcolonial":6778,"Ġguide":6779,"Ġexplos":6780,"Ġmp":6781,"Ġvenez":6782,"oslav":6783,"Ġprovinc":6784,"Ġcel":6785,"Ġgulf":6786,"Ġstem":6787,"Ġrhy":6788,"Ġoccurs":6789,"Ġhistorian":6790,"Ġdamaged":6791,"Ġhyp":6792,"Ġwinds":6793,"Ġetc":6794,"Ġkentucky":6795,"Ġcarp":6796,"Ġsolution":6797,"Ġfavour":6798,"bra":6799,"Ġillness":6800,"Ġproducing":6801,"Ġstruggle":6802,"Ġwire":6803,"Ġcontaining":6804,"Ġeleven":6805,"Ġmississ":6806,"Ġmassive":6807,"Ġpulled":6808,"Ġpocket":6809,"foot":6810,"rot":6811,"Ġcambridge":6812,"Ġensure":6813,"Ġoklahoma":6814,"Ġay":6815,"Ġdates":6816,"oured":6817,"Ġhide":6818,"Ġrhod":6819,"ogen":6820,"Ġfactor":6821,"Ġtemperatures":6822,"bul":6823,"fit":6824,"Ġjosh":6825,"mingham":6826,"23":6827,"Ġraces":6828,"Ġproved":6829,"ucing":6830,"Ġresigned":6831,"Ġsupports":6832,"Ġnetworks":6833,"Ġtribe":6834,"iva":6835,"asty":6836,"hal":6837,"Ġpant":6838,"angel":6839,"Ġevolution":6840,"Ġargentina":6841,"Ġny":6842,"Ġcopy":6843,"Ġtennes":6844,"Ġpuzzle":6845,"bage":6846,"Ġoffering":6847,"Ġappropri":6848,"Äģb":6849,"Ġextension":6850,"Ġpushed":6851,"Ġtobacco":6852,"Ġtennessee":6853,"omot":6854,"Ġprosec":6855,"load":6856,"Ġ1910":6857,"Ġdressed":6858,"Ġnan":6859,"Ġcomic":6860,"Ġwalter":6861,"Ġdancing":6862,"eld":6863,"ivered":6864,"Ġscrew":6865,"Ġhispan":6866,"ifer":6867,"Ġblues":6868,"ti":6869,"Ġbib":6870,"Ġgenetic":6871,"Ġdiscover":6872,"Ġalph":6873,"Ġboats":6874,"Ġecuador":6875,"die":6876,"Ġbacteria":6877,"Ġcolleges":6878,"Ġwatched":6879,"Ġpoison":6880,"Ġdiscrimin":6881,"iques":6882,"ois":6883,"ÅĤ":6884,"Ġrenew":6885,"Ġleaf":6886,"Ġjuan":6887,"Ġ1912":6888,"Ġwalker":6889,"Ġdynam":6890,"Ġguinea":6891,"mat":6892,"Ġrequires":6893,"Ġtraveled":6894,"isy":6895,"icide":6896,"Ġfeels":6897,"place":6898,"Ġhollywood":6899,"Ġdirectors":6900,"Ġsubjects":6901,"Ġdrag":6902,"Ġdelivered":6903,"Ġsed":6904,"Ġresponsibility":6905,"Ġharvard":6906,"Ġtied":6907,"Ġplayoff":6908,"Ġraising":6909,"Ġeconomics":6910,"Ġdiseases":6911,"Ġdistinguished":6912,"Ġsty":6913,"Ġ64":6914,"ippi":6915,"Ġsuspended":6916,"Ġcomfort":6917,"Ġliqu":6918,"Ġworker":6919,"Ġgordon":6920,"Ġprefer":6921,"Ġsupplies":6922,"atherine":6923,"Ġmaintained":6924,"hu":6925,"Ġtens":6926,"Ġcass":6927,"Ġtrucks":6928,"Ġ1914":6929,"iser":6930,"itals":6931,"Ġrav":6932,"ctic":6933,"inals":6934,"Ġevalu":6935,"Ġphill":6936,"Ġamate":6937,"Ġestablishment":6938,"Ġjury":6939,"ardo":6940,"Ġ178":6941,"Ġeuro":6942,"Ġsubstit":6943,"Ġdyn":6944,"angle":6945,"Ġtribune":6946,"otted":6947,"Ġderived":6948,"Ġinitiative":6949,"Ġere":6950,"azing":6951,"Ġoccas":6952,"Ġexplore":6953,"Ġtigers":6954,"oor":6955,"tv":6956,"Ġtub":6957,"Ġwheels":6958,"Ġpurchase":6959,"Ġegyptian":6960,"Ġinterpret":6961,"Ġfaces":6962,"Ġpas":6963,"Ġpersonnel":6964,"Ġchallenges":6965,"rm":6966,"Ġbeijing":6967,"Ġdistributed":6968,"Ġlanding":6969,"Ġ1916":6970,"Ġclearly":6971,"rition":6972,"Ãº":6973,"Ġate":6974,"Ġ1925":6975,"Ġexpedition":6976,"Ġshif":6977,"Ġbreath":6978,"Ġcollaboration":6979,"Ġgoogle":6980,"Ġkennedy":6981,"bow":6982,"Ġagents":6983,"Ġcombination":6984,"Ġcommitted":6985,"Ġbirmingham":6986,"Ġyard":6987,"Ġ1924":6988,"Ġcapture":6989,"Ġfailure":6990,"Ġsisters":6991,"Ġhamp":6992,"essions":6993,"ode":6994,"ierra":6995,"Ġviolent":6996,"Ġnigeria":6997,"Ġchen":6998,"heas":6999,"Ġcher":7000,"apore":7001,"Ġacknow":7002,"Ġdecre":7003,"Ġpriest":7004,"Ġfing":7005,"Ġanderson":7006,"aine":7007,"Ġbelg":7008,"hammad":7009,"athered":7010,"Ġpremiered":7011,"cing":7012,"Ġyug":7013,"Ġahm":7014,"Ġ1921":7015,"Ġgrounds":7016,"Ġcad":7017,"Ġfarmer":7018,"Ġmcdonald":7019,"Ġsurprise":7020,"Ġhouston":7021,"Ġsi":7022,"Ġpic":7023,"stairs":7024,"Ġkings":7025,"Ġ1926":7026,"Ġarmen":7027,"Ġprovincial":7028,"Ġfurn":7029,"Ġhart":7030,"ilton":7031,"Ġug":7032,"Ġwilling":7033,"Ġviewers":7034,"Ġprohib":7035,"Ġgreg":7036,"Ġfindings":7037,"Ġdefence":7038,"Ġadap":7039,"veland":7040,"issions":7041,"Ġbroadcasting":7042,"Ġscholar":7043,"owa":7044,"Ġresidence":7045,"Ġfarming":7046,"Ġcutting":7047,"Ġexamples":7048,"Ġwhale":7049,"clusion":7050,"pack":7051,"Ġlaugh":7052,"Ġsubsc":7053,"Ġannivers":7054,"Ġportugues":7055,"family":7056,"Ġmississippi":7057,"Ã£":7058,"Ġdj":7059,"Ġinvasion":7060,"Ġbump":7061,"Ġnich":7062,"antly":7063,"Ġstream":7064,"Ġ1932":7065,"Ġselect":7066,"Ġroberts":7067,"Ġ1927":7068,"kyo":7069,"Ġobserved":7070,"Ġtas":7071,"Ġtill":7072,"Ġarc":7073,"Ġfrag":7074,"Ġunderground":7075,"Ġsri":7076,"Ġgrab":7077,"Ġsmo":7078,"Ġengines":7079,"Ġsettle":7080,"Ġqueensland":7081,"goodness":7082,"udi":7083,"rible":7084,"Ġdispl":7085,"Ġbands":7086,"Ġdramatic":7087,"friend":7088,"estyle":7089,"Ġdecisions":7090,"Ġlights":7091,"vo":7092,"Ġtiss":7093,"etime":7094,"aki":7095,"Ġlob":7096,"Ġ1929":7097,"Ġartistic":7098,"Ġconstitu":7099,"Ġhurricane":7100,"Ġsie":7101,"alo":7102,"Ġsail":7103,"Ġrobot":7104,"Ġorganisation":7105,"Ġanniversary":7106,"29":7107,"Ġbc":7108,"Ġmedals":7109,"Ġdrivers":7110,"Ġpittsburgh":7111,"Ġanch":7112,"ilation":7113,"ament":7114,"osis":7115,"Ġresolution":7116,"Ġsingapore":7117,"Ġresistance":7118,"Ġyup":7119,"elle":7120,"Ġshan":7121,"Ġamend":7122,"Ġstrate":7123,"boy":7124,"eper":7125,"asy":7126,"Ġdesigns":7127,"Ġdiscip":7128,"Ġreplace":7129,"Ġbou":7130,"berry":7131,"Ġcommit":7132,"Ġfiled":7133,"Ġtrophy":7134,"part":7135,"Ġbare":7136,"Ġsuffering":7137,"Ġfern":7138,"mun":7139,"Ġqualifying":7140,"Ġstrategy":7141,"Ġgosh":7142,"Ġkl":7143,"Ġmrs":7144,"Ġsurrounded":7145,"Ġconverted":7146,"Ġstages":7147,"Ġgrandfather":7148,"Ġslowly":7149,"eh":7150,"Ġtony":7151,"iner":7152,"Ġwaves":7153,"Ġspots":7154,"heastern":7155,"Ġcute":7156,"Ġstating":7157,"Ġalco":7158,"Ġenl":7159,"Ġinstance":7160,"Ġmembership":7161,"Ġstrip":7162,"uma":7163,"Ġharder":7164,"going":7165,"Ġghost":7166,"Ġtap":7167,"Ġwine":7168,"Ġhans":7169,"Ġkur":7170,"Ġmoves":7171,"Ġentering":7172,"coming":7173,"Ġdeclined":7174,"Ġmirror":7175,"usalem":7176,"Ġportuguese":7177,"Ġrating":7178,"Ġreturns":7179,"Ġcycle":7180,"](":7181,"Ġdal":7182,"Ġhiding":7183,"Ġtooth":7184,"Ġfran":7185,"Ġdonald":7186,"Ġmeetings":7187,"Ġfighter":7188,"Ġadvertising":7189,"Ġsmoking":7190,"Ġarena":7191,"Ġworksh":7192,"Ġmissions":7193,"Ġdeliver":7194,"ographic":7195,"Ġdoors":7196,"Ġadditionally":7197,"oons":7198,"Ġbone":7199,"Ġoutdo":7200,"Ġacid":7201,"Ġ43":7202,"Ġexpos":7203,"Ġkan":7204,"Ġdisaster":7205,"grad":7206,"Ġpatient":7207,"Ġrhin":7208,"Ġcrops":7209,"Ġpeekaboo":7210,"28":7211,"Ġhanded":7212,"Ġsatell":7213,"Ġleban":7214,"Ġbrazilian":7215,"45":7216,"dr":7217,"Ġdat":7218,"sters":7219,"Ġrelief":7220,"Ġpunish":7221,"Ġexperiences":7222,"Ġmedium":7223,"Ġspeaker":7224,"Ġlimits":7225,"mers":7226,"Ġtherap":7227,"isf":7228,"ielder":7229,"Ġtalent":7230,"oz":7231,"Ġdak":7232,"Ġnormally":7233,"Ġvocals":7234,"Ġcos":7235,"Ġdump":7236,"Ġgib":7237,"Ġtrump":7238,"Ġenh":7239,"Ġoutstanding":7240,"Ġdescribes":7241,"Ġdiocese":7242,"Ġarkansas":7243,"Ġdeleg":7244,"Ġmuslims":7245,"Ġveterans":7246,"Ġopinion":7247,"Ġwounded":7248,"Ġfled":7249,"Ġsmoke":7250,"Ġstruck":7251,"Ġholiday":7252,"Ġhabitats":7253,"Ġalleg":7254,"Ġhawaii":7255,"/?":7256,"reck":7257,"inae":7258,"Ġprincess":7259,"Ġclothing":7260,"Ġprix":7261,"Ġkilomet":7262,"wer":7263,"Ġyan":7264,"Ġblind":7265,"Ġdriven":7266,"Ġphoto":7267,"Ġutah":7268,"Ġhut":7269,"Ġproced":7270,"Ġshoe":7271,"Ġ47":7272,"Ġactual":7273,"Ġcounsel":7274,"verse":7275,"Ġpear":7276,"odox":7277,"Ġjudges":7278,"Ġcriticism":7279,"Ġresidential":7280,"Ġyugoslav":7281,"Ġgovernments":7282,"Ġ1915":7283,"Ġcomputers":7284,"Ġopposite":7285,"fc":7286,"uch":7287,"Ġwage":7288,"Ġ--":7289,"Ġdragon":7290,"Ġslavery":7291,"Ġpretend":7292,"Ġelectricity":7293,"Ġamateur":7294,"Ä±":7295,"Ġbranc":7296,"Ġears":7297,"Ġhandle":7298,"Ġrebu":7299,"Ġcomposer":7300,"Ġdick":7301,"Ġtokyo":7302,"Ġchanc":7303,"Ġperu":7304,"Ġloves":7305,"phones":7306,"Ġloud":7307,"Ġpanel":7308,"Ġfranchise":7309,"Ġautomatic":7310,"Ġnutrition":7311,"Ġantonio":7312,"bing":7313,"Ġidentify":7314,"aa":7315,"pers":7316,"Ġabb":7317,"Ġengineers":7318,"Ġfrog":7319,"Ġboss":7320,"Ġfried":7321,"Ġcounties":7322,"Ġchew":7323,"Ġsignal":7324,"Ġ1923":7325,"Ġrobin":7326,"ommod":7327,"Ġmetropolitan":7328,"iors":7329,"Ġpenc":7330,"vey":7331,"Ġjerusalem":7332,"Ġdismiss":7333,"Ġasc":7334,"Ġlocomot":7335,"Ġaustria":7336,"Ġexplain":7337,"Ġapartment":7338,"Ġsustain":7339,"dale":7340,"Ġreaction":7341,"Ġupset":7342,"Ġsurgery":7343,"Ġshake":7344,"Ġruling":7345,"Ġpond":7346,"Ġtwitter":7347,"Ġaccommod":7348,"Ġmaintain":7349,"Ġinstruments":7350,"Ġneighbour":7351,"Ġmanufacturing":7352,"Ġpages":7353,"Ġgathered":7354,"una":7355,"Ġvalues":7356,"cop":7357,"Ġcoverage":7358,"Ġpav":7359,"Ġva":7360,"Ġuniverse":7361,"Ġgraph":7362,"Ġmeters":7363,"Ġcommune":7364,"Ġannually":7365,"Ġtransm":7366,"Ġfactors":7367,"26":7368,"Ġale":7369,"Ġcord":7370,"atin":7371,"Ġkelly":7372,"Ġmichel":7373,"Ġfingers":7374,"Ġ+":7375,"Ġaunt":7376,"rez":7377,"Ġoption":7378,"Ġvast":7379,"Ġnobody":7380,"Ġtested":7381,"Ġseparated":7382,"Ġwides":7383,"Ġ1931":7384,"Ġmagnet":7385,"raid":7386,"Ġindex":7387,"Ġassault":7388,"Ġaviation":7389,"Ġstorage":7390,"Ġcovering":7391,"Ġbart":7392,"Ġib":7393,"Ġnur":7394,"chy":7395,"Ġremark":7396,"Ġ1922":7397,"Ġsoldier":7398,"Ġthousand":7399,"rane":7400,"Ġdave":7401,"Ġdecline":7402,"Ġnarr":7403,"Ġmoore":7404,"Ġraw":7405,"Ġtract":7406,"Ġsingh":7407,"Ġaustin":7408,"Ġcleveland":7409,"Ġgarbage":7410,"owed":7411,"Ġneither":7412,"Ġdisab":7413,"Ġguil":7414,"Ġ66":7415,"Ġconsisting":7416,"mus":7417,"Ġflows":7418,"Ġtemporary":7419,"Ġcameras":7420,"Ġfinance":7421,"Ġenterpr":7422,"Ġbeng":7423,"Ġroots":7424,"Ġblog":7425,"Ġreput":7426,"Ġentrep":7427,"ican":7428,"Ġstamp":7429,"Ġprepar":7430,"Ġvoting":7431,"uster":7432,"iously":7433,"Ġcandy":7434,"Ġpenins":7435,"onsored":7436,"Ġ_":7437,"Ġdies":7438,"Ġclark":7439,"Ġrecip":7440,"Ġmines":7441,"Ġgardens":7442,"Ġvacc":7443,"Ġcruz":7444,"99":7445,"wick":7446,"Ġpel":7447,"Ġshir":7448,"Ġdefensive":7449,"Ġrocky":7450,"Ġbelongs":7451,"Ġentreprene":7452,"Ġmong":7453,"Ġnev":7454,"Ġallen":7455,"Ġsomewhere":7456,"Ġuniversal":7457,"Äģd":7458,"Ġstrongly":7459,"Ġparticipants":7460,"Ġbattery":7461,"Ã¥":7462,"Ġnash":7463,"Ġrated":7464,"Ġundert":7465,"Ġraf":7466,"Ġ250":7467,"Ġactivists":7468,"Ġcattle":7469,"Ġkay":7470,"Ġbuying":7471,"Ġmusician":7472,"Ġelsewhere":7473,"Ġdvd":7474,"lad":7475,"mble":7476,"Ġcuts":7477,"Ġnickn":7478,"Ġbriefly":7479,"Ġcum":7480,"itely":7481,"uls":7482,"Ġsubfamily":7483,"Ġmedie":7484,"Ġgrandma":7485,"Ġtreaty":7486,"Ġaimed":7487,"Ġbelgium":7488,"Ġforget":7489,"Ġcompeting":7490,"Ġpushing":7491,"Ġmedieval":7492,"case":7493,"Ġindians":7494,"Ġkeeps":7495,"Ġphysics":7496,"Ġadmir":7497,"Ġbesides":7498,"Ġahmad":7499,"olas":7500,"Ġrecordings":7501,"erto":7502,"Ġpopularity":7503,"Ġcertainly":7504,"Ġlegislature":7505,"Ġproposal":7506,"pread":7507,"Ġstrict":7508,"Ġconcrete":7509,"Ġsponsored":7510,"Ġscores":7511,"Ġdelic":7512,"Ġwalked":7513,"Ã£o":7514,"Ġwidespread":7515,"ws":7516,"Ġsections":7517,"issa":7518,"Ġrolling":7519,"Ġbout":7520,"urer":7521,"Ġcharts":7522,"Ġproductions":7523,"Ġconsumers":7524,"Ġmack":7525,"Ġdod":7526,"ello":7527,"Ġafterwards":7528,"Ġmonument":7529,"Ġintroduction":7530,"Ġproducers":7531,"Ġlaboratory":7532,"Ġextreme":7533,"Ġannouncement":7534,"Ġsierra":7535,"Ġky":7536,"Ġtransition":7537,"Ġphilip":7538,"Ġnba":7539,"Ġlessons":7540,"Ġcroat":7541,"Ġsigning":7542,"Ġ177":7543,"Ġpuppy":7544,"sch":7545,"Ġpants":7546,"Ġthrew":7547,"osa":7548,"Ġnotice":7549,"Ġafraid":7550,"Ġjoh":7551,"Ġvalu":7552,"Ġkiller":7553,"Ã¼r":7554,"Ġbegun":7555,"Ġsmooth":7556,"Ġshark":7557,"orted":7558,"ructure":7559,"Ġanthony":7560,"Ġfra":7561,"icut":7562,"Ġrecalled":7563,"Ġ52":7564,"Ġpublications":7565,"Ġdebt":7566,"Ġcharlie":7567,"Ġbicy":7568,"ista":7569,"Ġ53":7570,"Ġbanned":7571,"Ġphen":7572,"Ġgamb":7573,"Ġemployment":7574,"Ġspokesman":7575,"anne":7576,"Ġbutterfly":7577,"Ġcrimes":7578,"enh":7579,"Ġlith":7580,"Ġtwe":7581,"Ġcolony":7582,"Ġuser":7583,"Ġinnings":7584,"Ġambass":7585,"Ġemotional":7586,"Ġmerged":7587,"Ġbin":7588,"Ġdougl":7589,"Ġbike":7590,"Ġcrazy":7591,"Ġaccur":7592,"ikh":7593,"Ġhammer":7594,"Ġfold":7595,"Ġdemocrats":7596,"Ġdenied":7597,"elson":7598,"Ġoutbreak":7599,"Ġquack":7600,"Ġhungarian":7601,"Ġmarkets":7602,"Ġcu":7603,"Ġbaker":7604,"ials":7605,"Ġswiss":7606,"Ġclassified":7607,"chell":7608,"Ġosc":7609,"Ġry":7610,"Ġactors":7611,"Ġcurt":7612,"Ġsurprised":7613,"Ġaccompl":7614,"Ġcod":7615,"Ġmachines":7616,"rum":7617,"Ġjet":7618,"Ġspaces":7619,"Ġtwin":7620,"Ġmarie":7621,"Ġcarter":7622,"Ġcontinuing":7623,"Ġincorporated":7624,"27":7625,"vak":7626,"inction":7627,"Ġwick":7628,"Ġhidden":7629,"Ġrevenue":7630,"Ġjos":7631,"Ġcomposition":7632,"Ġmarry":7633,"Ġmovements":7634,"Ġsubstant":7635,"Ġshift":7636,"Ġliver":7637,"Ġmonaster":7638,"Ġreloc":7639,"Ġdiagn":7640,"Ġcoalition":7641,"zh":7642,"Ġpod":7643,"Ġgarc":7644,"Ġparalle":7645,"Ġwish":7646,"atus":7647,"Ġinher":7648,"Ġreign":7649,"agh":7650,"Ġhoward":7651,"ternal":7652,"Ġdemol":7653,"Ġmorris":7654,"spec":7655,"Ġtonight":7656,"Ġvegetables":7657,"Ġcotton":7658,"rast":7659,"Ġchest":7660,"Ġdescend":7661,"Ġsocialist":7662,"Ġtribes":7663,"Ġenjoy":7664,"woman":7665,"xy":7666,"Ġdust":7667,"Ġgross":7668,"Ġobes":7669,"Ġapparently":7670,"Ġborders":7671,"Ġdating":7672,"Ġsharing":7673,"Ġappre":7674,"Ġmaine":7675,"Ġnepal":7676,"Ġforb":7677,"Ġ54":7678,"Ġmontreal":7679,"Ġwedding":7680,"ĠÂ°":7681,"yers":7682,"Ġgap":7683,"Ġkang":7684,"Ġrecre":7685,"Ġbyebye":7686,"leton":7687,"Ġgender":7688,"Ġ120":7689,"Ġvolunteer":7690,"Ġpenalty":7691,"Ġlandscape":7692,"Ġearthquake":7693,"pool":7694,"Ġachievement":7695,"mi":7696,"Ġnag":7697,"Ġstol":7698,"Ġregarded":7699,"Ġadopt":7700,"Ġoverseas":7701,"ÃŁ":7702,"Ġrig":7703,"Ġwhatever":7704,"Ġforming":7705,"Ġparaly":7706,"ieties":7707,"Ġmetro":7708,"Ġoperates":7709,"Ġcrying":7710,"hr":7711,"acent":7712,"Ġchronic":7713,"Ġpuerto":7714,"Ġcuban":7715,"Ġmasters":7716,"zens":7717,"Ġmason":7718,"Ġ56":7719,"Ġsubmar":7720,"Ġharris":7721,"Ġcamps":7722,"Ġgrows":7723,"Ġaudio":7724,"Ġfranklin":7725,"ico":7726,"Ġsaved":7727,"Ġbug":7728,"Ġkevin":7729,"Ġlawrence":7730,"Ġcraw":7731,"Ġbreeding":7732,"Ġcousin":7733,"Ġlanc":7734,"Ġreaders":7735,"Ġnationwide":7736,"aver":7737,"eds":7738,"illery":7739,"ivia":7740,"Ġenzy":7741,"Ġabuse":7742,"Ġprogramming":7743,"Ġdoubles":7744,"Ġorthodox":7745,"rate":7746,"Ġ63":7747,"Ġsurge":7748,"ÃŃa":7749,"Ġcontributions":7750,"Ġcited":7751,"Ġgill":7752,"Ġplain":7753,"Ġpeaked":7754,"Ġdirt":7755,"Ġoverl":7756,"Ġinvent":7757,"Ġtechniques":7758,"Ġwoods":7759,"Ġconvinc":7760,"Ġbeauty":7761,"pie":7762,"Ġ|":7763,"Ġscout":7764,"ruption":7765,"Ġcompetitive":7766,"Ġsummit":7767,"Ġdomain":7768,"bie":7769,"vens":7770,"Ġfib":7771,"acle":7772,"Ġwheat":7773,"Ġinvolving":7774,"Ġarrival":7775,"Ġnewspapers":7776,"Ġcul":7777,"ilst":7778,"Ġiowa":7779,"Ġapply":7780,"Ġregulations":7781,"Ġcollections":7782,"Ġgrocer":7783,"Ġcereal":7784,"Ġreputation":7785,"Ġandre":7786,"Ġbrun":7787,"Ġencouraged":7788,"omen":7789,"oto":7790,"Ġlev":7791,"Ġmarks":7792,"Ġvisits":7793,"zard":7794,"Ġmck":7795,"Ġsamples":7796,"mate":7797,"Ġloyal":7798,"Ġrelative":7799,"Ġranking":7800,"Ġdynasty":7801,"arn":7802,"Ġpromised":7803,"Ġbudd":7804,"Ġrejected":7805,"Ġupgr":7806,"Ġmyth":7807,"Ġadjust":7808,"orph":7809,"Ġsynd":7810,"Ġdepending":7811,"Ġfunctions":7812,"Ġconnecticut":7813,"Ġsharks":7814,"Ġcredits":7815,"Ġaccompanied":7816,"Ġportrait":7817,"lot":7818,"Ġdum":7819,"Ġthin":7820,"illo":7821,"Ġzim":7822,"Ġdonated":7823,"Ġexcited":7824,"Ġtalks":7825,"Ġminority":7826,"Ġjimmy":7827,"Ġmotorcy":7828,"Ġnotably":7829,"Ġprompt":7830,"Ġhoriz":7831,"Ġfunded":7832,"Ġaccounts":7833,"Ġconsumer":7834,"weiler":7835,"Ġfrederick":7836,"Ġguilty":7837,"Ġaver":7838,"Ġsoup":7839,"Ġgust":7840,"Ġ1908":7841,"pective":7842,"Ġlon":7843,"Ġrecorder":7844,"Ġdesigner":7845,"Ġparticipation":7846,"Ġcontroversial":7847,"Ġbattalion":7848,"Ġ41":7849,"Ġuseful":7850,"Ġdefeating":7851,"hus":7852,"Ġtact":7853,"Ġacted":7854,"Ġobv":7855,"Ġslave":7856,"Ġstrange":7857,"Ġglac":7858,"Ġrequirements":7859,"Ġpermission":7860,"Ġaster":7861,"Ġcargo":7862,"asht":7863,"Ġpercentage":7864,"Ġoptim":7865,"Ġrecommend":7866,"Ġturtle":7867,"Ġexcellent":7868,"fielder":7869,"Ġsending":7870,"Ġcou":7871,"onian":7872,"Ġmi":7873,"Ġding":7874,"Ġlod":7875,"Ġcole":7876,"Ġcarib":7877,"Ġthunder":7878,"Ġtrig":7879,"Ġwarri":7880,"Ġlanded":7881,"Ġwrestling":7882,"Ġmak":7883,"uccess":7884,"Ġcharter":7885,"Ġbreast":7886,"Ġ1911":7887,"Ġ1913":7888,"Ġglad":7889,"Ġ1880":7890,"Ġthreats":7891,"ĠÃ©":7892,"omp":7893,"Ġspecim":7894,"Ġcaps":7895,"Ġunsuccess":7896,"oen":7897,"Ġcanc":7898,"kshire":7899,"Ġhend":7900,"Ġpilots":7901,"Ġsignificantly":7902,"Ġcatherine":7903,"Ġinner":7904,"alf":7905,"Ġlau":7906,"stal":7907,"Ġwhilst":7908,"Ġconqu":7909,"Ġreleg":7910,"Ġsne":7911,"Ġhud":7912,"Ġtomb":7913,"Ġwarning":7914,"Ġnazi":7915,"Ġlum":7916,"Ġdear":7917,"Ġprove":7918,"Ġserbia":7919,"point":7920,"oming":7921,"Ġasks":7922,"Ġhunter":7923,"Ġpitch":7924,"Ġburned":7925,"Ġtranslation":7926,"47":7927,"jab":7928,"Ġrefle":7929,"bean":7930,"media":7931,"Ġtechnologies":7932,"Ġ1890":7933,"Ġpowered":7934,"Ġkenya":7935,"aron":7936,"alia":7937,"Ġbugs":7938,"Ġeverywhere":7939,"Ġgear":7940,"Ġindustries":7941,"Ġnavig":7942,"Ġrenov":7943,"hum":7944,"Ġlists":7945,"Ġjoy":7946,"Ġsongwriter":7947,"Ġbalance":7948,"sex":7949,"essed":7950,"Ġguests":7951,"Ġviolin":7952,"mel":7953,"ailand":7954,"Ġmatters":7955,"Ġprotein":7956,"Ġoffensive":7957,"Ġflav":7958,"Ġremove":7959,"Ġteaches":7960,"Ġexpression":7961,"Ġathletics":7962,"Ġabsol":7963,"Ġsprings":7964,"Ġmystery":7965,"Ġtons":7966,"Ġpour":7967,"Ġexposed":7968,"Ġpersons":7969,"Ġapproval":7970,"Ġsandy":7971,"Ġtickle":7972,"Ġownership":7973,"Ġobesity":7974,"Ġsib":7975,"Ġcer":7976,"ighter":7977,"Ġhospitals":7978,"Ġlicense":7979,"Ġdated":7980,"Ġthailand":7981,"Ġkaz":7982,"Ġvit":7983,"Ġsecure":7984,"Ġregul":7985,"Ġsemin":7986,"Ġspider":7987,"Ġmanchester":7988,"Ġresign":7989,"Ġedited":7990,"Ġopponents":7991,"Ġfiref":7992,"Ġstatue":7993,"Ġgur":7994,"Ġmeets":7995,"ception":7996,"Ġarranged":7997,"Ġblanket":7998,"Ġadapted":7999,"tha":8000,"Ġportugal":8001,"Ġports":8002,"idency":8003,"this":8004,"Ġremote":8005,"Ġgrades":8006,"Ġdiaper":8007,"Ġspoken":8008,"Ġreservoir":8009,"Ġech":8010,"Ġmargin":8011,"Ġindeed":8012,"Ġattending":8013,"Ġactivist":8014,"gregation":8015,"gro":8016,"Ġwes":8017,"iolet":8018,"Ġmaur":8019,"Ġelig":8020,"Ġcapable":8021,"Ġwolves":8022,"Ġencourage":8023,"Ġmes":8024,"Ġrou":8025,"Ġkle":8026,"Ġequipped":8027,"Ġinfrast":8028,"Ġsuddenly":8029,"ublin":8030,"Ġautonom":8031,"nell":8032,"Ġallied":8033,"Ġbelt":8034,"Ġblacks":8035,"Ġearliest":8036,"Ġisolated":8037,"Ġastr":8038,"aser":8039,"Ġkath":8040,"Ġdozens":8041,"Ġrestored":8042,"Ġnonpro":8043,"Ġdemocracy":8044,"Ġsymph":8045,"Ġfeather":8046,"Ġloved":8047,"ribute":8048,"Ġprisoners":8049,"los":8050,"Ġ*":8051,"ilit":8052,"Ġrepair":8053,"Ġproud":8054,"Ġstead":8055,"Ġyoungest":8056,"Ġandy":8057,"rome":8058,"Ġspark":8059,"ghai":8060,"Ġcorporate":8061,"Ġunless":8062,"Ġpregn":8063,"Ġ58":8064,"Ġcrab":8065,"Ġpassage":8066,"Ġhoping":8067,"Ġgraduating":8068,"Ġscheme":8069,"rant":8070,"Ġpiz":8071,"Ġabroad":8072,"Ġstarred":8073,"Ġcooking":8074,"Ġacknowled":8075,"lings":8076,"Ġmaced":8077,"Ġfrozen":8078,"Ġpurposes":8079,"aj":8080,"kov":8081,"Ġwang":8082,"Ġliv":8083,"Ġmodified":8084,"Ġcraig":8085,"track":8086,"Ġpatterns":8087,"Ġcable":8088,"Ġyor":8089,"wealth":8090,"Ġrecept":8091,"Ġcompetitions":8092,"cious":8093,"urally":8094,"Ġadvice":8095,"Ġcooperation":8096,"len":8097,"Ġpure":8098,"emp":8099,"ropod":8100,"Ġbasin":8101,"Ġ1904":8102,"rer":8103,"Ġvul":8104,"Ġrobinson":8105,"Ġdouglas":8106,"Ġps":8107,"abil":8108,"Ġartillery":8109,"Ġrelatives":8110,"Ġsamuel":8111,"Ġgentle":8112,"Ġstakes":8113,"Ġcann":8114,"Ġtourism":8115,"Ġgrandpa":8116,"Ġcommonwealth":8117,"Ġdollar":8118,"Ġcaval":8119,"48":8120,"Ġalan":8121,"Ġscared":8122,"Ġanywhere":8123,"Ġ1906":8124,"wall":8125,"Ġbars":8126,"Ġlank":8127,"Ġridge":8128,"Ġcircum":8129,"Ġestimates":8130,"Ġexperimental":8131,"state":8132,"Ġweigh":8133,"aha":8134,"Ġ51":8135,"Ġmonster":8136,"Ġassign":8137,"Ġhamilton":8138,"ulum":8139,"ensis":8140,"Ġimposs":8141,"Ġgenerations":8142,"Ġcosta":8143,"Ġmorgan":8144,"Ġhonorary":8145,"331":8146,"Ġatmosphere":8147,"Ġcock":8148,"Ġcrus":8149,"Ġfoster":8150,"Ġnik":8151,"Ġsmell":8152,"Ġ600":8153,"Ġrevol":8154,"Ġbills":8155,"rett":8156,"Ġplanets":8157,"ÅŁ":8158,"Ġcraft":8159,"Ġfence":8160,"isation":8161,"ando":8162,"Ġsoap":8163,"Ġbranches":8164,"Ġgift":8165,"ensity":8166,"Ġvaluable":8167,"cat":8168,"ho":8169,"Ġtut":8170,"Ġhipp":8171,"Ġprol":8172,"Ġ77":8173,"Ġrapidly":8174,"hist":8175,"lu":8176,"encing":8177,"Ġrealized":8178,"isi":8179,"Ġms":8180,"Ġlip":8181,"Ġvs":8182,"Ġintel":8183,"Ġcoat":8184,"Ġ57":8185,"Ġdepos":8186,"Ġ160":8187,"Ġtribal":8188,"Ġprinted":8189,"Ġmills":8190,"Ġextinct":8191}