{"<long>":0,"<mask>":1,"<pad>":2,"<unk>":3,"<s>":4,"</s>":5,"!":6,"\"":7,"#":8,"$":9,"%":10,"&":11,"'":12,"(":13,")":14,"*":15,"+":16,",":17,"-":18,".":19,"/":20,"0":21,"1":22,"2":23,"3":24,"4":25,"5":26,"6":27,"7":28,"8":29,"9":30,":":31,";":32,"<":33,"=":34,">":35,"?":36,"@":37,"A":38,"B":39,"C":40,"D":41,"E":42,"F":43,"G":44,"H":45,"I":46,"J":47,"K":48,"L":49,"M":50,"N":51,"O":52,"P":53,"Q":54,"R":55,"S":56,"T":57,"U":58,"V":59,"W":60,"X":61,"Y":62,"Z":63,"[":64,"\\":65,"]":66,"^":67,"_":68,"`":69,"a":70,"b":71,"c":72,"d":73,"e":74,"f":75,"g":76,"h":77,"i":78,"j":79,"k":80,"l":81,"m":82,"n":83,"o":84,"p":85,"q":86,"r":87,"s":88,"t":89,"u":90,"v":91,"w":92,"x":93,"y":94,"z":95,"{":96,"|":97,"}":98,"~":99,"¡":100,"¢":101,"£":102,"¤":103,"¥":104,"¦":105,"§":106,"¨":107,"©":108,"ª":109,"«":110,"¬":111,"®":112,"¯":113,"°":114,"±":115,"²":116,"³":117,"´":118,"µ":119,"¶":120,"·":121,"¸":122,"¹":123,"º":124,"»":125,"¼":126,"½":127,"¾":128,"¿":129,"À":130,"Á":131,"Â":132,"Ã":133,"Ä":134,"Å":135,"Æ":136,"Ç":137,"È":138,"É":139,"Ê":140,"Ë":141,"Ì":142,"Í":143,"Î":144,"Ï":145,"Ð":146,"Ñ":147,"Ò":148,"Ó":149,"Ô":150,"Õ":151,"Ö":152,"×":153,"Ø":154,"Ù":155,"Ú":156,"Û":157,"Ü":158,"Ý":159,"Þ":160,"ß":161,"à":162,"á":163,"â":164,"ã":165,"ä":166,"å":167,"æ":168,"ç":169,"è":170,"é":171,"ê":172,"ë":173,"ì":174,"í":175,"î":176,"ï":177,"ð":178,"ñ":179,"ò":180,"ó":181,"ô":182,"õ":183,"ö":184,"÷":185,"ø":186,"ù":187,"ú":188,"û":189,"ü":190,"ý":191,"þ":192,"ÿ":193,"Ā":194,"ā":195,"Ă":196,"ă":197,"Ą":198,"ą":199,"Ć":200,"ć":201,"Ĉ":202,"ĉ":203,"Ċ":204,"ċ":205,"Č":206,"č":207,"Ď":208,"ď":209,"Đ":210,"đ":211,"Ē":212,"ē":213,"Ĕ":214,"ĕ":215,"Ė":216,"ė":217,"Ę":218,"ę":219,"Ě":220,"ě":221,"Ĝ":222,"ĝ":223,"Ğ":224,"ğ":225,"Ġ":226,"ġ":227,"Ģ":228,"ģ":229,"Ĥ":230,"ĥ":231,"Ħ":232,"ħ":233,"Ĩ":234,"ĩ":235,"Ī":236,"ī":237,"Ĭ":238,"ĭ":239,"Į":240,"į":241,"İ":242,"ı":243,"Ĳ":244,"ĳ":245,"Ĵ":246,"ĵ":247,"Ķ":248,"ķ":249,"ĸ":250,"Ĺ":251,"ĺ":252,"Ļ":253,"ļ":254,"Ľ":255,"ľ":256,"Ŀ":257,"ŀ":258,"Ł":259,"ł":260,"Ń":261,"Ġt":262,"Ġa":263,"he":264,"in":265,"Ġthe":266,"Ġs":267,"Ġ.":268,"re":269,"Ġo":270,"Ġw":271,"er":272,"Ġc":273,"Ġ,":274,"at":275,"on":276,"Ġb":277,"an":278,"Ġf":279,"is":280,"it":281,"Ġp":282,"ed":283,"en":284,"Ġm":285,"or":286,"Ġin":287,"es":288,"Ġan":289,"Ġd":290,"ou":291,"ar":292,"al":293,"Ġh":294,"Ġof":295,"ing":296,"as":297,"Ġto":298,"Ġl":299,"Ġand":300,"Ġn":301,"ic":302,"Ġth":303,"Ġg":304,"ro":305,"Ġ\"":306,"ion":307,"il":308,"le":309,"Ġre":310,"Ġy":311,"Ġhe":312,"Ġe":313,"Ġ'":314,"ent":315,"om":316,"st":317,"am":318,"id":319,"Ġon":320,"el":321,"Ġis":322,"et":323,"Ġ1":324,"ay":325,"Ġu":326,"Ġst":327,"ol":328,"Ġit":329,"ad":330,"ac":331,"Ġwh":332,"ow":333,"Ġwas":334,"ot":335,"Ġfor":336,"ve":337,"Ġ?":338,"ig":339,"ut":340,"Ġbe":341,"Ġthat":342,"ir":343,"Ġr":344,"Ġyou":345,"ur":346,"im":347,"ly":348,"ver":349,"Ġ-":350,"ch":351,"Ġas":352,"ct":353,"Ġal":354,"ation":355,"se":356,"Ġ2":357,"Ġj":358,"Ġk":359,"ith":360,"ter":361,"Ġwith":362,"Ġat":363,"Ġse":364,"ce":365,"Ġch":366,"Ġwe":367,"her":368,"Ġde":369,"ul":370,"ist":371,"Ġi":372,"Ġv":373,"and":374,"un":375,"us":376,"ag":377,"Ġdo":378,"Ġpro":379,"Ġ19":380,"Ġby":381,"oun":382,"th":383,"Ġcom":384,"Ġcon":385,"Ġ20":386,"oo":387,"ers":388,"ill":389,"Ġare":390,"ri":391,"rom":392,"ain":393,"Ġ)":394,"op":395,"ld":396,"Ġ(":397,"um":398,"igh":399,"Ġne":400,"ak":401,"Ġun":402,"Ġmo":403,"Ġha":404,"Ġfrom":405,"em":406,"est":407,"ant":408,"Ġhis":409,"Ġpl":410,"all":411,"Ġsh":412,"ies":413,"pp":414,"ab":415,"art":416,"ud":417,"res":418,"Ġor":419,"red":420,"Ġsp":421,"Ġle":422,"os":423,"Ġwhat":424,"oc":425,"if":426,"Ġsu":427,"Ġsa":428,"ate":429,"iv":430,"ity":431,"Ġthis":432,"Ġthey":433,"ight":434,"Ġwhe":435,"Ġar":436,"ber":437,"Ġtr":438,"Ġex":439,"qu":440,"ap":441,"Ġnot":442,"Ġgo":443,"ort":444,"ess":445,"ard":446,"Ġye":447,"Ġhave":448,"ell":449,"Ġwor":450,"âĢ":451,"ia":452,"ie":453,"ment":454,"Ġshe":455,"gh":456,"ive":457,"ust":458,"Ġen":459,"ge":460,"our":461,"ich":462,"ack":463,"ast":464,"Ġ201":465,"ound":466,"Ġone":467,"ren":468,"ian":469,"ated":470,"ome":471,"ong":472,"Ġsaid":473,"Ġro":474,"ould":475,"Ġab":476,"Ġhas":477,"Ġwere":478,"ame":479,"Ġcan":480,"ke":481,"out":482,"Ġcl":483,"Ġthere":484,"ip":485,"Ġwho":486,"Ġte":487,"Ġgr":488,"Ġno":489,"Ġbut":490,"'t":491,"ial":492,"so":493,"Ġaf":494,"ine":495,"ary":496,"Ġme":497,"ough":498,"ther":499,"Ġalso":500,"Ġher":501,"Ġall":502,"ide":503,"Ġli":504,"Ġcomp":505,"ĠâĢ":506,"ub":507,"ect":508,"Ġnew":509,"00":510,"Ġsc":511,"Ġman":512,"ĠĊ":513,"der":514,"ook":515,"Ġtheir":516,"ish":517,"Ġam":518,"Ġup":519,"Ġbr":520,"Ġwhich":521,"ice":522,"ood":523,"ore":524,"Ġhad":525,"Ġyear":526,"Ġad":527,"av":528,"Ġout":529,"end":530,"Ġfir":531,"Ġpe":532,"Ġtw":533,"own":534,"ally":535,"cl":536,"age":537,"ah":538,"ry":539,"Ġ200":540,"uc":541,"Ġplay":542,"ions":543,"Ġint":544,"Ġag":545,"Ġmar":546,"Ġcol":547,"Ġac":548,"Ġfirst":549,"one":550,"Ġkn":551,"ake":552,"ous":553,"Ġco":554,"per":555,"pt":556,"ount":557,"ure":558,"Ġpart":559,"Ġits":560,"ric":561,"Ġsch":562,"ans":563,"Ġoff":564,"Ġso":565,"ue":566,"Ġmore":567,"iz":568,"ord":569,"Ġus":570,"ater":571,"ra":572,"ass":573,"Ġ#":574,"og":575,"Ġother":576,"Ġser":577,"Ġtim":578,"Ġwork":579,"Ġbec":580,"au":581,"Ġfe":582,"Ġafter":583,"ool":584,"ts":585,"Ġcont":586,"ire":587,"ree":588,"Ġsome":589,"Ġbo":590,"ang":591,"Ġper":592,"ild":593,"Ġwhere":594,"Ġcomm":595,"ign":596,"Ġoh":597,"Ġtwo":598,"Ġabout":599,"ace":600,"ach":601,"itt":602,"Ġwhen":603,"hed":604,"Ġover":605,"ind":606,"Ġwill":607,"Ġrec":608,"Ġ:":609,"orn":610,"wn":611,"Ġlike":612,"Ġres":613,"Ġhow":614,"Ġschool":615,"Ġbl":616,"ical":617,"Ġbeen":618,"Ġrep":619,"vers":620,"Ġjo":621,"Ġ3":622,"ond":623,"Ġ18":624,"Ġapp":625,"ff":626,"ec":627,"Ġthem":628,"Ġstud":629,"man":630,"Ġdid":631,"Ġim":632,"ru":633,"ents":634,"Ġpeop":635,"Ġwould":636,"Ġok":637,"Ġpeople":638,"ens":639,"are":640,"act":641,"Ġev":642,"Ġdis":643,"ite":644,"Ġget":645,"Ġind":646,"ick":647,"very":648,"ade":649,"ink":650,"ational":651,"Ġyour":652,"amp":653,"Ġtime":654,"ll":655,"ved":656,"ition":657,"ates":658,"Ġokay":659,"Ġsee":660,"Ġcar":661,"ations":662,"Ġfl":663,"ction":664,"Ġ!":665,"Ġwant":666,"Ġcount":667,"Ġhere":668,"clud":669,"Ġthan":670,"Ġla":671,"Ġqu":672,"Ġbu":673,"ors":674,"ail":675,"od":676,"Ġpr":677,"Ġpres":678,"ory":679,"Ġright":680,"land":681,"ings":682,"ile":683,"Ġmay":684,"Ġpo":685,"Ġpre":686,"ays":687,"ib":688,"Ġnow":689,"Ġinclud":690,"we":691,"Ġhim":692,"ult":693,"Ġpol":694,"ence":695,"ase":696,"Ġdes":697,"urn":698,"ubl":699,"ance":700,"Ġform":701,"Ġcent":702,"tern":703,"Ġinto":704,"fe":705,"eric":706,"Ġsec":707,"Ġbet":708,"Ġjust":709,"ited":710,"ep":711,"ks":712,"ose":713,"ely":714,"Ġ;":715,"uring":716,"Ġlook":717,"ied":718,"vel":719,"orm":720,"ased":721,"Ġfin":722,"les":723,"Ġpar":724,"able":725,"Ġthen":726,"Ġyears":727,"Ġfr":728,"Ġdist":729,"Ġfam":730,"iss":731,"Ġfound":732,"old":733,"te":734,"ath":735,"Ġameric":736,"Ġwell":737,"als":738,"Ġ4":739,"Ġput":740,"Ġunder":741,"Ġgen":742,"Ġact":743,"ily":744,"Ġed":745,"oup":746,"Ġatt":747,"Ġph":748,"Ġear":749,"Ġele":750,"Ġmany":751,"Ġtoo":752,"Ġback":753,"Ġgre":754,"Ġacc":755,"Ġexp":756,"ann":757,"ason":758,"gan":759,"ivers":760,"Ġagain":761,"Ġ199":762,"Ġyeah":763,"Ġreg":764,"Ġif":765,"Ġ5":766,"Ġem":767,"Ġmin":768,"oll":769,"Ġspec":770,"Ġduring":771,"Ġonly":772,"Ġmon":773,"Ġloc":774,"Ġaw":775,"Ġteam":776,"Ġbro":777,"Ġcr":778,"Ġsy":779,"Ġmost":780,"ton":781,"gr":782,"Ġcall":783,"Ġknow":784,"Ġgood":785,"anc":786,"Ġlet":787,"ince":788,"ft":789,"Ġsm":790,"Ġhel":791,"ember":792,"Ġworld":793,"ĠâĢĶ":794,"Ġass":795,"ident":796,"Ġwar":797,"ug":798,"ause":799,"Ġz":800,"hip":801,"rop":802,"Ġthese":803,"ress":804,"Ġlo":805,"Ġrem":806,"Ġthr":807,"Ġthree":808,"Ġcons":809,"Ġimp":810,"io":811,"rent":812,"other":813,"Ġpubl":814,"Ġdown":815,"oth":816,"Ġgu":817,"Ġhigh":818,"ious":819,"vern":820,"Ġthink":821,"Ġmu":822,"ne":823,"ict":824,"ix":825,"Ġcould":826,"Ġgroup":827,"ouse":828,"rib":829,"Ġpop":830,"Ġend":831,"Ġunivers":832,"int":833,"Ġthrough":834,"az":835,"Ġfil":836,"Ġmus":837,"Ġeng":838,"Ġmade":839,"Ġgovern":840,"ating":841,"outh":842,"Ġstate":843,"Ġnational":844,"Ġart":845,"Ġshow":846,"ists":847,"Ġmy":848,"Ġcolle":849,"Ġsub":850,"fore":851,"Ġprod":852,"hes":853,"Ġsay":854,"Ġmake":855,"âĢĵ":856,"ons":857,"ished":858,"Ġnor":859,"hing":860,"my":861,"Ġprov":862,"Ġhelp":863,"ph":864,"cc":865,"Ġdoes":866,"Ġany":867,"Ġret":868,"Ġna":869,"row":870,"ys":871,"enc":872,"Ġ198":873,"Ġchild":874,"Ġ6":875,"olog":876,"Ġbecause":877,"day":878,"Ġdr":879,"rict":880,"Ġrel":881,"Ġwr":882,"ters":883,"Ġma":884,"form":885,"ty":886,"Ġuniversity":887,"Ġop":888,"Ġseason":889,"Ġcity":890,"Ġdep":891,"oot":892,"air":893,"Ġsur":894,"Ġlitt":895,"Ġinst":896,"Ġchar":897,"Ġmed":898,"Ġlater":899,"ving":900,"Ġsupp":901,"ral":902,"Ġnum":903,"Ġlittle":904,"Ġbefore":905,"Ġfour":906,"Ġwhile":907,"ween":908,"Ġsecond":909,"Ġel":910,"ities":911,"Ġbetween":912,"Ġbel":913,"ife":914,"Ġdec":915,"lo":916,"Ġrele":917,"Ġcre":918,"ollow":919,"Ġcompan":920,"Ġinv":921,"ball":922,"Ġlong":923,"Ġstates":924,"ics":925,"ting":926,"Ġbook":927,"ular":928,"Ġfollow":929,"Ġstart":930,"Ġinc":931,"Ġknown":932,"Ġair":933,"iel":934,"Ġfilm":935,"ames":936,"Ġob":937,"Ġsing":938,"Ġrecord":939,"Ġke":940,"Ġca":941,"Ġamerican":942,"mber":943,"up":944,"ork":945,"ank":946,"Ġlar":947,"Ġbig":948,"Ġwin":949,"Ġmat":950,"Ġused":951,"Ġbeing":952,"Ġlead":953,"Ġunited":954,"Ġvery":955,"ision":956,"Ġold":957,"ier":958,"ange":959,"Ġfamily":960,"Ġent":961,"ina":962,"ather":963,"Ġsuch":964,"Ġsouth":965,"ative":966,"Ġhouse":967,"Ġdire":968,"Ġgovernment":969,"Ġ197":970,"ss":971,"Ġdistrict":972,"Ġthose":973,"Ġoffic":974,"Ġadd":975,"Ġdif":976,"Ġmil":977,"Ġown":978,"Ġpa":979,"Ġ7":980,"ning":981,"Ġlaw":982,"ale":983,"Ġborn":984,"cted":985,"ck":986,"Ġrun":987,"Ġgon":988,"ars":989,"Ġcome":990,"Ġcalled":991,"Ġsoc":992,"ific":993,"Ġsci":994,"ble":995,"Ġset":996,"Ġneed":997,"ird":998,"aking":999,"000":1000,"Ġtake":1001,"ural":1002,"omet":1003,"iet":1004,"ards":1005,"its":1006,"ered":1007,"ject":1008,"Ġgener":1009,"Ġgoing":1010,"Ġopen":1011,"Ġsl":1012,"Ġap":1013,"Ġbuild":1014,"Ġcap":1015,"ines":1016,"Ġwater":1017,"ful":1018,"Ġter":1019,"Ġserv":1020,"Ġday":1021,"Ġhome":1022,"Ġalb":1023,"Ġlast":1024,"Ġnorth":1025,"ise":1026,"Ġmill":1027,"Ġ2013":1028,"Ġbus":1029,"ull":1030,"Ġsw":1031,"Ġway":1032,"Ġhist":1033,"Ġhead":1034,"Ġagainst":1035,"ual":1036,"Ġpos":1037,"Ġsince":1038,"Ġbar":1039,"Ġtrans":1040,"Ġmet":1041,"Ġcal":1042,"Ġ10":1043,"Ġfar":1044,"dy":1045,"Ġboth":1046,"Ġche":1047,"til":1048,"ures":1049,"ost":1050,"Ġ196":1051,"let":1052,"ever":1053,"Ġgot":1054,"ock":1055,"ized":1056,"Ġinter":1057,"br":1058,"Ġred":1059,"Ġmusic":1060,"get":1061,"Ġsong":1062,"Ġ8":1063,"Ġanother":1064,"Ġevery":1065,"velop":1066,"co":1067,"Ġjun":1068,"Ġcommun":1069,"oney":1070,"Ġsign":1071,"ins":1072,"Ġclass":1073,"Ġfun":1074,"ert":1075,"Ġaround":1076,"Ġintern":1077,"uh":1078,"ger":1079,"Ġuse":1080,"ave":1081,"gram":1082,"Ġvill":1083,"alk":1084,"ived":1085,"Ġcour":1086,"Ġname":1087,"Ġir":1088,"elf":1089,"Ġincluding":1090,"Ġmem":1091,"Ġfoot":1092,"uck":1093,"Ġbecame":1094,"Ġdevelop":1095,"ces":1096,"Ġaut":1097,"Ġcare":1098,"Ġeven":1099,"ants":1100,"ven":1101,"uss":1102,"Ġest":1103,"Ġstudents":1104,"ought":1105,"Ġju":1106,"ired":1107,"Ġprogram":1108,"ik":1109,"Ġann":1110,"iam":1111,"Ġprof":1112,"ower":1113,"Ġstr":1114,"Ġread":1115,"Ġchildren":1116,"Ġgame":1117,"ctor":1118,"iew":1119,"Ġref":1120,"led":1121,"Ġwom":1122,"Ġmuch":1123,"Ġpresident":1124,"Ġstill":1125,"Ġnear":1126,"Ġbre":1127,"Ġhowever":1128,"Ġpublic":1129,"Ġappe":1130,"bers":1131,"att":1132,"Ġcur":1133,"Ġsomet":1134,"Ġalbum":1135,"min":1136,"hn":1137,"Ġ17":1138,"Ġ194":1139,"Ġuntil":1140,"Ġmain":1141,"ĠâĢĵ":1142,"ually":1143,"Ġ9":1144,"enn":1145,"Ġext":1146,"Ġcompany":1147,"ek":1148,"gg":1149,"ained":1150,"ms":1151,"Ġnumber":1152,"to":1153,"ury":1154,"ives":1155,"ounc":1156,"ague":1157,"Ġpri":1158,"ield":1159,"Ġge":1160,"Ġwon":1161,"Ġ15":1162,"Ġsim":1163,"Ġsame":1164,"Ġoper":1165,"ley":1166,"Ġplayed":1167,"Ġrece":1168,"Ġger":1169,"Ġdiffe":1170,"son":1171,"ional":1172,"ane":1173,"Ġins":1174,"Ġcounty":1175,"way":1176,"Ġ195":1177,"Ġ$":1178,"Ġhand":1179,"ama":1180,"ues":1181,"ared":1182,"Ġturn":1183,"ee":1184,"Ġmom":1185,"Ġsmall":1186,"ute":1187,"xt":1188,"Ġeach":1189,"Ġland":1190,"ats":1191,"ross":1192,"ash":1193,"Ġ16":1194,"Ġrese":1195,"Ġfind":1196,"ves":1197,"Ġshould":1198,"Ġspecies":1199,"Ġpers":1200,"Ġorgan":1201,"ket":1202,"Ġdef":1203,"urch":1204,"Ġleg":1205,"akes":1206,"Ġreleased":1207,"Ġjohn":1208,"Ã©":1209,"ulation":1210,"Ġra":1211,"amed":1212,"Ġsever":1213,"Ġdem":1214,"ains":1215,"Ġ12":1216,"stem":1217,"ried":1218,"ye":1219,"arch":1220,"Ġprot":1221,"Ġcountry":1222,"Ġleague":1223,"Ġtre":1224,"Ġplace":1225,"Ġseveral":1226,"ying":1227,"Ġhar":1228,"Ġprodu":1229,"eter":1230,"ere":1231,"alth":1232,"Ġwest":1233,"orts":1234,"iver":1235,"ner":1236,"Ġclub":1237,"Ġpass":1238,"Ġpat":1239,"fl":1240,"Ġcamp":1241,"Ġlife":1242,"Ġarea":1243,"Ġstre":1244,"Ġeff":1245,"Ġ/":1246,"Ġseries":1247,"mer":1248,"ined":1249,"Ġsystem":1250,"Ġdesign":1251,"Ġhapp":1252,"ov":1253,"cent":1254,"els":1255,"Ġsk":1256,"osed":1257,"Ġconst":1258,"Ġcor":1259,"yp":1260,"ng":1261,"Ġchamp":1262,"Ġhun":1263,"ution":1264,"aw":1265,"Ġaug":1266,"ae":1267,"Ġhum":1268,"Ġfollowing":1269,"Ġyes":1270,"Ġvillage":1271,"Ġeduc":1272,"Ġste":1273,"anna":1274,"Ġtook":1275,"Ġreturn":1276,"Ġformer":1277,"Ġcollege":1278,"Ġmid":1279,"Ġfootball":1280,"ont":1281,"Ġblack":1282,"Ġtop":1283,"Ġorig":1284,"Ġjan":1285,"Ġmiss":1286,"ments":1287,"ism":1288,"Ġcontin":1289,"Ġexper":1290,"augh":1291,"Ġtown":1292,"Ġdiv":1293,"Ġoct":1294,"Ġsept":1295,"Ġprofess":1296,"ott":1297,"Ġlist":1298,"Ġfive":1299,"ible":1300,"Ġchr":1301,"Ġbab":1302,"Ġuh":1303,"Ġearly":1304,"Ġresp":1305,"Ġeu":1306,"Ġrev":1307,"Ġbas":1308,"be":1309,"Ġvis":1310,"ries":1311,"iness":1312,"Ġsays":1313,"Ġbased":1314,"Ġtour":1315,"Ġaugust":1316,"icip":1317,"Ġofficial":1318,"Ġgir":1319,"Ġlos":1320,"Ġaust":1321,"ital":1322,"Ġmaj":1323,"Ġdifferent":1324,"Ġwhy":1325,"Ġrom":1326,"Ġorigin":1327,"Ġvar":1328,"Ġbegan":1329,"Ġtech":1330,"Ġpark":1331,"ok":1332,"bs":1333,"ement":1334,"Ġrest":1335,"pl":1336,"Ġsit":1337,"ised":1338,"Ġsen":1339,"Ġ193":1340,"ology":1341,"Ġgerman":1342,"Ġwomen":1343,"Ġsix":1344,"Ġinternational":1345,"cess":1346,"Ġmarch":1347,"ages":1348,"Ġseptember":1349,"oci":1350,"Ġbest":1351,"Ġ2012":1352,"Ġfore":1353,"Ġfeat":1354,"ided":1355,"ĠâĢĻ":1356,"Ġfood":1357,"Ġstand":1358,"ober":1359,"Ġpopulation":1360,"erg":1361,"Ġwanna":1362,"ior":1363,"Ġgreat":1364,"Ġtell":1365,"Ġdoing":1366,"Ġadv":1367,"Ġassoci":1368,"Ġjune":1369,"Ġoctober":1370,"Ġsn":1371,"ai":1372,"Ġcle":1373,"Ġleft":1374,"Ġmillion":1375,"ten":1376,"Ġval":1377,"che":1378,"Ġgl":1379,"Ġ2011":1380,"Ġyork":1381,"Ġalong":1382,"Ġsupport":1383,"Ġline":1384,"Ġav":1385,"ime":1386,"Ġwhite":1387,"Ġour":1388,"ister":1389,"Ġsal":1390,"atch":1391,"Ġ11":1392,"ark":1393,"Ġjuly":1394,"Ġmonth":1395,"by":1396,"uary":1397,"Ġbusiness":1398,"Ġgirl":1399,"Ġes":1400,"Ġmajor":1401,"eng":1402,"Ġwent":1403,"ices":1404,"Ġcompet":1405,"Ġaccord":1406,"Ġgames":1407,"aining":1408,"cer":1409,"ured":1410,"Ġhealth":1411,"Ġprev":1412,"iving":1413,"cept":1414,"read":1415,"med":1416,"Ġdel":1417,"ets":1418,"Ġ2014":1419,"Ġang":1420,"Ġanim":1421,"Ġbill":1422,"Ġpolit":1423,"ilt":1424,"Ġkill":1425,"Ġmember":1426,"ril":1427,"hern":1428,"Ġnext":1429,"Ġband":1430,"Ġscient":1431,"Ġ192":1432,"ality":1433,"ps":1434,"Ġaway":1435,"Ġheld":1436,"gin":1437,"aced":1438,"ling":1439,"Ġyoung":1440,"Ġmoney":1441,"Ġeast":1442,"iting":1443,"Ġmag":1444,"ility":1445,"sh":1446,"Ġmen":1447,"Ġrepres":1448,"Ġperson":1449,"Ġchurch":1450,"iter":1451,"Ġweek":1452,"Ġmembers":1453,"Ġtechn":1454,"Ġjanuary":1455,"Ġcame":1456,"rap":1457,"Ġec":1458,"lish":1459,"Ġ13":1460,"uced":1461,"ator":1462,"Ġcalif":1463,"ones":1464,"Ġfew":1465,"ides":1466,"Ġnove":1467,"Ġdesc":1468,"ians":1469,"Ġnovember":1470,"Ġdece":1471,"Ġport":1472,"Ġ14":1473,"ended":1474,"Ġallow":1475,"Ġaccording":1476,"ium":1477,"Ġreport":1478,"Ġcontro":1479,"Ġmove":1480,"ued":1481,"Ġbuilding":1482,"ene":1483,"Ġsomething":1484,"ipp":1485,"Ġchang":1486,"riend":1487,"Ġdra":1488,"Ġgeneral":1489,"Ġevent":1490,"Ġnat":1491,"Ġapril":1492,"ster":1493,"Ġking":1494,"Ġchampions":1495,"Ġbrit":1496,"ids":1497,"Ġ2006":1498,"Ġsum":1499,"Ġdeb":1500,"Ġ191":1501,"Ġhal":1502,"Ġaward":1503,"Ġtit":1504,"bo":1505,"ently":1506,"Ġlocal":1507,"inc":1508,"Ġgrow":1509,"Ġmommy":1510,"Ġeurop":1511,"Ġparty":1512,"Ġlocated":1513,"Ġimport":1514,"Ġdecember":1515,"Ġtest":1516,"Ġlab":1517,"Ġprom":1518,"Ġdepart":1519,"me":1520,"Ġball":1521,"Ġson":1522,"Ġside":1523,"Ġmanag":1524,"Ġservice":1525,"Ġdad":1526,"Ġpain":1527,"Ġafric":1528,"Ġsucc":1529,"Ġta":1530,"Ġ%":1531,"Ġhard":1532,"ected":1533,"Ġproble":1534,"Ġnamed":1535,"ially":1536,"Ġsol":1537,"Ġocc":1538,"Ġdri":1539,"Ġeurope":1540,"ots":1541,"ened":1542,"Ġamong":1543,"Ġfinal":1544,"Ġeas":1545,"Ġgive":1546,"Ġcaliforn":1547,"Ġauth":1548,"Ġdied":1549,"Ġproject":1550,"Ġtri":1551,"Ġeat":1552,"Ġruss":1553,"rence":1554,"Ġep":1555,"Ġstarted":1556,"hers":1557,"ness":1558,"Ġsqu":1559,"Ġsuccess":1560,"Ġcond":1561,"Ġthird":1562,"Ġje":1563,"Ġchrist":1564,"Ġstation":1565,"Ġhold":1566,"Ġnews":1567,"Ġreally":1568,"Ġreceived":1569,"Ġbaby":1570,"ward":1571,"Ġlarge":1572,"Ġhuh":1573,"Ġcalifornia":1574,"Ġsingle":1575,"Ġbetter":1576,"Ġdeath":1577,"Ġrepresent":1578,"Ġtimes":1579,"Ġsun":1580,"Ġ2010":1581,"ison":1582,"Ġroad":1583,"Ġlevel":1584,"Ġrad":1585,"Ġsan":1586,"ret":1587,"Ġmod":1588,"Ġ2007":1589,"Ġstudy":1590,"Ġhop":1591,"Ġreal":1592,"Ġserved":1593,"Ġer":1594,"Ġmilit":1595,"Ġbuilt":1596,"Ġspe":1597,"hm":1598,"yl":1599,"Ġpercent":1600,"Ġfriend":1601,"Ġaustral":1602,"Ġhistory":1603,"side":1604,"Ġcurrent":1605,"Ġbeh":1606,"Ġcentral":1607,"ched":1608,"na":1609,"atic":1610,"Ġaff":1611,"onom":1612,"Ġelect":1613,"ention":1614,"Ġfather":1615,"Ġopp":1616,"Äģ":1617,"Ġresearch":1618,"Ġisland":1619,"Ġincre":1620,"Ġshort":1621,"Ġpower":1622,"Ġrequ":1623,"Ġhm":1624,"Ġstory":1625,"Ġconf":1626,"erv":1627,"Ġthough":1628,"Ġtyp":1629,"Ġpost":1630,"Ġtele":1631,"Ġgrad":1632,"port":1633,"for":1634,"Ġiss":1635,"Ġgrand":1636,"ned":1637,"Ġcourt":1638,"Ġcentury":1639,"Ġgreen":1640,"Ġtoday":1641,"Ġriver":1642,"Ġkeep":1643,"ored":1644,"Ġstar":1645,"Ġcenter":1646,"Ġpolice":1647,"Ġplan":1648,"aper":1649,"ract":1650,"Ġless":1651,"Ġchampionship":1652,"Ġcup":1653,"Ġmaking":1654,"aff":1655,"Ġlive":1656,"Ġant":1657,"eder":1658,"nam":1659,"ana":1660,"ump":1661,"Ġinclude":1662,"ately":1663,"Ġlear":1664,"used":1665,"ze":1666,"ush":1667,"com":1668,"Ġgeor":1669,"Ġhistor":1670,"Ġfield":1671,"Ġestab":1672,"ille":1673,"Ġarch":1674,"Ġrock":1675,"ted":1676,"Ġfamil":1677,"Ġappro":1678,"aces":1679,"Ġfeb":1680,"gress":1681,"Ġwilliam":1682,"Ġnight":1683,"Ġbelie":1684,"por":1685,"Ġfre":1686,"ese":1687,"Ġkind":1688,"Ġeducation":1689,"ony":1690,"Ġtoget":1691,"Ġspecial":1692,"iety":1693,"Ġtogether":1694,"Ġnever":1695,"Ġboy":1696,"Ġschools":1697,"Ġ30":1698,"Ġtrack":1699,"Ġcommunity":1700,"Ġnet":1701,"ency":1702,"Ġask":1703,"self":1704,"lex":1705,"Ġthings":1706,"Ġstop":1707,"ified":1708,"Ġmean":1709,"Ġsuper":1710,"ruary":1711,"Ġroman":1712,"Ġmount":1713,"Ġled":1714,"Ġfebruary":1715,"Ġwa":1716,"ering":1717,"Ġdisc":1718,"Ġmight":1719,"Ġcost":1720,"urs":1721,"ney":1722,"hy":1723,"ring":1724,"Ġwithin":1725,"Ġsold":1726,"Ġmal":1727,"Ġemp":1728,"Ġpoint":1729,"aster":1730,"Ġdescrib":1731,"Ġvi":1732,"Ġphil":1733,"Ġfact":1734,"Ġdirector":1735,"Ġide":1736,"Ġworking":1737,"Ġdue":1738,"Ġoften":1739,"Ġbecome":1740,"itions":1741,"ize":1742,"Ġhaving":1743,"Ġsil":1744,"Ġfire":1745,"Ġmun":1746,"Ġchange":1747,"Ġimportant":1748,"Ġmilitary":1749,"Ġvide":1750,"Ġsocial":1751,"Ġattack":1752,"Ġround":1753,"Ġ25":1754,"Ġhol":1755,"Ġdays":1756,"Ġinform":1757,"Ġrail":1758,"Ġcrit":1759,"ograp":1760,"Ġpublished":1761,"ds":1762,"Ġcat":1763,"Ġtrad":1764,"ization":1765,"Ġworks":1766,"Ġdaddy":1767,"Ġvict":1768,"Ġauthor":1769,"Ġfall":1770,"key":1771,"ham":1772,"Ġx":1773,"Ġ2008":1774,"Ġwashing":1775,"bert":1776,"Ġaddition":1777,"mb":1778,"ches":1779,"Ġlight":1780,"hen":1781,"ape":1782,"Ġdepartment":1783,"Ġfree":1784,"Ġsout":1785,"osp":1786,"Ġmother":1787,"Ġii":1788,"ission":1789,"Ġelse":1790,"Ġpresent":1791,"Ġposs":1792,"Ġexpl":1793,"Ġprovince":1794,"ically":1795,"Ġbritish":1796,"Ġfamilies":1797,"Ġcanad":1798,"Ġtalk":1799,"attle":1800,"Ġtem":1801,"Ġwithout":1802,"ration":1803,"Ġbur":1804,"Ġtur":1805,"Ġvol":1806,"Ġage":1807,"Ġonce":1808,"Ġorder":1809,"Ġequ":1810,"aim":1811,"Ġmust":1812,"Ġinstit":1813,"Ġvot":1814,"Ġmoved":1815,"Ġengine":1816,"Ġusing":1817,"Ġcolor":1818,"que":1819,"ma":1820,"ival":1821,"Ġ2009":1822,"aring":1823,"Ġothers":1824,"ron":1825,"Ġlang":1826,"Ġhalf":1827,"Ġarmy":1828,"Ġenglish":1829,"work":1830,"Ġrepubl":1831,"Ġstat":1832,"Ġnon":1833,"iven":1834,"Ġperform":1835,"Ġactiv":1836,"ient":1837,"right":1838,"ming":1839,"bur":1840,"Ġlate":1841,"ases":1842,"ellow":1843,"Ġvir":1844,"Ġcam":1845,"Ġcareer":1846,"Ġpal":1847,"ruct":1848,"Ġindust":1849,"Ġfish":1850,"xic":1851,"omin":1852,"Ġplaying":1853,"Ġsent":1854,"Ġalth":1855,"sc":1856,"Ġincluded":1857,"Ġcult":1858,"Ġwashington":1859,"Ġfac":1860,"Ġalthough":1861,"Ġlim":1862,"Ġinvest":1863,"Ġ&":1864,"Ġve":1865,"idge":1866,"line":1867,"iod":1868,"Ġcounc":1869,"Ġpay":1870,"Ġfight":1871,"Ġrepublic":1872,"Ġlot":1873,"ged":1874,"Ġcommon":1875,"Ġdet":1876,"de":1877,"Ġlove":1878,"Ġ2015":1879,"estern":1880,"ny":1881,"Ġstreet":1882,"Ġhuman":1883,"Ġinf":1884,"Ġjour":1885,"dle":1886,"Ġwind":1887,"Ġresult":1888,"apan":1889,"Ġbrother":1890,"Ġlat":1891,"rench":1892,"of":1893,"Ġmhm":1894,"Ġchair":1895,"Ġconn":1896,"Ġplayer":1897,"Ġce":1898,"thing":1899,"ounced":1900,"Ġdi":1901,"ino":1902,"erest":1903,"rote":1904,"Ġhig":1905,"Ġdivision":1906,"Ġcharac":1907,"Ġfur":1908,"Ġlow":1909,"Ġfeder":1910,"ief":1911,"Ġassociation":1912,"Ġcast":1913,"ising":1914,"Ġinterest":1915,"Ġmark":1916,"ensus":1917,"Ġjapan":1918,"Ġgold":1919,"Ġroom":1920,"Ġhon":1921,"Ġworked":1922,"Ġscientists":1923,"Ġcut":1924,"erc":1925,"Ġdav":1926,"Ġinvol":1927,"Ġeffect":1928,"mp":1929,"Ġcouncil":1930,"Ã¡":1931,"Ġtrav":1932,"Ġmor":1933,"Ġperiod":1934,"Ġeconom":1935,"ata":1936,"Ġ190":1937,"Ġnort":1938,"Ġteac":1939,"Ġfull":1940,"Ġwrote":1941,"cle":1942,"Ġtow":1943,"oint":1944,"Ġcapt":1945,"Ġlost":1946,"Ġacross":1947,"bit":1948,"adem":1949,"Ġbox":1950,"Ġmuse":1951,"ford":1952,"gs":1953,"Ġfrench":1954,"ways":1955,"Ġdevelopment":1956,"Ġdon":1957,"Ġbird":1958,"itor":1959,"sel":1960,"rents":1961,"ges":1962,"Ġchina":1963,"Ġpast":1964,"gest":1965,"Ġpict":1966,"Ġhot":1967,"Ġvers":1968,"Ġground":1969,"Ġprevious":1970,"Ġcensus":1971,"Ġlangu":1972,"ertain":1973,"Ġrepl":1974,"ops":1975,"ending":1976,"Ġbrown":1977,"ara":1978,"Ġmm":1979,"Ġgiven":1980,"Ġdev":1981,"Ġhour":1982,"Ġciv":1983,"rew":1984,"Ġrul":1985,"Ġblue":1986,"rod":1987,"Ġlik":1988,"Ġwalk":1989,"Ġpie":1990,"Ġ100":1991,"vered":1992,"Ġgoes":1993,"ably":1994,"Ġmeet":1995,"den":1996,"Ġinit":1997,"Ġsea":1998,"ler":1999,"Ġalm":2000,"Ġbad":2001,"ively":2002,"ument":2003,"Ġhur":2004,"Ġvideo":2005,"Ġpick":2006,"Ġpress":2007,"Ġacadem":2008,"Ġrich":2009,"Ġuk":2010,"Ġ21":2011,"Ġwood":2012,"Ġenough":2013,"Ġrural":2014,"Ġboard":2015,"Ġfarm":2016,"ple":2017,"ilar":2018,"Ġsound":2019,"Ġsummer":2020,"Ġprop":2021,"Ġamerica":2022,"Ġmuseum":2023,"vision":2024,"Ġannounced":2025,"Ġinformation":2026,"Ġcontrol":2027,"Ġmc":2028,"Ġmot":2029,"Ġber":2030,"Ġpot":2031,"Ġtot":2032,"Ġship":2033,"Ġkids":2034,"go":2035,"Ġscience":2036,"Ġbal":2037,"Ġdraw":2038,"itten":2039,"Ġbreak":2040,"Ġpret":2041,"Ġtry":2042,"Ġdou":2043,"Ġable":2044,"Ġten":2045,"imes":2046,"Ġmich":2047,"Ġoffice":2048,"Ġmexic":2049,"Ġprocess":2050,"yle":2051,"Ġface":2052,"Ġbi":2053,"ago":2054,"Ġplayers":2055,"aken":2056,"umb":2057,"Ġcountries":2058,"hel":2059,"aly":2060,"rest":2061,"ula":2062,"ready":2063,"Ġmic":2064,"ribut":2065,"Ġalready":2066,"tt":2067,"Ġcase":2068,"Ġhom":2069,"Ġflo":2070,"Ġill":2071,"yn":2072,"Ġstay":2073,"Ġmarket":2074,"Ġpromot":2075,"Ġspace":2076,"Ġcross":2077,"arc":2078,"Ġbroad":2079,"Ġparents":2080,"Ġcir":2081,"ators":2082,"Ġthought":2083,"Ġsite":2084,"Ġnav":2085,"Ġren":2086,"Ġpract":2087,"Ġsaw":2088,"Ġbring":2089,"Ġplant":2090,"Ġappear":2091,"Ġhen":2092,"Ġwestern":2093,"Ġarg":2094,"Ġlou":2095,"Ġiran":2096,"Ġjud":2097,"Ġsimilar":2098,"Ġ2016":2099,"Ġview":2100,"Ġwatch":2101,"Ġdebut":2102,"Ġalright":2103,"uel":2104,"ob":2105,"Ġlond":2106,"Ġpet":2107,"ida":2108,"Ġcomb":2109,"Ġ24":2110,"Ġunion":2111,"ka":2112,"Ġseen":2113,"par":2114,"Ġhor":2115,"oh":2116,"Ġlondon":2117,"ached":2118,"Ġconstru":2119,"Ġcivil":2120,"Ġpopular":2121,"Ġhit":2122,"Ġdaugh":2123,"Ġindian":2124,"Ġproduct":2125,"Ġdescribed":2126,"Ġcook":2127,"Ġdirect":2128,"ced":2129,"Ġbase":2130,"Ġexamp":2131,"Ġdam":2132,"Ġcommitt":2133,"Ġeight":2134,"Ġever":2135,"Ġdone":2136,"Ġprim":2137,"ows":2138,"Ġhall":2139,"Ġjoined":2140,"Ġcomplet":2141,"Ġmunicip":2142,"Ġpartic":2143,"Ġfeel":2144,"Ġbir":2145,"Ġcreated":2146,"Ġ189":2147,"yal":2148,"Ġfront":2149,"Ġstrong":2150,"Ġgun":2151,"Ġ=":2152,"Ġclose":2153,"Ġpolitical":2154,"fer":2155,"Ġgradu":2156,"Ġver":2157,"Ġmass":2158,"ider":2159,"Ġur":2160,"Ġreview":2161,"Ġtex":2162,"Ġalmost":2163,"Ġoutside":2164,"ales":2165,"Ġgave":2166,"Ġsat":2167,"Ġmiddle":2168,"Ġcommand":2169,"Ġah":2170,"ead":2171,"ories":2172,"Ġseven":2173,"Ġrole":2174,"Ġestabl":2175,"Ġnice":2176,"ints":2177,"Ġdisco":2178,"app":2179,"Ġanimals":2180,"ances":2181,"Ġregion":2182,"ston":2183,"Ġsand":2184,"Ġgetting":2185,"nal":2186,"Ġpriv":2187,"ery":2188,"ody":2189,"raft":2190,"Ġestablished":2191,"Ġya":2192,"Ġmonths":2193,"Ġoriginal":2194,"Ġtold":2195,"Ġsouthern":2196,"Ġgroups":2197,"Ġadmin":2198,"aves":2199,"Ġbed":2200,"Ġterr":2201,"Ġ22":2202,"Ġtitle":2203,"ĠâĢľ":2204,"Ġhoney":2205,"Ġtelevision":2206,"Ġpur":2207,"Ġprotect":2208,"Ġteams":2209,"Ġangel":2210,"Ġofficials":2211,"Ġbor":2212,"Ġclaim":2213,"ocr":2214,"Ġparticip":2215,"ĠâĢĿ":2216,"bor":2217,"Ġadded":2218,"Ġwritten":2219,"lic":2220,"Ġfif":2221,"Ġbody":2222,"Ġcoll":2223,"Ġquest":2224,"Ġtrain":2225,"Ġsociety":2226,"Ġsure":2227,"Ġyet":2228,"ience":2229,"Ġfurther":2230,"Ġjob":2231,"Ġlaun":2232,"ference":2233,"Ġmart":2234,"Ġsoon":2235,"Ġareas":2236,"Ġsecret":2237,"Ġtou":2238,"Ġenv":2239,"Ġswe":2240,"Ġservices":2241,"iding":2242,"yed":2243,"Ġ188":2244,"Ġbooks":2245,"stand":2246,"Ġ23":2247,"Ġthank":2248,"Ġmoder":2249,"Ġhost":2250,"Ġchief":2251,"Ġforce":2252,"Ġradio":2253,"ense":2254,"Ġengland":2255,"Ġvarious":2256,"Ġ186":2257,"Ġreturned":2258,"oon":2259,"Ġadminist":2260,"Ġwall":2261,"Ġprofessional":2262,"Ġelection":2263,"Ġproduced":2264,"Ġhill":2265,"Ġpolic":2266,"Ġobama":2267,"Ġbegin":2268,"Ġident":2269,"Ġfinished":2270,"Ġtechnology":2271,"Ġtotal":2272,"ove":2273,"Ġfounded":2274,"ences":2275,"af":2276,"imin":2277,"verage":2278,"Ġstep":2279,"Ġkh":2280,"Ġago":2281,"Ġcommission":2282,"19":2283,"Ġhosp":2284,"Ġproduction":2285,"Ġgermany":2286,"Ġfoc":2287,"Ġdest":2288,"Ġforest":2289,"Ġcoast":2290,"Ġworkers":2291,"iron":2292,"Ġviol":2293,"Ġham":2294,"Ġepis":2295,"Ġearl":2296,"Ġ50":2297,"Ġcop":2298,"Ġarm":2299,"Ġstri":2300,"Ġrace":2301,"Ġsle":2302,"aign":2303,"Ġdefe":2304,"Ġmatch":2305,"Ġleaders":2306,"ald":2307,"Ġrob":2308,"Ġple":2309,"Ġsus":2310,"ica":2311,"Ġrights":2312,"aur":2313,"eth":2314,"Ġbehind":2315,"ature":2316,"Ġfem":2317,"Ġclim":2318,"Ġphot":2319,"Ġimpro":2320,"Ġmakes":2321,"Ġperfor":2322,"here":2323,"uk":2324,"Ġproper":2325,"ults":2326,"Ġthom":2327,"aged":2328,"empt":2329,"Ġthing":2330,"Ġemplo":2331,"Ġfederal":2332,"uge":2333,"acy":2334,"inese":2335,"Ġimm":2336,"year":2337,"ivid":2338,"Ġarri":2339,"Ġearth":2340,"Ġperforman":2341,"nes":2342,"Ġmel":2343,"Ġhy":2344,"Ġenviron":2345,"Ġfund":2346,"Ġinstead":2347,"Ġcampaign":2348,"Ġmarried":2349,"Ġcompanies":2350,"Ġreported":2351,"Ġtaking":2352,"Ġfig":2353,"Ġindia":2354,"Ġrefer":2355,"ades":2356,"Ġconv":2357,"Ġpaul":2358,"Ġtaken":2359,"ha":2360,"Ġchinese":2361,"Ġkilled":2362,"idence":2363,"Ġleast":2364,"lin":2365,"Ġdeg":2366,"epend":2367,"Ġliving":2368,"cast":2369,"hib":2370,"Ġtradition":2371,"Ġoly":2372,"Ġque":2373,"Ġsigned":2374,"ners":2375,"gy":2376,"Ġheav":2377,"Ġdecl":2378,"Ġlanguage":2379,"Ġgar":2380,"Ġpit":2381,"Ġappoint":2382,"Ġwife":2383,"Ġlibr":2384,"Ġparticular":2385,"Ġcand":2386,"Ġdemocr":2387,"Ġassist":2388,"Ġsports":2389,"Ġ2005":2390,"uff":2391,"Ġgoal":2392,"Ġfrance":2393,"ither":2394,"Ġagre":2395,"Ġuhh":2396,"Ġindepend":2397,"Ġjournal":2398,"Ġcongress":2399,"Ġindivid":2400,"Ġfut":2401,"Ġtraining":2402,"Ġlooking":2403,"Ġprofessor":2404,"Ġflor":2405,"Ġproblem":2406,"Ġsele":2407,"utes":2408,"Ġq":2409,"Ġwild":2410,"Ġtrying":2411,"Ġtom":2412,"Ġden":2413,"Ġopened":2414,"Ġexample":2415,"Ġ[":2416,"Ġposition":2417,"Ġnation":2418,"Ġcurrently":2419,"Ġidea":2420,"Ġinfl":2421,"Ġglo":2422,"Ġran":2423,"ests":2424,"Ġmur":2425,"Ġmaybe":2426,"Ġfly":2427,"Ġfranc":2428,"Ġ2017":2429,"Ġelected":2430,"Ġstudies":2431,"Ġeuropean":2432,"Ġjack":2433,"ogn":2434,"Ġvo":2435,"Ġcorn":2436,"Ġtar":2437,"Ġdeal":2438,"Ġdoc":2439,"Ġremember":2440,"hic":2441,"pect":2442,"Ġ2004":2443,"ike":2444,"Ġmedia":2445,"Ġphys":2446,"ville":2447,"omb":2448,"Ġfail":2449,"Ġrecorded":2450,"idered":2451,"pr":2452,"ands":2453,"Ġ26":2454,"Ġclos":2455,"Ġtreat":2456,"pped":2457,"Ġexec":2458,"gar":2459,"Ġintrod":2460,"Ġconnect":2461,"Ġsometimes":2462,"Ã³":2463,"Ġice":2464,"Ġwanted":2465,"Ġban":2466,"Ġcomes":2467,"Ġtv":2468,"Ġcoach":2469,"Ġbank":2470,"20":2471,"Ġnatural":2472,"Ġthre":2473,"Ġepisod":2474,"Ġdaughter":2475,"Ġcharacter":2476,"Ġsell":2477,"Ġconsidered":2478,"Ġenc":2479,"Ġ..":2480,"Ġ27":2481,"Ġfest":2482,"Ġfav":2483,"Ġreason":2484,"Ġ28":2485,"Ġgeorge":2486,"iers":2487,"Ġrout":2488,"Ġaustralia":2489,"ream":2490,"Ġrelease":2491,"Ġcro":2492,"Ġlad":2493,"iment":2494,"Ġcell":2495,"Ġmult":2496,"Ġexc":2497,"Ġenvironment":2498,"Ġroyal":2499,"Ġsett":2500,"Ġprob":2501,"Ġseem":2502,"Ġavail":2503,"Ġmodern":2504,"Ġafrican":2505,"less":2506,"Ġsuff":2507,"Ġjames":2508,"Ġrelations":2509,"ption":2510,"fic":2511,"Ġesp":2512,"Ġsar":2513,"ael":2514,"Ġchic":2515,"Ġmary":2516,"aut":2517,"Ġtexas":2518,"Ã¼":2519,"Ġ187":2520,"Ġmov":2521,"Ġsongs":2522,"Ġgirls":2523,"Ġdavid":2524,"Ġrecogn":2525,"Ġhappened":2526,"ox":2527,"itive":2528,"Ġnorthern":2529,"und":2530,"Ġrecords":2531,"Ġcontinued":2532,"igr":2533,"Ġbattle":2534,"Ġtravel":2535,"Ġcoming":2536,"Ġbay":2537,"Ġfriends":2538,"Ġpan":2539,"Ġlake":2540,"Ġexist":2541,"Ġafrica":2542,"Ġinj":2543,"Ġsam":2544,"Ġmater":2545,"Ġpoints":2546,"Ġasked":2547,"Ġolymp":2548,"ky":2549,"Ġ2000":2550,"Ġminister":2551,"Ġleave":2552,"Ġalways":2553,"ya":2554,"Ġdu":2555,"oss":2556,"airs":2557,"Ġattempt":2558,"Ġproduc":2559,"Ġhimself":2560,"Ġpen":2561,"Ġmix":2562,"Ġhi":2563,"Ġconcer":2564,"Ġartist":2565,"Ġpu":2566,"Ġcy":2567,"hood":2568,"Ġpaper":2569,"Ġneigh":2570,"Ġgro":2571,"olution":2572,"Ġvisit":2573,"Ġshows":2574,"ensive":2575,"Ġlives":2576,"Ġchall":2577,"Ġpretty":2578,"craft":2579,"Ġrelig":2580,"burg":2581,"Ġbat":2582,"Ġproblems":2583,"Ġappeared":2584,"ef":2585,"Ġcomput":2586,"Ġsugg":2587,"Ġloss":2588,"Ġready":2589,"aps":2590,"Ġbit":2591,"Ġru":2592,"Ġrac":2593,"Ġath":2594,"Ġevents":2595,"sequ":2596,"Ġinside":2597,"Ġdesp":2598,"Ġmeas":2599,"Ġbecom":2600,"Ġmer":2601,"Ġord":2602,"Ġtournam":2603,"Ġtrib":2604,"Ġdig":2605,"Ġhous":2606,"Ġstudent":2607,"Ġalex":2608,"Ġindustry":2609,"Ġfa":2610,"Ġdin":2611,"Ġsurv":2612,"bal":2613,"Ġmeans":2614,"erous":2615,"Ġ0":2616,"Ġpoor":2617,"Ġprem":2618,"ura":2619,"ria":2620,"body":2621,"Ġruns":2622,"hod":2623,"Ġdeveloped":2624,"ological":2625,"Ġstore":2626,"utive":2627,"Ġ40":2628,"pan":2629,"Ġwants":2630,"Ġregular":2631,"Ġchicago":2632,"Ġinstitute":2633,"Ġmad":2634,"Ġhospital":2635,"head":2636,"Ġwee":2637,"Ġsleep":2638,"Ġwat":2639,"Ġlargest":2640,"Ġtro":2641,"Ġcommittee":2642,"Ġangeles":2643,"jo":2644,"Ġtable":2645,"Ġorganization":2646,"Ġnetwork":2647,"Ġdise":2648,"Ġuhhuh":2649,"Ġversion":2650,"Ġmagaz":2651,"anish":2652,"Ġconserv":2653,"Ġsuccessful":2654,"Ġavailable":2655,"Ġformed":2656,"Ġamericans":2657,"mon":2658,"Ġconc":2659,"Ġterm":2660,"Ġinvestig":2661,"xim":2662,"room":2663,"Ġquick":2664,"Ġsepar":2665,"Ġjew":2666,"Ġ...":2667,"Ġder":2668,"Ġdecided":2669,"Ġflorida":2670,"Ġben":2671,"ania":2672,"Ġhair":2673,"Ġhelped":2674,"Ġnative":2675,"Ġartic":2676,"Ġfeet":2677,"Ġbasket":2678,"ores":2679,"amb":2680,"Ġnearly":2681,"Ġinvolved":2682,"Ġaud":2683,"Ġreb":2684,"Ġfuture":2685,"str":2686,"Ġforces":2687,"Ġsour":2688,"Ġbow":2689,"rian":2690,"Ġeventually":2691,"Ġcanada":2692,"Ġdrink":2693,"Ġwhose":2694,"ises":2695,"Ġfinish":2696,"Ġsnow":2697,"field":2698,"Ġjer":2699,"Ġaccess":2700,"Ġconstruction":2701,"Ġaverage":2702,"reg":2703,"Ġqual":2704,"Ġstruct":2705,"Ġ1990":2706,"ala":2707,"Ġthomas":2708,"Ġbul":2709,"Ġsaf":2710,"Ġ>":2711,"aker":2712,"Ġbear":2713,"Ġmexico":2714,"Ġrecent":2715,"Ġprivate":2716,"Ġbrought":2717,"Ġrunning":2718,"50":2719,"istan":2720,"ns":2721,"Ġstyle":2722,"Ġlooks":2723,"Ġparts":2724,"Ġ]":2725,"Ġchart":2726,"Ġ2018":2727,"Ġum":2728,"oph":2729,"Ġbud":2730,"Ġrange":2731,"Ġ2003":2732,"Ġheart":2733,"Ġincludes":2734,"Ġsignific":2735,"Ġinflu":2736,"Ġdespite":2737,"Ġfast":2738,"Ġfer":2739,"Ġ29":2740,"Ġach":2741,"Ġrussian":2742,"Ġwait":2743,"Ġwhether":2744,"ban":2745,"Ġmess":2746,"Ġthroughout":2747,"ta":2748,"Ġdut":2749,"Ġreach":2750,"Ġmorn":2751,"idae":2752,"Ġmaterial":2753,"Ġbirth":2754,"Ġwil":2755,"Ġyellow":2756,"Ġlu":2757,"Ġcontract":2758,"ites":2759,"Ġdoll":2760,"Ġho":2761,"isl":2762,"Ġexpress":2763,"Ġfix":2764,"ship":2765,"Ġappointed":2766,"wood":2767,"Ġfourth":2768,"ey":2769,"Ġcover":2770,"Ġresearc":2771,"Ġquar":2772,"Ġclear":2773,"Ġmunicipality":2774,"Ġrussia":2775,"Ġusually":2776,"mar":2777,"Ġoce":2778,"Ġplaces":2779,"Ġstage":2780,"isc":2781,"Ġpull":2782,"reek":2783,"Ġrailway":2784,"Ġanc":2785,"Ġrespons":2786,"asing":2787,"Ġeither":2788,"lement":2789,"urity":2790,"Ġdesigned":2791,"nd":2792,"Ġlibrary":2793,"Ġol":2794,"Ġliter":2795,"Ġblock":2796,"Ġdog":2797,"ÃŃ":2798,"ius":2799,"Ġcompetition":2800,"zz":2801,"Ġwo":2802,"itz":2803,"Ġallowed":2804,"Ġeastern":2805,"Ġhours":2806,"Ġunderstand":2807,"Ġfort":2808,"rain":2809,"Ġsurf":2810,"Ġstaff":2811,"Ġpossible":2812,"Ġspent":2813,"Ġmorning":2814,"Ġcust":2815,"ceed":2816,"val":2817,"Ġoil":2818,"Ġhey":2819,"Ġmedical":2820,"Ġlikely":2821,"Ġchanged":2822,"Ġupon":2823,"aught":2824,"Ġdata":2825,"ij":2826,"ca":2827,"Ġclean":2828,"Ġoriginally":2829,"Ġthreat":2830,"Ġ2001":2831,"ola":2832,"Ġroll":2833,"Ġaction":2834,"Ġcit":2835,"wor":2836,"Ġcertain":2837,"Ġ2002":2838,"Ġentire":2839,"Ġwoman":2840,"Ġtournament":2841,"Ġjose":2842,"Ġsenior":2843,"Ġcondu":2844,"Ġcarol":2845,"Ġabove":2846,"idents":2847,"Ġdro":2848,"ergy":2849,"Ġpicture":2850,"Ġlouis":2851,"Ġsant":2852,"Ġpun":2853,"Ġtype":2854,"Ġaustralian":2855,"Ġacademy":2856,"berg":2857,"Ġ1980":2858,"Ġrules":2859,"Ġsaying":2860,"Ġfestival":2861,"Ġwriting":2862,"Ġarts":2863,"Ġprobably":2864,"Ġwinning":2865,"ona":2866,"Ġcause":2867,"Ġmr":2868,"Ġstra":2869,"Ġminutes":2870,"Ġtax":2871,"Ġmedal":2872,"Ġleading":2873,"Ġfrancis":2874,"Ġcourse":2875,"Ġpenn":2876,"Ġsitu":2877,"Ġtor":2878,"Ġleader":2879,"ique":2880,"Ġperformance":2881,"aint":2882,"Ġbuy":2883,"Ġreve":2884,"rael":2885,"anch":2886,"ctions":2887,"dom":2888,"Ġplann":2889,"Ġmagazine":2890,"Ġwhole":2891,"ado":2892,"Ġfeatures":2893,"Ġvirgin":2894,"Ġprinc":2895,"Ġmichael":2896,"Ġbott":2897,"Ġdecision":2898,"Ġteach":2899,"Ġdeter":2900,"Ġegg":2901,"Ġchanges":2902,"Ġconference":2903,"Ġhigher":2904,"Ġesc":2905,"Ġmovement":2906,"Ġeth":2907,"Ġprograms":2908,"Ġtal":2909,"Ġonline":2910,"Ġhabit":2911,"uses":2912,"Ġpeter":2913,"akers":2914,"Ġleng":2915,"Ġtouch":2916,"itting":2917,"Ġnine":2918,"Ġkore":2919,"Ġkey":2920,"ening":2921,"Ġinterv":2922,"Ġul":2923,"Ġbridge":2924,"Ġlower":2925,"Ġdead":2926,"Ġprovide":2927,"Ġdiffic":2928,"Ġfloor":2929,"Ġcamer":2930,"ropical":2931,"Ġearlier":2932,"ety":2933,"Ġrank":2934,"Ġliber":2935,"Ġdifficult":2936,"sy":2937,"Ġspecific":2938,"Ġmodel":2939,"Ġmac":2940,"Ġris":2941,"Ġfel":2942,"Ġtree":2943,"ett":2944,"back":2945,"Ġhell":2946,"Ġwal":2947,"Ġself":2948,"Ġpil":2949,"Ã¶":2950,"Ġtheat":2951,"Ġsecurity":2952,"Ġmountain":2953,"Ġshoot":2954,"Ġcoup":2955,"Ġfle":2956,"Ġyouth":2957,"Ġaccept":2958,"enth":2959,"Ġbun":2960,"Ġcub":2961,"Ġsex":2962,"Ġfollowed":2963,"Ġdirected":2964,"Ġshot":2965,"atives":2966,"Ġisrael":2967,"Ġsignificant":2968,"ga":2969,"Ġflow":2970,"Ġweeks":2971,"uf":2972,"uce":2973,"yes":2974,"Ġdark":2975,"Ġhistoric":2976,"ki":2977,"Ġgrowing":2978,"Ġhope":2979,"Ġthrow":2980,"Ġze":2981,"Ġstudio":2982,"Ġfrank":2983,"Ġactually":2984,"Ä«":2985,"selves":2986,"Ġgard":2987,"Ġlength":2988,"hest":2989,"Ġperformed":2990,"Ġcapital":2991,"Ġaccount":2992,"atory":2993,"Ġrecently":2994,"ential":2995,"Ġconstit":2996,"bour":2997,"Ġpush":2998,"ends":2999,"ari":3000,"pper":3001,"Ġmont":3002,"Ġadm":3003,"Ġcirc":3004,"Ġdan":3005,"ground":3006,"Ġthous":3007,"Ġpac":3008,"Ġ31":3009,"Ġbene":3010,"Ġrather":3011,"Ġcho":3012,"pe":3013,"Ġlaws":3014,"Ġexhib":3015,"Ġrobert":3016,"Ġsweet":3017,"Ġlived":3018,"itar":3019,"Ġanything":3020,"enced":3021,"Ġparl":3022,"men":3023,"Ġhund":3024,"lete":3025,"Ġhands":3026,"ination":3027,"Ġdegree":3028,"Ġaircraft":3029,"Ġespec":3030,"ateg":3031,"iger":3032,"sey":3033,"Ġocean":3034,"Ġbuildings":3035,"Ġbac":3036,"Ġespecially":3037,"you":3038,"Ġdang":3039,"Ġdru":3040,"Ġathlet":3041,"Ġawards":3042,"ested":3043,"Ġbasketball":3044,"Ġscored":3045,"Ġ1970":3046,"Ġplaced":3047,"Ġneg":3048,"Ġvalley":3049,"ortun":3050,"Ġachie":3051,"Ġpolicy":3052,"Ġremained":3053,"Ġofficer":3054,"asc":3055,"Ġfell":3056,"Ġpred":3057,"Ġchem":3058,"Ġhundred":3059,"ude":3060,"Ġplans":3061,"Ġlun":3062,"Ġmission":3063,"Ġacqu":3064,"Ġlegisl":3065,"Ġcompleted":3066,"ba":3067,"Ġfeatured":3068,"la":3069,"Ġromanized":3070,"Ġcandid":3071,"Ġscre":3072,"Ġchristian":3073,"Ġresearchers":3074,"Ġtransport":3075,"Ġcritic":3076,"Ġmach":3077,"Ġlink":3078,"Ġchap":3079,"Ġdoor":3080,"Ġmilk":3081,"Ġnorm":3082,"Ġtakes":3083,"Ġspanish":3084,"Ġmiles":3085,"Ġobs":3086,"Ġmovie":3087,"Ġanimal":3088,"Ġcarry":3089,"Ġlonger":3090,"Ġvan":3091,"ilities":3092,"ped":3093,"iff":3094,"Ġawarded":3095,"Ġscott":3096,"ires":3097,"Ġprison":3098,"Ġdestro":3099,"Ġepisode":3100,"Ġenergy":3101,"ken":3102,"ims":3103,"Ġquestion":3104,"Ġreached":3105,"Ġpig":3106,"Ġword":3107,"lam":3108,"itect":3109,"Ġshar":3110,"da":3111,"Ġplays":3112,"Ġital":3113,"Ġcars":3114,"olic":3115,"ability":3116,"Ġpiece":3117,"ams":3118,"Ġnovel":3119,"Ġhorse":3120,"Ġcustom":3121,"Ġbag":3122,"Ġsmith":3123,"Ġturned":3124,"Ġinn":3125,"oes":3126,"Ġcolon":3127,"10":3128,"Ġgall":3129,"Ġminute":3130,"arily":3131,"aled":3132,"Ġgas":3133,"Ġforeign":3134,"ray":3135,"osh":3136,"Ġarchitect":3137,"itted":3138,"Ġgovernor":3139,"Ġjoin":3140,"gen":3141,"Ġbeginning":3142,"Ġhear":3143,"Ġsoft":3144,"Ġcard":3145,"medi":3146,"Ġwol":3147,"Ġdoctor":3148,"Ġgod":3149,"Ġartists":3150,"Ġanti":3151,"ental":3152,"Ġnoted":3153,"Ġmethod":3154,"Ġspeed":3155,"ift":3156,"Ġthemselves":3157,"Ġgenus":3158,"where":3159,"Ġdisease":3160,"Ġdeep":3161,"Ġfoundation":3162,"Ġsubject":3163,"Ġcreate":3164,"Ġplease":3165,"Ġhus":3166,"Ġparliam":3167,"tim":3168,"Ġly":3169,"Ġeverything":3170,"ota":3171,"ification":3172,"Ġamount":3173,"Ġglobal":3174,"Ġneeds":3175,"erson":3176,"igned":3177,"Ġformula":3178,"Ġroute":3179,"Ġprincip":3180,"ills":3181,"Ġnar":3182,"Ġparliament":3183,"Ġfemale":3184,"Ġprior":3185,"omm":3186,"agon":3187,"Ġtrade":3188,"sec":3189,"Ġparis":3190,"Ġlisted":3191,"Ġcath":3192,"use":3193,"Ġsection":3194,"Ġspring":3195,"Ġsafety":3196,"band":3197,"Ġburn":3198,"Ġhat":3199,"ope":3200,"Ġrelated":3201,"Ġelectric":3202,"Ġmanager":3203,"Ġindependent":3204,"Ġsubsequ":3205,"Ġ185":3206,"Ġcities":3207,"Ġactive":3208,"Ġwow":3209,"Ġfair":3210,"bi":3211,"Ġwinter":3212,"aving":3213,"Ġmanagement":3214,"Ġissue":3215,"Ġbroadcast":3216,"sw":3217,"Ġemerg":3218,"Ġconsist":3219,"Ġcra":3220,"Ġdocument":3221,"ano":3222,"Ġschol":3223,"Ġmine":3224,"Ġbraz":3225,"Ġtraditional":3226,"Ġestim":3227,"Ġcontribut":3228,"Ġcollection":3229,"Ġcele":3230,"Ġatl":3231,"Ġlabor":3232,"Ġexecutive":3233,"Ġboys":3234,"Ġlearn":3235,"Ġrain":3236,"Ġlay":3237,"Ġfinanc":3238,"Ġwed":3239,"Ġwid":3240,"Ġbelong":3241,"za":3242,"Ġpreviously":3243,"Ġ184":3244,"Ġcentre":3245,"Ġcred":3246,"enty":3247,"Ġexperience":3248,"hem":3249,"Ġprovided":3250,"Ġrespect":3251,"ada":3252,"Ġdom":3253,"Ġukrain":3254,"Ġlegal":3255,"Ġeconomic":3256,"Ġdie":3257,"Ġgoals":3258,"Ġcelebr":3259,"Ġcommerc":3260,"Ġvirginia":3261,"istic":3262,"Ġowned":3263,"iation":3264,"ĠÂ":3265,"Ġnewsp":3266,"Ġ1999":3267,"Ġbelieve":3268,"oring":3269,"Ġtun":3270,"Ġswim":3271,"Ġtransfer":3272,"Ġstarting":3273,"board":3274,"Ġjapanese":3275,"off":3276,"aries":3277,"Ġlack":3278,"va":3279,"Ġnomin":3280,"Ġminor":3281,"Ġwebs":3282,"Ġculture":3283,"oke":3284,"Ġended":3285,"west":3286,"Ġfro":3287,"Ġcanadian":3288,"Ġkar":3289,"Ġitself":3290,"Ġeyes":3291,"Ġapart":3292,"Ġevidence":3293,"Ġpack":3294,"Ġtruck":3295,"erve":3296,"osition":3297,"Ġsquad":3298,"Ġgrant":3299,"Ġsize":3300,"aches":3301,"Ġteachers":3302,"Ġrelationship":3303,"Ġlaunched":3304,"Ġwide":3305,"Ġfamous":3306,"Ġsem":3307,"Ġlady":3308,"Ġobject":3309,"Ġcow":3310,"Ġcomputer":3311,"Ġitalian":3312,"Ġpersonal":3313,"Ġissues":3314,"Ġfellow":3315,"Ġoccur":3316,"Ġmaster":3317,"ani":3318,"Ġclosed":3319,"abor":3320,"Ġattended":3321,"Ġ1960":3322,"well":3323,"Ġfinally":3324,"ols":3325,"Ġshop":3326,"the":3327,"yer":3328,"Ġgeorg":3329,"Ġneeded":3330,"Ġorganiz":3331,"Ġcitiz":3332,"Ġextra":3333,"oe":3334,"ls":3335,"Ġsystems":3336,"Ġpassed":3337,"Ġplat":3338,"ris":3339,"Ġwing":3340,"Ġquickly":3341,"Ġkingdom":3342,"Ġda":3343,"Ġpurch":3344,"Ġmatter":3345,"Ġjobs":3346,"Ġmouth":3347,"Ġbrazil":3348,"round":3349,"Ġincrease":3350,"Ġexcept":3351,"play":3352,"ician":3353,"new":3354,"Ġmeeting":3355,"Ġthus":3356,"Ġfavor":3357,"Ġmostly":3358,"semb":3359,"Ġadministration":3360,"hab":3361,"irt":3362,"Ġsurve":3363,"Ġjoseph":3364,"Ġneighbor":3365,"Ġresults":3366,"Ġmedic":3367,"Ġnumbers":3368,"Ġpow":3369,"Ġchann":3370,"Ġmoving":3371,"Ġattention":3372,"Ġpractice":3373,"Ġsusp":3374,"Ġcharles":3375,"Ġconsum":3376,"ails":3377,"Ġ1998":3378,"ging":3379,"Ġvehic":3380,"Ġgi":3381,"uments":3382,"wards":3383,"Ġker":3384,"Ġseat":3385,"Ġspread":3386,"Ġaz":3387,"Ġcere":3388,"Ġinterview":3389,"Ġfeed":3390,"Ġarrest":3391,"ify":3392,"18":3393,"ocks":3394,"Ġcold":3395,"Ġwords":3396,"Ġopening":3397,"Ġjump":3398,"Ġquarter":3399,"Ġoccup":3400,"Ġislam":3401,"Ġet":3402,"Ġstated":3403,"Ġshall":3404,"Ġbeach":3405,"Ġwrite":3406,"Ġheavy":3407,"Ġoperations":3408,"Ġraised":3409,"edy":3410,"Ġeating":3411,"lands":3412,"bc":3413,"Ġstick":3414,"Ġwriter":3415,"Ġdress":3416,"Ġoverall":3417,"ym":3418,"Ġscore":3419,"Ġire":3420,"Ġagency":3421,"Ġcases":3422,"Ġstudied":3423,"Ġvictor":3424,"Ġgh":3425,"Ġinsp":3426,"Ġintroduced":3427,"Ġones":3428,"Ġreplaced":3429,"Ġcry":3430,"riage":3431,"Ġmanuf":3432,"Ġcab":3433,"Ġgrade":3434,"Ġ60":3435,"Ġimprove":3436,"Ġmanufact":3437,"Ġindividual":3438,"Ġsport":3439,"Ġtarget":3440,"Ġbell":3441,"Ġbillion":3442,"Ġcarolina":3443,"istry":3444,"Ġcoun":3445,"itch":3446,"12":3447,"Ġorange":3448,"Ġspain":3449,"Ġfres":3450,"Ġhurt":3451,"Ġproperty":3452,"Ġfilms":3453,"Ġsquare":3454,"Ġcommercial":3455,"wh":3456,"Ġguard":3457,"aq":3458,"Ġvia":3459,"Ġlimited":3460,"Ġdiscuss":3461,"ask":3462,"pa":3463,"Ġstandard":3464,"Ġhighest":3465,"ex":3466,"Ġremains":3467,"=\"":3468,"Ġsister":3469,"Ġdomin":3470,"Ġrepublican":3471,"Ġteacher":3472,"Ġshowed":3473,"Ġproducts":3474,"Ġstars":3475,"Ġnavy":3476,"apt":3477,"Ġapple":3478,"Ġdrive":3479,"Ġannual":3480,"Ġjustice":3481,"Ġglass":3482,"30":3483,"Ġgiving":3484,"ients":3485,"Ġletter":3486,"Ġfifth":3487,"Ġsinger":3488,"Ġopportun":3489,"Ġassemb":3490,"Ġshare":3491,"Ġreligious":3492,"iny":3493,"Ġextre":3494,"ding":3495,"Ġdance":3496,"Ġba":3497,"Ġsir":3498,"Ġhonor":3499,"cy":3500,"lor":3501,"Ġimmedi":3502,"emic":3503,"icated":3504,"Ġbaseball":3505,"Ġbecoming":3506,"iction":3507,"Ġfocus":3508,"Ġphotograp":3509,"Ġsecretary":3510,"Ġsurface":3511,"anda":3512,"Ġprimary":3513,"Ġmir":3514,"Ġborder":3515,"Ġpeace":3516,"Ġcrow":3517,"Ġflight":3518,"Ġbeaut":3519,"ping":3520,"Ġkm":3521,"Ġnothing":3522,"oul":3523,"Ġstru":3524,"Ġagric":3525,"Ġ1996":3526,"ios":3527,"Ġhello":3528,"ishop":3529,"Ġbelow":3530,"Ġireland":3531,"Ġdisp":3532,"Ġmayor":3533,"ibility":3534,"Ġfighting":3535,"Ġtransl":3536,"book":3537,"Ġcaused":3538,"Ġswed":3539,"cher":3540,"ima":3541,"Ġchampionships":3542,"Ġagricult":3543,"Ġsaint":3544,"Ġarab":3545,"Ġstorm":3546,"Ġeditor":3547,"Ġrichard":3548,"Ġearned":3549,"Ġexpected":3550,"Ġvote":3551,"Ġfru":3552,"tic":3553,"Ġhappy":3554,"ww":3555,"iday":3556,"Ġslow":3557,"clus":3558,"Ġapplic":3559,"sa":3560,"Ġgets":3561,"uit":3562,"Ġbang":3563,"Ġregard":3564,"Ġcollect":3565,"Ġpap":3566,"roll":3567,"Ġbatt":3568,"Ġlog":3569,"ockey":3570,"Ġfill":3571,"Ġatlant":3572,"Ġdun":3573,"rd":3574,"Ġnature":3575,"ker":3576,"Ġbrand":3577,"kn":3578,"Ġfit":3579,"Ġmind":3580,"Ġdream":3581,"Ġolder":3582,"bed":3583,"Ġserious":3584,"Ġtrees":3585,"Ġkitt":3586,"Ġclasses":3587,"Ġcareful":3588,"wide":3589,"Ġforced":3590,"ili":3591,"Ġtick":3592,"Ġclin":3593,"Ġven":3594,"Ġsomeone":3595,"irty":3596,"ador":3597,"Ġdate":3598,"Ġabs":3599,"oid":3600,"down":3601,"Ġbeg":3602,"Ġow":3603,"Ġnames":3604,"Ġride":3605,"Ġ1997":3606,"Ġsurround":3607,"Ġcommunic":3608,"Ġeveryone":3609,"Ġestablish":3610,"Ġadop":3611,"Ġrestaur":3612,"Ġthousands":3613,"Ġspl":3614,"Ġox":3615,"Ġrap":3616,"Ġexpand":3617,"Ġ1994":3618,"Ġpacific":3619,"ript":3620,"Ġtheatre":3621,"Ġdemocratic":3622,"Ġparticularly":3623,"Ġpage":3624,"14":3625,"Ġstone":3626,"Ġoperation":3627,"gypt":3628,"Ġarticle":3629,"Ġchick":3630,"Ġways":3631,"Ġmartin":3632,"Ġhenry":3633,"pre":3634,"Ġcatch":3635,"Ġwhom":3636,"Ġess":3637,"Ġairport":3638,"Ġvictory":3639,"Ġstrugg":3640,"Ġtemper":3641,"ume":3642,"Ġentered":3643,"Ġ1995":3644,"Ġexperts":3645,"Ġuses":3646,"ram":3647,"ems":3648,"Ġrepresented":3649,"Ġcorpor":3650,"Ġsilver":3651,"ension":3652,"nel":3653,"Ġtried":3654,"ander":3655,"Ġprize":3656,"Ġbath":3657,"Ġ<":3658,"Ġregional":3659,"igan":3660,"Ġegypt":3661,"uth":3662,"Ġbye":3663,"Ġplants":3664,"anced":3665,"Ġancient":3666,"house":3667,"Ġ1992":3668,"Ġtrue":3669,"Ġpaint":3670,"Ġlie":3671,"Ġmaint":3672,"Ġfrequ":3673,"Ġdiscovered":3674,"Ġremain":3675,"Ġ2019":3676,"zy":3677,"Ġlarger":3678,"Ġcontinue":3679,"heast":3680,"Ġunl":3681,"Ġvoc":3682,"Ġpsy":3683,"Ġhaw":3684,"Ġwrong":3685,"Ġtrou":3686,"yan":3687,"Ġlord":3688,"Ġcomplete":3689,"Ġ1991":3690,"Ġnecess":3691,"Ġmicro":3692,"Ġpoll":3693,"Ġprogress":3694,"Ġretired":3695,"Ġvolun":3696,"don":3697,"Ġinitially":3698,"Ġstories":3699,"Ġrub":3700,"Ġweap":3701,"Ġreading":3702,"Ġspot":3703,"Ġrequire":3704,"Ġopt":3705,"ils":3706,"ounds":3707,"Ġfigure":3708,"Ġfine":3709,"Ġprevent":3710,"Ġsurpr":3711,"rial":3712,"Ġselected":3713,"rs":3714,"Ġpath":3715,"Ġdemon":3716,"Ġross":3717,"Ġdefeated":3718,"ja":3719,"Ġ1950":3720,"Ġarr":3721,"Ġadditional":3722,"Ġmale":3723,"Ġpoet":3724,"Ġwebsite":3725,"Ġcomplex":3726,"Ġofficers":3727,"Ġboo":3728,"aded":3729,"Ġrate":3730,"Ġshown":3731,"Ġprep":3732,"gu":3733,"Ġstad":3734,"Ġlearning":3735,"Å«":3736,"Ġrefuge":3737,"Ġassociated":3738,"Ġfrancisco":3739,"Ġrare":3740,"Ġcontains":3741,"Ġincreased":3742,"Ġteen":3743,"Ġtowards":3744,"oma":3745,"Ġtrust":3746,"Ġactivities":3747,"Ġinternet":3748,"Ġbeat":3749,"Ġgone":3750,"Ġrequired":3751,"inct":3752,"Ġsubst":3753,"Ġpainting":3754,"more":3755,"Ġsearch":3756,"Ġcaptain":3757,"Ġbenef":3758,"Ġalle":3759,"king":3760,"Ġpictures":3761,"ips":3762,"Ġpartners":3763,"Ġparish":3764,"Ġcovered":3765,"Ġblood":3766,"Ġcoo":3767,"Ġdogs":3768,"Ġsales":3769,"ware":3770,"ita":3771,"Ġaltern":3772,"Ġattract":3773,"ylv":3774,"Ġbehav":3775,"Ġrang":3776,"Ġlabel":3777,"Ġtower":3778,"Ġcatholic":3779,"ipe":3780,"une":3781,"Ġguitar":3782,"Ġtrip":3783,"Ġahead":3784,"Ġ1993":3785,"Ġkick":3786,"Ġmajority":3787,"Ġpurp":3788,"Ġsafe":3789,"Ġcharge":3790,"Ġqueen":3791,"Ġamb":3792,"Ġnations":3793,"elled":3794,"Ġcrew":3795,"Ġrh":3796,"Ġcd":3797,"lect":3798,"Ġgenerally":3799,"Ġjim":3800,"chen":3801,"ylvania":3802,"Ġchoo":3803,"Ġwear":3804,"Ġpra":3805,"Ġvac":3806,"Ġsyn":3807,"Ġresour":3808,"15":3809,"Ġnick":3810,"Ġserving":3811,"ung":3812,"Ġlif":3813,"Ġdry":3814,"inger":3815,"Ġconsider":3816,"ste":3817,"Ġfunny":3818,"Ġfelt":3819,"Ġeye":3820,"Ġislands":3821,"porary":3822,"Ġboston":3823,"Ġgrew":3824,"Ġcultural":3825,"Ġresidents":3826,"Ġencour":3827,"Ġtracks":3828,"Ġkne":3829,"road":3830,"Ġboat":3831,"Ġiraq":3832,"Ġcrime":3833,"Ġmatches":3834,"Ġnearby":3835,"onse":3836,"iled":3837,"Ġleaving":3838,"Ġefforts":3839,"Ġlines":3840,"Ġmusl":3841,"Ġcolumb":3842,"Ġanal":3843,"uals":3844,"Ġtall":3845,"Ġinstr":3846,"Ġlevels":3847,"Ġarrived":3848,"Ġrab":3849,"Ġtroops":3850,"uries":3851,"Ġunit":3852,"Ġsarah":3853,"Ġhockey":3854,"kins":3855,"Ġrecording":3856,"Ġfinancial":3857,"Ġsimp":3858,"Ġken":3859,"ua":3860,"Ġchairman":3861,"Ġmemor":3862,"Ġincreasing":3863,"Ġcollabor":3864,"uction":3865,"Ġadam":3866,"Ġhung":3867,"Ġbelieved":3868,"Ġbrain":3869,"Ġmond":3870,"aland":3871,"zen":3872,"Ġendemic":3873,"Ġbri":3874,"Ġperm":3875,"hire":3876,"bon":3877,"Ġlaura":3878,"vert":3879,"Ġstructure":3880,"Ġsmaller":3881,"Ġstuff":3882,"ipl":3883,"Ġowners":3884,"Ġnap":3885,"ini":3886,"ansas":3887,"Ġscot":3888,"Ġitaly":3889,"Ġphone":3890,"Ġconditions":3891,"Ġconfl":3892,"Ġsov":3893,"teen":3894,"Ġtreatment":3895,"Ġchallen":3896,"Ġfailed":3897,"Ġrisk":3898,"fect":3899,"Ġhuge":3900,"Ġoffer":3901,"Ġemb":3902,"ko":3903,"Ġpenns":3904,"ote":3905,"Ġvice":3906,"bre":3907,"Ġari":3908,"Ġcoal":3909,"Ġpaid":3910,"Ġ1989":3911,"Ġsoldiers":3912,"Ġpsych":3913,"phone":3914,"Ġiv":3915,"Ġpennsylvania":3916,"Ġedition":3917,"Ġmusical":3918,"Ġdar":3919,"Ġreform":3920,"Ġobt":3921,"Ġspir":3922,"Ġspok":3923,"venue":3924,"Ġbey":3925,"Ġmob":3926,"Ġhabitat":3927,"ulations":3928,"Ġgrowth":3929,"iro":3930,"net":3931,"Ġseed":3932,"Ġkitty":3933,"Ġdoub":3934,"Ġstock":3935,"Ġsoviet":3936,"Ġshel":3937,"Ġtoys":3938,"Ġbol":3939,"quar":3940,"astic":3941,"Ġapproxim":3942,"Ġmas":3943,"ologist":3944,"Ġtext":3945,"Ġring":3946,"Ġchannel":3947,"gal":3948,"Ġlic":3949,"Ġlatin":3950,"Ġfreed":3951,"Ġdefense":3952,"ulated":3953,"Ġoffered":3954,"Ġkid":3955,"Ġnose":3956,"sp":3957,"ses":3958,"Ġmotor":3959,"Ġsanta":3960,"oy":3961,"Ġassistant":3962,"Ġlocation":3963,"Ġjunior":3964,"Ġbirds":3965,"Ġappearance":3966,"Ġdigital":3967,"ipped":3968,"Ġenvironmental":3969,"isher":3970,"Ġresponse":3971,"ucky":3972,"Ġdisapp":3973,"Ġsupported":3974,"17":3975,"Ġ183":3976,"Ġkept":3977,"Ġrid":3978,"ena":3979,"Ġcontr":3980,"Ġhusband":3981,"Ġnewspaper":3982,"Ġhistorical":3983,"Ġpieces":3984,"Ġguy":3985,"Ġstadium":3986,"aging":3987,"Ġshut":3988,"Ġcool":3989,"izing":3990,"Ġvariety":3991,"Ġchemical":3992,"rick":3993,"Ġhors":3994,"Ġresponsible":3995,"Ġbob":3996,"Ġmcc":3997,"hol":3998,"Ġaccom":3999,"isions":4000,"Ġengineering":4001,"light":4002,"Ġheard":4003,"Ġrevolution":4004,"Ġautom":4005,"Ġjudge":4006,"Ġmarriage":4007,"Ġnumerous":4008,"Ġdrum":4009,"Ġlooked":4010,"Ġsource":4011,"Ġcitizens":4012,"chan":4013,"Ġpeak":4014,"ole":4015,"Ġremo":4016,"Ġtail":4017,"Ġjuice":4018,"asion":4019,"athan":4020,"gl":4021,"Ġenter":4022,"Ġscreen":4023,"jan":4024,"Ġic":4025,"kin":4026,"Ġsad":4027,"Ġcancer":4028,"Ġprint":4029,"Ġera":4030,"Ġfresh":4031,"Ġtraff":4032,"aily":4033,"Ġdemand":4034,"Ġsev":4035,"Ġsched":4036,"Ġmeaning":4037,"han":4038,"Ġgraduated":4039,"Ġolympics":4040,"iana":4041,"Ġhyd":4042,"Ġtropical":4043,"ella":4044,"Ġapproach":4045,"ii":4046,"Ġquality":4047,"Ġpus":4048,"Ġexam":4049,"11":4050,"Ġtenn":4051,"Ġlee":4052,"Ġfeature":4053,"Ã³n":4054,"Ġash":4055,"Ġtwenty":4056,"do":4057,"mas":4058,"Ġcru":4059,"Ġcart":4060,"Ġded":4061,"Ġ1988":4062,"Ġdraft":4063,"Ġful":4064,"Ġhighway":4065,"Ġcouple":4066,"Ġwel":4067,"Ġtalking":4068,"Ġeffort":4069,"Ġyoun":4070,"Ġgreek":4071,"Ġleaves":4072,"Ġhomes":4073,"erved":4074,"Ġcharl":4075,"ession":4076,"Ġprime":4077,"oop":4078,"Ġdaily":4079,"Ġchampion":4080,"Ġzealand":4081,"Ġka":4082,"inn":4083,"Ġhumans":4084,"Ġduck":4085,"Ġassembly":4086,"Ġsenate":4087,"//":4088,"hi":4089,"Ġarms":4090,"Ġrose":4091,"Ġcateg":4092,"tr":4093,"Ġtoy":4094,"Ġmand":4095,"Ġjul":4096,"utions":4097,"Ġvoice":4098,"water":4099,"Ġsupposed":4100,"://":4101,"Ġweather":4102,"Ġgives":4103,"Ġupper":4104,"Ġsunday":4105,"alled":4106,"Ġweight":4107,"vere":4108,"Ġcalls":4109,"Ġclimate":4110,"Ġbirthday":4111,"Ġbomb":4112,"Ġequip":4113,"Ġbishop":4114,"Ġsud":4115,"Ġram":4116,"Ġmention":4117,"Ġattend":4118,"rences":4119,"azz":4120,"Ġ35":4121,"Ġforward":4122,"ables":4123,"Ġprovides":4124,"Ġkiss":4125,"Ġsor":4126,"Ġmarine":4127,"Ġconfir":4128,"Ġfred":4129,"iling":4130,"13":4131,"Ġnut":4132,"Ġjewish":4133,"Ġell":4134,"Ġflag":4135,"Ġskills":4136,"Ġbon":4137,"uing":4138,"Ġnotable":4139,"ancy":4140,"Ġholding":4141,"Ġrule":4142,"Ġmedicine":4143,"wr":4144,"ato":4145,"Ġpak":4146,"inet":4147,"Ġcompeted":4148,"Ġflying":4149,"Ġexperi":4150,"oud":4151,"Ġsoccer":4152,"Ġdouble":4153,"Ġfarmers":4154,"olk":4155,"Ġpressure":4156,"over":4157,"Ġyounger":4158,"ali":4159,"Ġ70":4160,"Ġcastle":4161,"Ġtape":4162,"Ġiron":4163,"Ġaddress":4164,"Ġseasons":4165,"Ġbutter":4166,"Ġstatus":4167,"Ġwinner":4168,"Ġbroken":4169,"vin":4170,"Äĩ":4171,"asa":4172,"Ġcomment":4173,"Ġsingles":4174,"aph":4175,"Ġens":4176,"Ġimmigr":4177,"Ġhouses":4178,"action":4179,"Ġresc":4180,"Ġsens":4181,"Ġ1984":4182,"Ġpositive":4183,"Ġalone":4184,"Ġserve":4185,"Ġcarried":4186,"Ġviolence":4187,"Ġcontroll":4188,"Ġagreement":4189,"Ġseparate":4190,"acts":4191,"Ġstraight":4192,"Ġsubsequently":4193,"Ġdeput":4194,"Ġprojects":4195,"iance":4196,"Ġsave":4197,"Ġterms":4198,"ien":4199,"Ġcarl":4200,"Ġsyria":4201,"Ġmainly":4202,"Ġvolunte":4203,"Ġalt":4204,"wa":4205,"Ġmama":4206,"rie":4207,"Ġrug":4208,"Ġequipment":4209,"Ġplanet":4210,"Ġnic":4211,"Ġfunction":4212,"Ġbranch":4213,"Ġcheck":4214,"ucle":4215,"Ġapproximately":4216,"Ġcharacters":4217,"uted":4218,"Ġkr":4219,"Ġability":4220,"Ġgeorgia":4221,"Ġkit":4222,"Ġmah":4223,"Ġ80":4224,"Ġmultip":4225,"Ġneighborhood":4226,"har":4227,"Ġchance":4228,"Ġeggs":4229,"Ġrow":4230,"Ġgreater":4231,"izes":4232,"Ġattacks":4233,"ube":4234,"Ġ1987":4235,"Ġchalleng":4236,"Ġmixed":4237,"Ġfans":4238,"iring":4239,"mond":4240,"aped":4241,"Ġod":4242,"Ġhang":4243,"Ġstan":4244,"amm":4245,"Ġoperated":4246,"Ġscholars":4247,"Ġviet":4248,"Ġunits":4249,"Ġproducer":4250,"Ġnom":4251,"Ġimpact":4252,"change":4253,"Ġwheel":4254,"Ġtells":4255,"sen":4256,"Ġfat":4257,"Ġund":4258,"Ġfirm":4259,"Ġelev":4260,"Ġscientific":4261,"rend":4262,"Ġdutch":4263,"gers":4264,"ule":4265,"ingu":4266,"Ġinhab":4267,"Ġgil":4268,"Ġzoo":4269,"Ġelectron":4270,"lied":4271,"Ġbowl":4272,"yr":4273,"Ġmonday":4274,"umn":4275,"Ġasia":4276,"Ġcommunities":4277,"Ġteaching":4278,"Ġentertain":4279,"Ġrough":4280,"ctors":4281,"Ġworth":4282,"Ġinte":4283,"Ġdrop":4284,"Ġrat":4285,"Ġnote":4286,"Ġsense":4287,"Ġ1985":4288,"Ġped":4289,"iful":4290,"16":4291,"Ġfox":4292,"ros":4293,"Ġplane":4294,"Ġsr":4295,"Ġmetal":4296,"Ġtan":4297,"greg":4298,"Å¡":4299,"Ġclaimed":4300,"orter":4301,"Ġadministr":4302,"Ġturkey":4303,"Ġcooper":4304,"Ġgrass":4305,"Ġappears":4306,"orters":4307,"Ġphysical":4308,"ribution":4309,"Ġdropped":4310,"Ġchallenge":4311,"Ġbroke":4312,"Ġimmediately":4313,"Ġcoff":4314,"ties":4315,"Ġluc":4316,"Ġcham":4317,"Ġrod":4318,"Ġproduce":4319,"Ġeffects":4320,"Ġpromin":4321,"Ġindic":4322,"Ġton":4323,"Ġjones":4324,"Ġfounder":4325,"Ġplatform":4326,"cks":4327,"Ġemploy":4328,"Ġcompl":4329,"Ġcompared":4330,"life":4331,"gle":4332,"Ġbought":4333,"Ġkil":4334,"Ġgene":4335,"Ġhotel":4336,"Ġsac":4337,"cement":4338,"atures":4339,"Ġgal":4340,"Ġ90":4341,"Ġos":4342,"Ġyep":4343,"icted":4344,"Ġlearned":4345,"Ġbarb":4346,"Ġpolitician":4347,"Ġiniti":4348,"Ġkent":4349,"atively":4350,"Ġdangerous":4351,"come":4352,"Ġeld":4353,"Ġauthorities":4354,"Ġ1986":4355,"Ġtoward":4356,"Ã¤":4357,"wan":4358,"Ġbron":4359,"Ġnucle":4360,"Ġfreedom":4361,"vi":4362,"Ġeasy":4363,"Ġagreed":4364,"Ġgeneration":4365,"Ġprince":4366,"Ġmeant":4367,"Ġ1982":4368,"Ġirish":4369,"Ġbrothers":4370,"Ġconcept":4371,"Ġcritics":4372,"hold":4373,"fast":4374,"rison":4375,"Ġputting":4376,"Ġtermin":4377,"Ġmanaged":4378,"Ġfigh":4379,"Ġut":4380,"Ġrevealed":4381,"itude":4382,"Ġspr":4383,"Ġstanding":4384,"Ġheat":4385,"Ġproposed":4386,"Ġray":4387,"Ġmoon":4388,"Ġprotest":4389,"Ġhundreds":4390,"Ġtast":4391,"Ġpotential":4392,"igration":4393,"Ġedward":4394,"Ġmax":4395,"ented":4396,"using":4397,"Ġveter":4398,"Ġadj":4399,"Ġhappen":4400,"Ġarrang":4401,"Ġeleph":4402,"ax":4403,"ares":4404,"Åį":4405,"ining":4406,"Ġcompos":4407,"Ġsky":4408,"ography":4409,"Ġbusinesses":4410,"Ġcamera":4411,"set":4412,"Ġsimply":4413,"adel":4414,"Ġpresented":4415,"Ġachieve":4416,"Ġknew":4417,"pping":4418,"Ġ500":4419,"Ġhu":4420,"Ġplanned":4421,"Ġblocks":4422,"Ġunf":4423,"Ġjohnson":4424,"itation":4425,"Ġdecades":4426,"Ġtwice":4427,"Ġsuc":4428,"Ġactor":4429,"Ġbiggest":4430,"Ġintegr":4431,"Ġsom":4432,"Ġ32":4433,"Ġhelps":4434,"Ġdrug":4435,"Ġcandidate":4436,"Ġextrem":4437,"Ġ1945":4438,"Ġterror":4439,"Ġsitting":4440,"Ġbull":4441,"Ġstations":4442,"Ġowner":4443,"Ġacquired":4444,"Ġak":4445,"othes":4446,"outs":4447,"Ġkorea":4448,"Ġansw":4449,"Ġmichigan":4450,"Ġanth":4451,"iano":4452,"Ġid":4453,"Ġscene":4454,"Ġbrig":4455,"Ġ1972":4456,"Ġfields":4457,"Ġmeasure":4458,"Ġbrief":4459,"rel":4460,"Ġcosts":4461,"time":4462,"Ġmechan":4463,"Ġforms":4464,"Ġsuit":4465,"ji":4466,"Ġmath":4467,"Ġwonder":4468,"bach":4469,"Ġreports":4470,"Ġminim":4471,"Ġdamage":4472,"Ġdestroyed":4473,"ror":4474,"ette":4475,"oops":4476,"Ġaim":4477,"ysis":4478,"Ġsites":4479,"Ġletters":4480,"Ġsucceed":4481,"Ġelement":4482,"Ġmoo":4483,"Ġwet":4484,"Ġweb":4485,"Ġtrail":4486,"Ġjon":4487,"Ġtownship":4488,"aceae":4489,"ci":4490,"Ġpakistan":4491,"Ġaffect":4492,"Ġjersey":4493,"rey":4494,"Ġadvoc":4495,"Ġtemple":4496,"inois":4497,"Ġukraine":4498,"Ġprice":4499,"inal":4500,"Ġtheory":4501,"Ġbeyond":4502,"Ġjac":4503,"Ġconducted":4504,"Ġcontem":4505,"Ġphilipp":4506,"Ġtaught":4507,"aming":4508,"Ġquite":4509,"Ġcookie":4510,"Ġcells":4511,"Ġdemonstr":4512,"Ġbeautiful":4513,"Ġcontest":4514,"Ġactivity":4515,"Ġurban":4516,"Ġwednes":4517,"Ġcaught":4518,"Ġministry":4519,"Ġremaining":4520,"Ġindustrial":4521,"ero":4522,"Ġrepe":4523,"itory":4524,"Ġacademic":4525,"Ġenjo":4526,"Ġships":4527,"Ġcrimin":4528,"ifying":4529,"Ġislamic":4530,"ela":4531,"Ġspend":4532,"Ġissued":4533,"Ġtues":4534,"Ġ1940":4535,"Ġexperiment":4536,"eech":4537,"Ġoffers":4538,"ledge":4539,"ordin":4540,"elling":4541,"Ġ1930":4542,"Ġsituation":4543,"eless":4544,"Ġhighly":4545,"Ġric":4546,"Ġparks":4547,"Ġcas":4548,"Ġspeech":4549,"reng":4550,"Ġpromoted":4551,"Ġdetermin":4552,"orpor":4553,"Ġunc":4554,"Ġsequ":4555,"Ġhelping":4556,"Ġillinois":4557,"gian":4558,"Ġsick":4559,"works":4560,"Ġultim":4561,"ila":4562,"Ġbottom":4563,"Ġgarden":4564,"Ġles":4565,"Ġsubt":4566,"ishing":4567,"Ġelections":4568,"shire":4569,"Ġstores":4570,"Ġdirection":4571,"Ġmeat":4572,"Ġdisplay":4573,"Ġestimated":4574,"rated":4575,"Ġmemorial":4576,"Ġ1983":4577,"Ġbritain":4578,"Ġdriving":4579,"Ġbann":4580,"Ġsym":4581,"onic":4582,"Ġohio":4583,"unk":4584,"ques":4585,"Ġmachine":4586,"Ġpattern":4587,"Ġvisitors":4588,"Ġjes":4589,"Ġtypes":4590,"Ġflowers":4591,"Ġrefe":4592,"Ġleadership":4593,"mit":4594,"Ġsher":4595,"Ġthanks":4596,"Ġ1979":4597,"Ġindividuals":4598,"apes":4599,"kee":4600,"ellig":4601,"Ġstopped":4602,"Ġ182":4603,"nic":4604,"Ġlunch":4605,"Ġexpert":4606,"Ġdirectly":4607,"Ġweapons":4608,"aska":4609,"Ġprotection":4610,"Ġ36":4611,"Ġbod":4612,"Ġtuesday":4613,"roph":4614,"Ġlisten":4615,"Ġlosing":4616,"Ġdol":4617,"Ġorganis":4618,"Ġsupre":4619,"Ġappearances":4620,"ghan":4621,"Ġparticipated":4622,"Ġmultiple":4623,"Ġrise":4624,"Ġsatur":4625,"mann":4626,"abeth":4627,"Ġpad":4628,"Ġsurvey":4629,"Ġdisney":4630,"Ġestate":4631,"Ġaccident":4632,"Ġalbums":4633,"Ġmexican":4634,"Ġresources":4635,"Ġeb":4636,"Ġexerc":4637,"aling":4638,"Ġ1981":4639,"Ġdaniel":4640,"aks":4641,"Ġdistance":4642,"Ġolympic":4643,"Ġfruit":4644,"stein":4645,"Ġcoffee":4646,"Ġsymb":4647,"Ġconsists":4648,"Ġvalue":4649,"mo":4650,"Ġregister":4651,"Ġconcert":4652,"Ġsamp":4653,"Ġexact":4654,"encies":4655,"Ġintellig":4656,"Ġmunicipal":4657,"illy":4658,"ttps":4659,"Ġwit":4660,"Ġwales":4661,"Ġlatter":4662,"een":4663,"Ġast":4664,"Ġdeputy":4665,"Ġille":4666,"Ġ1920":4667,"abad":4668,"Ġwildlife":4669,"Ġresident":4670,"Ġdiam":4671,"Ġstrike":4672,"Ġentertainment":4673,"Ġwednesday":4674,"Ġlion":4675,"Ġrespond":4676,"Ġonto":4677,"Ġ1975":4678,"Ġsweetie":4679,"Ġorganized":4680,"Ġtrouble":4681,"ager":4682,"unt":4683,"ously":4684,"Ġcontact":4685,"Ġsides":4686,"ements":4687,"Ġroof":4688,"Ġquestions":4689,"Ġga":4690,"Ġgoo":4691,"etts":4692,"Ġconservation":4693,"Ġandrew":4694,"Ġstreng":4695,"Ġjoe":4696,"Ġadvanced":4697,"Ġcounter":4698,"Ġthreatened":4699,"ucks":4700,"Ġwilliams":4701,"Ġsuggest":4702,"Ġscen":4703,"Ġchristmas":4704,"Ġseems":4705,"esh":4706,"iced":4707,"Ġguess":4708,"Ġtiny":4709,"Ġpink":4710,"Ġtherefore":4711,"Ġrecomm":4712,"Ġgay":4713,"Ġkim":4714,"Ġknock":4715,"Ġsmart":4716,"lies":4717,"Ġburied":4718,"Ġforests":4719,"Ġcomposed":4720,"Ġvent":4721,"ricts":4722,"Ġideas":4723,"town":4724,"Ġnfl":4725,"Ġincome":4726,"Ġtrial":4727,"Ġdanc":4728,"Ġlots":4729,"Ġcontinues":4730,"Ġign":4731,"Ġempire":4732,"Ġsilly":4733,"Ġchoice":4734,"Ġremoved":4735,"Ġteeth":4736,"Ġinitial":4737,"any":4738,"Ġyards":4739,"Ġscotland":4740,"rol":4741,"Ġyay":4742,"Ġ1976":4743,"Ġreceive":4744,"burgh":4745,"Ġregiment":4746,"Ġorganizations":4747,"Ã§":4748,"ouri":4749,"Ġexpect":4750,"Ġ1968":4751,"Ġcert":4752,"Ġdogg":4753,"Ġmist":4754,"Ġperfect":4755,"Ġcampus":4756,"Ġsixth":4757,"Ġpin":4758,"Ġrot":4759,"Ġcode":4760,"ibly":4761,"Ġsupply":4762,"Ġbehavior":4763,"Ġhind":4764,"Ġdrama":4765,"Ġselling":4766,"Ġfinding":4767,"Ġfunding":4768,"Ġtitled":4769,"Ġaffairs":4770,"Ġcritical":4771,"Ġdeclared":4772,"Ġmut":4773,"Ġ180":4774,"Ġsimple":4775,"Ġordered":4776,"achus":4777,"Ġhero":4778,"stone":4779,"Ġ1974":4780,"Ġfriday":4781,"Ġorche":4782,"Ġresist":4783,"ih":4784,"Ã¨":4785,"Ġ300":4786,"Ġjeff":4787,"Ġiii":4788,"Ġwindow":4789,"Ġcommander":4790,"Ġspirit":4791,"Ġfash":4792,"Ġportug":4793,"Ġveget":4794,"Ġlaunch":4795,"stra":4796,"Ġwearing":4797,"iest":4798,"Ġseattle":4799,"Ġbrad":4800,"Ġharv":4801,"ault":4802,"uct":4803,"Ġbound":4804,"Ġkenn":4805,"Ġgol":4806,"ummy":4807,"Ġphilos":4808,"Ġmountains":4809,"Ġcem":4810,"ati":4811,"Ġdistricts":4812,"Ġpurs":4813,"Ġhug":4814,"Ġasian":4815,"Ġ1978":4816,"Ġinspired":4817,"Ġadults":4818,"isters":4819,"Ġcolumbia":4820,"Ġhappens":4821,"Ġbreed":4822,"Ġafghan":4823,"Ġdinos":4824,"ĠâĢĺ":4825,"erb":4826,"Ġwaters":4827,"adelph":4828,"Ġsend":4829,"Ġswimming":4830,"andon":4831,"Ġelements":4832,"Ġeliz":4833,"Ġprimarily":4834,"Ġmassachus":4835,"worth":4836,"Ġbunny":4837,"Ġshr":4838,"Ġmassachusetts":4839,"Ġuncle":4840,"Ġshortly":4841,"Ġhousing":4842,"illa":4843,"Ġscr":4844,"rupt":4845,"ruction":4846,"Ġdefin":4847,"Ġphiladelph":4848,"Ġofficially":4849,"Ġconflict":4850,"Ġarchae":4851,"Ġshooting":4852,"Ġjoint":4853,"can":4854,"Ġfc":4855,"Ġ1969":4856,"Ġstandards":4857,"Ġbreakfast":4858,"Ġinfluence":4859,"Ġooh":4860,"Ġcreek":4861,"Ġ45":4862,"Ġmigr":4863,"Ġeconomy":4864,"Ġmis":4865,"Ġtheme":4866,"Ġ1944":4867,"Ġthinking":4868,"Ġarrested":4869,"Ġreserve":4870,"Ġphiladelphia":4871,"Ġinfant":4872,"Ġmoth":4873,"iles":4874,"Ġtrains":4875,"Ġextended":4876,"eland":4877,"see":4878,"Ġsoftware":4879,"Ġfal":4880,"Ġadvert":4881,"mark":4882,"no":4883,"elly":4884,"bridge":4885,"Ġuns":4886,"Ġpatients":4887,"Ġmos":4888,"Ġliterature":4889,"Ġclubs":4890,"weight":4891,"Ġcemeter":4892,"yard":4893,"Ġvillages":4894,"40":4895,"Ġbuck":4896,"Ġacting":4897,"Ġbudget":4898,"fish":4899,"Ġlind":4900,"Ġ1971":4901,"Ġcontent":4902,"Ġconstructed":4903,"Ġfollows":4904,"Ġinjury":4905,"Ġdefeat":4906,"Ġprincipal":4907,"Ġsupreme":4908,"Ġjr":4909,"Ġcapac":4910,"Ġ33":4911,"Ġsurn":4912,"Ġprec":4913,"Ġ1977":4914,"uts":4915,"Ġscale":4916,"Ġbecomes":4917,"arm":4918,"Ġwindows":4919,"Ġreferred":4920,"nie":4921,"Ġconvers":4922,"Ġtraffic":4923,"oln":4924,"Ġplanning":4925,"gn":4926,"iga":4927,"Ġfashion":4928,"Ġlies":4929,"Ġperman":4930,"Ġfeaturing":4931,"Ġchanging":4932,"hs":4933,"tered":4934,"Ġdifference":4935,"Ġauthority":4936,"Ġmars":4937,"Ġkal":4938,"uled":4939,"Ġdipl":4940,"Ġbears":4941,"Ġpover":4942,"Ġopportunity":4943,"onia":4944,"Ġpupp":4945,"Ġshoes":4946,"Ġraise":4947,"Ġconstant":4948,"Ġheight":4949,"Ġwrit":4950,"Ġsolo":4951,"Ġcrown":4952,"cles":4953,"Ġcorner":4954,"Ġpoverty":4955,"Ġgri":4956,"Ġterritory":4957,"80":4958,"Ġpoo":4959,"Ġwidely":4960,"Ġmike":4961,"Ġlas":4962,"Ġserves":4963,"Ġ1967":4964,"Ġtransferred":4965,"Ġallows":4966,"Ġpowerful":4967,"Ġbes":4968,"Ġcomedy":4969,"sela":4970,"Ġreviews":4971,"Ġtam":4972,"newsela":4973,"Ġanalysis":4974,"while":4975,"Ġcin":4976,"Ġtypically":4977,"Ġstatement":4978,"âĢĻ":4979,"Ġlarg":4980,"Ġcrack":4981,"estic":4982,"Ġenem":4983,"Ġalongside":4984,"Ġtay":4985,"Ġassigned":4986,"Ġmoment":4987,"je":4988,"Ġsugar":4989,"Ġabandon":4990,"Ġcalling":4991,"Ġwins":4992,"Ġgolden":4993,"33":4994,"Ġjazz":4995,"mans":4996,"Ġargent":4997,"ario":4998,"Ġcondition":4999,"Ġexchange":5000,"Ġregist":5001,"Ġflood":5002,"Ġbasic":5003,"Ġmaterials":5004,"haps":5005,"rid":5006,"oted":5007,"ivity":5008,"Ġarth":5009,"Ġcris":5010,"Ġformerly":5011,"Ġdur":5012,"Ġperhaps":5013,"Ġ1973":5014,"Ġpurpose":5015,"Ġaid":5016,"Ġfear":5017,"Ġbigger":5018,"Ġclimb":5019,"etic":5020,"Ġcustomers":5021,"Ġwalking":5022,"cha":5023,"Ġwarm":5024,"Ġenfor":5025,"Ġdivided":5026,"Ġcaptured":5027,"Ġsaturday":5028,"Ġserb":5029,"Ġcontrovers":5030,"Ġabd":5031,"Ġtests":5032,"Ġfavorite":5033,"Ġnormal":5034,"oration":5035,"ito":5036,"Ġlinc":5037,"Ġusa":5038,"acing":5039,"tery":5040,"Ġcla":5041,"Ġgraduate":5042,"Ġfought":5043,"uten":5044,"Ġbackground":5045,"Ġwhoops":5046,"Ġsyd":5047,"Ġcompletely":5048,"athe":5049,"Ġcric":5050,"Ġdedicated":5051,"Ġsurname":5052,"ux":5053,"Ġprominent":5054,"Ġfocused":5055,"Ġcrowd":5056,"iy":5057,"Ġattorn":5058,"Ġimpress":5059,"Ġreturning":5060,"Ġtel":5061,"ulf":5062,"Ġedge":5063,"Ġpremie":5064,"Ġelizabeth":5065,"lying":5066,"bury":5067,"Ġpool":5068,"fort":5069,"Ġconsec":5070,"Ġwoo":5071,"Ġunique":5072,"Ġdriver":5073,"Ġfacilities":5074,"Ġnecessary":5075,"Ġcolorado":5076,"Ġsources":5077,"Ġlargely":5078,"Ġlincoln":5079,"Ġdiss":5080,"mine":5081,"Ġjam":5082,"Ġimag":5083,"Ġplate":5084,"Ġfootballer":5085,"Ġsuggested":5086,"Ġaccepted":5087,"Ġnep":5088,"Ġsuffered":5089,"Ġwilson":5090,"Ġgray":5091,"Ġnewly":5092,"Ġemot":5093,"Ġ1965":5094,"onents":5095,"Ġbass":5096,"Ġbright":5097,"Ġflat":5098,"Ġknowledge":5099,"Ġ1964":5100,"Ġreasons":5101,"Ġcircle":5102,"Ġrecognized":5103,"Ġpartnership":5104,"Ġrand":5105,"Ġconclud":5106,"urt":5107,"Ġcha":5108,"Ġcolomb":5109,"Ġpropos":5110,"wise":5111,"ington":5112,"Ġscoring":5113,"Ġadopted":5114,"Ġcontemporary":5115,"cel":5116,"ira":5117,"Ġarmed":5118,"Ġmarsh":5119,"Ġcreating":5120,"Ġmap":5121,"Ġcorps":5122,"Ġguns":5123,"Ġracing":5124,"Ġconfirmed":5125,"Ġcricket":5126,"ads":5127,"Ġdoctors":5128,"Ġactress":5129,"Ġimplement":5130,"Ġnuclear":5131,"rees":5132,"ocol":5133,"Ġcommunist":5134,"Ġanaly":5135,"Ġgang":5136,"Ġsydney":5137,"Ġwisc":5138,"Ġbegins":5139,"Ġhong":5140,"Ġclothes":5141,"Ġpurchased":5142,"Ġwings":5143,"Ġko":5144,"Ġrestrict":5145,"Ġrestaurant":5146,"Ġkorean":5147,"aka":5148,"Ġbutton":5149,"Ġimage":5150,"ias":5151,"oms":5152,"onsin":5153,"Ġmessage":5154,"quarters":5155,"Ġrice":5156,"Ġwisconsin":5157,"ora":5158,"azon":5159,"500":5160,"itage":5161,"Ġfinds":5162,"Ġrepresentatives":5163,"Ġnaz":5164,"Ġzone":5165,"Ġeducational":5166,"Ġconnected":5167,"Ġcontain":5168,"Ġhopes":5169,"Ġfactory":5170,"Ġlyric":5171,"istics":5172,"Ġavoid":5173,"Ġnominated":5174,"Ġtransform":5175,"Ġsplit":5176,"Ġinhabit":5177,"Ġ34":5178,"Ġslight":5179,"Ġinterested":5180,"Ġcriminal":5181,"Ġproviding":5182,"Ġchris":5183,"ributed":5184,"Ġbillboard":5185,"Ġariz":5186,"Ġori":5187,"Ġhunting":5188,"Ġvari":5189,"Ġpalest":5190,"Ġsalt":5191,"Ġrepresentative":5192,"Ġidentified":5193,"Ġsemi":5194,"Ġts":5195,"Ġbh":5196,"Ġlock":5197,"Ġskin":5198,"heim":5199,"Ġfu":5200,"chester":5201,"Ġjackson":5202,"rect":5203,"Ġcopies":5204,"oman":5205,"Ġstarts":5206,"Ġadvis":5207,"Ġholds":5208,"Ã¡n":5209,"Ġactions":5210,"Ġairpl":5211,"mony":5212,"Ġfaced":5213,"Ġinvestigation":5214,"Ġpartner":5215,"Ġmaxim":5216,"Ġheadquarters":5217,"Ġ1946":5218,"kes":5219,"Ġvehicles":5220,"iami":5221,"Ġscientist":5222,"Ġcollected":5223,"Ġpolitics":5224,"Ġinstrument":5225,"Ġgained":5226,"Ġchicken":5227,"Ġavenue":5228,"Ġindones":5229,"Ġinsur":5230,"90":5231,"Ġfisher":5232,"Ġhay":5233,"Ġrivers":5234,"Ġtheater":5235,"Ġprin":5236,"Ġfinals":5237,"Ġconsult":5238,"rig":5239,"Ġelimin":5240,"lav":5241,"Ġlem":5242,"ika":5243,"Ġdna":5244,"Ġtechnical":5245,"Ġniger":5246,"Ġadult":5247,"Ġgrown":5248,"Ġnorthwest":5249,"Ġopposition":5250,"Ġcombined":5251,"Ġfigures":5252,"anes":5253,"Ġsmok":5254,"Ġrecru":5255,"Ġimper":5256,"Ġpresence":5257,"Ġcombat":5258,"Ġconver":5259,"Ã±":5260,"osen":5261,"Ġincorpor":5262,"Ġpilot":5263,"Ġbah":5264,"Ġheritage":5265,"Ġemergency":5266,"chi":5267,"ighth":5268,"Ġfishing":5269,"Ġconservative":5270,"Ġdim":5271,"Ġthurs":5272,"Ġmissing":5273,"Ġmiami":5274,"Ġkilling":5275,"bird":5276,"Ġshape":5277,"Ġblow":5278,"Ġclaims":5279,"Ġabe":5280,"ici":5281,"Ġ1966":5282,"order":5283,"Ġreco":5284,"Ġmuslim":5285,"Ġpump":5286,"Ġmurder":5287,"Ġrecon":5288,"60":5289,"Ġspending":5290,"Ġmeanwhile":5291,"Ġwalls":5292,"Ġoccurred":5293,"Ġcapacity":5294,"Ġtesting":5295,"eman":5296,"Ġcheese":5297,"25":5298,"Ġbasis":5299,"Ġsab":5300,"Ġsciences":5301,"iverse":5302,"Ġeve":5303,"Ġsav":5304,"Ġmissouri":5305,"Ġanyone":5306,"Ġturk":5307,"Ġcuba":5308,"Ġsons":5309,"Ġretire":5310,"Ġsteel":5311,"Ġintelligence":5312,"Ġflower":5313,"hah":5314,"Ġaer":5315,"Ġ150":5316,"Ġtowns":5317,"Ġkong":5318,"gi":5319,"win":5320,"awa":5321,"Ġengineer":5322,"Ġfewer":5323,"Ġknows":5324,"Ġ1963":5325,"https":5326,"Ġneck":5327,"Ġfan":5328,"Ġsees":5329,"Ġros":5330,"Ġworldwide":5331,"Ġranked":5332,"Ġkansas":5333,"Ġherself":5334,"Ġwars":5335,"Ġstreets":5336,"ione":5337,"lets":5338,"aga":5339,"Ġnoise":5340,"Ġthinks":5341,"Ġ1942":5342,"Ġcrop":5343,"Ġrailroad":5344,"yees":5345,"hens":5346,"Ġemployees":5347,"Ġwrest":5348,"Ġoperating":5349,"Ġrugby":5350,"uan":5351,"Ġanton":5352,"Ġhealthy":5353,"iders":5354,"Ġscottish":5355,"icient":5356,"Ġdeveloping":5357,"Ġvietnam":5358,"Ġpaintings":5359,"Ġ37":5360,"Ġloan":5361,"Ġatlantic":5362,"Ġapplied":5363,"Ġreduced":5364,"Ġalbert":5365,"Ġmaryland":5366,"Ġtask":5367,"Ġtra":5368,"Ġsecondary":5369,"onto":5370,"Ġintended":5371,"makers":5372,"war":5373,"Ġpresidential":5374,"Ġpair":5375,"Ġopin":5376,"Ġbush":5377,"Ġscul":5378,"iot":5379,"Ġlanguages":5380,"Ġboom":5381,"Ġcemetery":5382,"Ġparties":5383,"Ġcalc":5384,"Ġbern":5385,"Ġcorporation":5386,"Ġspokes":5387,"Ġstuck":5388,"Ġgallery":5389,"ees":5390,"Ġsort":5391,"Ġcanal":5392,"Ġwatching":5393,"Ġrapid":5394,"Ġathletes":5395,"Ġchosen":5396,"Ġstret":5397,"200":5398,"Ġjenn":5399,"Ġsteve":5400,"Ġpeek":5401,"Ġalexander":5402,"Ġsust":5403,"Ġreligion":5404,"Ġtools":5405,"Ġdinner":5406,"Ġnarrow":5407,"inson":5408,"Ġmemory":5409,"Ġcycl":5410,"Ġvirt":5411,"resp":5412,"lers":5413,"Ġeric":5414,"Ġmit":5415,"Ġsomebody":5416,"Ġmillions":5417,"Ġaudience":5418,"Ġmalays":5419,"Ġhosted":5420,"Ġwolf":5421,"Ġaccompan":5422,"Ġpolish":5423,"Ġfully":5424,"Ġbrick":5425,"Ġthursday":5426,"gie":5427,"Ġperforming":5428,"Ġhydro":5429,"Ġtrained":5430,"Ġfacult":5431,"Ġhits":5432,"Ġgrey":5433,"Ġunkn":5434,"Ġnotes":5435,"Ġshowing":5436,"Ġdistingu":5437,"Ġvisited":5438,"Ġallowing":5439,"Ġdrones":5440,"Ġsubur":5441,"Ġsigns":5442,"Ġrefused":5443,"Ġwash":5444,"Ġconcent":5445,"Ġlew":5446,"Ġapproved":5447,"Ġentr":5448,"Ġeverybody":5449,"Ġrenamed":5450,"Ġcategory":5451,"Ġsorry":5452,"Ġarizona":5453,"night":5454,"Ġcav":5455,"Ġcolors":5456,"Ġmobile":5457,"Ġbbc":5458,"Ġseats":5459,"agan":5460,"iber":5461,"Ġspect":5462,"Ġjean":5463,"Ġagriculture":5464,"Ġyog":5465,"Ġmyster":5466,"Ġrocks":5467,"Ġprotests":5468,"Ġsettlement":5469,"Ġfilled":5470,"bel":5471,"sect":5472,"Ġagent":5473,"Ġusers":5474,"aws":5475,"Ġspeaking":5476,"Ġliberal":5477,"oir":5478,"Ġsubs":5479,"Ġdisappe":5480,"Ġshell":5481,"Ġoppos":5482,"Ġmanufacture":5483,"Ġshirt":5484,"Ġdy":5485,"Ġminnes":5486,"Ġending":5487,"Ġdiscovery":5488,"Ġwhoa":5489,"Ġuhoh":5490,"Ġfalls":5491,"Ġeducated":5492,"era":5493,"iÄĩ":5494,"Ġexpensive":5495,"Ġmail":5496,"Ġanne":5497,"Ġkat":5498,"iform":5499,"Ġmentioned":5500,"Ġcontrolled":5501,"Ġcore":5502,"ava":5503,"Ġ1954":5504,"ĠÂ£":5505,"kh":5506,"het":5507,"Ġpainted":5508,"Ġlimit":5509,"Ġlin":5510,"itan":5511,"Ġreduce":5512,"Ġturt":5513,"ophy":5514,"Ġlect":5515,"Ġgran":5516,"Ġbacter":5517,"olved":5518,"Ã¸":5519,"Ġattorney":5520,"Ġlikes":5521,"Ġunknown":5522,"Ġhorn":5523,"Ġmathem":5524,"Ġbond":5525,"Ġpros":5526,"Ġnether":5527,"Ġvictoria":5528,"Ġrefugees":5529,"itter":5530,"Ġtransportation":5531,"Ġswedish":5532,"ription":5533,"Ġgram":5534,"Ġconduct":5535,"Ġbronze":5536,"Ġlions":5537,"Ġframe":5538,"Ġmatt":5539,"wich":5540,"po":5541,"Ġvehicle":5542,"Ġbure":5543,"Ġkir":5544,"Ġsounds":5545,"Ġpuzz":5546,"ulate":5547,"Ġsetting":5548,"Ġlieuten":5549,"Ġregions":5550,"met":5551,"Ġslo":5552,"Ġmodels":5553,"Äį":5554,"Ġyourself":5555,"Ġturning":5556,"Ġeasily":5557,"bourne":5558,"Ġsquadron":5559,"Ġkitchen":5560,"Ġultimately":5561,"Ġexpanded":5562,"Ġbodies":5563,"Ġentry":5564,"Ġtu":5565,"Ġminnesota":5566,"Ġwithd":5567,"Ġheads":5568,"Ġ1962":5569,"Ġdistinct":5570,"Ġdrawing":5571,"Ġimmigrants":5572,"Ġpric":5573,"Ġnathan":5574,"Ġpoly":5575,"Ġ1958":5576,"Ġsinging":5577,"Ġtreated":5578,"Ġberlin":5579,"rich":5580,"Ġblank":5581,"Ġquiet":5582,"Ġviews":5583,"Ġdirty":5584,"Ġmagn":5585,"Ġinhabitants":5586,"Ġsale":5587,"Ġtank":5588,"ishes":5589,"Ġ1959":5590,"umed":5591,"Ġfacility":5592,"Ġexisting":5593,"Ġbom":5594,"elve":5595,"Ġvess":5596,"Ġdecade":5597,"Ġperformances":5598,"enger":5599,"amin":5600,"Ġsets":5601,"Ġ1948":5602,"Ġthir":5603,"Ġfederation":5604,"Ġemper":5605,"Ġpositions":5606,"Ġunlike":5607,"Ġalternative":5608,"Ġends":5609,"Ġpremier":5610,"Ġfleet":5611,"Ġazerb":5612,"Ġhorses":5613,"Ġfinger":5614,"Ġ1941":5615,"Ġreject":5616,"Ġzh":5617,"Ġopera":5618,"Ġdesignated":5619,"Ġazerbai":5620,"Ġpier":5621,"Ġjord":5622,"Ġfuel":5623,"Ġillust":5624,"aug":5625,"engers":5626,"Ġsubtropical":5627,"Ġlyn":5628,"Ġcommonly":5629,"Ġhole":5630,"Ġconstitution":5631,"aret":5632,"Ġarthur":5633,"Ġcrisis":5634,"Ġwealth":5635,"Ġmatthe":5636,"Ġparent":5637,"Ġlieutenant":5638,"bro":5639,"Ġmerc":5640,"Ġgather":5641,"bye":5642,"fa":5643,"Ġcauses":5644,"Ġtitles":5645,"Ġeag":5646,"Ġreceiving":5647,"Ġgree":5648,"Ġ1961":5649,"Ġescape":5650,"Ġwitness":5651,"Ġcovers":5652,"Ġepisodes":5653,"Ġinjured":5654,"pro":5655,"Ġisol":5656,"Ġitems":5657,"Ġtea":5658,"Ġturns":5659,"agues":5660,"Ġwy":5661,"ender":5662,"Ġdial":5663,"Ġunus":5664,"Ġtoronto":5665,"Ġrelatively":5666,"Ġsculpt":5667,"Ġment":5668,"Ġimages":5669,"Ġbite":5670,"Ġ1956":5671,"Ġexplained":5672,"rier":5673,"Ġunable":5674,"Ġbaron":5675,"Ġadvant":5676,"Ġpicked":5677,"Ġpiano":5678,"ading":5679,"Ġtwelve":5680,"Ġ400":5681,"Ġcourses":5682,"Ġlands":5683,"Ġinfantry":5684,"Ġip":5685,"Ġvisual":5686,"Ġspin":5687,"Ġafghanistan":5688,"garian":5689,"Ġsituated":5690,"Ġproceed":5691,"Ġprofit":5692,"Ġnomi":5693,"Ġstood":5694,"Ġcloth":5695,"Ġconnection":5696,"Ġspoke":5697,"Ġnaima":5698,"itzer":5699,"Ġmall":5700,"Ġacts":5701,"Ġcreation":5702,"Ġinvited":5703,"Ġsenator":5704,"Ġmatthew":5705,"uela":5706,"con":5707,"Ġshared":5708,"Ġ1947":5709,"Ġmental":5710,"Ġrescue":5711,"bles":5712,"Ġtight":5713,"Ġfame":5714,"Ġreserv":5715,"Ġnaval":5716,"oa":5717,"Ġroles":5718,"Ġsupporters":5719,"arian":5720,"Ġadvent":5721,"Ġbid":5722,"itors":5723,"Ġexcell":5724,"Ġlose":5725,"Ġmarg":5726,"Ġinnov":5727,"Ġweekly":5728,"box":5729,"Ġsolid":5730,"Ġelephant":5731,"Ġine":5732,"Ġtob":5733,"Ġmarked":5734,"Ġeffective":5735,"Ġdocumentary":5736,"Ġdism":5737,"Ġpurple":5738,"Ġoops":5739,"isted":5740,"fully":5741,"Ġlegs":5742,"hl":5743,"rell":5744,"Ġformat":5745,"Ġagricultural":5746,"Ġthirty":5747,"Ġappa":5748,"Ġ1943":5749,"Ġsurrounding":5750,"Ġwaiting":5751,"Ġpenal":5752,"Ġnurs":5753,"Ġrepresenting":5754,"Ġtai":5755,"Ġstudying":5756,"Ġdetail":5757,"Ġdollars":5758,"Ġfaculty":5759,"Ġtired":5760,"Ġsoutheast":5761,"Ġexistence":5762,"Ġtaylor":5763,"hr":5764,"Ġwaste":5765,"Ġ1955":5766,"Ġadvance":5767,"Ġoak":5768,"ern":5769,"Ġcatal":5770,"Ġscheduled":5771,"Ġot":5772,"Ġseconds":5773,"Ġgiant":5774,"Ġsevere":5775,"Ġdetect":5776,"Ġroads":5777,"Ġexhibition":5778,"Ġenroll":5779,"Ġnetherlands":5780,"bl":5781,"Ġforg":5782,"Ġqueens":5783,"Ġsin":5784,"Ġchapel":5785,"Ġtack":5786,"Ġaired":5787,"Ġlap":5788,"Ġron":5789,"Ġvin":5790,"leg":5791,"Ġguys":5792,"Ġlawyer":5793,"Ġclosely":5794,"Ġfoss":5795,"Ġrising":5796,"Ġprote":5797,"Ġseeing":5798,"Ġhills":5799,"70":5800,"Ġgain":5801,"aya":5802,"Ġpromotion":5803,"Ġsexual":5804,"Ġebola":5805,"Ġpock":5806,"Ġdub":5807,"aza":5808,"Ġapparent":5809,"Ġnin":5810,"Ġarticles":5811,"Ġreality":5812,"Ġseg":5813,"pty":5814,"Ġcenters":5815,"Ġresulted":5816,"Ġrein":5817,"claim":5818,"Ġmusicians":5819,"Ġjourney":5820,"Ġnasa":5821,"agn":5822,"aham":5823,"Ġ179":5824,"Ġtig":5825,"iti":5826,"Ġformation":5827,"Ġtreas":5828,"Ġpup":5829,"Ġdecide":5830,"Ġemperor":5831,"Ġspeak":5832,"rep":5833,"Ġchain":5834,"Ġnortheast":5835,"Ġcarrying":5836,"inder":5837,"Ġcoc":5838,"lec":5839,"Ġsheep":5840,"caa":5841,"Ġtie":5842,"isa":5843,"Ġkhan":5844,"regon":5845,"Ġharry":5846,"Ġoregon":5847,"Ġholly":5848,"Ġbanks":5849,"Ġcinem":5850,"Ġil":5851,"Ġcream":5852,"Ġdram":5853,"Ġobl":5854,"Ġpromote":5855,"Ġindependence":5856,"Ġceremony":5857,"Ġpermanent":5858,"Ġmile":5859,"Ġpray":5860,"Ġsoil":5861,"Ġrates":5862,"Ġflu":5863,"Ġguest":5864,"rus":5865,"Ġdebate":5866,"ez":5867,"Ġdiet":5868,"pects":5869,"Ġpoetry":5870,"ogue":5871,"Ġlaid":5872,"Ġanswer":5873,"Ġdetermined":5874,"Ġtries":5875,"Ġpassing":5876,"Ġstands":5877,"zech":5878,"Ġvideos":5879,"Ġconcerns":5880,"Ġazerbaijan":5881,"Ġ38":5882,"Ġexped":5883,"Ġafford":5884,"Ġobtained":5885,"Ġcray":5886,"Ġbub":5887,"Ġoldest":5888,"yd":5889,"Ġpale":5890,"Ġcave":5891,"Ġearn":5892,"Äģn":5893,"Ġcommissioned":5894,"esters":5895,"idel":5896,"Ġeasier":5897,"Ġczech":5898,"Ġpassengers":5899,"Ġattacked":5900,"Ġvotes":5901,"Ġunderstanding":5902,"Ġrespectively":5903,"Ġhook":5904,"Ġalliance":5905,"Ġaccused":5906,"Ġbarn":5907,"Ġbringing":5908,"Ġku":5909,"Ġmining":5910,"Ġsupporting":5911,"Ġimmigration":5912,"Ġdiego":5913,"Ġhawai":5914,"Ġwound":5915,"Ġted":5916,"Ġassess":5917,"Ġmaz":5918,"icy":5919,"Ġgranted":5920,"Ġsweden":5921,"Ġimperial":5922,"21":5923,"Ġmales":5924,"Ġdetermine":5925,"alle":5926,"acement":5927,"Ġclar":5928,"Ġtouchdown":5929,"Ġchamber":5930,"Ġark":5931,"Ġgenes":5932,"ologists":5933,"Ġdevices":5934,"Ġpip":5935,"acks":5936,"Ġbrook":5937,"Ġretail":5938,"Ġqualified":5939,"www":5940,"Ġjordan":5941,"à¤":5942,"Ġtend":5943,"Ġorchestra":5944,"anth":5945,"Ġspell":5946,"Ġlandsc":5947,"Ġvoted":5948,"Ġdavis":5949,"Ġncaa":5950,"ropri":5951,"Ġdefend":5952,"Ġportra":5953,"timore":5954,"Ġstrateg":5955,"oli":5956,"otyp":5957,"Ġshore":5958,"Ġargued":5959,"Ġtag":5960,"onent":5961,"Ġpul":5962,"Ġathletic":5963,"Ġairplane":5964,"Ġwhales":5965,"Ġworried":5966,"Ġexpans":5967,"Ġward":5968,"Ġmouse":5969,"Ġ1952":5970,"Ġstarring":5971,"Ġutil":5972,"Ġsolar":5973,"Ġjur":5974,"Ġsoph":5975,"Ġleads":5976,"Ġpatri":5977,"Ġdetails":5978,"Ġdocuments":5979,"Ġbachel":5980,"Ġelementary":5981,"Ġfo":5982,"akh":5983,"Ġ1953":5984,"Ġali":5985,"Ġshaped":5986,"Ġbuff":5987,"Ġsteam":5988,"eed":5989,"Ġearthqu":5990,"Ġdall":5991,"Ġoccasion":5992,"respond":5993,"Ġconsequ":5994,"Ġdistribution":5995,"Ġclassic":5996,"Ġdor":5997,"Ġ1957":5998,"Ġkeeping":5999,"Ġbos":6000,"Ġalf":6001,"Ġvolume":6002,"Ġbaltimore":6003,"Ġidentity":6004,"ami":6005,"Ġexclus":6006,"Ġstephen":6007,"usal":6008,"Ġcorrespond":6009,"Ġbord":6010,"Ġrib":6011,"Ġchur":6012,"Ġweak":6013,"Ġhired":6014,"Ġcharges":6015,"Ġannoun":6016,"Ġtort":6017,"illed":6018,"Ġcausing":6019,"Ġcandidates":6020,"Ġfounding":6021,"Ġsyrian":6022,"Ġequal":6023,"vis":6024,"Ġbee":6025,"aked":6026,"onym":6027,"Ġbrian":6028,"Ġdrew":6029,"Ġuniversities":6030,"Ġtrick":6031,"ression":6032,"pton":6033,"Ġprotected":6034,"Ġ1939":6035,"Ġbelieves":6036,"Ġisraeli":6037,"Ġmethods":6038,"Ġexactly":6039,"Ġslightly":6040,"Ġgab":6041,"Ġworse":6042,"Ġminimum":6043,"li":6044,"zo":6045,"Ġrick":6046,"Ġhelic":6047,"Ġwinners":6048,"22":6049,"Ġhip":6050,"iler":6051,"Ġmoist":6052,"Ġlatest":6053,"inary":6054,"Ġlily":6055,"Ġmeasures":6056,"oti":6057,"Ġsel":6058,"Ġcarbon":6059,"Ġrome":6060,"Ġscholarship":6061,"Ġaffili":6062,"Ġholy":6063,"roit":6064,"Ġjews":6065,"Ġbones":6066,"Ġinteresting":6067,"Ġreflect":6068,"Ġpainter":6069,"iar":6070,"Ġtrop":6071,"Ġlt":6072,"Ġ75":6073,"Ġfoods":6074,"Ġangry":6075,"Ġsought":6076,"Ġsche":6077,"Ġstudios":6078,"Ġphase":6079,"Ġcloser":6080,"Ġthor":6081,"olis":6082,"Ġvic":6083,"Ġagree":6084,"Ġmarc":6085,"Ġreaching":6086,"Ġlouisiana":6087,"Ġtemperature":6088,"Ġfab":6089,"iang":6090,"Ġpraised":6091,"Ġott":6092,"Ġdegrees":6093,"Ġpor":6094,"Ġheavily":6095,"Ġobserv":6096,"Ġabandoned":6097,"Ġelectronic":6098,"Ġages":6099,"Ġ1949":6100,"Ġprofession":6101,"char":6102,"Ġchocol":6103,"Ġmosc":6104,"Ġbats":6105,"Ġcontained":6106,"Ġclassroom":6107,"Ġhungry":6108,"Ġspecifically":6109,"Ġtong":6110,"Ġknight":6111,"Ġoverse":6112,"Ġpublication":6113,"Ġtang":6114,"inity":6115,"Ġattempts":6116,"Ġsharp":6117,"Ġapplication":6118,"Ġpoland":6119,"Ġethnic":6120,"itled":6121,"under":6122,"Ġinteract":6123,"Ġrepublicans":6124,"Ġsettled":6125,"fall":6126,"Ġferg":6127,"Ġbrush":6128,"Ġbachelor":6129,"Ġty":6130,"ching":6131,"Ġ65":6132,"Ġlabour":6133,"Ġinjuries":6134,"Ġlinked":6135,"lines":6136,"Ġmamm":6137,"utional":6138,"Ġrober":6139,"Ġpope":6140,"idden":6141,"Ġfunds":6142,"wart":6143,"alu":6144,"Ġsudden":6145,"Ġyout":6146,"Ġincident":6147,"donald":6148,"Ġmol":6149,"ori":6150,"Ġgym":6151,"Ġpasses":6152,"Ġweekend":6153,"Ġjane":6154,"Ġguine":6155,"Ġfrequently":6156,"ules":6157,"Ġoffices":6158,"Ġcot":6159,"Ġatm":6160,"Ġhomeless":6161,"Ġsang":6162,"Ġcash":6163,"Ġcoordin":6164,"Ġauthors":6165,"Ġsucceeded":6166,"Ġdiplom":6167,"Ġthick":6168,"Ġ44":6169,"Ġsteps":6170,"onso":6171,"icians":6172,"Ġchose":6173,"apers":6174,"Ġadding":6175,"Ġinfect":6176,"Ġadministrative":6177,"Ġvictims":6178,"Ġdetroit":6179,"Ġnad":6180,"Ġtelling":6181,"Ġpossibly":6182,"35":6183,"uro":6184,"Ġhurric":6185,"Ġcredit":6186,"iat":6187,"mont":6188,"Ġhan":6189,"Ġwriters":6190,"Ġalab":6191,"tag":6192,"Ġwave":6193,"Ġfm":6194,"hedral":6195,"Ġaqu":6196,"real":6197,"Ġheaded":6198,"mouth":6199,"Ġmort":6200,"Ġteens":6201,"Ġfeeling":6202,"Ġnegative":6203,"Ġchurches":6204,"Ġ1951":6205,"Ġfaith":6206,"Ġplastic":6207,"Ġdv":6208,"oses":6209,"rene":6210,"Ġkinds":6211,"Ġinsurance":6212,"Ġupd":6213,"Ġvocal":6214,"Ġexercise":6215,"Ġopposed":6216,"Ġduke":6217,"Ġlit":6218,"Ġalaska":6219,"aints":6220,"Ġcolour":6221,"Ġjournalist":6222,"cript":6223,"Ġcm":6224,"Ġ42":6225,"Ġ1918":6226,"Ġstrength":6227,"mad":6228,"æĿ":6229,"Ġhunt":6230,"Ġalleged":6231,"Ġlam":6232,"Ġnest":6233,"Ġcompar":6234,"Ġ55":6235,"Ġmelbourne":6236,"ĠâĢ¦":6237,"Ġcharged":6238,"Ġprepared":6239,"Ġpir":6240,"Ġsha":6241,"Ġroughly":6242,"Ġmoscow":6243,"Ġcenturies":6244,"Ġlocations":6245,"Ġcrash":6246,"Ġdowntown":6247,"Ġchocolate":6248,"Ġcig":6249,"writer":6250,"oom":6251,"Ġaffected":6252,"eral":6253,"Ġryan":6254,"Ġinterp":6255,"Ġstayed":6256,"Ġfinishing":6257,"Ġgord":6258,"Ġreference":6259,"eline":6260,"Ġcharity":6261,"Ġoxford":6262,"Ġalabama":6263,"ivals":6264,"Ġdesert":6265,"Ġdecor":6266,"Ġ1937":6267,"Ġfalling":6268,"Ġshopping":6269,"Ġatlanta":6270,"Ġlicens":6271,"put":6272,"Ġtough":6273,"Ġnone":6274,"Ġsax":6275,"Ġyoutube":6276,"Ġont":6277,"Ġrepresents":6278,"Ġresulting":6279,"Ġhonour":6280,"Ġax":6281,"Ġprotesters":6282,"Ġmicroph":6283,"Ġlux":6284,"Ġvel":6285,"entially":6286,"Ġorth":6287,"enna":6288,"Ġdevice":6289,"Ġbureau":6290,"Ġsouthwest":6291,"Ġsurvived":6292,"Ġhou":6293,"Ġvon":6294,"Ġoutbre":6295,"Ġmaria":6296,"ograph":6297,"Ġselection":6298,"otic":6299,"Ġpapers":6300,"Ġbenefits":6301,"Ġseventh":6302,"Ġconsecutive":6303,"Ġgreece":6304,"Ġcous":6305,"Ġhelicop":6306,"bec":6307,"Ġtorn":6308,"Ġches":6309,"Ġrooms":6310,"Ġcookies":6311,"Ġ48":6312,"Ġemph":6313,"Ġpopulations":6314,"Ġ1936":6315,"mates":6316,"Ġscar":6317,"enez":6318,"Ġachieved":6319,"Ġjoining":6320,"Ġregistered":6321,"Ġgoods":6322,"oster":6323,"Ġtaste":6324,"Ġchoose":6325,"Ġbottle":6326,"dam":6327,"father":6328,"pass":6329,"rimin":6330,"rif":6331,"Ġsuggests":6332,"Ġfiction":6333,"Ġhearing":6334,"Ġrud":6335,"Ġriding":6336,"Ġkam":6337,"Ġpassenger":6338,"Ġsleeping":6339,"lyn":6340,"Ġfarms":6341,"Ġinsect":6342,"Ġ49":6343,"Ġsymbol":6344,"Ġlewis":6345,"Ġmerch":6346,"Ġextremely":6347,"Ġphilippines":6348,"Ġatmosp":6349,"Ġâ":6350,"Ġloo":6351,"eller":6352,"Ġnorwe":6353,"Ġdefined":6354,"Ġhappening":6355,"Ġdaughters":6356,"uous":6357,"erves":6358,"Ġuniform":6359,"Ġmovies":6360,"Ġmathemat":6361,"Ġfergus":6362,"Ġwake":6363,"Ġpounds":6364,"Ġcourts":6365,"Ġindiana":6366,"Ġimproved":6367,"Ġwelcome":6368,"Ġconcluded":6369,"Ġretirement":6370,"Ġdallas":6371,"Ġbarack":6372,"Ġasking":6373,"Ġpalace":6374,"Ġversions":6375,"Ġmotion":6376,"Ġconcern":6377,"Ġancest":6378,"Ġarchitecture":6379,"ãĢ":6380,"Ġpalestin":6381,"Ġcards":6382,"Ġillegal":6383,"Ġnov":6384,"Ġdomestic":6385,"Ġjay":6386,"Ġchildhood":6387,"Ġconvention":6388,"Ġfolk":6389,"Ġdivers":6390,"Ġbeij":6391,"Ġdean":6392,"Ġagencies":6393,"iki":6394,"Ġclinton":6395,"Ġcolombia":6396,"Ġfired":6397,"Ġyester":6398,"Ġsuccessfully":6399,"Ġdiamond":6400,"Ġpill":6401,"Ġclassical":6402,"Ġinvolve":6403,"Ġperu":6404,"Ġquant":6405,"Ġdeplo":6406,"Ġtaiwan":6407,"Ġfant":6408,"igen":6409,"ocese":6410,"Ġadapt":6411,"Ġanymore":6412,"Ġdifferences":6413,"Ġterritor":6414,"Ġvision":6415,"Ġplus":6416,"Ġbabies":6417,"Ġindonesia":6418,"Ġleon":6419,"Ġ1934":6420,"Ġrequest":6421,"Ġinstitutions":6422,"Ġexpansion":6423,"Ġdrawn":6424,"Ġimportance":6425,"Ġinvestment":6426,"Ġfacebook":6427,"ashed":6428,"Ġstress":6429,"Ġworry":6430,"Ġfranch":6431,"Ġshock":6432,"Ġscript":6433,"Ġpitts":6434,"Ġrecognition":6435,"Ġscenes":6436,"Ġdozen":6437,"Ġotherwise":6438,"Ġgreatest":6439,"Ġdoggie":6440,"Ġsubsid":6441,"Ġadvantage":6442,"Ġbeijing":6443,"standing":6444,"Ġstructures":6445,"Ġduty":6446,"mes":6447,"Ġenforcement":6448,"Ġyesterday":6449,"Ġford":6450,"Ġinstall":6451,"ĠÎ":6452,"Ġrus":6453,"Ġstring":6454,"ova":6455,"75":6456,"Ġcats":6457,"Ġpione":6458,"Ġgent":6459,"Ġbusy":6460,"ipping":6461,"Ġ1917":6462,"Ġ1919":6463,"Ġtennis":6464,"Ġbrigade":6465,"ni":6466,"vant":6467,"Ġmud":6468,"Ġthro":6469,"Ġsalv":6470,"Ġdeaths":6471,"Ġelder":6472,"Ġroy":6473,"Ġlegislative":6474,"Ġregarding":6475,"Ġom":6476,"Ġshah":6477,"Ġaged":6478,"Ġprogramme":6479,"Ġraj":6480,"illing":6481,"Ġbreaking":6482,"Ġ1938":6483,"Ġconfeder":6484,"Ġpaying":6485,"och":6486,"Ġnam":6487,"Ġrabbit":6488,"Ġferguson":6489,"24":6490,"Ġgate":6491,"Ġrear":6492,"opher":6493,"Ġworst":6494,"Ġdrone":6495,"Ġevening":6496,"Ġcommunication":6497,"Ġ1900":6498,"Ġyours":6499,"Ġfiles":6500,"Ġelector":6501,"Ġemployed":6502,"fly":6503,"Ġberg":6504,"lah":6505,"Ġchim":6506,"Ġcompete":6507,"Ġnegoti":6508,"iments":6509,"Ġcomplic":6510,"Ġinternal":6511,"cs":6512,"Ġmagic":6513,"Ġrepeated":6514,"Ġlane":6515,"agers":6516,"Ġcathedral":6517,"oles":6518,"Ġalg":6519,"umes":6520,"Ġcontributed":6521,"usion":6522,"Ġ(;":6523,"Ġconsisted":6524,"Ġconcerned":6525,"Ġopportunities":6526,"ycl":6527,"Ġlawmakers":6528,"Ġmetrop":6529,"Ġsimon":6530,"Ġeighth":6531,"Ġnorway":6532,"Ġposted":6533,"Ġvoters":6534,"bered":6535,"noon":6536,"Ġ39":6537,"anny":6538,"Ġinterior":6539,"Ġliterary":6540,"Ġsubsequent":6541,"fam":6542,"Ġgor":6543,"Ġwhit":6544,"Ġcompr":6545,"Ġmonitor":6546,"Ġmurd":6547,"Ġoccupied":6548,"Ġemphas":6549,"Ġnorwegian":6550,"Ġcolonel":6551,"Ġphilosophy":6552,"aran":6553,"Ġjail":6554,"Ġcontrast":6555,"Ġvisiting":6556,"Ġ1928":6557,"Ġruled":6558,"Ġspoon":6559,"Ġmonkey":6560,"Ġextensive":6561,"Ġinstitution":6562,"Ġcriticized":6563,"Ġrestaurants":6564,"avery":6565,"tical":6566,"uz":6567,"Ġafternoon":6568,"Ġexplo":6569,"Ġswitch":6570,"Ġportion":6571,"Ġunusual":6572,"Ġfed":6573,"Ġtool":6574,"Ġreact":6575,"Ġclay":6576,"Ġcoaches":6577,"Ġfifa":6578,"Ġphotos":6579,"rad":6580,"Ġfaster":6581,"opp":6582,"endent":6583,"Ġpatrick":6584,"Ġpolicies":6585,"dd":6586,"Ã¢":6587,"adesh":6588,"Ġukrainian":6589,"Ġmaximum":6590,"Ġpy":6591,"Ġorders":6592,"Ġadmitted":6593,"Ġlegislation":6594,"sk":6595,"Ġcant":6596,"aria":6597,"Ġstor":6598,"Ġinstalled":6599,"Ġtypical":6600,"Ġontario":6601,"Ġentitled":6602,"Ġsnake":6603,"Ġvirus":6604,"Ġprices":6605,"Ġske":6606,"Ġmerg":6607,"Ġrif":6608,"aboo":6609,"Ġhousehold":6610,"Ġfixed":6611,"ache":6612,"Ġbrid":6613,"Ġceo":6614,"Ġwalter":6615,"Ġfighters":6616,"Ġlegend":6617,"Ġassistance":6618,"Ġapplications":6619,"Ġcrossing":6620,"Ġethan":6621,"Ġtunnel":6622,"ront":6623,"Ġsoul":6624,"Ġshad":6625,"Ġseeds":6626,"Ġchile":6627,"Ġfriendly":6628,"Ġdebuted":6629,"Ġpowers":6630,"Ġmicrophone":6631,"ologies":6632,"Ġappeal":6633,"Ġble":6634,"Ġrum":6635,"Ġtruth":6636,"Ġgrav":6637,"Ġmans":6638,"Ġchapter":6639,"Ġbot":6640,"Ġgast":6641,"Ġjoh":6642,"Ġtiger":6643,"Ġbread":6644,"Ġnathaniel":6645,"good":6646,"western":6647,"Ġalive":6648,"Ġclock":6649,"Ġpointed":6650,"Ġdrinking":6651,"stream":6652,"agen":6653,"Ġcreative":6654,"Ġseemed":6655,"Ġattempted":6656,"Ġturkish":6657,"ãĢģ":6658,"Ġsession":6659,"Ġawa":6660,"Ġinterests":6661,"Ġregularly":6662,"Ġenemy":6663,"Ġsole":6664,"Ġremem":6665,"Ġswitzer":6666,"Ġmalaysia":6667,"Ġmolec":6668,"Ġ46":6669,"Ġcape":6670,"Ġmulti":6671,"Ġjunction":6672,"Ġrefers":6673,"Ġbenefit":6674,"Ġnina":6675,"Ġfacing":6676,"Ġlyrics":6677,"Ġinspect":6678,"Ġproperties":6679,"Ġbattal":6680,"Ġincreasingly":6681,"Ġvolunteers":6682,"Ġspons":6683,"Ġendange":6684,"Ġdepth":6685,"Ã©e":6686,"Ġharm":6687,"Ġportray":6688,"Ġobjects":6689,"Ġendangered":6690,"Ġjosh":6691,"Ġseek":6692,"Ġmiller":6693,"Ġhyp":6694,"Ġdelay":6695,"Ġecu":6696,"Ġinfluenced":6697,"æĿĳ":6698,"gery":6699,"Ġcorrect":6700,"Ġempty":6701,"Ġfemales":6702,"Ġentirely":6703,"Ġdrugs":6704,"born":6705,"olitan":6706,"Ġrhy":6707,"Ġseeking":6708,"Ġ1935":6709,"Ġrival":6710,"agu":6711,"Ġcolumn":6712,"Ġformal":6713,"Ġtelephone":6714,"Ġjesus":6715,"Ġswitzerland":6716,"Ġmetres":6717,"Ġcommunications":6718,"Ġexperienced":6719,"Ġgolf":6720,"Ġpractices":6721,"Ġexpressed":6722,"acco":6723,"Ġacres":6724,"Ġbelief":6725,"Ġentrance":6726,"Ġhighlight":6727,"Ġengaged":6728,"Ġparticipate":6729,"Ġcircuit":6730,"Ġinaug":6731,"icts":6732,"Ġoperate":6733,"Ġmissed":6734,"Ġassociate":6735,"Ġay":6736,"Ġjuan":6737,"Ġmarketing":6738,"bu":6739,"erick":6740,"Ġsector":6741,"Ġdanger":6742,"Ġbapt":6743,"Ġoklah":6744,"orrow":6745,"Ġslide":6746,"Ġcoastal":6747,"Ġdinosaur":6748,"Ġcel":6749,"Ġlosses":6750,"Ġpollution":6751,"Ġpant":6752,"Ġcommissioner":6753,"Ġsurvive":6754,"raw":6755,"Ġattached":6756,"Ġswing":6757,"Ġtomorrow":6758,"Ġplot":6759,"Ġpublishing":6760,"Ġconvent":6761,"Ġcabinet":6762,"know":6763,"Ġlakes":6764,"Ġcarp":6765,"Ġpitched":6766,"Ġcolonial":6767,"rete":6768,"Ġrhod":6769,"abet":6770,"Ġprovinc":6771,"Ġ1933":6772,"Ġwooden":6773,"ran":6774,"rit":6775,"Ġsight":6776,"Ġcake":6777,"Ġmp":6778,"Ġny":6779,"Ġstem":6780,"Ġvenez":6781,"Ġsubm":6782,"bell":6783,"Ġgulf":6784,"Ġguide":6785,"Ġexplos":6786,"Ġkentucky":6787,"Ġnan":6788,"oslav":6789,"Ġwinds":6790,"di":6791,"Ġoccurs":6792,"Ġhistorian":6793,"Ġcambridge":6794,"Ġdamaged":6795,"Ġetc":6796,"Ġoklahoma":6797,"car":6798,"Ġmississ":6799,"Ġsolution":6800,"Ġfavour":6801,"Ġpocket":6802,"Ġkl":6803,"Ġillness":6804,"Ġmassive":6805,"Ġproducing":6806,"Ġstruggle":6807,"gas":6808,"Ġwire":6809,"Ġcontaining":6810,"Ġeleven":6811,"Ġpulled":6812,"Äģb":6813,"Ġensure":6814,"Ġdates":6815,"oured":6816,"Ġhide":6817,"rot":6818,"Ġalph":6819,"Ġfactor":6820,"Ġtemperatures":6821,"ogen":6822,"Ġevolution":6823,"mingham":6824,"Ġargentina":6825,"fit":6826,"Ġraces":6827,"Ġproved":6828,"ucing":6829,"Ġresigned":6830,"Ġsupports":6831,"Ġnetworks":6832,"Ġtribe":6833,"Ġtobacco":6834,"23":6835,"iva":6836,"asty":6837,"Ġcopy":6838,"Ġtennes":6839,"Ġdancing":6840,"Ġpuzzle":6841,"Ġgordon":6842,"bage":6843,"Ġbib":6844,"Ġoffering":6845,"Ġappropri":6846,"Ġextension":6847,"Ġdressed":6848,"Ġsed":6849,"Ġpushed":6850,"Ġtennessee":6851,"omot":6852,"Ġprosec":6853,"Ġhispan":6854,"Ġ1910":6855,"foot":6856,"Ġcomic":6857,"Ġscrew":6858,"load":6859,"ivered":6860,"Ġpittsburgh":6861,"ifer":6862,"Ġblues":6863,"Ġgenetic":6864,"Ġecuador":6865,"Ġboats":6866,"Ġdiscover":6867,"Ġhollywood":6868,"Ġdynam":6869,"Ġbacteria":6870,"bra":6871,"icide":6872,"eld":6873,"Ġrav":6874,"Ġdrag":6875,"iques":6876,"ois":6877,"Ġcolleges":6878,"Ġwalker":6879,"Ġwatched":6880,"bar":6881,"Ġahm":6882,"Ġcass":6883,"Ġrenew":6884,"Ġpoison":6885,"Ġdiscrimin":6886,"ras":6887,"ÅĤ":6888,"Ġleaf":6889,"Ġ1912":6890,"Ġguinea":6891,"bul":6892,"Ġrequires":6893,"Ġtraveled":6894,"Ġsubjects":6895,"Ġharvard":6896,"ti":6897,"isy":6898,"Ġsty":6899,"Ġfeels":6900,"Ġchen":6901,"Ġdirectors":6902,"Ġphill":6903,"Ġgreg":6904,"Ġdelivered":6905,"place":6906,"Ġresponsibility":6907,"Ġtied":6908,"Ġliqu":6909,"Ġraising":6910,"Ġhouston":6911,"Ġcomfort":6912,"Ġplayoff":6913,"Ġeconomics":6914,"Ġdiseases":6915,"Ġdistinguished":6916,"Ġworker":6917,"Ġ64":6918,"ippi":6919,"Ġsuspended":6920,"angel":6921,"Ġtens":6922,"Ġpas":6923,"Ġprefer":6924,"Ġsupplies":6925,"atherine":6926,"Ġmaintained":6927,"Ġtrucks":6928,"Ġeuro":6929,"Ġ1914":6930,"Ġcher":6931,"iser":6932,"itals":6933,"Ġere":6934,"heless":6935,"inals":6936,"Ġamate":6937,"Ġevalu":6938,"Ġanch":6939,"Ġnich":6940,"ctic":6941,"Ġestablishment":6942,"Ġdyn":6943,"Ġjury":6944,"Ġshan":6945,"Ġ178":6946,"Ġsubstit":6947,"Ġtub":6948,"ardo":6949,"hal":6950,"Ġtribune":6951,"Ġegyptian":6952,"angle":6953,"otted":6954,"hammad":6955,"Ġderived":6956,"Ġinitiative":6957,"Ġtigers":6958,"Ġwheels":6959,"azing":6960,"Ġoccas":6961,"Ġexplore":6962,"Ġkennedy":6963,"tv":6964,"Ġpurchase":6965,"Ġinterpret":6966,"Ġfaces":6967,"Ġdistributed":6968,"Ġpersonnel":6969,"Ġbirmingham":6970,"Ġchallenges":6971,"Ġgoogle":6972,"die":6973,"Ġhart":6974,"Ġanderson":6975,"Ġlanding":6976,"Ġ1916":6977,"Ġclearly":6978,"Ġexpedition":6979,"rition":6980,"Ãº":6981,"Ġate":6982,"Ġbreath":6983,"Ġ1925":6984,"oor":6985,"Ġsi":6986,"Ġshif":6987,"Ġarmen":6988,"Ġcollaboration":6989,"Ġhamp":6990,"Ġagents":6991,"Ġcombination":6992,"Ġcommitted":6993,"Ġfailure":6994,"Ġnigeria":6995,"Ġsisters":6996,"Ġyard":6997,"Ġ1924":6998,"Ġcapture":6999,"Ġcad":7000,"essions":7001,"ierra":7002,"Ġviolent":7003,"heas":7004,"Ġfing":7005,"Ġpic":7006,"Ġyug":7007,"Ġug":7008,"apore":7009,"Ġacknow":7010,"Ġbelg":7011,"Ġdecre":7012,"Ġpriest":7013,"Ġhans":7014,"Ġfarmer":7015,"Ġmcdonald":7016,"Ġsurprise":7017,"athered":7018,"Ġpremiered":7019,"cing":7020,"Ġkings":7021,"aine":7022,"Ġprovincial":7023,"Ġdj":7024,"owa":7025,"ode":7026,"Ġ1921":7027,"Ġgrounds":7028,"Ġfran":7029,"Ġfarming":7030,"Ġ1926":7031,"Ġfurn":7032,"stairs":7033,"Ġwilling":7034,"Ġviewers":7035,"Ġtony":7036,"Ġprohib":7037,"Ġfindings":7038,"Ġdefence":7039,"Ġbroadcasting":7040,"Ġscholar":7041,"uther":7042,"Ġarc":7043,"Ġadap":7044,"veland":7045,"issions":7046,"Ġcutting":7047,"Ġfern":7048,"Ġmississippi":7049,"Ġtas":7050,"Ġtill":7051,"Ġresidence":7052,"Ġexamples":7053,"Ġlaugh":7054,"Ġwhale":7055,"Ġdonald":7056,"clusion":7057,"Ġroberts":7058,"Ġsri":7059,"Ġtoky":7060,"Ġkan":7061,"Ġsubsc":7062,"Ġannivers":7063,"Ġportugues":7064,"Ã£":7065,"Ġbump":7066,"Ġinvasion":7067,"antly":7068,"Ġlob":7069,"Ġstream":7070,"Ġ1932":7071,"Ġselect":7072,"pack":7073,"Ġgrab":7074,"Ġfrag":7075,"Ġsie":7076,"ilton":7077,"Ġ1927":7078,"Ġobserved":7079,"family":7080,"bow":7081,"Ġunderground":7082,"Ġsmo":7083,"Ġqueensland":7084,"Ġbc":7085,"Ġbou":7086,"Ġengines":7087,"Ġsettle":7088,"goodness":7089,"Ġkur":7090,"rible":7091,"Ġlights":7092,"Ġhurricane":7093,"lan":7094,"Ġdispl":7095,"Ġbands":7096,"Ġartistic":7097,"Ġdramatic":7098,"Ġbare":7099,"estyle":7100,"udi":7101,"Ġdecisions":7102,"Ġmichel":7103,"Ġrobot":7104,"Ġconstitu":7105,"Ġtiss":7106,"Ġale":7107,"etime":7108,"aki":7109,"Ġsail":7110,"Ġ1929":7111,"Ġantonio":7112,"friend":7113,"Ġorganisation":7114,"Ġresistance":7115,"Ġanniversary":7116,"Ġtap":7117,"Ġmedals":7118,"Ġsingapore":7119,"Ġdrivers":7120,"Ġdal":7121,"ilation":7122,"Ġyup":7123,"osis":7124,"Ġresolution":7125,"Ġdiscip":7126,"29":7127,"Ġcos":7128,"ament":7129,"Ġamend":7130,"Ġstrate":7131,"eper":7132,"Ġdesigns":7133,"Ġreplace":7134,"Ġcommit":7135,"Ġfiled":7136,"Ġqualifying":7137,"Ġmrs":7138,"Ġtrophy":7139,"elle":7140,"Ġsuffering":7141,"Ġgosh":7142,"Ġghost":7143,"Ġtokyo":7144,"Ġstrategy":7145,"asy":7146,"berry":7147,"Ġslowly":7148,"Ġsurrounded":7149,"Ġconverted":7150,"hu":7151,"Ġstages":7152,"Ġspots":7153,"Ġgrandfather":7154,"Ġwaves":7155,"Ġcute":7156,"alo":7157,"heastern":7158,"iner":7159,"Ġwine":7160,"Ġstating":7161,"Ġalco":7162,"Ġenl":7163,"Ġinstance":7164,"Ġentering":7165,"Ġmembership":7166,"Ġstrip":7167,"Ġmirror":7168,"col":7169,"uma":7170,"boy":7171,"Ġharder":7172,"going":7173,"Ġmoves":7174,"Ġdeclined":7175,"Ġprincess":7176,"usalem":7177,"Ġportuguese":7178,"Ġrating":7179,"Ġacid":7180,"Ġreturns":7181,"Ġcycle":7182,"Ġsmoking":7183,"](":7184,"Ġdak":7185,"Ġhiding":7186,"Ġtooth":7187,"Ġjos":7188,"Ġarena":7189,"Ġmeetings":7190,"Ġfighter":7191,"Ġadvertising":7192,"Ġbone":7193,"Ġworksh":7194,"Ġ43":7195,"Ġmissions":7196,"Ġdeliver":7197,"coming":7198,"Ġrhin":7199,"Ġdat":7200,"Ġdoors":7201,"Ġadditionally":7202,"mat":7203,"oons":7204,"Ġoutdo":7205,"Ġexpos":7206,"ographic":7207,"Ġjerusalem":7208,"Ġleban":7209,"Ġdisaster":7210,"Ġpatient":7211,"Ġcrops":7212,"Ġpeekaboo":7213,"28":7214,"Ġhanded":7215,"Ġdiocese":7216,"Ġsatell":7217,"Ġbrazilian":7218,"Ġmedium":7219,"45":7220,"Ġpav":7221,"sters":7222,"Ġrelief":7223,"Ġpunish":7224,"Ġtalent":7225,"Ġexperiences":7226,"isf":7227,"Ġpear":7228,"Ġspeaker":7229,"Ġlimits":7230,"oz":7231,"Ġtherap":7232,"Ġgib":7233,"Ġabb":7234,"grad":7235,"ielder":7236,"Ġnormally":7237,"Ġarkansas":7238,"Ġvocals":7239,"Ġalleg":7240,"Ġveterans":7241,"Ġopinion":7242,"Ġdump":7243,"Ġtrump":7244,"Ġenh":7245,"Ġoutstanding":7246,"Ġsmoke":7247,"Ġdescribes":7248,"aa":7249,"mers":7250,"rate":7251,"Ġfried":7252,"Ġyan":7253,"Ġdeleg":7254,"Ġfled":7255,"Ġholiday":7256,"Ġmuslims":7257,"mun":7258,"part":7259,"Ġdragon":7260,"Ġstruck":7261,"Ġhabitats":7262,"Ġhawaii":7263,"Ġwounded":7264,"/?":7265,"Ġhut":7266,"Ġshoe":7267,"Ġblind":7268,"inae":7269,"Ġrobin":7270,"Ġclothing":7271,"Ġprix":7272,"Ġkilomet":7273,"Ġdick":7274,"Ġdriven":7275,"Ġphoto":7276,"Ġutah":7277,"Ġproced":7278,"Ġ47":7279,"Ġactual":7280,"Ġcounsel":7281,"Ġyugoslav":7282,"verse":7283,"odox":7284,"Ġjudges":7285,"Ġcriticism":7286,"Ġresidential":7287,"reck":7288,"Ġgovernments":7289,"Ġaustin":7290,"Ġ1915":7291,"Ġpretend":7292,"Ġcomputers":7293,"Ġopposite":7294,"Ġamateur":7295,"Ġwage":7296,"Ġ--":7297,"Ġbranc":7298,"Ġslavery":7299,"Ġelectricity":7300,"Ä±":7301,"Ġdave":7302,"Ġears":7303,"eh":7304,"Ġcu":7305,"Ġchanc":7306,"Ġhandle":7307,"Ġrebu":7308,"Ġcomposer":7309,"Ġboss":7310,"Ġloves":7311,"phones":7312,"Ġloud":7313,"Ġpanel":7314,"Ġfranchise":7315,"Ġautomatic":7316,"Ġnutrition":7317,"vey":7318,"Ġidentify":7319,"Ġfrog":7320,"Ġmetropolitan":7321,"Ġpenc":7322,"Ġshake":7323,"Ġchew":7324,"Ġsignal":7325,"Ġraf":7326,"Ġengineers":7327,"ommod":7328,"Ġasc":7329,"Ġgraph":7330,"Ġcounties":7331,"Ġlocomot":7332,"Ġaustria":7333,"Ġ1923":7334,"bing":7335,"iors":7336,"vo":7337,"Ġcord":7338,"Ġsustain":7339,"Ġdismiss":7340,"wer":7341,"Ġexplain":7342,"Ġapartment":7343,"fc":7344,"Ġbart":7345,"Ġreaction":7346,"Ġva":7347,"Ġupset":7348,"Ġsurgery":7349,"pers":7350,"Ġaccommod":7351,"Ġcleveland":7352,"Ġruling":7353,"Ġinstruments":7354,"Ġpond":7355,"Ġkelly":7356,"Ġtwitter":7357,"Ġmaintain":7358,"Ġpages":7359,"Ġib":7360,"Ġneighbour":7361,"Ġmanufacturing":7362,"Ġgathered":7363,"Ġvalues":7364,"Ġnur":7365,"Ġnobody":7366,"Ġcoverage":7367,"Ġcommune":7368,"Ġahmad":7369,"Ġuniverse":7370,"Ġshir":7371,"Ġmeters":7372,"Ġannually":7373,"Ġanthony":7374,"dale":7375,"Ġnash":7376,"Ġvast":7377,"Ġtransm":7378,"Ġfactors":7379,"Ġaunt":7380,"Ġfingers":7381,"26":7382,"Ġ+":7383,"Ġoption":7384,"Ġaviation":7385,"Ġtested":7386,"Ġpalat":7387,"Ġseparated":7388,"Ġ_":7389,"Ġwides":7390,"una":7391,"antic":7392,"Ġindex":7393,"Ġ1931":7394,"Ġmagnet":7395,"Ġstorage":7396,"Ġassault":7397,"chy":7398,"raid":7399,"Ġguil":7400,"Ġphilip":7401,"Ġcovering":7402,"Ġpel":7403,"Ġthousand":7404,"Ġkay":7405,"Ġremark":7406,"Ġ1922":7407,"Ġsoldier":7408,"Ġallen":7409,"Ġsingh":7410,"Ġdecline":7411,"rane":7412,"Ġmoore":7413,"Ġtract":7414,"Ġclark":7415,"Ġdisab":7416,"Ġ66":7417,"Ġgarbage":7418,"rez":7419,"Ġbeng":7420,"owed":7421,"Ġneither":7422,"Ġrocky":7423,"Ġconsisting":7424,"rm":7425,"Ġky":7426,"Ġflows":7427,"Ġtemporary":7428,"Ġcameras":7429,"Ġenterpr":7430,"wick":7431,"Ġfinance":7432,"Ġdougl":7433,"Ġvacc":7434,"Ġroots":7435,"Ġblog":7436,"Ġreput":7437,"Ġprepar":7438,"Ġentrep":7439,"Ġcandy":7440,"Ġcruz":7441,"cop":7442,"Ġstamp":7443,"Ġforget":7444,"Ġnev":7445,"Ġuniversal":7446,"Ġvoting":7447,"Ġdies":7448,"uster":7449,"iously":7450,"Ġpenins":7451,"onsored":7452,"Ġmong":7453,"Ġsomewhere":7454,"Ġrecip":7455,"Äģd":7456,"Ġgardens":7457,"99":7458,"uch":7459,"Ġdefensive":7460,"Ġbattery":7461,"Ġbelongs":7462,"Ġentreprene":7463,"Ġmines":7464,"Ġstrongly":7465,"Ġparticipants":7466,"Ã¥":7467,"Ġcum":7468,"Ġcattle":7469,"Ġrated":7470,"Ġundert":7471,"Ġmusician":7472,"Ġ250":7473,"Ġactivists":7474,"Ġadmir":7475,"Ġnickn":7476,"ican":7477,"Ġbuying":7478,"Ġelsewhere":7479,"Ġdvd":7480,"mble":7481,"Ġdod":7482,"Ġcuts":7483,"Ġbriefly":7484,"itely":7485,"Ġsubfamily":7486,"Ġmedie":7487,"Ġgrandma":7488,"Ġtreaty":7489,"Ġpushing":7490,"Ġaimed":7491,"Ġbelgium":7492,"uls":7493,"Ġcompeting":7494,"Ġmedieval":7495,"Ġindians":7496,"erto":7497,"Ġkeeps":7498,"Ġphysics":7499,"Ġbesides":7500,"olas":7501,"Ġrecordings":7502,"Ġpopularity":7503,"Ġcertainly":7504,"Ġlegislature":7505,"Ġproposal":7506,"pread":7507,"Ġstrict":7508,"Ġdelic":7509,"Ġconcrete":7510,"Ġmack":7511,"Ġsponsored":7512,"Ġscores":7513,"Ġwalked":7514,"Ã£o":7515,"Ġwidespread":7516,"ws":7517,"Ġbout":7518,"Ġsections":7519,"Ġkevin":7520,"Ġrolling":7521,"Ġfrederick":7522,"urer":7523,"issa":7524,"Ġmonument":7525,"Ġcroat":7526,"Ġcharts":7527,"Ġextreme":7528,"Ġsierra":7529,"Ġosc":7530,"Ġlith":7531,"Ġproductions":7532,"Ġconsumers":7533,"ello":7534,"Ġafterwards":7535,"Ġkiller":7536,"Ġintroduction":7537,"Ġproducers":7538,"Ġnarr":7539,"Ġlaboratory":7540,"Ġcharlie":7541,"Ġannouncement":7542,"Ġandre":7543,"Ġnba":7544,"Ġtransition":7545,"Ġlessons":7546,"Ġphen":7547,"Ġhoward":7548,"Ġvalu":7549,"Ġmarie":7550,"Ġsigning":7551,"Ġ177":7552,"Ġraw":7553,"Ġpuppy":7554,"Ġbicy":7555,"Ġfra":7556,"Ġpants":7557,"Ġthrew":7558,"Ġshark":7559,"Ġnotice":7560,"Ġafraid":7561,"Ã¼r":7562,"Ġbegun":7563,"Ġsmooth":7564,"Ġgamb":7565,"Ġry":7566,"orted":7567,"Ġdebt":7568,"ructure":7569,"Ġbin":7570,"Ġbaker":7571,"icut":7572,"Ġrecalled":7573,"Ġ52":7574,"Ġlawrence":7575,"Ġpublications":7576,"enh":7577,"Ġ53":7578,"Ġbanned":7579,"case":7580,"rum":7581,"ista":7582,"Ġcrimes":7583,"Ġcurt":7584,"Ġbutterfly":7585,"Ġemployment":7586,"Ġspokesman":7587,"mus":7588,"Ġambass":7589,"Ġemotional":7590,"elson":7591,"Ġcolony":7592,"Ġuser":7593,"lad":7594,"Ġpod":7595,"Ġtwe":7596,"Ġhammer":7597,"Ġinnings":7598,"Ġmerged":7599,"Ġbike":7600,"Ġcrazy":7601,"Ġnag":7602,"Ġtwin":7603,"Ġaccur":7604,"Ġhungarian":7605,"Ġfold":7606,"osa":7607,"Ġdemocrats":7608,"Ġdenied":7609,"ikh":7610,"Ġoutbreak":7611,"vak":7612,"Ġliver":7613,"Ġcod":7614,"Ġquack":7615,"Ġclassified":7616,"Ġmarkets":7617,"ials":7618,"Ġcarter":7619,"Ġswiss":7620,"Ġwick":7621,"Ġjet":7622,"Ġactors":7623,"Ġsurprised":7624,"Ġaccompl":7625,"Ġhidden":7626,"Ġspaces":7627,"Ġmorris":7628,"Ġmachines":7629,"Ġgarc":7630,"Ġcontinuing":7631,"chell":7632,"Ġincorporated":7633,"Ġcotton":7634,"rast":7635,"inction":7636,"Ġdust":7637,"Ġrevenue":7638,"Ġcomposition":7639,"Ġmarry":7640,"27":7641,"ternal":7642,"Ġmonaster":7643,"Ġmovements":7644,"Ġsubstant":7645,"Ġtonight":7646,"Ġwish":7647,"Ġshift":7648,"Ġoverl":7649,"Ġparalle":7650,"Ġreloc":7651,"Ġsocialist":7652,"Ġdiagn":7653,"Ġcoalition":7654,"Ġgross":7655,"Ġkang":7656,"Ġmontreal":7657,"Ġinher":7658,"Ġreign":7659,"Ġdemol":7660,"Ġdescend":7661,"Ġfranklin":7662,"Ġvegetables":7663,"Ġnepal":7664,"atus":7665,"Ġforb":7666,"Ġobes":7667,"Ġchest":7668,"apped":7669,"Ġtribes":7670,"Ġenjoy":7671,"Ġsharing":7672,"Ġapparently":7673,"Ġborders":7674,"Ġmason":7675,"Ġdating":7676,"Ġappre":7677,"Ġmaine":7678,"yers":7679,"Ġgender":7680,"Ġ54":7681,"Ġwedding":7682,"ĠÂ°":7683,"Ġbyebye":7684,"spec":7685,"Ġgill":7686,"Ġgap":7687,"Ġstol":7688,"Ġrig":7689,"Ġbrun":7690,"Ġrecre":7691,"Ġmetro":7692,"Ġvolunteer":7693,"Ġlandscape":7694,"woman":7695,"eds":7696,"leton":7697,"Ġ120":7698,"Ġpenalty":7699,"Ġearthquake":7700,"Ġwhatever":7701,"Ġachievement":7702,"Ġoverseas":7703,"Ġparaly":7704,"Ġchronic":7705,"Ġpuerto":7706,"Ġcraw":7707,"Ġregarded":7708,"Ġadopt":7709,"ÃŁ":7710,"Ġlev":7711,"Ġforming":7712,"ieties":7713,"Ġoperates":7714,"Ġaudio":7715,"Ġcuban":7716,"Ġcrying":7717,"Ġmasters":7718,"pool":7719,"Ġlanc":7720,"Ġgust":7721,"acent":7722,"Ġbug":7723,"anne":7724,"Ġsubmar":7725,"Ġharris":7726,"Ġcousin":7727,"zens":7728,"Ġ56":7729,"Ġcamps":7730,"Ġgrows":7731,"aver":7732,"Ġiowa":7733,"Ġsaved":7734,"Ġbreeding":7735,"Ġreaders":7736,"Ġnationwide":7737,"ĠÃ©":7738,"ivia":7739,"Ġabuse":7740,"Ġsurge":7741,"Ġprogramming":7742,"Ġdoubles":7743,"Ġorthodox":7744,"inate":7745,"illery":7746,"Ġ63":7747,"Ġsummit":7748,"Ġwoods":7749,"ÃŃa":7750,"Ġcontributions":7751,"Ġbeauty":7752,"zh":7753,"Ġcited":7754,"Ġdirt":7755,"Ġplain":7756,"Ġwheat":7757,"Ġpeaked":7758,"xy":7759,"Ġcul":7760,"Ġfib":7761,"Ġinvent":7762,"Ġtechniques":7763,"Ġconvinc":7764,"Ġ|":7765,"Ġscout":7766,"ruption":7767,"Ġcollections":7768,"Ġcompetitive":7769,"Ġdomain":7770,"Ġmak":7771,"arth":7772,"acle":7773,"Ġinvolving":7774,"Ġarrival":7775,"Ġnewspapers":7776,"ilst":7777,"Ġapply":7778,"Ġregulations":7779,"Ġgrocer":7780,"Ġcereal":7781,"Ġreputation":7782,"bie":7783,"Ġmck":7784,"Ġdum":7785,"Ġbudd":7786,"Ġjimmy":7787,"Ġencouraged":7788,"vens":7789,"Ġmi":7790,"Ġlau":7791,"Ġmarks":7792,"Ġvisits":7793,"Ġlon":7794,"oto":7795,"Ġmotorcy":7796,"Ġsamples":7797,"Ġportrait":7798,"Ġloyal":7799,"Ġrelative":7800,"Ġranking":7801,"Ġdynasty":7802,"mi":7803,"orph":7804,"Ġsynd":7805,"Ġmyth":7806,"Ġpromised":7807,"Ġhoriz":7808,"Ġsamuel":7809,"Ġrejected":7810,"Ġupgr":7811,"Ġzim":7812,"Ġconnecticut":7813,"Ġadjust":7814,"pie":7815,"Ġthin":7816,"Ġdepending":7817,"Ġfunctions":7818,"Ġhend":7819,"Ġsharks":7820,"Ġcredits":7821,"Ġaccompanied":7822,"Ġaster":7823,"Ġlod":7824,"Ġdonated":7825,"Ġexcited":7826,"Ġtalks":7827,"Ġminority":7828,"zard":7829,"illo":7830,"Ġnotably":7831,"Ġprompt":7832,"Ġfunded":7833,"Ġaccounts":7834,"Ġconsumer":7835,"Ġguilty":7836,"mate":7837,"Ġaver":7838,"Ġsoup":7839,"Ġthunder":7840,"weiler":7841,"Ġ1908":7842,"pective":7843,"Ġcole":7844,"Ġrecorder":7845,"Ġdesigner":7846,"Ġparticipation":7847,"Ġcontroversial":7848,"Ġbattalion":7849,"Ġcou":7850,"Ġ41":7851,"Ġuseful":7852,"Ġstrange":7853,"Ġglad":7854,"Ġdefeating":7855,"Ġtact":7856,"Ġacted":7857,"Ġobv":7858,"Ġslave":7859,"Ġglac":7860,"Ġrequirements":7861,"Ġoptim":7862,"Ġpermission":7863,"Ġding":7864,"Ġkaz":7865,"Ġcarib":7866,"Ġcargo":7867,"Ġmaur":7868,"Ġpercentage":7869,"Ġrecommend":7870,"Ġwrestling":7871,"Ġturtle":7872,"Ġexcellent":7873,"fielder":7874,"Ġsending":7875,"onian":7876,"Ġtrig":7877,"Ġwarri":7878,"uv":7879,"Ġcatherine":7880,"Ġlum":7881,"Ġgur":7882,"Ġbreast":7883,"Ġlanded":7884,"Ġmes":7885,"Ġhud":7886,"uccess":7887,"Ġcharter":7888,"asht":7889,"Ġ1911":7890,"Ġ1913":7891,"hus":7892,"Ġsib":7893,"Ġkath":7894,"Ġspecim":7895,"Ġcaps":7896,"Ġ1880":7897,"Ġthreats":7898,"Ġjoy":7899,"Ġunsuccess":7900,"Ġsne":7901,"Ġtomb":7902,"Ġwhilst":7903,"Ġconqu":7904,"Ġcanc":7905,"kshire":7906,"Ġhunter":7907,"Ġpilots":7908,"Ġsignificantly":7909,"Ġinner":7910,"Ġalan":7911,"Ġreleg":7912,"Ġnazi":7913,"oen":7914,"stal":7915,"Ġwarning":7916,"Ġserbia":7917,"Ġcer":7918,"omp":7919,"omen":7920,"Ġprove":7921,"Ġrefle":7922,"Ġkenya":7923,"Ġdouglas":7924,"Ġwes":7925,"oming":7926,"Ġasks":7927,"essed":7928,"Ġpitch":7929,"Ġburned":7930,"Ġtranslation":7931,"47":7932,"Ġflav":7933,"bean":7934,"Ġtechnologies":7935,"Ġnavig":7936,"Ġ1890":7937,"Ġsandy":7938,"Ġpowered":7939,"Ġlists":7940,"Ġnik":7941,"Ġkle":7942,"Ġvit":7943,"Ġbugs":7944,"Ġeverywhere":7945,"Ġgear":7946,"media":7947,"Ġindustries":7948,"Ġrenov":7949,"Ġwang":7950,"Ġsongwriter":7951,"Ġbalance":7952,"Ġguests":7953,"Ġviolin":7954,"Ġathletics":7955,"Ġmystery":7956,"Ġprotein":7957,"nell":7958,"Ġpour":7959,"alia":7960,"ailand":7961,"Ġmatters":7962,"Ġabsol":7963,"Ġsprings":7964,"Ġoffensive":7965,"Ġremove":7966,"Ġpersons":7967,"Ġteaches":7968,"Ġexpression":7969,"Ġtons":7970,"Ġexposed":7971,"Ġapproval":7972,"Ġcraig":7973,"Ġtickle":7974,"Ġownership":7975,"Ġobesity":7976,"ighter":7977,"Ġspider":7978,"Ġmanchester":7979,"Ġhospitals":7980,"Ġlicense":7981,"Ġdated":7982,"Ġthailand":7983,"Ġech":7984,"sex":7985,"Ġsemin":7986,"Ġsecure":7987,"Ġregul":7988,"Ġstatue":7989,"Ġblanket":7990,"point":7991,"Ġresign":7992,"Ġedited":7993,"Ġopponents":7994,"Ġfiref":7995,"Ġportugal":7996,"sch":7997,"Ġps":7998,"Ġmeets":7999,"Ġremote":8000,"ception":8001,"Ġarranged":8002,"Ġadapted":8003,"Ġastr":8004,"Ġports":8005,"Ġwolves":8006,"idency":8007,"Ġrou":8008,"Ġgrades":8009,"Ġdiaper":8010,"Ġspoken":8011,"Ġreservoir":8012,"lot":8013,"rant":8014,"Ġandy":8015,"Ġmargin":8016,"Ġindeed":8017,"Ġattending":8018,"Ġactivist":8019,"gregation":8020,"Ġshangh":8021,"Ġdear":8022,"iolet":8023,"Ġelig":8024,"Ġcapable":8025,"Ġencourage":8026,"Ġallied":8027,"Ġequipped":8028,"Ġinfrast":8029,"Ġsymph":8030,"Ġsuddenly":8031,"jab":8032,"ublin":8033,"Ġautonom":8034,"Ġrio":8035,"Ġbelt":8036,"Ġblacks":8037,"Ġearliest":8038,"Ġisolated":8039,"aron":8040,"Ġdozens":8041,"Ġfeather":8042,"Ġrestored":8043,"Ġnonpro":8044,"Ġdemocracy":8045,"Ġproud":8046,"Ġloved":8047,"ribute":8048,"Ġstead":8049,"Ġprisoners":8050,"Ġcorporate":8051,"Ġ*":8052,"Ġspark":8053,"Ġrepair":8054,"Ġyoungest":8055,"arn":8056,"aser":8057,"Ġliv":8058,"Ġcrab":8059,"Ġunless":8060,"Ġpregn":8061,"Ġ58":8062,"Ġpassage":8063,"Ġhoping":8064,"Ġcooking":8065,"Ġgraduating":8066,"Ġscheme":8067,"aj":8068,"hum":8069,"Ġpiz":8070,"Ġmaced":8071,"ilit":8072,"Ġabroad":8073,"Ġstarred":8074,"Ġfrozen":8075,"Ġacknowled":8076,"lings":8077,"Ġmodified":8078,"Ġpurposes":8079,"Ġyor":8080,"Ġpatterns":8081,"Ġcable":8082,"Ġpure":8083,"Ġvul":8084,"wealth":8085,"Ġrecept":8086,"Ġcompetitions":8087,"Ġshanghai":8088,"cious":8089,"urally":8090,"Ġbasin":8091,"Ġadvice":8092,"Ġmorgan":8093,"track":8094,"Ġcooperation":8095,"kov":8096,"ico":8097,"Ġ1904":8098,"Ġrobinson":8099,"rer":8100,"Ġcann":8101,"ropod":8102,"Ġjacob":8103,"Ġgentle":8104,"Ġhipp":8105,"rome":8106,"Ġartillery":8107,"Ġjohnny":8108,"Ġcosta":8109,"Ġmonster":8110,"Ġrelatives":8111,"Ġtourism":8112,"Ġgrandpa":8113,"Ġhamilton":8114,"Ġstakes":8115,"Ġridge":8116,"agh":8117,"tha":8118,"abil":8119,"Ġcommonwealth":8120,"Ġ1906":8121,"Ġdollar":8122,"Ġparliamentary":8123,"Ġstanford":8124,"Ġcaval":8125,"Ġbars":8126,"Ġjason":8127,"Ġscared":8128,"Ġanywhere":8129,"Ġcircum":8130,"Ġexperimental":8131,"48":8132,"Ġlank":8133,"Ġimposs":8134,"Ġestimates":8135,"Ġweigh":8136,"Ġ51":8137,"Ġcrus":8138,"Ġassign":8139,"Ġhonorary":8140,"Ġtut":8141,"Ġcock":8142,"enburg":8143,"ulum":8144,"ensis":8145,"Ġgenerations":8146,"331":8147,"Ġatmosphere":8148,"Ġms":8149,"Ġlip":8150,"Ġrevol":8151,"Ġbert":8152,"Ġfoster":8153,"Ġprol":8154,"aha":8155,"Ġsmell":8156,"Ġ600":8157,"Ġbills":8158,"Ġplanets":8159,"ÅŁ":8160,"Ġcraft":8161,"Ġfence":8162,"isation":8163,"Ġsoap":8164,"Ġalexand":8165,"Ġbranches":8166,"Ġgift":8167,"ensity":8168,"Ġanna":8169,"Ġpalm":8170,"Ġvaluable":8171,"ando":8172,"emp":8173,"Ġ77":8174,"Ġchristopher":8175,"Ġrapidly":8176,"Ġmargaret":8177,"Ġjohann":8178,"Ġroger":8179,"Ġintel":8180,"encing":8181,"Ġrealized":8182,"Ġtribal":8183,"gro":8184,"isi":8185,"Ġvs":8186,"Ġcoat":8187,"Ġ57":8188,"Ġdepos":8189,"Ġmills":8190,"Ġextinct":8191}