Ġ t
Ġ a
h e
i n
r e
o n
Ġt he
e r
Ġ s
a t
Ġ w
Ġ o
e n
Ġ c
i t
i s
a n
o r
e s
Ġ b
e d
Ġ f
in g
Ġ p
o u
Ġa n
a l
a r
Ġt o
Ġ m
Ġo f
Ġ in
Ġ d
Ġ h
Ġan d
i c
a s
l e
Ġt h
i on
o m
l l
en t
Ġ n
Ġ l
s t
Ġ re
v e
Ġ e
r o
l y
Ġb e
Ġ g
c t
i d
o t
u t
e t
Ġ is
Ġ on
i m
a m
o w
a y
a d
s e
Ġth at
i g
Ġf or
a c
Ġ y
v er
u r
Ġ u
l d
Ġs t
Ġ he
Ġ it
at ion
it h
i r
c e
Ġy ou
i l
Ġw h
o l
Ġw ith
t er
c h
Ġa s
Ġw e
n d
i ll
i f
a g
er s
k e
e m
Ġc on
he r
Ġw as
Ġ r
o d
u l
at e
Ġa t
r i
p p
o re
Ġs e
u s
Ġp ro
Ġh a
u m
Ġa re
Ġd e
a in
an d
Ġo r
ig h
es t
is t
a b
r om
t h
Ġc om
u n
o p
Ġn ot
es s
Ġe x
Ġ v
re s
e w
it y
an t
Ġb y
e l
o s
or t
o c
q u
Ġf rom
Ġha ve
Ġs u
i ve
ou ld
Ġs h
Ġth is
n t
r a
p e
igh t
ar t
m ent
Ġa l
u st
en d
al l
ac k
Ġc h
Ġ le
i es
re d
ar d
ou t
Ġa b
e ar
i v
al ly
ou r
o st
g h
p t
Ġp l
as t
Ġc an
a k
om e
u d
Ġh is
Ġd o
Ġg o
Ġh as
g e
r ou
Ġs a
Ġ j
Ġb ut
Ġw or
Ġa ll
e ct
Ġ k
am e
Ġw ill
o k
Ġw he
Ġthe y
id e
f f
ic h
p l
t her
Ġt r
Ġin t
i e
u re
ag e
Ġn e
i al
a p
in e
ic e
Ġm e
Ġo ut
an s
on e
on g
ion s
Ġwh o
Ġu p
Ġthe ir
Ġa d
Ġu s
at ed
ou s
Ġm ore
u e
o g
in d
i ke
Ġs o
im e
p er
b er
i z
a ct
Ġon e
Ġsa id
a re
Ġyou r
c c
Ġc l
e p
a ke
ab le
i p
Ġcon t
Ġwh ich
i a
Ġ im
Ġab out
Ġwe re
ver y
u b
Ġh ad
Ġ en
Ġcom p
Ġu n
Ġa g
i re
ac e
a u
ar y
Ġw ould
as s
r y
c l
o ok
e re
s o
ig n
i b
Ġof f
Ġt e
v en
i le
o se
it e
or m
Ġre s
Ġm an
Ġp er
Ġo ther
or d
ul t
Ġbe en
Ġl ike
as e
an ce
k s
ay s
ow n
en ce
Ġd is
ct ion
Ġan y
Ġa pp
Ġs p
in t
res s
ation s
a il
ic al
Ġthe m
Ġhe r
ou nt
Ġa r
Ġ if
Ġthe re
Ġp e
Ġy ear
a v
Ġm y
Ġs ome
Ġwhe n
ou gh
ac h
Ġth an
r u
on d
ic k
Ġo ver
ve l
Ġ qu
Ġs c
re at
re e
ou nd
p ort
Ġal so
Ġp art
f ter
Ġk n
Ġbe c
Ġt ime
en s
op le
Ġwh at
Ġn o
d u
m er
an g
Ġn ew
Ġg et
or y
it ion
ing s
Ġj ust
Ġint o
ent s
o ve
t e
Ġpe ople
Ġp re
Ġit s
Ġre c
Ġt w
i an
ir st
ar k
or s
Ġwor k
ad e
o b
Ġs he
Ġo ur
w n
in k
l ic
is h
nd er
au se
Ġh im
on s
Ġ ro
f orm
i ld
at es
ver s
Ġon ly
o ll
Ġs pe
c k
e ll
am p
Ġa cc
Ġb l
i ous
ur n
f t
o od
Ġh ow
he d
Ġa fter
a w
Ġat t
o v
n e
Ġpl ay
er v
ic t
Ġc ould
it t
Ġa m
Ġf irst
Ġa ct
e c
h ing
u al
u ll
Ġcom m
o y
o ld
c es
at er
Ġf e
Ġbe t
w e
if f
Ġtw o
oc k
Ġb ack
id ent
Ġu nder
rou gh
se l
x t
Ġm ay
rou nd
Ġp o
p h
is s
Ġd es
Ġm ost
Ġd id
Ġad d
j ect
Ġin c
f ore
Ġp ol
on t
Ġag ain
cl ud
ter n
Ġkn ow
Ġne ed
Ġcon s
Ġc o
Ġw ant
Ġse e
n ing
i ew
c ed
Ġe ven
Ġin d
t y
at h
Ġthe se
Ġp r
Ġu se
Ġbec ause
Ġf l
n g
Ġn ow
c om
is e
Ġm ake
Ġthe n
ow er
Ġe very
Ġse c
os s
u ch
Ġe m
i ed
r it
Ġin v
le ct
Ġsu pp
at ing
Ġl ook
m an
pe ct
ro w
Ġb u
Ġwhe re
if ic
Ġyear s
i ly
Ġd iff
Ġsh ould
Ġre m
Ġe v
d ay
ri b
Ġre l
s s
Ġde f
Ġr ight
Ġs y
l es
he n
Ġth rough
Ġw ay
Ġd on
as ed
Ġas s
ub lic
Ġre g
i x
Ġ very
Ġin clud
ot her
Ġim p
ot h
Ġsu b
Ġbe ing
ar g
ib le
Ġdo es
an ge
r am
er t
p s
it ed
ation al
Ġb r
Ġd own
Ġman y
ak ing
Ġc all
ur ing
it ies
Ġp h
ic s
al s
Ġde c
at ive
en er
Ġbe fore
il ity
Ġwe ll
Ġm uch
ers on
Ġth ose
Ġsu ch
Ġ ke
Ġ end
as on
t ing
Ġl ong
e f
Ġth ink
y s
Ġbe l
Ġs m
it s
a x
Ġo wn
Ġpro v
Ġs et
if e
ment s
b le
w ard
Ġsh ow
Ġp res
m s
om et
Ġo b
Ġs ay
t s
f ul
Ġe ff
Ġg u
Ġin st
u nd
re n
c ess
Ġ ent
Ġgo od
Ġst art
in ce
Ġm ade
t t
st em
ol og
u p
um p
Ġhe l
ver n
ul ar
u ally
Ġa c
Ġm on
Ġl ast
Ġst ud
u res
sel f
ar s
mer ic
u es
c y
Ġm in
oll ow
Ġc ol
i o
Ġm od
Ġc ount
he s
Ġf in
a ir
i er
re ad
an k
at ch
e ver
Ġst r
Ġpo int
or k
Ġs ur
o ol
al k
em ent
Ġus ed
ra ct
we en
Ġs ame
ou n
c i
Ġdiff ere
Ġwh ile
Ġg ame
ce pt
Ġs im
Ġin ter
e k
Ġre port
Ġpro du
Ġst ill
l ed
a h
Ġhe re
Ġwor ld
Ġth ough
Ġn um
ar ch
im es
al e
Ġre t
Ġre f
Ġtr ans
n er
ut ion
ter s
Ġt ake
Ġcon f
w ay
a ve
Ġgo ing
Ġs l
u g
Ġspe c
Ġh and
Ġbet ween
ist s
o ot
Ġe ar
Ġagain st
Ġh igh
g an
a z
at her
Ġex p
Ġo p
Ġin s
Ġg r
Ġhel p
Ġre qu
et s
in s
is m
Ġf ound
l and
at a
us s
am es
Ġp erson
Ġg reat
p r
Ġs ign
Ġs omet
Ġs er
h ip
Ġr un
Ġt er
ire ct
Ġf ollow
Ġd et
ic es
Ġf ind
Ġm em
Ġc r
e red
e x
Ġex t
ut h
en se
c o
Ġte am
v ing
ou se
as h
at t
v ed
Ġsy stem
d er
iv es
m in
Ġle ad
c ent
Ġa round
Ġgo vern
Ġc ur
vel op
an y
Ġc our
al th
ag es
iz e
Ġc ar
od e
Ġl aw
Ġre ad
c on
Ġre al
Ġsupp ort
Ġre ally
n ess
Ġf act
Ġd ay
Ġb oth
y ing
Ġs erv
Ġth ree
Ġw om
Ġm ed
od y
Ġex per
t on
Ġe ach
ak es
Ġc he
Ġc re
in es
Ġre p
g g
ill ion
Ġg rou
ut e
i k
g et
Ġm et
Ġs ays
o x
Ġd uring
er n
iz ed
a red
Ġf am
ic ally
Ġha pp
Ġch ar
m ed
v ent
Ġg ener
i ent
p le
i et
re nt
v es
pt ion
form ation
Ġc or
Ġoff ic
ie ld
Ġto o
is ion
Ġin f
t he
o ad
Ġp ublic
Ġpro g
r ic
Ġw ar
Ġp ower
v iew
Ġf ew
Ġl oc
Ġdiffere nt
Ġst ate
Ġhe ad
Ġp oss
Ġst at
re t
ant s
Ġv al
Ġis s
Ġc le
i vers
an c
Ġex pl
Ġan other
Ġa v
th ing
n ce
Ġch ild
Ġs ince
i red
l ess
Ġl ife
Ġde velop
itt le
Ġde p
Ġp ass
Ġt urn
or n
b ers
ro ss
Ġf r
Ġres p
Ġsec ond
o h
Ġdis c
Ġsomet hing
Ġcomp le
Ġ ed
Ġf il
Ġmon th
a j
u c
Ġgovern ment
Ġwith out
Ġle g
Ġd ist
Ġp ut
Ġqu est
an n
Ġpro t
Ġne ver
i ence
Ġle vel
Ġar t
Ġth ings
Ġm ight
Ġeff ect
Ġcont ro
Ġc ent
Ġall ow
Ġbel ie
ch ool
ot t
Ġinc re
Ġfe el
Ġres ult
Ġl ot
Ġf un
ot e
Ġt y
ere st
Ġcont in
Ġus ing
Ġb ig
Ġas k
Ġb est
Ġo pp
Ġnum ber
in ess
le ase
Ġc a
Ġm ust
Ġd irect
Ġg l
Ġop en
Ġp ost
Ġcom e
Ġse em
ord ing
Ġwe ek
ate ly
it al
Ġe l
ri end
Ġf ar
Ġt ra
in al
Ġp ri
Ġpl ace
Ġfor m
Ġto ld
ain s
at ure
Ġst and
id er
Ġne xt
Ġs oc
Ġp ur
Ġle t
Ġl ittle
Ġh um
Ġ i
r on
Ġcomm un
Ġm ark
Ġw r
Ġin formation
w ays
Ġb us
a pp
Ġinv est
m e
Ġh ard
ain ed
e ad
Ġim port
Ġapp ro
Ġt est
Ġt ri
Ġre st
os ed
Ġf ull
Ġc are
Ġc ase
Ġs k
Ġl ess
Ġpart ic
ab ly
u ck
is hed
ch n
b e
Ġl ist
at or
Ġto p
Ġad v
ru ct
Ġd em
r ation
l ing
g y
re en
g er
Ġh ome
Ġle ft
Ġbet ter
Ġd ata
Ġatt ack
Ġpro ble
l ine
ard s
Ġbe h
r al
ar ge
Ġb ro
at s
Ġbu ild
w w
id ed
a im
as es
en cy
Ġm ain
in ed
Ġinclud ing
Ġg ot
Ġint erest
Ġke ep
Ġe as
ain ing
Ġcl ass
Ġv ar
Ġsm all
amp le
Ġ ide
Ġre ce
Ġpol it
Ġm ov
Ġpl an
Ġper cent
iv ing
Ġc amp
Ġp ay
s c
is ed
Ġu nt
one y
pl oy
Ġdid n
el s
ert ain
Ġp os
i ver
Ġpro cess
Ġprog ram
if ied
u ro
olog y
at ter
in a
Ġn ame
Ġf our
Ġret urn
v ious
b s
Ġcall ed
Ġm ove
ir d
Ġgrou p
Ġb re
Ġm en
Ġc ap
t en
e e
Ġd ri
le g
he re
uth or
Ġp at
Ġcur rent
id es
Ġp op
t o
ent ion
Ġal ways
Ġm il
Ġwom en
Ġo ld
iv en
ra ph
r or
ent ly
Ġn ear
re am
s h
Ġf ree
iss ion
st and
al ity
us ed
Ġdes ign
Ġch ange
Ġch ang
Ġb o
Ġv is
em ber
Ġb ook
read y
Ġk ill
pp ed
Ġa way
Ġab le
Ġcount ry
Ġcon st
ar n
Ġor der
i or
i um
or th
ail able
Ġs w
Ġm illion
at ic
t ed
Ġo per
en g
Ġth ing
aj or
con om
Ġwh y
u red
ur al
Ġs chool
b y
Ġa ff
Ġd ays
Ġan n
us h
an e
e g
Ġpro f
Ġhe alth
ou th
ion al
Ġs ol
Ġal ready
Ġchar act
Ġf riend
i ans
ic le
Ġle ast
Ġp rom
Ġd r
Ġh ist
it her
Ġ est
i qu
s on
Ġte ll
Ġt alk
oh n
o int
le ction
Ġunt il
au gh
Ġl ater
Ġ ve
Ġv iew
end ing
iv ed
Ġwor d
w are
Ġc ost
Ġen ough
Ġg ive
Ġte chn
are nt
Ġp ar
r ist
er ing
Ġl arge
s ide
ac y
cc ess
Ġw in
Ġimport ant
Ġdoes n
Ġbus iness
Ġcle ar
Ġre se
ur y
Ġe qu
as ter
al f
n ect
Ġex pect
ivers ity
Ġo cc
Ġk ind
Ġme an
Ġp ast
Ġde v
Ġb as
le t
ra ft
Ġor gan
Ġde l
Ġper form
Ġst ory
Ġse ason
Ġcl aim
Ġc ame
Ġwith in
Ġl ine
Ġpro ject
Ġcontro l
end ed
Ġa ir
iz ation
le y
Ġm oney
id d
f or
Ġfam ily
Ġm aking
Ġb it
Ġpol ice
Ġhapp en
Ġ vers
on y
u ff
Ġs it
ide o
l f
is on
Ġsu re
g in
Ġapp ear
Ġl ight
Ġ es
o f
Ġw ater
Ġt imes
n ot
Ġg row
Ġcomp any
ow s
Ġm ar
our ce
i ol
ar m
b r
Ġex ample
Ġcon c
Ġf ore
p ro
ri es
ne y
Ġact ually
Ġe ver
ur ity
ak en
ap s
Ġt ax
Ġm ajor
am a
Ġof ten
er al
Ġhum an
Ġj ob
is ter
Ġav ailable
oc r
en n
a id
iv id
Ġrec ord
Ġs ing
id ence
Ġnew s
st er
Ġe conom
Ġfollow ing
is ing
Ġh our
m ost
um ent
Ġse x
Ġdes c
Ġbec ome
Ġto ok
Ġha ving
Ġprodu ct
a ult
ar ing
Ġme ans
Ġh op
un e
Ġch o
Ġc ertain
Ġn on
Ġde al
le ment
oc i
en e
Ġs ide
Ġre ason
u ed
c hed
ul ation
Ġe lect
Ġoffic ial
Ġposs ible
Ġh old
and s
ot s
Ġc ity
or ies
Ġse ver
Ġchild ren
Ġon ce
Ġact iv
l er
Ġn ight
it ions
a pe
pl ay
Ġd one
Ġl im
Ġwork ing
or ld
e b
Ġb ody
ail s
ut es
Ġwhe ther
Ġa uthor
ro p
Ġpro per
Ġse en
Ġf ac
Ġcon d
it ing
Ġcour se
a ign
Ġev ent
Ġen g
Ġp ot
Ġin tern
i am
Ġsh ort
em pt
il ar
Ġor ig
our n
ab ility
it ive
Ġd am
Ġp ress
Ġdo ing
Ġprot ect
r ing
Ġthough t
Ġquest ion
re w
Ġsever al
Ġg iven
Ġf und
Ġw ent
an ces
w ork
p or
m y
Ġar g
art ment
ust om
Ġpol ic
Ġme et
Ġc reat
Ġg ames
ra w
ut ure
Ġunder stand
ur s
l ish
s y
Ġm akes
Ġw on
ag on
Ġh tt
Ġl ove
ent ial
Ġcomple te
p ar
Ġacc ount
ore d
ver t
Ġ ident
Ġother s
i ber
ver age
ition al
d d
Ġpro b
Ġyou ng
Ġal ong
Ġacc ording
Ġy et
Ġmem bers
o id
Ġam ong
a i
Ġem ploy
Ġinv ol
Ġl ow
a f
Ġh ig
in ation
Ġlike ly
Ġan t
ag ed
Ġb en
Ġre le
b ack
Ġpres ident
b all
Ġacc ess
ivid ual
Ġkn own
ir l
Ġear ly
u se
iet y
Ġf ight
Ġs ent
Ġto day
Ġmark et
Ġb ased
Ġstr ong
ur ther
Ġde b
m ber
Ġproble m
Ġde ath
Ġsoc ial
im ate
ort un
Ġcamp aign
er y
Ġe y
i ally
Ġm us
w h
p os
Ġ er
Ġsa f
Ġmonth s
ir on
Ġv iol
Ġf ive
Ġst re
Ġplay ers
in c
al d
y ear
a un
Ġsu ccess
Ġpres ent
ere nce
Ġsu gg
Ġpartic ular
Ġtr y
Ġsugg est
on es
Ġpri v
Ġc rit
Ġl and
Ġloc al
if y
Ġa ut
Ġm ult
Ġpolit ical
Ġask ed
Ġfor mer
it ter
ri pt
Ġcl ose
Ġp ract
Ġget ting
Ġac ross
Ġcom b
Ġbelie ve
Ġ z
Ġto get
Ġtoget her
ir c
Ġind ividual
is k
Ġf ace
Ġval ue
Ġare a
e v
Ġw rit
Ġv ot
Ġke y
Ġm om
p ut
Ġany thing
Ġexper ience
att le
Ġm ind
a ff
om m
Ġf uture
g ed
Ġc ut
Ġto t
it ch
Ġv ideo
Ġinvest ig
Ġn et
r ict
i en
Ġimp ro
th ough
ward s
Ġcon nect
sel ves
ens ive
m b
o ber
at ors
Ġre du
res ent
Ġab ove
Ġf re
s w
Ġam ount
Ġe ither
Ġmil it
Ġan al
Ġf ail
al es
Ġspec ial
Ġbl ack
c her
Ġlook ing
Ġf ire
y n
Ġal most
o on
Ġstud y
Ġm iss
c hes
ro wn
Ġt re
Ġcommun ity
Ġmed ia
Ġf ood
Ġcom es
Ġsing le
u ly
Ġh alf
ag ue
h od
Ġstart ed
Ġqu ick
ot o
b ook
Ġiss ue
it or
Ġel se
Ġcons ider
ro du
Ġt aken
Ġtr ue
Ġw a
Ġtr ad
Ġag o
Ġm ess
ie f
Ġadd ed
o ke
Ġb ad
Ġf av
Ġsim ilar
as k
Ġcharact er
ort s
Ġreport ed
Ġty pe
v al
i od
Ġt arg
Ġent ire
pp ing
Ġhist ory
Ġl ive
ff ic
ed eral
Ġtr ying
Ġdisc uss
ac es
l ished
Ġse lf
os p
re st
Ġro om
el t
Ġf all
ol ution
Ġe t
Ġ x
Ġis n
Ġide a
b o
Ġs ound
Ġsome one
ci ally
ull y
Ġf oc
Ġob ject
if t
ap er
Ġplay er
Ġr ather
Ġserv ice
as hing
ru g
m on
p ly
Ġm or
Ġnot hing
Ġprov ide
un g
Ġpart y
Ġex ist
Ġm ag
Ġr ul
Ġh ouse
Ġbeh ind
Ġhow ever
Ġs um
Ġapp lic
Ġfun ction
g r
Ġfr ont
Ġser ies
Ġt em
Ġty p
ill s
Ġo pt
Ġpoint s
Ġbel ow
itt ed
Ġspec ific
um b
Ġr a
Ġpre vious
Ġpre t
re me
Ġc ustom
Ġcour t
Ġre pl
Ġwho le
g o
c er
Ġt reat
Ġprob ably
Ġle arn
end er
Ġvers ion
n ow
Ġche ck
min ist
our ces
Ġben ef
Ġd oc
Ġdet er
Ġen c
Ġsu per
Ġadd ress
Ġv ict
Ġme as
t r
Ġf ield
Ġsign ific
u ge
Ġfe at
Ġcomm on
l oad
Ġbe gin
Ġbr ing
Ġa ction
er man
Ġdesc rib
Ġind ust
Ġwant ed
ri ed
m ing
Ġatt empt
f er
Ġd ue
ress ion
Ġsh all
Ġs ix
o o
Ġst ep
Ġp ub
Ġhim self
Ġc op
Ġd est
Ġst op
ib ility
Ġl ab
ic ult
Ġhour s
Ġcre ate
Ġf urther
Ġd ou
he ad
c ing
Ġn ational
u le
Ġt aking
ir t
Ġre d
Ġrese arch
v iron
Ġbre ak
an a
Ġsp ace
ater ial
Ġrec ent
Ġgener al
Ġh it
Ġper iod
Ġevery thing
ive ly
Ġph ys
Ġsay ing
an ks
Ġc ou
Ġc ult
ac ed
e al
u ation
Ġc oun
l u
Ġinclud e
Ġpos ition
Ġim m
Ġp ick
Ġcom pl
Ġm atter
re g
e xt
ang u
is c
o le
a ut
Ġcomp et
e ed
f ect
as ing
Ġcan not
Ġin it
Ġrel ations
ac hed
Ġb ar
Ġv ol
Ġg round
Ġsec urity
Ġup d
il t
Ġconc ern
Ġwh ite
Ġseem s
pe cially
i ents
Ġann oun
Ġf ig
ight s
Ġst ri
l ike
id s
Ġs us
Ġw atch
Ġw ind
Ġit self
Ġm ass
y le
iqu e
Ġab s
Ġp ack
Ġout side
Ġan im
Ġp ain
et er
Ġman ag
du ct
og n
se c
o ff
Ġf oot
ad es
Ġth ird
Ġm ot
Ġev idence
int on
Ġth reat
a pt
pl es
c le
Ġl o
Ġde cl
Ġit em
med i
Ġrep resent
om b
am er
Ġsignific ant
og raph
s u
Ġc al
i res
Ġsim ply
Ġlong er
Ġf ile
c he
ate g
or g
Ġen er
Ġd om
Ġup on
il i
Ġthem selves
Ġcom ing
Ġqu ite
Ġdiff icult
il ities
re l
end s
c ial
Ġwom an
ra p
y r
Ġne cess
ip s
Ġte xt
Ġrequ ire
Ġmilit ary
Ġre view
Ġresp ons
Ġsub ject
Ġinst ead
Ġiss ues
Ġg en
Ġmin utes
Ġwe ap
r ay
am ed
t ime
b l
Ġc ode
Ġhig her
r is
Ġp age
Ġstud ents
Ġmet hod
Ġpolic y
Ġex ec
Ġac cept
um e
rib ut
Ġword s
Ġfin al
Ġchang es
Ġfriend s
Ġres pect
Ġe p
Ġcomp an
iv il
Ġdam age
og le
viron ment
Ġne g
ent al
Ġa p
Ġtot al
iv al
l im
Ġneed s
Ġag re
Ġdevelop ment
Ġa ge
ip le
Ġresult s
Ġg un
ro ll
Ġright s
Ġrun ning
Ġwas n
Ġp ort
Ġr ate
Ġpret ty
Ġtarg et
Ġsa w
Ġc irc
Ġwor ks
ic ro
al t
o ver
ww w
l ier
Ġevery one
ud e
Ġp ie
idd le
ra el
Ġr ad
Ġbl ock
Ġw alk
n es
a ul
ro te
ess ion
op h
Ġshow s
Ġs ite
Ġj o
Ġr isk
cl us
l t
Ġin j
id ing
Ġch all
ir m
itt ing
st r
Ġh y
ke y
Ġbe gan
at ur
ashing ton
l am
b it
Ġs ize
ourn al
f ace
Ġdec ision
Ġl arg
Ġj ud
re ct
Ġcontin ue
ove red
Ġp arent
Ġeas y
Ġd rug
ang er
Ġs ense
Ġd i
id ay
Ġener gy
ist ic
Ġass oci
ar ter
ob al
e ks
ur ch
Ġg irl
o e
it le
Ġrequ est
Ġso on
Ġh ost
k y
Ġst ates
om es
Ġm aterial
le x
Ġmom ent
Ġan sw
on se
Ġes pecially
Ġn orm
Ġserv ices
p ite
r an
Ġro le
Ġc red
Ġm at
Ġl og
Ġoff ice
Ġch arg
Ġtr ack
m a
Ġhe art
Ġb all
Ġperson al
Ġbuild ing
n a
s et
b ody
Ġincre ase
itt en
Ġneed ed
Ġl ost
Ġbec ame
Ġgrou ps
Ġw rote
Ġpro p
j oy
Ġde ad
Ġhtt p
Ġwe bs
Ġins ide
Ġwr ong
Ġstat ement
y l
Ġfil m
Ġmus ic
Ġsh are
ific ation
Ġre lease
Ġfor ward
Ġst ay
Ġcomp ut
it te
s er
Ġorig inal
Ġc ard
Ġc and
Ġd iv
at ural
Ġfav or
Ġc ases
us es
Ġse ction
Ġle ave
g ing
ov ed
Ġrequ ired
act ion
ap an
o or
it er
Ġcount ries
ll ing
Ġquest ions
Ġpr im
Ġc ell
Ġsh oot
Ġany one
Ġaff ect
ep end
Ġon line
Ġab ility
Ġcont ent
is es
Ġre ve
Ġl aun
Ġind ic
Ġfor ce
c ast
Ġso ld
av ing
f l
Ġso ft
Ġcompan ies
ce ed
Ġart icle
Ġa ud
Ġre v
Ġed uc
Ġplay ing
Ġhe ld
ct or
Ġrele ased
Ġf ederal
Ġad minist
Ġinter view
Ġinst all
Ġrece ived
Ġs ource
u k
Ġser ious
Ġcre ated
Ġc ause
Ġim medi
Ġdef in
u el
ct ions
z e
it es
it ution
Ġl ate
Ġspe ak
n ers
Ġleg al
ar i
Ġwe eks
Ġmod el
Ġp red
Ġex act
os ing
Ġt akes
Ġreg ard
Ġopp ortun
Ġpr ice
f ully
Ġor d
Ġproble ms
ru ction
h am
le ge
Ġlead ers
le v
Ġde ep
olog ical
es e
h aps
Ġp ers
Ġcont ract
Ġrelations hip
s p
ou d
Ġb ase
m it
anc ial
Ġcons um
Ġpot ential
Ġl angu
re m
et h
Ġrel ig
ress ed
Ġl ink
Ġl ower
ay er
Ġf em
un t
er c
ur d
Ġcont act
Ġ ill
Ġm other
Ġest ab
h tt
Ġs qu
Ġprov ided
Ġa verage
as ons
Ġex am
l in
n ed
Ġper fect
Ġt ou
al se
u x
Ġbu y
Ġsh ot
Ġcol lect
Ġph ot
Ġplay ed
Ġsur pr
Ġofficial s
Ġsim ple
av y
Ġindust ry
Ġhand s
g round
Ġp ull
Ġr ound
Ġus er
Ġr ange
u ary
Ġpriv ate
op s
e es
Ġw ays
Ġve h
Ġex cept
Ġter ms
im um
pp er
ore s
ou l
Ġd en
Ġperform ance
Ġb ill
c il
Ġen vironment
Ġex c
ad d
Ġwor th
Ġp ict
Ġch ance
b or
Ġspe ed
ict ion
Ġal leg
at ory
re et
Ġm atch
Ġst ru
ord er
Ġst e
Ġl iving
Ġst ruct
in o
Ġse par
her n
Ġresp onse
Ġen joy
Ġv ia
um ents
ace book
Ġmem ber
ib r
iz ing
Ġto ol
h ood
Ġoff er
a ur
Ġturn ed
d own
an ced
Ġrec ently
Ġc e
rough t
Ġbl ood
Ġhop e
Ġcom ment
ain t
Ġar ri
il es
Ġpartic ip
ough t
ri ption
Ġg ave
Ġse lect
Ġkill ed
sy ch
Ġgo es
i j
Ġc oll
Ġimp act
at ives
Ġb oy
d e
Ġf elt
Ġexpect ed
Ġim age
cc ording
o ice
en ed
h old
Ġpre vent
Ġinvol ved
Ġey es
Ġquick ly
un k
Ġbeh av
Ġ ur
Ġl ed
c ome
e y
Ġcand id
Ġear lier
Ġfoc us
et y
led ge
ix ed
ill ed
Ġpop ular
Ġset t
l ight
Ġvar ious
in ks
Ġlevel s
Ġro ad
ell ig
ab les
he l
itte e
y pe
Ġhe ard
ic les
Ġm is
Ġus ers
Ġimpro ve
Ġf ather
Ġse arch
v il
Ġprof ess
Ġkn ew
Ġl oss
Ġev ents
Ġb illion
Ġco ver
w here
ens ion
Ġb ott
Ġare as
en ces
op e
a el
Ġget s
Ġs n
i ant
Ġv ote
Ġnear ly
Ġinclud ed
Ġrec ogn
z z
m m
al ed
Ġhappen ed
Ġh ot
Ġwho se
Ġc ivil
Ġsu ff
o es
it iz
Ġresp ond
Ġh on
Ġfeat ures
Ġeconom ic
r im
Ġtechn ology
Ġo ption
ag ing
Ġpur ch
Ġl at
ch ie
is l
Ġrec omm
u f
Ġtr aining
Ġeffect s
Ġf ast
Ġocc ur
Ġwebs ite
Ġem ail
Ġs ens
e ch
Ġo il
Ġinf lu
Ġcurrent ly
Ġgo al
Ġsc ient
Ġcon v
em y
Ġdec ided
Ġtra vel
Ġm ention
Ġe lection
Ġph one
Ġlook s
Ġsit uation
Ġc y
Ġh or
b ed
a ily
av es
Ġqu ality
w ise
Ġt able
Ġst aff
et t
Ġtri ed
ide red
Ġadd ition
Ġb ox
Ġl ack
ar ily
Ġw ide
Ġm id
Ġbo ard
ys is
Ġant i
h a
Ġd ig
en ing
Ġd ro
Ġsl ow
b ased
se qu
Ġp ath
ak er
Ġwork ed
Ġp en
Ġeng ine
Ġlook ed
Ġvict im
Ġproper ty
Ġint rodu
Ġexec ut
Ġcol or
Ġnet work
Ġd ate
c ul
id ge
Ġext ra
Ġs le
Ġw ond
Ġreport s
j ust
Ġcap ital
Ġen s
Ġcomm and
Ġallow ed
Ġpre p
Ġca pt
h ib
Ġnum bers
ch an
Ġf air
m p
om s
Ġre ach
t ain
Ġbro ad
Ġcou ple
ec ause
ly ing
Ġsc reen
Ġl ives
Ġpri or
Ġappro ach
Ġe mer
ar ies
s erv
Ġbu ilt
c ies
Ġre pe
Ġrul es
for ce
Ġfin ancial
Ġcons idered
n ces
Ġb rought
Ġb i
i ers
Ġproduct s
Ġvis it
Ġdoc ument
Ġcon duct
Ġcomplete ly
in ing
ib ly
Ġwr itten
em ents
Ġd raw
Ġpub lished
Ġsec ret
r ain
he t
ond ay
Ġsex ual
Ġth ous
Ġ ess
Ġstand ard
Ġar m
g es
ect ion
Ġf ell
Ġfore ign
an i
Ġreg ular
in ary
Ġincre ased
Ġus ually
Ġdem on
Ġd ark
Ġadd itional
ro l
Ġprodu ction
und red
Ġintern ational
id ents
rou p
Ġr ace
Ġm ach
Ġh uge
le ar
ove mber
Ġto wn
Ġatt ention
y ond
f ield
Ġter ror
ra z
Ġmeet ing
Ġar rest
Ġf ear
Ġa w
or ing
Ġext reme
ar r
Ġwork ers
n et
am ent
Ġdirect ly
Ġpop ulation
ub e
Ġc ross
ce mber
Ġmess age
ir it
Ġn ation
Ġp oll
is ions
Ġansw er
n y
is ode
Ġcar ry
Ġhe ar
eng th
ro y
Ġn atural
in ally
Ġdo g
m itted
Ġtr ade
Ġsub st
Ġmult iple
Ġf ans
Ġs ort
Ġgl obal
ic ation
ar a
Ġa chie
Ġlangu age
ve y
Ġt al
Ġnecess ary
Ġdet ails
Ġs en
Ġs il
ress ive
Ġmed ical
un ch
orn ia
Ġu nd
f ort
oc ks
ues day
c raft
ur t
Ġ ver
Ġrece ive
Ġmor ning
es tern
Ġb ank
Ġs at
ir th
Ġdev ice
Ġsaf e
Ġp le
Ġsystem s
Ġass ist
Ġsur v
Ġb attle
vert is
Ġp aper
Ġgrow th
Ġc ast
Ġpl ans
ll ed
Ġpart s
Ġw all
Ġmove ment
Ġpract ice
im ately
Ġdis play
Ġsomet imes
om p
k ing
o ly
Ġs on
Ġav oid
ok es
Ġto wards
as c
Ġtalk ing
Ġcor rect
Ġsp ent
ic ks
i able
e ared
Ġter m
Ġwant s
om ing
Ġ ut
Ġdou b
Ġfor ces
Ġp lease
at form
ond on
Ġon es
Ġimmedi ately
Ġde g
Ġparent s
al y
Ġsh own
Ġcond itions
Ġst uff
Ġre b
Ġinclud es
n own
Ġexper ien
m ission
augh t
Ġannoun ced
Ġdeter min
Ġdescrib ed
Ġdo or
Ġchang ed
Ġne igh
Ġcle an
Ġp an
ir ing
ap ter
Ġcl ub
Ġp aid
Ġattack s
Ġcharact ers
Ġal one
Ġdirect or
d om
Ġl oad
Ġr out
Ġfin ally
Ġr ac
Ġcont r
Ġexact ly
res h
p ri
Ġn ature
Ġcare er
Ġlat est
Ġcon vers
p ose
ci ent
iv ity
nes day
Ġwe ight
k en
Ġnot e
Ġteam s
air s
Ġh undred
on ent
Ġstre ng
Ġcons ist
ic ated
Ġreg ul
Ġl ic
ast ic
Ġt en
urs day
ellig ence
ous ly
Ġcost s
Ġind epend
Ġnorm al
Ġh om
Ġob vious
Ġs we
Ġst ar
Ġread y
ac her
Ġimp lement
g est
Ġs ong
Ġinterest ing
us ing
Ġg iving
Ġet c
Ġm iddle
Ġrem ember
r ight
os ition
ut ions
Ġm ax
Ġyour self
Ġdem and
Ġtreat ment
Ġd anger
Ġgu y
Ġphys ical
Ġrel ated
Ġrem ain
Ġcould n
Ġref er
Ġc itiz
b ox
bo ard
Ġin n
er o
osp ital
ren ch
cher s
Ġst ra
ag er
Ġeas ily
en ge
in y
Ġcl os
ock ed
Ġus es
u ild
m ore
Ġan g
Ġwr ite
ol ute
Ġlead er
Ġread ing
Ġaut om
est s
Ġleg isl
Ġdesign ed
a res
Ġbe aut
Ġappear s
Ġstru gg
Ġcho ice
Ġparticular ly
op er
ann ed
Ġallow s
ob ile
Ġdiffere nce
Ġal though
Ġrel ative
Ġapplic ation
ate ver
Ġare n
Ġmy self
Ġim ag
Ġdis e
Ġsoc iety
Ġfre qu
Ġpo or
Ġwrit ing
Ġse ven
Ġstart ing
Ġb ud
Ġpr int
uf act
n ew
Ġcr im
Ġg ives
Ġco ol
a e
i ance
Ġthink ing
Ġsa ve
Ġlim ited
Ġmean ing
p en
ow ers
Ġn ice
ru pt
Ġg as
Ġe ight
Ġfe et
Ġeff ort
Ġ ign
ic it
co in
Ġop in
Ġbr ain
he st
Ġwould n
augh ter
Ġtou ch
le ments
Ġstud ies
Ġcent er
c ont
or ge
Ġcomput er
Ġinvestig ation
or ks
Ġincre asing
Ġst ore
Ġcom ments
Ġb al
m en
Ġdo ll
Ġl iber
Ġw ife
Ġlaw s
atur day
it ness
Ġmod ern
Ġadminist ration
Ġopportun ity
Ġs al
Ġpower ful
Ġclaim s
ord s
Ġt itle
Ġes c
n ame
om en
Ġbe yond
Ġc amer
Ġse ll
it ute
ear ch
Ġapp l
im ent
Ġun f
Ġviol ence
ur g
Ġcomp ared
Ġopt ions
Ġthrough out
Ġv s
ig r
ac hes
Ġfil es
ar ian
an ch
Ġdet ail
Ġpie ce
Ġn amed
Ġeduc ation
Ġdri ve
Ġitem s
Ġstud ent
ic ed
ic o
Ġth row
Ġsc ene
Ġcomple x
Ġpre c
Ġcon cept
Ġstat us
am ing
Ġd ied
Ġknow ledge
Ġbegin ning
ru ary
Ġcertain ly
Ġgu ys
Ġsl ight
in n
ound s
Ġf ine
Ġf at
ic ations
Ġper haps
Ġinc ome
Ġhtt ps
Ġmajor ity
port s
st on
Ġgreat er
Ġfe ed
ent ially
Ġsaf ety
Ġun ique
and om
Ġg one
Ġshow ed
Ġhist or
Ġcoun ter
i us
id a
Ġlead ing
i pe
Ġs end
er ve
Ġdef ense
ines e
Ġy es
ra q
Ġcontin ued
os h
Ġprov ides
Ġpr ison
Ġhapp y
Ġeconom y
Ġtr ust
ag s
Ġweap ons
um an
it ation
Ġanal ysis
Ġsc ience
Ġfig ure
Ġdis app
ent y
Ġsoft ware
Ġu lt
Ġoffic ers
Ġrem ains
Ġp sych
ri ef
Ġc at
es c
Ġob serv
Ġst age
Ġent er
ch ange
Ġpass ed
Ġdes pite
Ġmov ie
r s
Ġv oice
m ine
Ġto ward
Ġreg ion
Ġval ues
or ters
Ġm ount
Ġoffic er
b an
Ġh ous
w ood
ro om
se e
ro g
Ġl ay
a wn
Ġpress ure
Ġbook s
ed om
ag o
Ġre asons
f ord
Ġactiv ity
ce ll
n ight
Ġcall s
in ter
Ġlet ter
Ġcho ose
Ġro b
Ġtyp es
Ġpl atform
Ġqu arter
Ġmay be
p re
Ġmov ing
Ġl if
Ġgo ld
Ġs om
Ġpat ients
Ġtr uth
ur ance
ant ly
m ar
Ġchar ge
Ġce le
Ġro ck
ro id
an cy
Ġcred it
a ud
Ġmov ed
ing er
rib ution
Ġn ames
Ġstra ight
Ġfe ature
Ġr ule
Ġsc he
in ated
ber g
il ed
b and
Ġcl ick
on ents
Ġa ware
p art
Ġpat tern
Ġgr ad
ign ed
Ġassoci ated
Ġst yle
n o
i ation
a ith
il ies
Ġst ories
ur ation
Ġindividual s
m iss
ish ing
ab y
Ġsum mer
Ġar ch
ut y
h ol
Ġfull y
Ġm ill
Ġfollow ed
Ġjob s
Ġseem ed
i pped
Ġreal ity
Ġl ines
Ġp ark
Ġmeas ure
Ġbro ther
Ġgrow ing
Ġb an
Ġest im
Ġc ry
Ġme chan
Ġr ates
Ġpos itive
Ġcult ure
ist ics
ic a
Ġh ar
y a
ite ly
i pp
Ġm ap
en cies
ak ers
Ġal tern
it ude
Ġco ach
row d
Ġk ids
Ġj ournal
Ġcor por
Ġf alse
Ġwe b
Ġsle ep
Ġcont ain
Ġst o
Ġb ed
iver se
Ġp un
Ġme ant
k nown
Ġnot ice
Ġfavor ite
a ven
Ġcond ition
Ġpur pose
Ġorgan ization
Ġchall eng
Ġman ufact
Ġsus p
Ġcrit ic
un es
uc lear
Ġm er
vent ion
Ġm ist
htt p
ol f
Ġlarg er
Ġadv ant
Ġrese ar
Ġact ions
m l
Ġke pt
Ġa im
c ol
Ġbenef its
if ying
Ġact ual
Ġveh icle
Ġch ief
Ġeff orts
Ġwa it
Ġad ult
Ġover all
Ġspe ech
Ġhigh ly
Ġfem ale
Ġer ror
Ġeffect ive
Ġenc our
w ell
Ġfail ed
Ġcons erv
Ġprogram s
Ġt rou
Ġa head
vertis ement
p ir
Ġcr ime
and er
Ġloc ation
Ġbehav ior
az ing
Ġr are
Ġem b
Ġca used
Ġsh ip
Ġact ive
Ġcont ribut
Ġg reen
Ġac qu
Ġref lect
ven ue
Ġf irm
Ġb irth
Ġclear ly
Ġem ot
Ġag ency
ri age
Ġmem ory
ac ing
Ġbig gest
Ġr ap
Ġbas ic
Ġb and
e at
Ġsus pect
m ark
ist an
Ġsp read
am s
k i
as y
ra v
Ġdemon str
r ated
Ġabs olute
Ġpl aces
Ġim pl
ibr ary
Ġc ards
Ġdest roy
Ġv irt
ve re
Ġapp eared
y an
p oint
Ġbe g
Ġtem per
s pe
ant ed
ear s
Ġl ength
Ġbl og
am b
Ġint eg
Ġres ources
ac c
if ul
Ġsp ot
Ġfor ced
Ġthous ands
Ġqu al
at ically
Ġgener ally
Ġdr ink
Ġth us
od es
Ġappro pri
Ġwh om
Ġey e
Ġcol lege
ire ction
Ġens ure
Ġapp arent
id ers
Ġrelig ious
Ġmin or
ol ic
Ġt ro
rib ute
m et
Ġprim ary
Ġdevelop ed
Ġpe ace
Ġsk in
st e
av a
Ġbl ue
Ġfam ilies
Ġ ir
Ġapp ly
Ġin form
i i
Ġlim it
Ġres ist
um n
Ġconf lic
Ġtw e
ud d
Ġl iter
qu e
b on
Ġha ir
Ġevent ually
Ġp us
Ġhelp ed
Ġag g
or ney
Ġf it
Ġpre m
Ġs ales
Ġsecond s
Ġstreng th
Ġfeel ing
Ġt our
Ġknow s
o om
Ġex erc
Ġsom ew
Ġsp okes
Ġide as
Ġreg ist
so ft
Ġpro pos
Ġlaun ch
Ġbott om
v est
it z
Ġsc ript
Ġr at
ar ning
Ġ il
Ġwh atever
ok en
ci ence
Ġmod e
Ġag ree
Ġs ources
Ġinit ial
Ġrest rict
Ġwond er
us ion
vil le
Ġb urn
t w
as ion
Ġn or
u ing
Ġre ached
Ġs un
Ġc ateg
ig ration
Ġc ook
Ġprom ot
Ġm ale
Ġcl imate
Ġf ix
Ġalleg ed
all ed
Ġim ages
ot a
Ġschool s
i os
Ġd rop
Ġst ream
Ġprevious ly
al ing
Ġp et
Ġdou ble
ann el
Ġdef ault
t ies
Ġr ank
Ġweap on
Ġst ock
Ġanal y
Ġpict ure
f erence
Ġcent ury
Ġcitiz ens
Ġon to
Ġexp and
Ġhe ro
Ġw ild
Ġupd ate
Ġcustom ers
r ont
d ef
Ġl ik
Ġcrim inal
Ġle aving
Ġother wise
Ġbas is
ic ip
Ġrecomm end
Ġfl oor
Ġc rowd
ol es
Ġcent ral
Ġd ream
Ġdown load
Ġconf ir
Ġwind ow
Ġhapp ens
Ġun it
Ġt end
Ġs pl
Ġbec omes
Ġfight ing
Ġpred ict
Ġhe avy
ak ed
Ġf an
or ter
ate gy
iz es
Ġsp end
Ġad op
Ġfoot ball
od ay
amp ions
Ġtrans fer
h t
ter m
ac ity
Ġb ur
tern al
r ig
b ut
Ġthere fore
res p
re y
Ġm ission
Ġnot ed
Ġass um
Ġdise ase
Ġed it
Ġprog ress
r d
oc al
Ġadd ing
Ġra ised
Ġt ick
Ġsee ing
Ġagre ement
Ġser ver
Ġw at
Ġdeb ate
Ġsupp osed
il ing
Ġlarg est
Ġsuccess ful
Ġj ump
Ġown ers
Ġoff ers
Ġshoot ing
Ġeff ic
se y
Ġha ven
ver se
te red
im al
Ġdef end
Ġbe at
Ġrecord s
Ġsc en
Ġemploy ees
Ġdev ices
he m
Ġcom mer
Ġbenef it
Ġil leg
Ġsur face
Ġh arm
ing ly
w ide
Ġsh ut
Ġl ose
p m
Ġchall enge
se mb
Ġst ation
Ġint elligence
Ġacc ur
Ġrequ ires
b um
Ġh ospital
Ġsp irit
Ġoff ered
Ġprodu ce
Ġcreat ing
Ġcr is
s pect
Ġend ed
Ġd aily
Ġvot ers
land s
i as
i h
on a
Ġsm art
ri al
Ġcirc um
Ġextreme ly
Ġopin ion
Ġg ain
y p
Ġuse ful
Ġbud get
Ġcom fort
is f
Ġback ground
el ine
Ġep isode
Ġen emy
Ġtri al
Ġestab lish
d ate
Ġcontin ues
Ġshow ing
w ith
Ġpost ed
Ġe at
ri an
Ġr ise
il s
Ġsign ed
Ġv ill
Ġgr and
m or
Ġproject s
um ber
Ġconf erence
z a
Ġrespons ible
Ġlearn ed
i pping
Ġreturn ed
Ġb rief
Ġbr and
ill ing
ab led
Ġhig hest
Ġtr ain
wh ile
Ġn om
cept ion
Ġm ut
Ġinc ident
v ant
Ġn uclear
l i
m ail
Ġcharg es
Ġad just
ad o
Ġear th
Ġpr ices
Ġd raft
Ġrun s
Ġcandid ate
ens es
Ġmanag ement
Ġte ach
g ram
Ġunderstand ing
a it
ic ago
sec ut
Ġsepar ate
Ġinst ance
Ġe th
Ġun less
in ate
Ġoper ations
Ġf aith
g ar
ron ic
Ġconf ig
os ure
Ġactiv ities
Ġtrad itional
Ġd irection
Ġmach ine
Ġsur round
Ġp ush
un ction
Ġeas ier
Ġarg ument
Ġm icro
Ġsp ending
iz ations
Ġthe ory
ad ow
Ġcall ing
Ġd er
Ġinflu ence
Ġcomm it
Ġph oto
Ġun c
ist ry
g n
ast e
ack s
Ġdis p
ad y
d o
Ġw ish
Ġreve aled
l ig
Ġen force
Ġche m
Ġmil es
Ġinterest ed
Ġsol ution
ic y
in ct
Ġrem oved
Ġcomp ar
e ah
Ġpl ant
Ġachie ve
Ġadvant age
Ġslight ly
b ing
Ġpl aced
u nder
Ġt im
os es
Ġc ru
Ġmost ly
Ġneg ative
Ġset ting
Ġprodu ced
Ġm ur
Ġconnect ion
Ġdri ver
Ġexecut ive
Ġass ault
Ġb orn
t ained
Ġstruct ure
Ġredu ce
Ġdec ades
Ġd ed
u ke
idd en
Ġle ague
Ġjo in
Ġdis co
Ġd ie
c ks
act ions
Ġass ess
ag n
Ġgo als
our s
Ġsen ior
ill er
m od
ip ment
oc ol
u y
Ġpart ies
ir gin
Ġle arning
it able
Ġstre et
Ġcamer a
Ġsk ills
b re
c ious
Ġcele br
Ġexist ing
Ġwill ing
l or
Ġ id
Ġcrit ical
ortun ately
Ġser ve
Ġc old
Ġspec ies
Ġanim als
Ġold er
est ic
Ġte acher
Ġpre fer
v is
Ġth read
Ġmanag er
Ġprofess ional
Ġnot es
ul a
Ġf resh
ent ed
u zz
ed y
clus ion
Ġdoub t
Ġopen ed
Ġgu ess
Ġse qu
Ġexpl ain
ott en
Ġatt ract
ak s
Ġstr ing
Ġcont ext
oss ible
Ġsol id
Ġc ities
Ġask ing
Ġr andom
u ps
ur ies
ar ant
dd en
g l
Ġdep end
ic on
Ġmention ed
Ġclaim ed
Ġdefin itely
ul f
Ġc ore
Ġopen ing
wh ich
Ġbelie ved
ad a
yr ight
Ġhold ing
Ġ ice
Ġb row
Ġauthor ities
h ost
w ord
Ġsc ore
Ġcell s
Ġtrans l
Ġneigh bor
Ġrem ove
u ct
Ġdist rict
Ġwor se
Ġconcern s
Ġpresident ial
Ġpolic ies
Ġh us
Ġindepend ent
ili ar
pr int
igh ter
Ġprotect ion
z en
Ġsu dden
h ouse
Ġb ul
Ġstr ategy
ff ect
Ġgirl s
Ġmiss ing
oy al
ul ated
Ġd at
Ġpolit ics
ab or
Ġspe ll
Ġg raph
ort hern
Ġlab or
is her
Ġk ick
Ġstep s
pos es
Ġsmall er
ber t
Ġro ll
Ġresear chers
Ġcl osed
Ġtrans port
Ġlaw y
Ġas pect
Ġn one
Ġmar riage
Ġe lements
Ġd ram
t op
e qu
Ġhe aring
Ġsupport ed
Ġtest ing
co hol
Ġmass ive
Ġst ick
Ġgu ard
is co
ph one
Ġb order
Ġcop y
ograph y
l ist
Ġown er
cl ass
ru it
r ate
Ġdig ital
Ġt ask
Ġinc red
t es
Ġb reat
ow l
Ġiss ued
Ġdet ect
Ġpart ners
Ġsh ared
Ġcan cer
ac he
rib e
Ġexpl ained
Ġhe at
Ġinvest ment
Ġw ood
Ġtool s
Ġbelie f
Ġcris is
Ġg e
Ġoper ation
ty pe
g a
Ġcont ains
ant a
Ġexp ress
k a
Ġam b
Ġfind ing
Ġfund ing
h ow
Ġestab lished
ide os
Ġdeg ree
Ġdanger ous
ang ing
Ġfre edom
pp ort
out hern
Ġch urch
Ġc atch
Ġpres ence
Ġauthor ity
Ġbut ton
Ġcon sequ
Ġval id
Ġwe ak
Ġstart s
Ġref erence
or age
Ġcol lection
y m
g ency
Ġbeaut iful
ro s
Ġtell s
Ġwa iting
n el
Ġprov iding
Ġd aughter
Ġm aster
Ġpur poses
Ġequ al
Ġturn s
Ġdoc uments
Ġwatch ing
Ġr an
Ġre ject
Ġvictim s
ere nces
Ġw itness
Ġre form
com ing
Ġocc up
Ġc aught
Ġtra ffic
ad ing
Ġmod els
ar io
Ġserv ed
Ġb atter
u ate
Ġagre ed
Ġtr uly
yn am
Ġun its
h and
az ine
Ġvar iety
ot al
Ġam azing
Ġconfir med
Ġentire ly
Ġpurch ase
Ġe lement
Ġc ash
Ġdeter mine
Ġc ars
Ġview s
Ġdrug s
Ġdep artment
u it
as ure
Ġc overed
Ġme re
u ana
Ġmult i
Ġm ix
Ġun like
lev ision
Ġsto pped
Ġs em
ul es
Ġwe l
l a
Ġsk ill
Ġbec oming
ri e
Ġappropri ate
f e
ell ow
ul ate
oc ation
Ġweek end
od ies
Ġsit es
Ġanim al
Ġsc ale
Ġcharg ed
Ġinst ruct
ill a
Ġmethod s
Ġc ert
Ġjud ge
Ġdoll ars
Ġstand ing
Ġdeb t
l iam
Ġdri ving
Ġal bum
and on
ad er
Ġcommer cial
es h
Ġdisc overed
Ġout put
Ġab use
anc ing
Ġsw itch
Ġann ual
Ġst ated
ag ement
in ner
Ġdem ocr
Ġres idents
Ġallow ing
Ġfact ors
od d
Ġf uck
em ies
Ġoccur red
ot i
Ġn orth
Ġinj ury
Ġins urance
oll y
Ġrepe ated
Ġar ms
ang ed
Ġconst ruction
Ġf le
ic ians
Ġfor ms
ant ic
Ġm ental
p ire
Ġequ ipment
Ġf ant
Ġdiscuss ion
Ġregard ing
k in
ar p
Ġch air
og ue
Ġpro ceed
Ġmur der
as p
Ġsupp ly
Ġin put
Ġwe alth
liam ent
Ġpro ced
or ial
hen s
Ġput ting
ourn ament
et ic
Ġloc ated
Ġk id
er ia
r un
Ġpr inc
go ing
Ġcl ot
Ġtell ing
Ġprop osed
i ot
or ry
Ġfund s
g ment
Ġb aby
Ġsp oke
Ġear n
g u
Ġex change
ov ing
Ġp air
az on
Ġarrest ed
Ġkill ing
c an
y d
Ġident ified
Ġm obile
Ġthan ks
ony m
Ġhundred s
Ġtre nd
h at
om an
Ġelect ric
Ġrest aur
ot ed
Ġtr ig
Ġn ine
Ġb omb
Ġco verage
Ġapp eal
Ġfin ished
Ġfl ow
Ġdel iver
Ġcal cul
Ġphot os
Ġph il
Ġpie ces
Ġapp re
k es
Ġr ough
Ġpart ner
Ġconcern ed
ct ors
st ate
Ġsuggest ed
Ġher self
w orks
o oth
ren cy
Ġcor ner
Ġhus band
Ġintern et
em s
os en
g en
Ġbal ance
Ġsound s
te xt
Ġar r
ov es
Ġmill ions
Ġrad io
Ġsat isf
Ġcomb at
r ant
Ġf uel
Ġdist ance
Ġtest s
Ġdec re
Ġman aged
Ġt it
Ġmeas ures
Ġatt end
as hed
d it
out s
Ġgener ation
Ġadv oc
y th
Ġconvers ation
act ive
ce l
ri er
Ġg ender
Ġcon cent
Ġcar ried
and a
Ġarri ved
ic ide
ad ed
Ġfail ure
Ġmin imum
le ts
Ġwor st
Ġkeep ing
Ġint ended
Ġilleg al
Ġsub sc
Ġdetermin ed
Ġtri p
Ġra ise
Ġfeel s
Ġpack age
h i
re al
Ġf ra
Ġsy mb
uck y
p ret
em ic
Ġjust ice
Ġfar m
ck now
el ess
Ġredu ced
x x
Ġcl in
Ġhy p
il er
ur a
k ins
Ġs an
Ġno vel
Ġcap acity
Ġimp ossible
Ġpl ays
Ġmin ister
ij uana
ic ate
Ġf ram
Ġ ing
Ġcommun ities
it a
Ġb on
Ġstr ateg
Ġinterest s
l ock
g ers
m as
Ġconflic t
Ġrequire ments
Ġs ac
Ġoper ating
in i
rel ated
Ġcomm itted
Ġrelative ly
Ġs outh
Ġaff ord
Ġident ity
Ġdec isions
Ġacc used
pl ace
Ġvict ory
o ch
i at
t ion
ed s
Ġsee k
Ġt ight
Ġinit i
Ġhum ans
Ġfam iliar
Ġaud ience
Ġintern al
vent ure
Ġs ides
Ġd im
Ġcon clud
Ġapp oint
Ġenforce ment
Ġcircum st
Ġjo ined
Ġdiffere nces
Ġprot est
Ġtw ice
w in
Ġgl ass
ars h
Ġexp ression
Ġdec ide
Ġplan ning
an ia
Ġhand le
Ġmax imum
Ġse a
Ġev al
Ġhel ps
re f
Ġb ound
Ġm outh
Ġstand ards
Ġcl im
cl es
Ġar my
ack ing
x y
Ġbu g
l o
Ġplan et
Ġwin ning
Ġf aster
Ġspe ct
Ġbro ken
Ġdef ined
Ġhealth y
Ġcompet ition
htt ps
Ġannoun ce
Ġcl ient
Ġposs ibly
se ction
ock et
l ook
Ġfin ish
Ġcre w
Ġres erv
Ġed itor
Ġh ate
Ġs ale
Ġcontro vers
Ġp ages
w ing
Ġnum er
Ġopp osition
Ġref uge
Ġfl ight
Ġap art
Ġapplic ations
Ġg ar
Ġup gr
Ġsh ape
Ġspe aking
ans ion
a o
Ġwor ry
rou d
Ġh un
Ġintrodu ced
Ġd iet
Ġfun ctions
ut s
Ġst ress
Ġaccount s
Ġgu arant
ed ia
Ġhon est
Ġt ree
Ġs ch
Ġf if
ig an
Ġexerc ise
Ġscient ists
Ġlegisl ation
Ġsur vey
Ġr ich
ri p
Ġmain tain
Ġfl o
Ġleaders hip
st ream
Ġmag ic
Ġfig ures
ind er
x ual
Ġabsolute ly
Ġfour th
Ġpresent ed
resp ond
rib le
Ġal cohol
at o
por ary
Ġgr ab
Ġvar i
Ġqu ant
Ġpl us
r ick
ar ks
Ġaltern ative
Ġp il
Ġappro x
th at
Ġobject s
Ġsignificant ly
k ay
av or
Ġa cknow
Ġun s
pro f
Ġneg oti
ik i
Ġte levision
Ġcomm ittee
Ġmot or
Ġappear ance
Ġs itting
Ġstri ke
com p
Ġf old
ac ement
Ġbel ong
Ġm ort
Ġprep ared
Ġind eed
Ġre nt
our ney
ar c
Ġadv ice
Ġchang ing
Ġlist ed
Ġlaun ched
is ation
is hes
Ġl ived
ruct ure
Ġset s
Ġphil os
u ous
Ġappl ied
Ġhous ing
Ġo dd
Ġsu st
ffic ient
ol ved
Ġp owers
Ġth r
Ġrem aining
Ġca uses
Ġman ner
ad s
Ġsuggest s
Ġend s
stand ing
f ig
id th
Ġg ay
Ġter min
Ġscient ific
Ġco al
ap ers
b ar
Ġsy m
th is
igr ants
Ġmin ute
cell ent
Ġle aves
Ġcomple ted
am in
Ġfoc used
Ġmon itor
Ġveh icles
Ġaffect ed
itution al
Ġconst ruct
Ġfollow s
Ġt on
re ens
Ġh omes
r ast
Ġel im
Ġlarge ly
Ġvot es
all s
Ġbusiness es
Ġy ards
Ġmaterial s
ul ner
Ġgu ide
Ġclos er
um s
Ġsp orts
ed er
Ġtax es
Ġdec ade
ol a
Ġv ir
Ġdro pped
Ġdel ay
it ect
Ġsec ure
ste in
le vel
Ġtre ated
Ġfil ed
ain e
Ġv an
Ġm ir
Ġcol umn
ict ed
e per
Ġro t
Ġcons ult
Ġent ry
Ġmar ijuana
Ġapparent ly
ok ing
clus ive
Ġincre ases
an o
Ġspecific ally
Ġte le
ens ions
Ġrelig ion
ab ilities
Ġfr ame
Ġhelp ing
Ġed ge
ost on
Ġorgan izations
hip s
Ġbig ger
Ġbo ost
Ġro w
ul s
ab ase
Ġr id
are n
ra ve
Ġst ret
Ġv ision
Ġwe aring
Ġappre ci
Ġa ward
Ġfact or
w ar
ul ations
Ġg od
Ġter rit
Ġpar am
ast s
Ġen emies
Ġacc ident
Ġat h
Ġfor g
Ġve ter
f ree
Ġst ars
Ġexp ensive
Ġac ad
ra wn
Ġl ock
Ġform at
Ġsold iers
s m
Ġag ent
Ġrespons ibility
or a
Ġrap id
Ġt ough
Ġbelie ves
Ġwe ar
le te
Ġcomm ission
ap ed
Ġwar m
ort ion
Ġhas n
ust er
Ġun ivers
Ġk ing
olog ies
Ġpat ient
ce an
y ou
pt y
Ġhappen ing
Ġb ought
ut ers
is er
Ġs oul
Ġse at
ff ee
Ġrev olution
et te
Ġr ing
Ġoff ensive
Ġreturn s
Ġv ideos
Ġdis cl
Ġfam ous
en ced
Ġcandid ates
ard en
Ġpercent age
Ġvis ual
Ġthan k
Ġtrou ble
ner gy
Ġpro ve
ash ion
Ġen h
Ġconnect ed
Ġposs ibility
Ġexper t
Ġl ibrary
art s
Ġfell ow
ir ty
Ġd ry
Ġsign s
Ġqu iet
f oot
Ġp ure
Ġf illed
ph as
end ment
Ġun able
n s
m o
Ġv ast
ob e
Ġident ify
app ing
g ress
Ġpro te
Ġf ish
Ġcircumst ances
raz y
Ġb odies
Ġdevelop ing
Ġexperien ced
Ġsubst ant
es ome
Ġdom estic
Ġcomb ined
Ġchem ical
Ġpo ol
Ġe gg
c ons
st ers
Ġh urt
Ġmark ets
Ġconserv ative
Ġsupp orters
Ġag encies
id el
ur b
y e
du le
Ġtemper ature
Ġconduct ed
Ġpull ed
Ġf ol
ont o
os is
Ġadv ance
Ġlic ense
r ors
Ġimag ine
Ġhe ll
Ġf ixed
Ġinc or
os ite
ick en
Ġsurpr ise
h ab
Ġc raft
ol t
Ġd ial
Ġrele vant
Ġent ered
Ġlead s
Ġpict ures
ess or
Ġal t
Ġpay ing
Ġupd ates
am ily
semb ly
rom e
Ġgreat est
Ġhe ight
Ġhe av
ain ts
Ġlist en
as er
Ġcap able
ac le
Ġpers pect
in ating
Ġoff ering
ry pt
ab in
r c
Ġbr ight
al ty
ar row
Ġsupp l
ind ing
ack ed
gy pt
p g
Ġpl anned
Ġp it
Ġswe et
Ġtyp ically
Ġpro spect
Ġte en
re es
Ġsc hed
Ġh ol
Ġsc r
Ġlot s
l ife
Ġnews p
Ġfor get
ed d
Ġse vere
Ġsu it
ll er
Ġcor respond
Ġexpl os
u ations
Ġfl ag
g ame
r id
Ġpr in
Ġde ploy
su it
gh an
Ġthough ts
Ġmat ters
Ġad apt
Ġf ill
Ġfor th
Ġs am
Ġpay ment
Ġsp ring
du c
Ġl osing
Ġbring ing
al a
Ġdist ribution
he red
b our
om a
Ġcomb ination
Ġpl enty
Ġper man
Ġto w
Ġsee king
Ġexam ples
Ġclass es
c r
Ġbe er
Ġmov es
Ġpan el
Ġproper ly
Ġr is
Ġpl ug
Ġestim ated
Ġdef ensive
ag raph
Ġpre gn
Ġinst it
Ġvol ume
Ġpos itions
Ġl inks
ag ues
Ġtrans form
k er
Ġc as
Ġopp onent
Ġtwe et
Ġsh op
Ġf ly
Ġtal ks
Ġb ag
Ġa id
Ġpl ants
Ġatt orney
ar ters
qu est
Ġbeg ins
Ġmy ster
Ġenvironment al
Ġst orage
Ġm arg
Ġs ke
Ġmet al
ell y
Ġord ered
Ġrem ained
Ġl oved
Ġprom pt
Ġupd ated
Ġexper ts
Ġwalk ing
Ġan cient
Ġperform ed
Ġne ither
i ency
Ġmanufact ure
Ġselect ed
Ġm ine
Ġult imately
Ġexpl an
Ġlab el
ribut ed
Ġsy n
Ġme at
Ġg iant
Ġad m
Ġinter pret
Ġeven ing
Ġev il
Ġobvious ly
Ġadv anced
ol ar
Ġwe ather
Ġsymb ol
Ġso le
Ġpot entially
ost er
Ġorig inally
m un
az e
ess ions
Ġde ck
Ġst ood
Ġyou th
Ġbas ically
ot ic
Ġinvol ve
ol it
ly n
Ġair craft
Ġconf irm
Ġmess ages
Ġk it
Ġpro hib
Ġv ulner
is ters
Ġexist ence
Ġturn ing
Ġdes ire
Ġfl at
Ġm ent
se ason
ang es
Ġneighbor hood
Ġpoint ed
b ur
Ġinn ov
uc ks
Ġprofess or
Ġexp ressed
ic ious
Ġs ession
Ġb are
s en
Ġdis s
Ġdo ctor
or row
ail ed
p erson
Ġwrit er
igh ters
ure au
Ġob lig
Ġrecord ed
Ġbro ke
Ġord ers
il ty
Ġmot ion
in ity
l aw
ad ium
Ġimm igration
Ġcontr ast
Ġb att
Ġex cellent
Ġtechn ical
am i
Ġt un
Ġcl oud
ge on
Ġcre ation
Ġstr ange
Ġa uth
Ġfor t
b orn
Ġext ent
Ġr ain
Ġs ample
Ġaccept ed
Ġt act
Ġf ired
Ġstand s
Ġb oot
Ġstat ements
Ġvers ions
Ġse lling
ound ed
Ġwere n
Ġexper iment
Ġret ail
ul ed
un te
Ġdep art
Ġb ond
i very
om pl
Ġre action
app ed
ani el
Ġres olution
Ġre act
Ġappro ved
on om
m ond
Ġrepl ace
Ġt ack
Ġsp ort
Ġch ain
Ġemer gency
r ad
Ġautom atically
Ġrout e
Ġp al
Ġb anks
ro ad
ic ing
i xt
ist ed
Ġg rew
Ġco ord
om in
Ġsub s
Ġcorpor ate
Ġse lection
n oon
c s
clud ing
ord ers
anc he
Ġslow ly
Ġcol le
iqu es
Ġattempt s
ur l
Ġfind ings
Ġind ex
ens ity
Ġsh ock
d is
Ġd ynam
Ġc art
m osp
i est
Ġst orm
he w
il it
Ġess ential
iqu id
ive red
Ġreason able
Ġsub sequ
Ġconsider ing
Ġun iversity
l og
Ġmar ried
Ġill ust
Ġnumer ous
rast ructure
Ġserious ly
Ġrefer red
u a
Ġconsist ent
on na
ru ption
ci ples
Ġfact s
ot es
er g
Ġacc ompl
Ġre venue
Ġpass ing
Ġm al
e en
Ġg ather
ter day
ew ork
Ġopt im
Ġr ub
Ġun known
st one
Ġun ion
ol ve
Ġopportun ities
Ġbrow ser
Ġreport ing
st s
p et
Ġs and
Ġsudden ly
Ġsurpr ising
Ġsomew hat
ult ure
iz z
Ġchalleng es
Ġsett ings
Ġexperien ces
Ġcan n
Ġrece iving
Ġj oint
Ġcult ural
Ġa st
as tern
ce ived
Ġb ull
p ired
am m
Ġfac ing
p ower
Ġb oss
Ġinst r
Ġincreasing ly
Ġsh ift
Ġstre ets
ab b
Ġl ie
Ġl augh
Ġadult s
Ġcustom er
Ġob tained
Ġsupport ing
ht ml
f ire
Ġdetail ed
Ġpick ed
ld er
st ood
Ġw ire
Ġs ight
Ġdevelop ers
Ġpers ons
Ġs ad
Ġc up
Ġwar ning
Ġboy s
l ong
Ġb ird
f o
Ġw al
Ġobserv ed
Ġz one
iven ess
Ġch annel
c ript
Ġref used
Ġsu c
Ġspokes man
r ite
ou ston
Ġact s
Ġstrugg le
ar ry
omet imes
Ġdisc rim
Ġcateg ory
Ġreal ize
Ġemploy ee
en ger
Ġgun s
ok ed
Ġth ick
Ġfair ly
ill y
Ġsur ve
we ight
Ġtro ops
Ġag ents
Ġbatter y
Ġmot iv
d en
o very
Ġfl u
Ġconf ident
Ġem pty
Ġp hen
Ġse ctor
Ġexc ited
Ġrem ote
ap h
o en
Ġdestroy ed
Ġmor al
Ġd ress
Ġl it
Ġa f
r um
is ms
Ġshould n
Ġsym pt
het ic
Ġcar bon
Ġinstall ed
Ġviol ent
Ġsol ar
j a
Ġpract ices
Ġr ide
Ġimpro ved
Ġaud io
Ġbehav i
Ġe ating
p ass
cl aim
u ated
ang ers
c hen
Ġproper ties
Ġany where
Ġbl ow
Ġp roud
Ġplan e
l ines
Ġsqu are
Ġpro of
ans as
Ġtalk ed
m akers
Ġs ister
Ġhold s
Ġres ident
Ġresist ance
Ġspl it
Ġpro secut
Ġconf idence
res ents
Ġcut s
Ġexcept ion
Ġz ero
Ġcop yright
Ġtot ally
orm al
ific ations
Ġs ick
Ġhouse hold
Ġfe es
Ġdri vers
og en
Ġnecess arily
Ġregul ations
ear ing
s l
Ġperspect ive
c are
ic ial
Ġesc ape
Ġsurpr ised
ur rent
Ġv ac
Ġem phas
Ġn arr
Ġhead s
Ġca using
b el
f ortunately
Ġtarg ets
ci pl
Ġafter noon
Ġadd s
ess ed
ple te
Ġus ual
ch o
ing u
Ġwith d
Ġart icles
Ġinj ured
Ġman age
Ġexpl ains
Ġdi agn
at ures
Ġlink ed
Ġdiscuss ed
Ġexpl o
Ġocc asion
ath an
Ġopp osite
Ġfac es
Ġden ied
Ġn ut
Ġapprox imately
Ġdisapp oint
onym ous
Ġvot ing
an while
Ġinstit utions
ag ram
Ġdr ag
Ġnear by
Ġgu ilty
Ġcon ver
s hip
Ġre ward
Ġphilos oph
u gh
Ġapp s
f riend
Ġu pper
Ġad vert
Ġs now
Ġfr ust
Ġour selves
amp ion
Ġdis miss
Ġc ere
Ġsign al
f rom
Ġcr imes
it ors
est ival
use um
Ġcoun cil
ic ian
et her
Ġsu fficient
so le
Ġhistor ical
Ġp in
Ġsuc ceed
m at
ly mp
Ġtrad ition
Ġc ro
Ġdesc ription
al le
Ġsk y
Ġwide ly
Ġw ave
Ġdefin ition
Ġcy cle
Ġref ere
Ġbr ings
us al
Ġal ive
Ġfrequ ently
Ġint ention
l v
y stem
Ġpriv acy
g ent
ren ce
Ġr ail
Ġco oper
Ġtest ed
as ks
Ġcomfort able
Ġdel ivered
sc ape
Ġdep th
Ġwrit es
Ġass ets
Ġsa v
im ents
Ġtrans ition
Ġart ist
Ġl ob
Ġcomp onents
ar ity
Ġwalk ed
Ġro ot
Ġparticip ants
Ġnot iced
Ġres c
Ġn av
d a
ut ral
pl ate
Ġimport ance
Ġass ert
ious ly
c ription
Ġinj uries
Ġregist ered
Ġint ent
Ġmiss ed
ograph ic
Ġsent ence
oun ter
Ġassist ance
ev in
Ġdat abase
Ġbuild ings
Ġclass ic
Ġth inks
ug g
Ġfe e
p an
Ġeffect ively
Ġfac ility
Ġbe ar
Ġch apter
Ġdog s
Ġl atter
it ial
Ġad mitted
Ġpost s
Ġlawy er
Ġequ ival
Ġm and
Ġcontro lled
Ġmen u
am ental
Ġprotect ed
v a
Ġadminist r
or al
Ġre in
Ġamount s
Ġn ative
Ġrep resents
Ġab andon
Ġcarry ing
Ġt ank
m ary
Ġdecl ared
Ġh at
Ġpun ish
el lect
m es
Ġun iverse
ph y
Ġinf rastructure
Ġopp osed
ow nt
c a
Ġhard ware
Ġco ffee
b al
w orld
in als
Ġown ed
Ġh all
ers ion
Ġdescrib e
Ġport ion
Ġat mosp
Ġgovern ments
Ġdep ending
Ġoff ense
Ġtr ick
aw a
Ġdes k
Ġmov ies
Ġrem ark
Ġm ail
Ġcons cious
Ġrul ing
Ġmed ic
he nt
Ġrepl aced
Ġre new
if orm
Ġsh ots
Ġar med
Ġconst ant
Ġt aste
Ġreal ized
Ġbu ff
Ġm o
Ġeffic ient
or ation
if ies
Ġcommun ication
Ġfl ood
Ġconsequ ences
Ġany way
ig g
Ġ iron
Ġev olution
tw itter
Ġrelationship s
ad el
Ġpropos al
ay ers
uild ing
c os
Ġcoll abor
ax y
Ġknow ing
Ġsupport s
ow ed
Ġcontrol s
Ġmere ly
um er
Ġath let
Ġf ashion
p ath
Ġg ift
Ġer a
Ġkind s
Ġleg it
ul ous
Ġess entially
Ġthe rap
n ic
Ġsuff ered
Ġh ur
Ġprom ise
Ġex cess
Ġover w
Ġpr ime
er ry
Ġst ores
Ġj ourney
Ġrequest s
Ġconsum ers
Ġt iny
Ġis ol
b a
Ġcr ash
ce ler
Ġemot ional
Ġgood s
Ġelect ed
Ġmod er
Ġbl ocks
Ġis land
Ġelect ions
Ġbroad cast
Ġche ap
Ġn ations
Ġse asons
Ġwas te
Ġfield s
em ploy
Ġprof ile
Ġauth ors
w est
Ġdeath s
Ġv acc
Ġfor med
Ġd u
Ġon going
el f
ig ure
Ġass ume
w ater
Ġco ast
Ġvot ed
g or
az a
i ro
Ġf lex
as ters
Ġwel come
ar l
Ġloc ations
ig ation
Ġbu ying
Ġarch itect
Ġhard er
Ġinter face
Ġrestaur ant
Ġdisco ver
Ġex ceed
Ġfav our
ger y
Ġd uty
Ġp itch
ad or
b oy
Ġrespond ed
Ġext ended
her s
ra id
if er
Ġmed ium
s he
Ġmag azine
ut ation
Ġlim its
Ġex ternal
raz il
Ġyoung er
t le
Ġrem ind
Ġimmedi ate
Ġh idden
Ġvol unte
Ġsim pl
od cast
Ġph ase
d r
Ġpl ot
Ġexp osure
og rap
v in
an ish
Ġexp ansion
Ġpus hed
Ġmarket ing
k et
Ġh its
Ġg ro
Ġst im
Ġª Ġ´
Ġn arrow
Ġperfect ly
Ġen able
ut ch
Ġprec ise
Ġreg ime
Ġsh if
Ġcomp ens
g un
d iv
Ġch osen
Ġtre es
Ġrecomm ended
u able
Ġarg uments
Ġex ists
Ġb ike
Ġbre aking
Ġc razy
Ġvirt ual
ay lor
ix el
Ġper mission
Ġconsum er
Ġclose ly
c alled
Ġhop es
Ġar ray
Ġsp ons
Ġp ow
Ġread ers
Ġemploy ment
Ġcreat ure
Ġresult ing
Ġaccur ate
Ġmom ents
Ġarg ued
Ġp ed
Ġs ought
Ġsuff ering
Ġ icon
le e
al ian
Ġp ra
Ġbon us
k o
Ġact ing
f all
Ġcompar ison
Ġsm ooth
u pp
ep ing
Ġs ending
f ast
Ġdeal ing
us er
Ġatt ached
Ġse es
Ġtyp ical
Ġfind s
um in
in ent
u ce
Ġem ails
Ġhigh light
Ġconf ront
at us
ut ed
Ġun us
Ġtop ic
Ġb le
at i
Ġunder stood
st ruct
Ġm ob
a a
pect ed
se ll
Ġded icated
u an
Ġsong s
esc ription
Ġte ch
Ġr ape
Ġas ide
Ġgr ant
s ub
Ġarg ue
Ġcont aining
Ġsche dule
Ġliber al
Ġpublic ly
Ġheav ily
in er
we et
l s
Ġb es
j i
est ed
Ġevery body
Ġfem in
Ġfac ilities
Ġcon ven
c ore
Ġan x
Ġdiv ision
m ates
Ġexpl ore
pl om
Ġsh ares
pl oad
an es
Ġide al
et ers
Ġpl astic
Ġdist inct
Ġtrad ing
ens us
int end
Ġex hib
Ġinit ially
Ġthous and
act er
Ġpar agraph
Ġrough ly
Ġw ww
Ġcreat ive
Ġconsum ption
Ġfil ms
ag an
Ġob tain
Ġt all
Ġt or
Ġacknow led
Ġg rown
al o
end ers
t aining
Ġsu icide
Ġwat ched
al i
re hens
Ġsurround ing
Ġp ip
Ġf lying
ord an
Ġserv ing
in ations
p ost
Ġsh o
Ġj ail
z y
Ġliter ally
Ġexp osed
Ġl ies
st ar
Ġb at
Ġear ned
Ġspec ified
Ġdeg rees
Ġcent re
Ġsh aring
Ġwin ter
Ġun w
Ġfew er
Ġsomew here
Ġattack ed
Ġdom ain
Ġstrong er
Ġpen alty
Ġdecl ined
Ġne ck
Ġfra ud
Ġcur rency
Ġr ising
Ġt ab
Ġtal ent
n am
Ġvill age
Ġleg s
Ġac id
Ġhy d
Ġinvol ving
Ġyes terday
Ġterror ist
Ġsu p
Ġsy nt
Ġw est
Ġr u
b urg
Ġvis ible
Ġstru ck
r ison
Ġaw esome
Ġd rawn
Ġansw ers
Ġthreat s
Ġdef eat
os it
Ġv ent
atur ally
end a
Ġr um
c ase
Ġsit uations
Ġsa ved
Ġrec ip
olog ist
Ġfac ed
Ġel ig
u h
Ġmist ake
Ġsympt oms
Ġdom in
Ġfall ing
Ġend ing
as hes
Ġmat ches
Ġexplan ation
red it
Ġany more
us hed
Ġlet ters
Ġris ks
Ġreported ly
Ġpl ate
Ġsubject s
Ġattempt ed
if ier
ian a
Ġunlike ly
um a
ic an
au g
Ġve get
a os
ri a
Ġshe l
Ġmark ed
Ġsp r
p o
Ġdef e
Ġthem e
Ġpass ion
Ġinf o
iz er
Ġsh it
ap se
c re
Ġpo ly
Ġcomp onent
Ġdo ctors
Ġgr anted
Ġpain t
Ġhon or
Ġsm oke
Ġpay ments
Ġprim arily
r ich
ate ll
Ġde als
Ġsched uled
Ġfund amental
Ġprote in
Ġnewsp aper
Ġcl ients
yth on
h us
Ġfeed back
Ġstret ch
Ġc ock
Ġhot el
Ġsu gar
Ġj u
Ġmil k
Ġappro val
Ġequival ent
ef ully
Ġins ert
z ona
Ġext ension
d ri
Ġacc omp
Ġconst antly
Ġgener ated
Ġrecogn ize
Ġv ary
ph a
d f
et ch
Ġpattern s
Ġprof ession
an ing
Ġcol ors
Ġinf ect
Ġphen omen
Ġshe ll
Ġput s
Ġdel ivery
Ġbro wn
Ġprocess ing
Ġlight s
ess age
l ation
Ġindust rial
rou s
Ġsome how
Ġpro port
Ġpolit icians
Ġindic ate
Ġh ole
Ġtechn iques
Ġcompet itive
Ġph r
Ġv o
ist ent
Ġcamp us
Ġaspect s
Ġhelp ful
Ġsh ield
or se
Ġtrig ger
m al
Ġt ort
Ġperson ally
Ġt ag
Ġkeep s
Ġben ch
Ġg ap
a ire
Ġe ast
Ġrec overy
per ial
Ġprof it
Ġcol on
Ġstrong ly
st yle
Ġalleg ations
h an
Ġrep orters
j o
r ine
arg et
and al
Ġfl ash
tr ans
Ġstr ict
Ġpark ing
Ġl i
Ġwe ird
Ġreg ions
Ġint ellect
od ing
rib utes
up id
Ġf inger
or ia
Ġe lev
Ġcon clusion
Ġfeel ings
Ġext ensive
Ġm ixed
Ġne uro
v y
Ġhar ass
ou ch
Ġterrit ory
Ġsuccess fully
Ġing red
Ġoverw hel
Ġl ayer
Ġall ies
ill ance
Ġb unch
Ġnorm ally
Ġnet works
Ġsac r
b les
Ġch ose
Ġopp onents
Ġregard less
Ġfr anch
Ġpre f
Ġbr idge
ann a
Ġw age
p age
ri or
Ġrad ical
Ġman ip
Ġsecret ary
Ġg ang
Ġdec ent
Ġun cle
Ġinvest ors
Ġwall s
Ġpub lish
Ġgener ate
iss ions
c ar
Ġprom ote
Ġcut ting
Ġche st
Ġdrink ing
Ġcollect ed
Ġhop ing
Ġem br
gor ith
Ġwar ned
Ġinstruct ions
Ġg ear
Ġcritic ism
Ġut il
ann y
Ġcoun sel
Ġredu ction
p ool
Ġteach ing
Ġdeep ly
i y
Ġestim ates
Ġcho ices
Ġperman ent
in em
ke l
Ġf asc
p se
f ile
Ġt ournament
st al
Ġm el
az i
Ġcont ained
Ġw ake
Ġreve al
Ġprocess es
Ġbl ind
Ġste el
Ġcare fully
app y
ro it
Ġg aming
Ġhous es
Ġtr uck
er m
Ġsc ored
Ġocc as
ret urn
b ound
v ar
Ġsh arp
Ġaf raid
am ber
c ific
Ġsche me
Ġdecl ine
Ġpus hing
Ġposs ession
Ġpriv ile
Ġteacher s
Ġy ield
it led
Ġr ig
ac on
Ġh ide
ut en
Ġcolle agues
Ġprin ciples
Ġl oud
Ġs in
Ġst one
Ġt aught
Ġter rible
Ġst uck
te en
Ġimplement ation
Ġwhe el
all as
Ġch ampions
ol ars
play er
Ġrepeated ly
Ġlik es
ast y
es ter
Ġb ath
Ġno ise
t itle
Ġn orthern
Ġmag n
Ġf ab
Ġdis pl
Ġtick et
Ġm urd
Ġalong side
Ġr iver
ow ing
re p
s ize
Ġt ur
isc al
ra ction
Ġc able
Ġw ins
Ġup coming
Ġsurv ive
Ġins pired
Ġstat istics
iam i
Ġy ellow
Ġur ban
Ġa x
es sel
Ġquarter back
Ġreg ister
Ġab ilities
Ġvar iable
Ġcont em
Ġth in
d ata
Ġg otten
Ġconst it
Ġas ks
Ġt ail
Ġexc iting
Ġencour age
ins on
Ġcommit ment
Ġr ally
Ġsubs id
Ġsp in
Ġcapt ured
Ġinn oc
Ġalleged ly
Ġart ists
Ġelect ronic
Ġreg ional
ap es
Ġw ra
Ġmy th
pr ise
b ell
Ġdirect ed
Ġext ract
Ġs orry
Ġv ice
ag ger
Ġwonder ful
Ġg ra
ion e
Ġsh ips
ik es
it ar
Ġactiv ists
tr ue
ent h
Ġha bit
ern el
Ġin qu
Ġab ortion
Ġv oid
Ġexpl icit
Ġeng aged
Ġang ry
Ġr ating
Ġfr ag
b ro
ick ing
d ev
Ġwor ried
Ġob ser
Ġap artment
Ġest ate
em on
Ġcount y
Ġdis ag
Ġimm igrants
w ind
Ġfol ks
Ġg all
Ġtarget ed
Ġst ead
Ġinform ed
ch ain
idel ines
or ough
Ġdri ven
Ġregular ly
Ġbas ket
Ġprinc iple
oc ument
Ġst un
ib ilities
Ġal ert
Ġdemocr acy
Ġrepresent ed
c ers
p arent
p ack
Ġdi plom
re ts
Ġcapt ure
Ġannounce ment
Ġh ook
Ġpur s
Ġrefuge es
Ġrecogn ized
l ib
Ġhad n
Ġpil ot
us hing
Ġreturn ing
Ġtra il
Ġrout ine
Ġcour ts
Ġdes per
Ġfriend ly
Ġpl ed
Ġbreat h
Ġstud io
Ġimp ressive
Ġf ing
Ġd ownt
ink ing
i ary
col or
se x
ar on
Ġf ault
is odes
Ġout come
er r
Ġelse where
Ġret ire
Ġp ounds
Ġcommun ications
Ġlo an
Ġrat io
Ġg onna
Ġinv ent
p at
Ġprom ised
Ġd inner
Ġcreat es
Ġoper ate
ver ty
et ime
Ġsust ain
Ġincred ible
im a
Ġwar rant
Ġm m
Ġlaw suit
Ġreview s
it ure
l ights
g roup
st ore
Ġfeat ured
Ġfore ver
Ġpo verty
az z
ab is
ach ing
Ġl aid
Ġfil ter
en a
Ġcreat ures
u ction
Ġassoci ation
l ers
the re
Ġval uable
Ġl iquid
ag a
ak a
Ġincred ibly
r ance
s k
Ġsol utions
Ġatmosp here
Ġbl ame
um es
um ps
r ical
or ic
Ġrespect ively
w an
Ġfif th
Ġgovern or
res ident
Ġpurch ased
Ġh ack
Ġint ense
ob s
Ġorig in
Ġdef ine
Ġcare ful
Ġshould er
Ġt ied
Ġdest ruction
ou red
Ġno body
Ġh o
Ġt ip
Ġtechn ique
Ġj ur
b ow
Ġleg end
Ġacc ord
Ġbus y
Ġh ang
ak i
Ġsur gery
Ġrep rodu
Ġun iform
Ġscen es
c ode
l isher
ph ia
Ġcry pt
Ġrec on
Ġsc ream
Ġadop ted
Ġsc ores
in cluding
Ġindic ated
Ġent ertain
i el
Ġtw enty
Ġeng age
off s
Ġsm ile
Ġperson nel
Ġto ler
Ġdo ors
Ġt one
Ġmach ines
Ġent ering
ten ance
Ġfore st
Ġhor se
Ġcompl aint
y o
ed ing
qu arters
ial s
c ow
Ġacad emic
Ġf ruit
og ether
Ġw ine
Ġpur su
Ġlic ens
Ġclot hes
re ction
Ġsqu ad
Ġst able
Ġr aw
z ens
ut ies
anc er
Ġke ys
Ġcompl icated
ig er
Ġabs or
Ġfun ny
Ġrel ief
Ġch art
Ġdraw ing
Ġmod ule
Ġs alt
il le
Ġres ource
aw ay
adel phia
Ġsome body
Ġparticip ate
Ġro se
we red
Ġmus cle
Ġcons ent
Ġcontin uing
reg on
Ġre ar
Ġprov ision
Ġlik ed
ri ent
Ġb ra
Ġmeet ings
Ġto x
Ġcon vent
Ġaut o
Ġrec ording
Ġprogram ming
Ġp ic
Ġprov ed
Ġst ab
Ġca ption
ul ating
Ġnew ly
f r
Ġdis cipl
Ġed ition
if le
ack et
Ġpass es
Ġgu est
Ġac celer
it als
Ġaut hent
ov al
t a
u ine
Ġarm or
Ġcomp at
Ġinc hes
Ġass ign
he rent
Ġprep are
oc key
Ġdep ends
Ġtrack s
w atch
Ġl ists
Ġal ter
re c
Ġcond em
Ġevery where
Ġaff ili
Ġf ought
Ġm ac
it arian
Ġsc ope
aw s
ar ms
Ġqu e
Ġenjoy ed
nes ota
Ġagg ressive
Ġrec ipe
Ġrare ly
val ue
ang el
ay ing
omet hing
Ġsub section
Ġs outhern
Ġfrequ ency
re te
roll ed
ult s
Ġbeh alf
Ġsequ ence
ab et
Ġcontrovers ial
Ġcomp rom
Ġwork er
Ġmain ly
Ġal gorith
or ce
g ender
Ġorgan ized
Ġf ake
Ġconclud ed
r age
Ġch ances
ber ry
Ġconfig uration
Ġwithd raw
Ġf ro
ud es
Ġtri es
Ġsam ples
Ġb id
Ġphot ograph
if est
Ġcont est
Ġsign ing
p x
Ġex it
n ull
mon th
Ġrac ial
ott ed
Ġsw ord
ps on
a ed
Ġt rib
Ġin ner
Ġprot ocol
ever al
p ress
Ġsh ipping
con nect
iam ond
s es
Ġsurve illance
Ġap olog
ow a
Ġf ulf
j s
Ġl uck
ust ed
n i
Ġant icip
em an
Ġwin ner
Ġsil ver
ll a
ic ity
Ġunus ual
Ġcr ack
Ġt ies
e z
Ġpract ical
Ġprov ince
Ġprior ity
Ġdescrib es
Ġbr anch
ask a
miss ions
b i
Ġp orn
Ġent hus
Ġf ighters
Ġfound ation
av id
Ġjud gment
cl ing
Ġsol ve
hes is
a fter
Ġne utral
Ġadv is
y es
ol is
Ġrep utation
Ġsm ell
Ġb read
Ġclaim ing
Ġgen etic
Ġtechn ologies
Ġupgr ade
row s
Ġdevelop er
erv ed
ip al
Ġun ex
Ġbare ly
t hen
Ġill ness
et ary
Ġp atch
Ġbut t
Ġst upid
f ront
ie ce
Ġprot ests
Ġch at
oen ix
Ġw ing
Ġpar liament
ose xual
Ġre nder
pt ions
os a
h op
Ġbit coin
Ġrec over
Ġincor por
or ne
Ġpre ced
Ġthreat ened
Ġspirit ual
Ġadvert ising
Ġimprove ments
Ġer rors
Ġsens itive
Ġcre am
Ġex clusive
Ġcomp rehens
Ġde leg
Ġcon ce
Ġrem em
Ġstruct ures
Ġst ored
w oman
se a
Ġtem porary
es ters
Ġtick ets
Ġposs ess
in ch
o z
Ġl a
Ġcontract s
Ġun p
Ġc ig
ult ural
as m
Ġmount ain
m aking
Ġequ ally
Ġl ands
at ers
Ġreject ed
er a
im m
ri x
Ġtrans action
g ener
less ly
Ġc os
Ġprov isions
Ġg ained
Ġdirect ory
Ġra ising
ol en
ond er
Ġcon sole
in st
Ġb om
Ġunc ertain
ock ing
Ġmeas ured
Ġpl ain
Ġse ats
Ġd ict
af e
Ġest imate
iz on
at hered
Ġcontribut ed
Ġep isodes
omm od
vious ly
rog en
Ġterror ism
Ġmove ments
ent le
oun ce
Ġpre v
act s
ri ors
t ab
Ġsuff er
Ġn erv
Ġmain stream
Ġfranch ise
b at
Ġdem ands
Ġag enda
Ġdo zen
Ġclin ical
iz ard
t d
Ġvis ited
Ġact or
Ġde lic
Ġcont ribute
Ġin ject
ac co
Ġlist ening
Ġcon gress
epend ent
Ġprem ium
Ġass igned
Ġworld wide
Ġnarr ative
ot ype
m ont
b ase
Ġrel ation
Ġco vers
Ġcert ific
Ġgr ass
pir acy
ir a
Ġengine ering
Ġun employ
st ract
Ġv en
Ġst eal
Ġrepl ied
Ġult imate
Ġtit les
d ated
Ġj oy
a us
Ġhy per
ak u
Ġoffic ially
Ġdifficult y
per or
Ġresult ed
rib ed
l ink
wh o
Ġrestrict ions
ition ally
Ġbeaut y
op t
Ġm aps
Ġelectric ity
Ġor g
Ġb urd
Ġviol ation
Ġus age
Ġper mit
Ġn aturally
Ġth rown
Ġal ien
ri ke
Ġp ace
Ġpo ison
Ġform al
al ysis
Ġgen uine
Ġk il
a ver
Ġproced ure
intend o
as ant
Ġtr ained
Ġcru cial
Ġle ts
Ġch ampion
Ġwrit ers
Ġconnect ions
Ġo kay
ir ms
Ġenc ounter
Ġachie ved
Ġche cks
isc ons
Ġassist ant
Ġwhen ever
b in
Ġcl ock
is p
op her
Ġb orrow
Ġm ad
Ġperson ality
on ly
ab ama
Ġg ains
Ġcommon ly
Ġter r
Ġhyp ot
Ġre ly
Ġt iss
iscons in
Ġrid ic
f unction
Ġun com
r ating
el and
Ġm oon
ann on
Ġvulner able
ut ive
Ġw estern
se ct
Ġocc urs
Ġv essel
Ġdiscrim ination
Ġsubsequ ent
st ring
Ġfant asy
Ġtest im
it i
r as
Ġbo at
Ġmar ks
Ġord inary
Ġre n
Ġrepresent ative
Ġpet ition
Ġad venture
Ġign ore
Ġfact ory
Ġt asks
Ġdep ression
z ed
Ġc ogn
Ġelig ible
Ġredu cing
v ia
Ġstri king
Ġdoll ar
h o
Ġinstr ument
Ġphilosoph y
Ġrul ed
Ġscen ario
Ġen orm
Ġdeb ut
Ġte a
Ġabs ence
Ġh am
le ep
Ġt ables
re qu
m ap
Ġchair man
Ġp ump
Ġrapid ly
v i
Ġsubstant ial
d es
ch ant
ili pp
ri ers
anche ster
Ġsa ving
er ning
oun ced
Ġrec ru
Ġassess ment
Ġdynam ic
Ġf urn
ul ator
Ġprop ag
h igh
Ġacc ommod
Ġst ack
w rit
Ġre ven
ab s
Ġbr ut
Ġper pet
h ot
Ġhard ly
Ġst y
Ġtrans actions
Ġg ate
Ġsc reens
Ġsub mitted
Ġlangu ages
ugh t
em en
Ġfall s
Ġc oc
Ġstri kes
p a
Ġdel iber
Ġrel ax
ann els
Ġext rem
Ġbe ll
Ġdis order
c ut
Ġl ocked
Ġem issions
Ġshort ly
Ġr ival
Ġd ust
Ġreach ing
ino is
Ġs atell
are t
Ġst ations
Ġag ric
com es
Ġappl ies
ast ed
Ġan ger
ail ability
Ġcomp are
Ġaim ed
angu age
Ġreg ulation
Ġj ury
Ġair port
Ġse ctions
em ed
Ġmedic ine
Ġh itting
Ġsp ark
ol ves
Ġad s
Ġfood s
Ġrepl acement
Ġch icken
Ġlow est
Ġmind s
Ġinvol ves
u i
Ġarr ang
Ġproced ures
ivers ary
Ġb ills
Ġimprove ment
Ġin ev
Ġexpect ations
Ġintellect ual
Ġsp aces
Ġmechan ism
bre ak
Ġbar rel
Ġstat ic
man n
Ġt ips
Ġhand ling
c us
od ed
il ton
ir y
Ġjournal ists
our se
Ġcom ic
Ġnom ine
Ġvers us
Ġlo op
Ġsur f
Ġbelief s
is an
Ġset up
Ġbre w
im age
Ġcomput ers
f ol
Ġtax p
Ġdisplay ed
Ġg rav
Ġf iscal
Ġcamer as
Ġa ver
p y
Ġrequire ment
Ġent itled
omb ie
Ġsh adow
ag ic
Ġel ite
Ġdiv ided
Ġhead ing
Ġcop ies
Ġloss es
Ġv it
k ed
Ġan s
Ġrep orter
he im
Ġsuper ior
d on
ere nt
Ġtherap y
Ġpe ak
Ġl ying
Ġg am
z er
r itten
Ġrespons es
Ġconsider ation
Ġl oyal
Ġinst ant
Ġp m
Ġext end
Ġconv icted
Ġfound er
Ġconv in
che ck
Ġsch olars
p ed
Ġover se
c ount
m d
im ental
Ġsubst ance
Ġminor ity
Ġmanufact uring
ocol ate
Ġatt ended
r ations
Ġappreci ate
om y
id ency
Ġguarant ee
pos ition
Ġo cean
clud e
Ġhead ed
Ġt ape
Ġlo ose
Ġlog ic
Ġpro ven
Ġsp ir
Ġad mit
is a
Ġinvestig ate
sy lv
c est
Ġrequest ed
Ġwind ows
Ġbehavi our
Ġread er
Ġh ung
Ġro les
Ġimplement ed
Ġbl ank
Ġserv es
Ġc ited
prof it
ap on
Ġrep air
it em
arr ass
Ġcrit ics
ad i
Ġsh out
Ġf ool
Ġprodu cing
Ġl ib
Ġround s
Ġcirc le
Ġpre par
Ġsub mit
Ġn ic
mor row
Ġv ital
ater n
Ġpass word
Ġpublic ation
Ġprom inent
Ġspeak s
Ġb ars
Ġde eper
port ed
Ġw id
Ġbut ter
Ġsm oking
Ġindic ates
rop ri
all ing
ast ing
Ġad j
av al
Ġpres um
bur gh
on ic
Ġf ur
Ġpoll s
ik a
Ġsecond ary
Ġmon ster
ig s
Ġowners hip
end ar
Ġarri ve
Ġn ull
Ġth ro
Ġk iss
c at
Ġup set
ang le
it ches
ect or
olog ists
Ġcor ruption
Ġh int
ent er
Ġgreat ly
Ġbeg un
es y
Ġso il
Ġmain tenance
Ġdo zens
Ġhuman ity
Ġr om
w orth
ap ing
sylv ania
l ah
Ġg athered
Ġattack ing
f ound
Ġar bit
ict ions
Ġd ance
arch y
Ġbase ball
Ġcontribut ions
Ġliter ature
Ġex ha
per ty
t est
Ġb ab
Ġcontain er
let ter
Ġfall en
Ġwebs ites
Ġbott le
Ġbre ast
Ġveter an
Ġinterview s
Ġb anned
eng ers
in th
Ġconc erning
Ġexp enses
d s
ist ance
Ġent ity
Ġrel iable
Ġpar alle
Ġopin ions
Ġin du
l ow
Ġcompet e
Ġth orough
Ġemploy ed
Ġestablish ment
ig en
Ġlawy ers
it ary
Ġeffic iency
Ġm ask
Ġdis aster
Ġag es
es is
Ġcas ual
b led
Ġen abled
i per
Ġemer ged
is dom
Ġc abin
Ġregist ration
Ġfing ers
Ġro ster
Ġfram ework
et ts
Ġtransport ation
Ġaware ness
Ġattempt ing
Ġdef ence
Ġsc an
Ġfuck ing
Ġans wered
b n
Ġcateg ories
Ġr ational
Ġc ust
Ġrob ot
Ġcorrect ly
Ġg if
Ġgraph ics
m ic
Ġground s
i ate
Ġdist ributed
Ġsan ctions
Ġchalleng ing
ut o
Ġingred ients
Ġinv ited
Ġfound ed
d ed
Ġb owl
Ġbrother s
Ġw ages
im ore
oc ial
Ġse ed
ative ly
Ġaddress es
ab eth
Ġatt itude
is d
ch ild
Ġm ole
Ġdisco very
y ard
Ġsuppl ies
ell ing
Ġdist ingu
Ġre cept
Ġ vert
Ġsw im
b ec
d oor
Ġg al
Ġinter act
amp s
Ġconvin ced
Ġobject ive
Ġdis h
l ad
Ġdownt own
o il
in ction
Ġto morrow
Ġsurv ival
sh ot
Ġsett lement
int erest
arg o
en ess
Ġeth nic
b ered
Ġinc ent
Ġmain tained
Ġbreak s
br idge
at ar
ag g
un icip
le ft
Ġrecogn ition
Ġwe lf
Ġaddress ed
Ġvir us
Ġwhere as
Ġp apers
ram s
Ġple asure
Ġacqu ired
Ġd uration
j pg
Ġcal m
Ġburn ing
Ġfold er
ick ed
Ġperform ing
Ġwelf are
j ar
Ġl in
Ġenh ance
Ġnot ion
f are
yp es
Ġcann abis
f s
com m
in ite
Ġcover ing
e lect
z ing
Ġcitiz en
Ġph ones
Ġr aid
Ġign ored
Ġu pload
c ard
Ġmod ified
Ġroom s
ia h
r ange
he ast
ach us
Ġsuggest ing
gr ade
Ġclot hing
Ġr h
un ity
en cing
sec ution
t ra
d em
Ġhe aven
Ġst ages
Ġw edd
pl us
ific ial
iet ies
Ġphr ase
Ġbr ill
act ory
Ġprov iders
Ġsil ence
Ġa er
Ġplatform s
Ġdemonstr ated
Ġinter f
ing ton
Ġr aces
Ġgr ade
ult ane
f alse
Ġb ow
Ġfl avor
Ġhistor ic
g ov
Ġcol our
Ġview ed
el come
Ġinter vention
Ġd iversity
Ġperiod s
Ġre verse
Ġqu ote
th rough
Ġsc rew
Ġland ing
Ġp ill
Ġw et
Ġprot esters
Ġrepe at
av ed
er k
Ġsal ary
Ġmay or
Ġkit chen
Ġfeat uring
Ġser vers
Ġany body
im g
ixt ure
the less
Ġfin ance
Ġcl osing
i ac
ab el
or ous
Ġf irms
sc reen
un a
Ġemb arrass
ul se
Ġlet ting
Ġth rew
ile y
Ġch annels
l an
Ġse ar
Ġfant astic
ar re
uzz le
Ġsw ing
Ġshe et
ind ex
co ver
og an
Ġvari ables
Ġsp oken
ac hel
Ġload ed
Ġfoot age
vers ion
Ġun l
Ġthrow ing
Ġf iring
Ġtrack ing
Ġw idth
Ġstrugg ling
ro oms
ot ion
Ġmonth ly
Ġegg s
op en
Ġh ired
Ġstay ed
Ġst ro
st ep
Ġfab ric
ist ing
Ġd ates
Ġpr on
Ġbasket ball
Ġl ucky
Ġassum ed
est y
Ġaff airs
Ġgl ad
Ġjo ining
if ice
p read
ir ts
Ġpop ulations
aw are
Ġn ose
Ġcompl aints
st art
Ġsc oring
Ġmin ing
Ġvisit ors
Ġdam aged
Ġcharacter istics
r ates
Ġfl ags
d og
Ġexec ution
Ġj oke
ph ones
Ġtestim ony
Ġob st
Ġstud ied
ick et
Ġl ad
Ġk ernel
Ġoverwhel ming
Ġag ed
Ġapplic able
Ġroad s
m ade
od ge
Ġcomm ands
Ġoff ices
vel and
Ġt ut
Ġrece iver
Ġsho pping
Ġentertain ment
ort ed
Ġread s
gr ad
eder ation
Ġemploy er
Ġinvolve ment
Ġanx iety
al ia
Ġro of
Ġstat s
Ġconst itutional
Ġrefer ring
itt y
Ġtack le
out ube
Ġback ed
Ġe le
h our
achus etts
Ġdefe ated
es p
Ġseem ingly
w as
Ġg ene
Ġdisc ount
Ġclub s
Ġs id
Ġp p
ides pread
Ġbe ings
Ġintrodu ction
ad ows
ier ce
Ġme al
a uthor
lah oma
Ġr anks
m ax
Ġcoll apse
Ġop ens
Ġe cho
Ġs oph
Ġrac ist
Ġenorm ous
Ġw aves
Ġt ap
Ġcomprehens ive
Ġfarm ers
a ired
ron es
Ġproport ion
Ġdesign s
Ġnegoti ations
Ġvirt ually
Ġwar n
Ġlegit imate
m ate
Ġcon vention
net ic
Ġconsist ently
Ġcompens ation
Ġpunish ment
Ġy e
Ġt ie
ir lf
Ġkn ife
Ġmem ories
Ġang le
Ġre nd
Ġcount s
s ung
Ġeduc ational
Ġaccess ible
Ġd rew
y er
am ine
m aster
Ġtri als
og y
h ar
Ġprefer red
irlf riend
Ġb in
Ġc ow
Ġsign ature
Ġret ired
Ġby tes
Ġneigh b
Ġdev ast
Ġsuspect ed
is ons
sc ale
Ġcap abilities
Ġre vel
Ġche ese
d y
igr ant
Ġfail ing
b its
Ġappoint ed
ur i
Ġinst itution
Ġexpand ed
g reg
Ġmonitor ing
Ġp odcast
Ġcoal ition
Ġst olen
Ġstop s
Ġhol iday
Ġint r
Ġwar ming
Ġprodu cer
Ġaccur acy
iz abeth
m ony
Ġmin i
ac les
Ġover t
the y
Ġmembers hip
Ġex ch
Ġrem oval
m ad
Ġad equ
Ġe c
Ġte eth
Ġemot ion
Ġper m
Ġsole ly
d b
Ġextra ord
c al
Ġgu idelines
Ġd ying
Ġsusp ended
el ve
Ġd ad
Ġabandon ed
Ġm arch
Ġhor ror
Ġchild hood
Ġcampaign s
Ġl unch
bl ock
ound ing
Ġb one
or gan
ad ers
Ġton ight
Ġw ars
Ġform ation
con st
Ġcom pe
or ious
Ġdiscuss ions
Ġcrit eria
Ġinstall ation
Ġaccompl ish
iz za
Ġpub lisher
Ġresc ue
ore t
th s
ord on
Ġp ocket
Ġb ene
Ġparam eters
Ġconc ert
Ġsh oes
Ġvis iting
Ġrec all
Ġb ub
Ġr ural
Ġconc rete
Ġlo ans
Ġtre m
hem at
k g
is ition
Ġf ate
Ġt ired
Ġprinc ipal
h ist
ien ces
ath y
Ġse vent
Ġm ood
Ġstrateg ic
Ġdise ases
Ġfor um
Ġtem por
Ġhead quarters
ig e
fl ix
Ġgu itar
Ġrele ases
ro ph
ig ate
sy stem
Ġdis abled
Ġunex pected
ith ub
Ġuncle ar
Ġcontr ad
Ġstrateg ies
vent ures
Ġpass age
Ġimpro ving
Ġreve als
Ġdecre ase
ov a
Ġann oy
Ġcy ber
n ell
Ġphot ograp
Ġs ed
Ġd iverse
Ġencour aged
Ġcons piracy
Ġbird s
Ġoper ator
Ġhand ful
Ġclass ified
Ġdram atic
Ġinvestig ators
it o
Ġw idespread
Ġcollect ive
Ġjournal ist
Ġtemper atures
il a
Ġgu id
Ġins pect
Ġmiss ile
Ġman ual
Ġsim ultane
Ġrat ings
Ġsu ck
Ġunivers al
Ġph arm
Ġdis rupt
ian o
Ġf t
Ġstat ist
old s
ph p
Ġunder t
ish op
nt il
res hold
Ġden y
Ġprov ider
Ġsurv iv
h as
Ġmist akes
ch arge
pl ed
r ity
Ġn ode
ool s
lic ation
Ġf ails
em ale
or i
back s
Ġsh irt
Ġwat ers
els on
Ġe ase
Ġsc ar
Ġcont ents
m ind
Ġcont ribution
Ġsh r
Ġhand ed
Ġst ability
Ġtra ve
Ġmir ror
Ġwe igh
Ġf iction
ou ver
ist ant
r ition
Ġphys ically
Ġst ake
Ġdemonstr ate
Ġprof its
v ision
om ic
ol id
Ġbatt les
Ġdri ves
Ġeas tern
ar ation
v ard
port ation
Ġlaw makers
Ġprotect ing
Ġy eah
Ġsh ame
ol ph
e ven
x it
Ġatt ach
Ġrepresent ing
Ġob s
iff s
Ġinc idents
it age
Ġview ers
c d
Ġm ouse
Ġcl ar
Ġaccord ance
Ġb ot
c or
he ld
Ġinnoc ent
Ġiniti ative
ol s
Ġsp ots
p ace
Ġconvent ional
Ġcorpor ations
Ġblock ed
at tered
Ġref ers
Ġbu ck
Ġtop ics
br id
re ement
Ġunder lying
Ġinvestig ating
Ġpregn ancy
Ġtouch down
Ġinst ances
w a
Ġfear s
Ġrem arks
Ġ¨ Ġ´
at al
Ġm it
Ġexper iments
i pt
ind u
anc ouver
Ġjud ges
Ġst ere
umb n
Ġparticip ation
Ġweek ly
Ġconvers ations
u z
Ġinf ection
Ġhero es
Ġsett led
Ġstri p
Ġh al
Ġd ump
Ġl es
Ġref erences
Ġwant ing
Ġex clus
m n
Ġg entle
m aker
sen al
ou ri
Ġl ift
el a
Ġrank ed
Ġst adium
Ġdead ly
Ġr iding
ar ia
Ġdocument ation
ree k
Ġl ens
Ġg ross
ag ers
Ġarri val
Ġdes ert
Ġsupp lement
Ġkn ee
Ġmarg in
f ont
og g
iv als
Ġint ake
Ġdifferent ly
ug s
Ġb its
clud ed
Ġsearch ing
um ble
Ġfunction al
Ġdes ired
Ġcirc uit
re pre
alt ies
Ġmin im
Ġdro ve
Ġh ip
Ġpro s
Ġut ility
o pp
r at
form ance
Ġconcent ration
Ġf ont
Ġam id
Ġre vers
Ġinter action
Ġjur isd
Ġspell s
d ep
f il
Ġcivil ians
ut ter
Ġent rance
Ġcon vert
Ġcontrovers y
ow ered
Ġcontr ary
Ġar c
Ġpack ages
Ġprog ressive
w idth
Ġreserv ed
v ol
Ġprint ed
Ġcent ers
Ġintrodu ce
Ġodd s
Ġsure ly
Ġindepend ence
Ġpass engers
repre ne
Ġl oves
Ġfac ilit
Ġident ical
Ġdo ct
Ġpartners hip
con f
Ġconf used
Ġw rest
Ġh oles
Ġpregn ant
h ard
Ġsign als
Ġpull ing
Ġgrad uate
Ġnomine e
Ġper mitted
Ġauthor ized
Ġal arm
v an
Ġgener ations
c ular
Ġdr agon
Ġcontro ller
ge red
Ġappro ached
Ġcan ce
Ġform ula
Ġweak ness
Ġr amp
it udes
j ud
Ġbrill iant
Ġacc us
s ource
Ġhom eless
we ek
i ens
r ics
Ġorgan ic
Ġpresent ation
ag h
v ation
Ġas sembly
or able
hold ers
Ġt ong
Ġbe ach
Ġr ush
ou p
Ġcalcul ated
Ġoccasion ally
Ġbul let
g ate
Ġh osp
Ġprom ises
g age
Ġs ne
ib l
Ġacc um
s uch
Ġterror ists
Ġconscious ness
Ġdram a
ool a
pir ation
Ġlab our
Ġut ter
Ġdemocr atic
Ġass ass
il ation
Ġg est
Ġab road
Ġmet ab
Ġs orts
Ġfl av
Ġm g
Ġmus ical
Ġdro ps
oc ated
ater al
Ġg re
Ġequ ality
Ġburd en
Ġv ig
Ġcere mony
Ġf ighter
Ġact ors
am an
Ġal ign
put er
Ġe lder
Ġrepresent ation
usal em
Ġharass ment
itz er
Ġsy mp
Ġbox es
Ġman ifest
at re
Ġd ies
le ton
Ġmiss ions
et he
Ġres olve
Ġfollow ers
Ġas c
Ġk m
l ord
am med
Ġsil ent
Ġtim ing
Ġprison ers
Ġtow er
Ġappro aches
Ġprecise ly
Ġb ureau
Ġkey board
it ual
Ġfund ed
Ġstay ing
Ġpsych ological
Ġm ile
w ill
Ġw ider
Ġt ill
ro t
Ġaccomp an
Ġfl our
ac o
Ġple ased
part y
Ġpoint ing
Ġinf lation
Ġro y
ain er
Ġwedd ing
orm on
Ġrequ iring
Ġqual ified
Ġse gment
Ġs izes
e als
Ġcor rupt
ass ador
Ġcele b
Ġdream s
Ġcheck ing
Ġprep aring
Ġact ively
Ġl ux
act eria
Ġdep uty
Ġtrans gender
Ġsum mary
Ġin her
er ies
ch ar
Ġkn ock
Ġl ip
roll er
Ġimp ression
Ġcelebr ate
Ġsl ide
Ġgu ests
Ġcl ip
Ġsav ings
Ġcapt ain
Ġleg acy
Ġw ounded
tab oola
Ġpurs ue
Ġo xy
Ġ q
Ġsem i
Ġob sc
Ġcheck ed
Ġd ual
le m
ult y
Ġcent uries
ard ed
s rc
Ġev ident
enn is
at in
Ġunemploy ment
Ġint im
Ġbi ological
Ġsold ier
Ġm ath
Ġbi as
Ġd ating
Ġm ice
h ire
lim ited
Ġmet ers
Ġrock et
es see
Ġcertific ate
Ġgr id
Ġro lling
com mun
b ury
Ġtiss ue
Ġrac ism
Ġmyster y
Ġexam ine
Ġst em
Ġs its
Ġhop ed
ot ing
Ġdial ogue
Ġpers u
l ay
Ġch ronic
mark et
Ġparalle l
Ġsc andal
Ġcar ries
Ġphenomen on
h uman
ack er
Ġretire ment
tain ment
ov ie
Ġd uties
Ġdo se
Ġsc roll
in f
Ġsa uce
Ġland scape
red dit
al id
Ġco in
Ġover s
Ġpost ing
ab out
Ġf el
and y
Ġb old
Ġfocus ing
e ffect
Ġde emed
Ġrecommend ations
Ġste pped
Ġvot er
Ġmoder ate
Ġrestrict ed
Ġto b
Ġc ir
Ġcoll aps
n c
Ġo ught
Ġex port
Ġdr unk
Ġw ise
ne cess
Ġan cest
Ġfrequ ent
m ir
Ġinterpret ation
Ġdepend ent
Ġco ins
Ġfat al
Ġcook ing
Ġconf usion
ip her
Ġcust ody
om ach
Ġrestaur ants
el ing
Ġacknowled ged
Ġthe r
Ġgen es
ch ing
Ġtact ics
Ġv end
Ġhe s
qu er
Ġnot ing
Ġtarget ing
ro ck
Ġcred its
Ġemot ions
Ġrepresent atives
new s
Ġlegisl ative
Ġrem oving
Ġtweet ed
Ġfor cing
Ġspeak er
Ġm ales
l ined
Ġconcept s
Ġvo ices
o ir
Ġc ul
Ġl ady
Ġar ts
Ġsl ot
g ly
Ġathlet es
Ġpres c
Ġt ons
Ġgold en
Ġp unch
iver pool
Ġen act
Ġlob by
Ġm os
Ġpick ing
Ġlif etime
Ġcogn itive
z o
Ġd ub
Ġcons ists
ol n
Ġf estival
am ous
Ġint ellig
w ords
Ġde le
Ġl apt
Ġmag ical
b us
ur ities
igh th
ol ving
Ġj un
Ġimp osed
Ġast ron
Ġcor rel
b urn
Ġimm une
oc us
Ġcour ses
Ġle an
Ġg host
Ġout comes
Ġexp ense
Ġevery day
Ġaccept able
Ġequ ipped
Ġor ange
wh at
re nd
Ġdisapp ear
Ġsp awn
o is
Ġdes erve
Ġmin imal
Ġnerv ous
Ġro ok
Ġres ign
sh ire
Ġafford able
Ġh anging
Ġimpl ications
Ġmain taining
Ġgu ards
Ġder ived
Ġexecut ed
Ġthe ories
Ġqu oted
og a
sel ess
in fo
Ġt ears
Ġbirth day
ig ious
im mer
Ġspect rum
Ġarchitect ure
Ġrec ruit
arm a
Ġmon sters
Ġdest ination
Ġattract ive
Ġf oss
Ġpres ents
Ġrep ly
pt on
Ġc um
Ġdel ight
Ġaffect s
Ġdon ations
Ġover come
it ched
b ott
Ġinvestig ations
Ġhun ting
d i
f und
Ġs essions
est yle
Ġport ray
oid s
Ġcommun icate
Ġcom edy
Ġbel t
Ġpredict ed
Ġimportant ly
Ġremark able
Ġelim inate
Ġb ind
Ġadvoc ates
im p
Ġchar ity
v as
m ath
ok er
nd um
Ġcap s
e an
Ġfle et
Ġrec re
Ġsleep ing
ij ing
k ind
Ġdesign ated
Ġanim ation
ke e
Ġdelay ed
Ġtrem end
Ġcur ious
Ġle ct
d am
Ġinnov ation
Ġload ing
Ġdisp ute
ct ic
ird s
Ġn urs
Ġtem plate
m ers
Ġappear ances
Ġtransl ation
Ġsa ke
Ġbene ath
Ġin hib
Ġe uro
abet es
Ġstud ying
Ġper ceived
Ġexam ined
Ġe ager
Ġco aches
Ġim per
ch i
Ġprodu ces
Ġm unicip
Ġg irlfriend
Ġh ire
Ġsu itable
op y
Ġin equ
f ish
f irst
Ġinter ior
Ġanal ys
Ġconsider able
Ġfore cast
Ġf ert
ors hip
th ur
Ġball ot
Ġinst antly
Ġp icks
Ġt ent
ol i
Ġcivil ian
b ling
ell o
b u
Ġin ch
Ġlog o
Ġcooper ation
Ġwal ks
Ġinvest ments
Ġimp rison
Ġleg ally
Ġg ri
ch arg
Ġthreat ening
du ction
fl ow
Ġdismiss ed
ibr aries
c ap
e le
p ng
Ġro ots
umb led
ple x
Ġdiscuss ing
Ġcontin u
f it
Ġref use
Ġmanag ing
Ġsy nd
ip edia
w alk
Ġprofession als
Ġguid ance
Ġunivers ities
Ġas semb
unt u
Ġann iversary
ih ad
pro duct
Ġtrans it
Ġrest ore
Ġexpl aining
Ġass et
Ġtransfer red
Ġbur st
ap olis
gg ed
b et
yl um
erv es
Ġme ets
wh ite
Ġcorrespond ing
Ġins isted
Ġsurround ed
Ġt ens
Ġl ane
Ġco inc
h ome
Ġexist ed
ect ed
lam m
Ġske pt
ex p
Ġper ception
ie v
o ft
Ġadop t
Ġsatell ite
Ġinf ant
d escription
c m
oc a
act or
Ġtob acco
em ption
Ġfl esh
Ġj e
o op
Ġbe ating
an im
Ġgather ing
Ġcult iv
ab e
Ġbad ly
pro t
Ġcho osing
Ġcontact ed
Ġqu it
Ġdist ur
Ġst ir
Ġto ken
Ġfunction ality
s ome
Ġlimit ations
Ġmet h
b uild
con fig
re ll
ble m
Ġveter ans
Ġtrend s
are r
m ay
Ġwond ering
n ormal
Ġsepar ated
Ġdes p
st ic
b rew
Ġrel ating
Ġenthus i
g ood
d eb
Ġactiv ist
Ġm art
Ġexplos ion
Ġins ight
Ġconven ient
Ġcounter part
su pport
ag en
Ġoverse as
Ġpr ide
n ote
m g
Ġdispl ays
cont ent
Ġtravel ing
Ġhosp itals
Ġdefend ant
Ġstream ing
m ble
uk i
Ġdist ribut
Ġant ib
Ġch ocolate
Ġinter rupt
Ġconvers ion
Ġbug s
li est
com mon
ak h
ot ton
Ġam endment
Ġgame play
od a
Ġhigh lights
Ġir re
Ġball s
Ġdemand ing
st op
on ia
z one
iz ers
Ġaward ed
Ġregul atory
pl ing
Ġs our
us ive
Ġf et
Ġautom atic
Ġf er
vern ment
f ather
Ġextraord inary
th rop
Ġsex ually
Ġdesk top
it ivity
Ġo rient
Ġe ars
ob by
ous es
vertis ements
Ġmanufacture rs
ic ient
min ute
Ġconv iction
Ġg arden
p ublic
Ġsatisf ied
f old
Ġin hab
Ġprogram me
Ġst omach
Ġcoord in
Ġh oly
Ġth reshold
Ġr het
Ġser ial
Ġemploy ers
ra h
Ġb other
Ġbr ands
Ġp ink
s a
re ck
ot te
Ġland ed
g ets
Ġprodu cers
Ġhealth care
Ġdomin ant
Ġdest ro
Ġam ended
ch ron
Ġf its
Ġfight s
Ġtox ic
spe cific
Ġtele phone
Ġmyster ious
aun ch
od ox
med ia
Ġwitness es
ag u
Ġquestion ed
ene z
Ġend orse
iat ric
Ġridic ulous
Ġpr ayer
Ġscient ist
Ġunder ground
m are
w ich
Ġsubsc rib
Ġhost s
Ġer r
Ġgr ants
ant om
Ġsum mon
ear ly
Ġsusp ension
Ġguarant eed
app er
Ġr ice
Ġrefere ndum
Ġfl ed
r ust
ter y
Ġsh ocked
Ġpart ly
Ġign or
Ġtrans mission
Ġhom osexual
ivers al
Ġhop efully
Ġless on
t able
app ropri
re tt
Ġbo ards
Ġincor rect
Ġb acteria
ar u
am ac
Ġsn ap
Ġpar ad
t em
he art
Ġav ailability
Ġw isdom
Ġpri est
Ġsp an
Ġparam eter
Ġconv ince
r ac
Ġf o
Ġsafe ly
Ġconver ted
Ġres erve
Ġhe aling
Ġin herent
Ġinteg rated
Ġpip eline
Ġapp lying
Ġem bed
Ġc ave
Ġcons ensus
Ġre wards
Ġpopular ity
look ing
Ġelect ron
clus ions
Ġinteg rity
Ġexclus ively
Ġgr ace
Ġtort ure
Ġburn ed
tw o
Ġent reprene
raph ics
Ġg ym
ric ane
Ġadministr ative
Ġmanufacture r
Ġ vel
Ġisol ated
Ġback up
Ġpromot ing
Ġcommand er
Ġfle e
Ġforg otten
Ġres idence
m ons
Ġrese mb
Ġw and
Ġmeaning ful
Ġb ol
Ġhe lic
Ġwealth y
Ġr ifle
str ong
row ing
pl an
as ury
Ġexpand ing
Ġrece ives
eat ures
Ġbrief ly
ri ve
Ġstim ul
Ġch ip
Ġha z
Ġpri ze
ul in
d ict
ok u
Ġassoci ate
ock ets
y outube
ateg ory
Ġm ild
ail ing
or ig
Ġpropag anda
Ġan onymous
Ġstrugg led
Ġout rage
r ary
Ġle ather
Ġworld s
Ġbroad er
id al
Ġt ear
Ġpropos als
Ġit er
Ġvol unt
m i
p in
Ġspeak ers
Ġb orders
Ġfig ured
Ġsimultane ously
aed a
Ġcharg ing
Ġur ged
Ġcon j
mer ce
Ġdocument ary
it ol
h att
ane ous
ap ore
Ġt anks
Ġless ons
tr ack
Ġout standing
Ġvolunte ers
Ġsp ray
Ġmanag ers
l arge
Ġcamp s
Ġart ificial
Ġb ags
th al
Ġcompat ible
Ġf ed
Ġarg ues
Ġunf air
Ġcor n
Ġoff set
Ġdirect ions
Ġdisappoint ed
Ġview ing
oc ity
Ġtown s
Ġlay ers
Ġro lled
Ġjump ed
Ġatt ribute
Ġun necess
inc oln
Ġsupp ose
ch a
Ġbur ied
Ġsix th
ress ing
Ġw ound
Ġcy cl
Ġmechan isms
Ġcongress ional
Ġagre ements
Ġdec or
Ġclos est
Ġm ixture
Ġflu id
Ġp ist
ask et
ab ling
Ġrac ing
he ro
ri el
ass y
Ġche aper
b en
Ġvert ical
amac are
g ments
Ġhelic op
Ġsacr ifice
ay a
p aren
Ġviol ations
ac er
Ġcomp osition
Ġtext ure
Ġsmart phone
Ġfor b
im port
Ġdef ending
il st
re r
Ġo h
Ġbank ing
cept ions
Ġrespect ive
Ġdr inks
Ġb ands
Ġg rip
Ġopen ly
Ġreview ed
per t
Ġver ify
Ġun pre
Ġshel ter
Ġgu i
Ġsuggest ions
Ġexplicit ly
Ġsl ave
Ġblock chain
Ġcompet ing
Ġprom ising
Ġsoc cer
Ġconst itution
Ġdist ract
es ides
Ġaccompan ied
s ur
al og
Ġident ification
Ġinv asion
as ma
Ġindust ries
pp ers
Ġsub tle
n atural
Ġsurv ived
Ġfl aw
Ġº Ġ§
Ġdef icit
Ġtut orial
Ġarg uing
Ġcontem porary
Ġinteg ration
for ward
Ġt um
it is
Ġh iding
Ġspokes person
Ġemer ging
Ġprepar ation
Ġpro st
Ġsuspect s
Ġaut onom
Ġdeal t
Ġstead y
Ġdecre ased
Ġso vere
Ġgrad ually
ors es
h r
Ġd irty
Ġd il
Ġcal endar
Ġcompl iance
Ġch amber
b b
Ġpass enger
ate ful
Ġdark ness
Ġdef ect
Ġpack ed
ass ion
Ġgod s
Ġh arsh
le ans
Ġalgorith m
Ġoxy gen
Ġvis its
Ġbl ade
Ġkil omet
Ġkill er
enn y
Ġdiv ine
Ġnom ination
be ing
Ġeng ines
Ġc ats
Ġbuff er
Ġtra ff
Ġtong ue
Ġrad iation
ere r
m em
Ġcou ples
Ġphys ics
Ġpolit ically
aw ks
Ġwor ship
e ger
ut er
Ġmat hemat
Ġsent enced
Ġdis k
Ġoption al
Ġbab ies
Ġse eds
Ġth y
ng th
Ġrec overed
ing e
Ġpow der
Ġl ips
Ġdesign er
Ġdis orders
Ġcour age
Ġch aos
Ġcar rier
b ably
es ity
l en
Ġrout es
u ating
w all
s burgh
Ġeng aging
ore r
li hood
Ġun ions
Ġcomple tion
Ġprivile ge
Ġne ur
paren cy
Ġb ones
Ġtit led
Ġprosecut ors
Ġengine er
n ie
o ard
Ġheart s
uss ion
Ġmin istry
Ġpen et
in stein
Ġbul k
ic ism
Ġpre val
Ġpost er
Ġatt ending
ur able
Ġlicens ed
et ry
Ġbl ast
ell ed
d ie
Ġprof ound
Ġparticip ating
Ġan ime
Ġspec ify
Ġregard ed
Ġs ons
own ed
Ġm erc
Ġexper imental
land o
h s
in os
Ġcomp ly
ar th
Ġse ized
l ocal
ud o
on ed
Ġconstruct ed
Ġhost ed
Ġsc ared
act ic
Ġbl ess
Ġblock ing
Ġch ips
Ġev ac
Ġcorpor ation
Ġo x
Ġlight ing
Ġneighb ors
ar o
Ġbe ef
ar med
it ate
Ġoccup ied
Ġaim s
Ġdram atically
Ġhe al
Ġpain ting
Ġengine ers
Ġquant ity
Ġearn ings
st ra
Ġst ance
Ġdro pping
sc ript
Ġd ressed
Ġjust ify
Ġprompt ed
Ġscr ut
Ġspeed s
om er
Ġdescrib ing
ment ed
Ġnow here
oc aly
Ġinst ruction
fort able
Ġent ities
Ġc m
Ġinqu iry
Ġpress ed
iz ont
for ced
Ġra ises
Ġout er
Ġamong st
im s
ows ki
Ġclim b
ne ver
Ġcomb ine
d ing
Ġcomp r
Ġsignific ance
Ġremem bered
Ġcou p
b as
Ġtermin al
Ġt ension
Ġw ings
val id
viron ments
Ġn aked
book s
Ġd ensity
Ġdim in
Ġdesper ate
Ġpres idency
h y
Ġun lock
im ens
Ġhand led
Ġdisapp eared
Ġgen re
Ġdetermin ation
ik o
ap ters
Ġacknow ledge
Ġcapital ism
Ġpain ful
Ġcur ve
Ġbom bs
st orm
en cer
anc hes
Ġins piration
Ġexha ust
t ains
ash i
Ġdesc ript
Ġr itual
Ġpromot ion
iv a
Ġto ss
all ow
Ġhapp iness
Ġbet a
Ġstreng then
o a
Ġbutt ons
Ġkick ed
Ġdr one
ul k
Ġc am
Ġprevent ing
Ġret ro
Ġcru el
Ġflo at
Ġfil ing
Ġr ib
Ġchampions hip
Ġsty les
Ġc ake
Ġbuild s
io x
Ġep ic
oy d
ah u
Ġout s
Ġsol o
Ġpres erve
Ġt ub
ro c
Ġbu nd
Ġtr aged
Ġoccas ional
b ian
r ons
Ġinter actions
form ed
s ing
Ġown s
Ġh ockey
Ġlog ical
Ġexp end
Ġesc al
Ġsto pping
Ġexc use
sec ond
Ġoper ated
Ġre aches
Ġpoll ution
Ġde lete
Ġhas h
ah a
Ġsh orter
p iece
Ġh orm
Ġprohib ited
Ġint ensity
Ġli ability
and ed
Ġneigh bour
Ġf ires
Ġrevolution ary
f ly
Ġsett le
Ġexec ute
Ġspokes woman
Ġlif estyle
Ġclick ing
Ġtra iler
Ġmount ains
Ġdam n
z es
p es
Ġpress ing
Ġb ail
Ġp ir
Ġth irty
Ġelect rical
Ġdemand ed
Ġback ing
def ault
spe ed
Ġmother s
Ġvar iation
ced ented
p owered
le ading
Ġg rave
Ġinterview ed
Ġrook ie
u u
Ġdep os
ix on
Ġam pl
ret ion
Ġpeace ful
ie ve
Ġd iver
Ġm ic
p df
Ġst ating
Ġl ung
Ġcritic ized
Ġvacc ine
ur se
Ġdetect ed
Ġadjust ed
Ġsen ator
Ġopp osing
Ġconflic ts
Ġo w
Ġmatch ing
h h
st arter
od er
xx xx
ac re
Ġs rc
Ġeng agement
Ġexecut ives
Ġliber ty
j ava
Ġtal ented
igen ous
Ġcon secut
Ġhor rible
Ġsurprising ly
f eed
ic ating
Ġfem ales
ell er
Ġmechan ical
i ology
Ġrob ust
ett ings
ott a
Ġthe oret
Ġret ain
k ward
Ġd a
Ġdeploy ed
d el
Ġsubsc ribe
we b
Ġn a
Ġpart ially
Ġc rown
r ator
Ġdocument ed
g i
che ll
Ġbrut al
st ration
Ġthe ft
Ġt ube
Ġqu ery
Ġpublish ing
Ġw ore
or ical
Ġr ic
Ġnot able
Ġsubsequ ently
ne x
Ġobser ve
Ġc odes
m ain
Ġresident ial
av an
Ġm as
are st
ade on
Ġsoph istic
ant e
Ġc ens
Ġmort ality
Ġyour s
Ġoccas ions
Ġrec alled
Ġv ocal
Ġbath room
Ġsh ops
Ġcollabor ation
Ġt ends
Ġt orn
Ġeconom ics
a very
Ġshould ers
Ġexpect ing
Ġexam ination
en ame
i ability
ol as
Ġmid field
Ġlay out
Ġflo ating
f i
it ative
Ġtremend ous
Ġab und
Ġsimilar ly
Ġconserv atives
Ġpr ay
iz arre
Ġt empt
Ġemphas is
Ġf ishing
Ġmar ry
ne g
Ġrec k
Ġdis pos
on ing
bs ite
Ġsusp ic
Ġmer ch
w he
Ġen vironments
oot ing
e u
Ġreflect s
Ġh oney
Ġanaly st
Ġg ut
d ec
Ġhousehold s
Ġst er
Ġtem ple
Ġreform s
Ġfavour ite
Ġdead line
Ġnight s
elt a
Ġinv alid
w hen
inc ome
Ġwire less
sc ribe
ist a
Ġhost ile
Ġall y
Ġg ig
Ġout lets
Ġas h
Ġab stract
Ġadv iser
ist le
Ġb ases
Ġcourt esy
Ġcross ing
Ġcle ared
Ġrefuge e
cos ystem
Ġthrow s
f un
bour ne
d ays
Ġdisag ree
Ġreflect ed
Ġembr ace
Ġappoint ment
it ement
Ġpl acing
Ġb icy
Ġwh is
Ġinvestig ated
Ġphotograph s
g ithub
ig hed
i ar
Ġev olved
eral d
Ġd un
Ġh ub
Ġencour aging
Ġpro secution
Ġp ants
az y
l ive
Ġfoss il
Ġro cks
ud ge
Ġg reet
b ie
Ġf illing
Ġdi abetes
Ġfire arms
um ing
enez uel
Ġaccept ing
Ġres ort
Ġh unt
ri k
uck er
am ents
Ġsust ained
Ġcross ed
Ġbreak fast
Ġatt ributes
lect ed
at ile
Ġv ibr
ars on
op les
Ġtou ched
Ġdam ages
Ġimp ressed
ru p
Ġan ch
Ġmount ed
Ġdelic ious
sp an
ell a
Ġel abor
am ples
Ġdef ic
Ġconstit u
u ates
b es
h ill
mun ition
Ġconfirm ation
ac ent
Ġj et
n an
Ġprocess or
Ġpat ri
Ġreal istic
Ġappear ing
Ġp ipe
om ed
Ġf ru
Ġaw ful
Ġeval uation
Ġintellig ent
Ġfund ra
od ium
Ġtwe ets
Ġwor n
pr ing
Ġkid n
Ġreb els
Ġacqu isition
omb ies
Ġtrad em
Ġad verse
s ign
Ġorgan isation
en c
ap or
Ġscr atch
Ġsens or
Ġadop tion
Ġhonest ly
Ġy ard
Ġpat ent
Ġb ass
Ġquiet ly
Ġbreat hing
Ġp ose
i ors
st atic
Ġj ew
w cs
Ġpre view
ipp i
Ġunf ortunately
oke mon
Ġh orn
Ġre ass
Ġpe er
ock er
Ġunt o
Ġclean ing
Ġattract ed
k ill
ur ches
Ġhor r
Ġworth y
Ġfl owers
t own
d ll
Ġre actions
Ġde ce
Ġindic ating
Ġpre ference
ess ional
g ence
Ġm isc
Ġfree ly
Ġmus cles
Ġline up
Ġimpact s
ous ing
om i
ac ular
Ġcontro lling
ag ine
c ery
he ll
Ġrank ing
Ġhigh way
Ġinc ons
Ġb inding
Ġstrugg les
Ġgr ay
r in
Ġcom ics
Ġrel atives
Ġfr ight
Ġpro be
Ġv oc
Ġt u
Ġposs ibilities
Ġqual ify
wcs store
Ġl ibraries
Ġm igrants
Ġent ries
Ġconsecut ive
v als
Ġh ill
Ġinequ ality
f ox
Ġc ort
claim ed
Ġtra its
Ġp our
Ġmiss iles
Ġess ence
Ġs ends
Ġall iance
Ġw ishes
s an
ur red
ll y
Ġadvoc ate
Ġdistrict s
r idge
bo ards
Ġinflu enced
ap y
Ġchalleng ed
Ġb arg
Ġfac ulty
Ġacqu ire
Ġin sect
Ġinstr uments
Ġle af
th odox
Ġt ale
Ġthere by
Ġtra p
Ġstrong est
is ible
ethe less
Ġflex ible
Ġkill s
Ġfin ishing
Ġredu ces
Ġep id
Ġorient ation
f ull
Ġtr ace
Ġl aser
Ġopp ose
Ġed iting
Ġmoment um
sh ow
Ġmurd ered
ut her
Ġprob ability
Ġrel uct
Ġadequ ate
um ph
Ġo k
Ġoper ators
Ġmod es
Ġdiscipl ine
Ġor al
em ail
Ġhe nce
Ġover l
d ig
Ġintim id
Ġr anging
th a
Ġdist ant
Ġf ib
hatt an
ra it
Ġwra pped
Ġchemical s
Ġfro zen
Ġind irect
Ġuncom fortable
ond uct
Ġconsequ ence
Ġbit ter
p op
Ġcount less
ff ff
Ġdepart ure
Ġref und
i ated
Ġsee ks
Ġmechan ics
Ġjurisd iction
lyn n
Ġal ike
ath on
Ġres olved
Ġc ache
Ġdist inction
d irect
Ġenc ount
ou b
be at
se arch
Ġcontin uous
Ġmod est
th ood
Ġcrim inals
Ġindic ation
Ġencount ered
l ast
Ġide ology
sec urity
Ġh iring
Ġp ig
aun t
Ġpen alties
Ġcap ability
Ġp y
Ġproduct ive
Ġbal anced
cl ick
olit an
od s
Ġafter wards
Ġplay offs
Ġback s
p ub
t ag
Ġabs urd
p iring
Ġc iting
Ġtr illion
Ġoblig ation
Ġmax im
ah oo
c f
um i
Ġpursu ant
in itely
Ġf ract
ent ry
ber y
Ġaw kward
Ġwal let
ari os
Ġrele asing
Ġed ited
Ġaccompl ished
Ġed ges
Ġplan es
Ġfeed ing
Ġdiscl osure
Ġgr ain
air y
o ons
ern and
Ġreason ably
Ġdr um
Ġpart ial
Ġgraph ic
Ġunpre cedented
Ġadv ised
point s
sc ar
tt es
v o
Ġfix es
Ġca ution
Ġstr ings
Ġpan els
Ġle ak
Ġpr icing
row th
f ix
Ġobserv ations
Ġsuggest ion
Ġbar rier
Ġpain ted
im ir
p ot
orne ys
Ġcomp ound
Ġbe ars
Ġlux ury
Ġor bit
Ġex empt
oc used
umin um
Ġb ust
Ġend less
ke ys
def ine
le an
Ġcomm od
Ġreven ues
Ġfurn iture
Ġcast ing
Ġdiplom atic
Ġmod ify
Ġinnov ative
n or
Ġbond s
Ġcoach ing
Ġmod ules
Ġenh anced
Ġproceed ings
Ġteam mates
ard o
Ġcomprom ise
Ġfle w
Ġunnecess ary
Ġdoct rine
re port
Ġplay off
friend ly
Ġcompl ain
Ġbeat en
Ġg olf
Ġpl acement
Ġnews letter
vis or
raw l
Ġact ed
Ġju ice
Ġdec ks
su ccess
Ġdele ted
Ġsec rets
Ġas ylum
Ġd ys
Ġassum ing
Ġman a
Ġsub ur
r ide
c p
Ġdifficult ies
Ġcollect ing
Ġbank rupt
n on
Ġcomp osed
Ġvol t
Ġmilit ants
t or
Ġpartic les
ry ption
Ġad min
Ġsqu ee
Ġcreat or
iam eter
ic ular
Ġgrab bed
Ġn odd
Ġr ated
Ġrot ation
Ġgr asp
Ġexcess ive
Ġinvent ory
ault s
Ġe cosystem
Ġbill ions
Ġvent ure
n amed
Ġdef ender
out e
ir able
Ġassum ption
Ġb ite
Ġearth qu
t ail
sp ace
Ġgif ts
boy s
Ġinev itable
Ġstruct ural
Ġbenef icial
Ġcompe lling
h ole
erv ation
Ġco at
o j
inc arn
Ġdetermin ing
Ġrhet oric
Ġbound aries
Ġwh ites
add y
ra ham
eter min
Ġhar vest
Ġlapt op
Ġenjoy ing
cc a
oll ar
Ġtri ps
Ġadd iction
Ġpow ered
Ġc ous
ie re
Ġret rie
qu ality
Ġdiff er
Ġking dom
Ġcon clusions
Ġtrans parent
Ġinf er
Ġint rig
Ġins ane
oph ob
is en
qu al
Ġm useum
Ġres et
r ative
f ive
Ġagg reg
itte es
osit ory
Ġcar b
Ġdec ides
Ġexcept ions
un s
Ġlegend ary
ist ence
Ġtun nel
k m
Ġins ult
Ġt roll
Ġsh ake
Ġdet ention
qu es
Ġsub t
Ġprospect s
Ġpro l
re nder
pro of
Ġperform ances
Ġh ref
ern ame
Ġachieve ment
Ġf ut
go ogle
amp a
Ġproject ed
Ġcol leg
Ġa wards
if ting
Ġp ending
Ġinst inct
Ġdevelop ments
prof ile
Ġalt ogether
oo oo
amp ed
ip h
Ġste am
Ġold est
Ġdet ection
ul pt
f a
Ġcir cles
Ġdon ors
appropri ate
j amin
Ġmotiv ated
Ġpurch ases
Ġgl obe
z ip
c all
Ġdepart ments
Ġsustain able
if iers
Ġprevent ed
Ġinc omp
Ġdom inated
Ġinvest ed
Ġcomplex ity
Ġin cl
Ġens uring
Ġreal m
yn c
r ained
Ġat he
Ġspec ulation
oc ate
t ic
Ġpl aint
her ry
Ġto y
Ġpl ates
st atus
Ġdev oted
ur rency
Ġsl aves
Ġpe pper
Ġqu otes
Ġce iling
Ġtrans formation
Ġfra ction
Ġadvant ages
Ġto ile
Ġstun ning
Ġmo ist
bre aking
s i
Ġtext s
Ġu gly
Ġb io
Ġtr ains
ades h
ob i
Ġtempor arily
h u
os er
Ġover night
Ġm amm
Ġt ar
Ġexpect s
bl ack
or ph
Ġaccept ance
Ġrad ar
s is
Ġjun ior
Ġfram es
Ġobserv ation
ac ies
olog ically
Ġsent ences
Ġanaly sts
augh ters
force ment
Ġv ague
Ġcl ause
Ġdirect ors
Ġeval uate
Ġcabin et
Ġcl er
Ġresear cher
Ġpoor ly
Ġexperien cing
Ġfre ed
Ġthem es
ad vant
Ġn in
Ġpra ise
b est
Ġtrust ed
Ġce ase
Ġd ign
Ġbomb ing
Ġm igration
Ġmunicip al
Ġgl ory
Ġreve aling
Ġare na
Ġuncertain ty
Ġbattle field
ia o
Ġc inem
ra pe
el le
ap ons
Ġlist ing
Ġwa ited
Ġsp otted
ke ley
e or
ard ing
idd ing
ig ma
Ġl one
ex e
d eg
Ġtrans f
Ġwas h
Ġsl avery
Ġexpl oring
ats on
Ġen cl
l ies
Ġwood en
um my
Ġbureau cr
Ġbl end
ar ians
Ġsupposed ly
Ġwind s
Ġgrav ity
Ġanalys es
Ġd umb
Ġaltern ate
g al
Ġconsum ed
Ġeffect iveness
Ġpath s
ond a
Ġen ables
Ġesc aped
Ġsm iled
Ġtend ency
Ġp ars
Ġl ake
Ġf itness
Ġh ier
Ġimp ose
m other
Ġp ension
ic ut
bor ne
ic iary
Ġpol ar
is y
eng u
itial ized
w rite
Ġexerc ises
ot ypes
Ġharm ful
on z
Ġprint ing
st ory
Ġexpert ise
Ġtraged y
Ġd ivid
amp ire
st ock
Ġre ign
Ġun ve
Ġam end
Ġmut ual
Ġrepl acing
Ġthro at
Ġbatter ies
Ġto ll
Ġaddress ing
Ġp upp
ol k
Ġequ ity
m id
Ġexp ed
Ġdem o
erg us
Ġf iber
Ġdiv orce
Ġsl ower
Ġc ub
Ġpan ic
Ġqu arters
Ġre ct
Ġtreat ing
Ġr ats
ol er
Ġsac red
Ġdecl are
ul ative
et ing
Ġdeliver ing
est one
Ġt el
Ġmet a
ac cept
art z
hand ed
Ġhead er
Ġtra pped
Ġkn ocked
Ġsurviv ors
b ot
Ġdemon stration
Ġd irt
Ġass ists
ortun ate
fol io
pe red
ust ers
g t
Ġjud icial
ver ted
Ġsec ured
out ing
Ġhost ing
Ġlif ted
l ength
Ġj er
Ġwhe els
umbn ails
Ġdiagn osis
te ch
Ġnation wide
Ġde ar
Ġoblig ations
Ġgrow s
Ġmand atory
Ġsusp icious
Ġmort gage
Ġprosecut or
Ġeditor ial
Ġprocess ed
ung le
Ġflex ibility
Ġfoc uses
Ġstart up
Ġbre ach
cy cle
ro se
Ġb izarre
Ġveget ables
Ġret reat
osh i
uff er
enn a
Ġproduct ivity
cont rol
Ġabs ent
Ġident ifying
Ġreg ret
Ġpromot ed
Ġer u
ne ath
aug hed
om atic
me ga
oc y
Ġin box
Ġem pire
Ġhor izont
Ġbr anches
Ġmet aph
ed i
Ġmod s
inc ial
Ġspir its
Ġear ning
Ġr iders
Ġsacr ific
Ġoccup ation
Ġdis g
lic t
Ġn it
Ġn odes
e em
Ġhat red
ps y
Ġthe ater
Ġsophistic ated
Ġdef ended
Ġbes ides
Ġthorough ly
Ġbl amed
arent ly
Ġcry ing
pri v
Ġsing ing
Ġc ute
o ided
olit ical
Ġdon ation
Ġsubstant ially
Ġg rey
Ġke en
Ġconclud e
o vers
ll ers
Ġr ou
ert o
iss a
iv an
Ġse al
dis play
Ġwe aken
u um
Ġcult ures
Ġl aughed
Ġsl ip
Ġtreat ments
iz able
m art
Ġbe ast
Ġob esity
ig a
hold er
Ġelder ly
Ġp ays
Ġcompl ained
Ġc rop
Ġpro c
Ġexplos ive
ef ul
Ġme als
id ays
Ġimag ination
Ġann ually
Ġm s
as ures
ik h
m atic
Ġboy friend
Ġb ump
Ġsur ge
medi ate
Ġscen arios
Ġcompet itors
az ed
b age
Ġorgan is
Ġsepar ately
Ġha bits
Ġmeasure ments
Ġaccomp any
Ġg ly
Ġt ang
Ġplug in
Ġcon vey
oot s
j an
Ġcur s
ke eper
Ġapproach ing
p ing
Ġarrang ement
are ttes
Ġaffect ing
Ġperm its
b ecause
Ġu seless
Ġdestro ying
Ġfasc inating
Ġelect oral
Ġtrans parency
Ġvolunte er
Ġstatist ical
Ġactiv ated
ro x
is ive
Ġtr ash
st ick
Ġr ings
Ġoper ational
op es
Ġwitness ed
Ġlaunch ing
ec onom
w ear
um m
cul es
Ġass ured
Ġb inary
Ġbet ray
Ġexpl oration
Ġad mission
it ated
Ġav oided
Ġcelebr ated
Ġcl uster
itzer land
he alth
at on
Ġsp are
Ġenter prise
clud es
Ġfl ights
Ġreg ards
h alf
Ġtr ucks
Ġcontact s
Ġunc ons
Ġimm ense
oc c
ect ive
Ġemb od
Ġpat rol
Ġbes ide
Ġv iable
Ġcre ep
Ġtrig gered
ver ning
Ġcompar able
q l
Ġg aining
ass es
s ized
Ġpros per
Ġpoll ing
Ġsh ar
Ġfire arm
or ient
Ġf ence
Ġvari ations
g iving
osp el
Ġpled ge
Ġc ure
Ġsp y
Ġviol ated
Ġr ushed
Ġstro ke
sel s
Ġp ale
ter ror
Ġt une
Ġlabor atory
Ġn ons
t arian
Ġdis ability
Ġsing er
al g
Ġtrad ed
Ġinf ring
Ġstr ain
Ġsevent h
Ġsynd rome
Ġwond ered
id en
ig o
Ġpur ple
Ġjournal ism
Ġreb el
Ġf u
bl og
Ġinv ite
ren cies
Ġche er
Ġbed room
Ġd well
l r
Ġoper ates
Ġmotiv ation
ast ered
ol o
Ġpred ec
Ġan arch
b id
Ġgr ateful
Ġexc itement
Ġtre asure
Ġlong est
ct ive
Ġdes erves
Ġreserv es
Ġcop s
ank ed
Ġart if
Ġhypot hesis
Ġpurch asing
Ġlove ly
Ġdiv ide
Ġstrict ly
Ġquestion ing
Ġtaxp ayers
Ġroll s
Ġp orts
Ġmag netic
Ġinf lamm
Ġbr ush
t ics
Ġbott les
pp y
Ġp add
m illion
Ġdevast ating
Ġcomp iled
Ġmed ication
Ġtw elve
im b
y our
Ġle aked
Ġun ity
Ġinfect ed
Ġtravel ed
t xt
Ġinter ven
Ġbe aring
Ġz ones
iz ards
un ks
ll or
Ġw ounds
Ġdisc retion
Ġsucceed ed
ik ing
Ġicon ic
Ġscreen ing
ict s
Ġmin isters
Ġsepar ation
Ġb ip
Ġbel oved
Ġcount ing
ar ound
ing ing
Ġtable t
Ġoff ence
in ance
h ave
Ġprotect ive
Ġ ic
Ġfast est
ot os
Ġbo om
ergus on
Ġcle ver
Ġent ers
m ode
ter ior
Ġlin ear
Ġcomp aring
Ġpure ly
Ġsaf er
Ġc ups
Ġgl uc
Ġatt ributed
Ġdu pl
Ġprec ious
Ġp a
iction ary
ol utions
st an
Ġrob ots
Ġlob b
Ġstat ute
Ġprevent ion
w estern
h al
ell ar
ang o
ac ious
Ġth ou
Ġk g
Ġinflu ential
ain ted
Ġfor ums
Ġst arter
Ġcitizens hip
on ge
ot ation
os ph
ut ical
p ur
ere n
Ġaccus ations
bit ious
ab bit
ir k
Ġsens itivity
ic he
Ġsum mit
Ġped est
Ġrub ber
Ġagric ultural
Ġcan cel
Ġin aug
Ġcont am
Ġfirm ly
i w
st age
Ġt ier
Ġinv ention
Ġtransl ated
Ġp izza
Ġdeb ug
v s
Ġh orses
b ig
Ġb oring
Ġh ood
at ched
Ġsk ip
Ġess ay
st at
Ġam munition
au c
Ġshoot er
Ġun h
Ġsuppl ied
Ġgener ic
ib an
yr ics
Ġclim bing
Ġfl ip
Ġjump ing
Ġfrust ration
Ġneighborhood s
Ġmed ian
be an
Ġbr ains
Ġsh aped
Ġdraw s
Ġal tered
Ġrecip es
Ġsk illed
we alth
ach i
e lection
Ġbehavi ors
de als
Ġdecl aration
mar ks
cel ona
Ġres on
Ġbub ble
Ġim perial
Ġfemin ist
Ġaccount ing
Ġconnect ing
Ġre hab
s im
Ġmeant ime
Ġphys ician
Ġcontribut ing
Ġinter active
Ġv ag
Ġhel met
f our
Ġsh ipped
Ġcomple ting
Ġspread ing
Ġsc ary
erv ing
Ġfr ank
s chool
Ġrom antic
Ġstab il
Ġaccur ately
Ġac ute
Ġsymbol s
Ġcivil ization
Ġlight ning
Ġcons iders
Ġven ue
Ġo ven
h is
Ġn u
Ġpe oples
Ġst d
Ġsle e
Ġs lic
Ġcor ners
ment ation
ol ver
Ġlaugh ing
ond e
Ġn uts
pl ane
Ġl iver
Ġagre es
Ġfund ament
Ġa uction
Ġthread s
gl as
Ġlack ing
Ġceleb ration
j u
Ġs illy
Ġt att
ight y
cont rolled
Ġr age
Ġrh yth
o ffic
Ġhead lines
Ġrespond ing
Ġvit amin
Ġboot s
al in
p i
Ġvir al
Ġst ocks
c urrent
Ġch urches
Ġden ial
Ġtou g
Ġn ick
Ġm akers
Ġgener ous
Ġtransform ed
Ġw rap
Ġl oving
Ġarri ves
Ġhe ter
Ġrent al
Ġbelong s
Ġatt orneys
Ġcro ps
Ġmat ched
ul um
ol ine
Ġdis par
Ġbuy ers
Ġeth ics
rou ps
Ġjust ified
Ġmarg inal
Ġrespect ed
win ning
Ġnodd ed
Ġd ash
et e
Ġent ert
out heast
Ġkn ees
Ġr ug
Ġatt itudes
go vernment
Ġqual ities
Ġnot ification
l ie
Ġanticip ated
on er
Ġcomput ing
Ġless er
Ġpe ers
Ġtechn ically
Ġsub mission
Ġman ually
our ge
Ġrespond ents
Ġf are
Ġrece ipt
al so
Ġj ack
Ġagric ulture
Ġsk ull
Ġpass ive
Ġsoc ieties
Ġremind ed
Ġinter ference
g on
Ġscrut iny
Ġconduct ing
Ġexch anges
Ġinhab it
Ġtw ist
Ġwhere ver
group on
Ġj okes
fr ame
Ġhighlight ed
Ġp ile
Ġpre lim
g s
mind ed
Ġfel ony
Ġpract ically
Ġact ress
Ġvis a
Ġembed ded
Ġhy brid
Ġear liest
Ġsoon er
s ocial
Ġste ep
Ġdis advant
Ġexplo it
Ġnecess ity
ie ge
Ġd ated
Ġmass es
Ġsubsc ription
pl ess
Ġan onym
Ġpresum ably
asket ball
Ġcom ed
load ed
r ane
Ġref lection
Ġext ends
Ġform ing
Ġund ers
Ġgr at
Ġconcent rations
Ġins ulin
Ġsec ular
Ġwh ilst
Ġwin ners
Ġdeliber ately
Ġs ink
et ics
d ale
Ġmand ate
Ġg ram
Ġvac ation
Ġwarn ings
ri pp
Ġcomment ary
Ġint u
Ġa est
Ġreason ing
Ġbreak down
c ott
Ġthr ust
Ġtechn ological
Ġdec iding
Ġtraff icking
pr ising
Ġend ors
Ġsw ift
Ġmetab ol
co ins
res a
Ġen roll
us r
int age
u ably
Ġrepe al
k h
Ġunder neath
sh ore
Ġdiagn osed
ace utical
Ġsh ower
au x
Ġj ihad
n ational
Ġtra uma
uss y
on i
Ġcons olid
Ġcal ories
ag ged
Ġfulf ill
Ġch ains
Ġnot ably
m us
Ġdep osit
Ġaff air
ie val
Ġt rop
Ġvirt ue
Ġsatisf action
au nd
Ġl un
pro cess
Ġsh ook
Ġcount ies
le ased
Ġtrans cript
Ġre dd
p ush
Ġaltern atives
ard less
Ġele ph
Ġpre jud
Ġexpress ions
Ġshock ing
Ġread ily
Ġplan ets
ad ata
Ġcollaps ed
Ġir rit
i pper
Ġbu zz
ash a
Ġaccident ally
ur u
Ġfrust rated
Ġhung ry
Ġlab els
ant o
Ġbar riers
Ġp airs
Ġhum or
Ġmagn itude
Ġag ing
Ġfriends hip
umb ling
Ġemer ge
Ġnewsp apers
Ġam bitious
atern al
Ġcook ies
Ġsc ulpt
Ġpur suit
Ġscript s
p c
Ġarrang ements
Ġd iameter
Ġl oses
am ation
Ġl iqu
aret te
Ġunderstand s
v m
Ġappro ve
Ġw ip
Ġult ra
Ġint end
asc ular
Ġst ays
Ġinvest ing
Ġbelie ving
b ad
m outh
Ġtaxp ayer
Ġl ap
d rop
Ġdr ain
ir i
et c
ft en
Ġst raw
Ġscream ing
Ġcount ed
Ġdam aging
Ġamb assador
cent ury
Ġpro x
Ġarrest s
u v
il ateral
Ġpresc ribed
Ġindepend ently
Ġf ierce
Ġb rave
Ġsu its
Ġbas eline
Ġis lands
g reen
ix els
Ġname ly
th an
am y
g mail
ential s
Ġarri ving
Ġquant um
e ff
rop olitan
Ġfun eral
it ably
Ġt urb
Ġcomb o
Ġdeploy ment
u ity
Ġinv isible
Ġrender ing
Ġunl ocked
Ġa qu
Ġp ad
dr agon
Ġsound ed
Ġdet ained
g ary
Ġd aughters
Ġdistur bing
uk a
Ġt ast
Ġunf ortunate
Ġu l
em in
Ġattend ance
tr l
Ġpar ks
oth y
gu ard
Ġshif ted
ue z
Ġl ighter
Ġc od
ham mad
Ġprot otype
Ġun re
Ġg au
Ġparticip ated
Ġsup rem
Ġvessel s
ro d
Ġt ribe
ke ep
Ġassum ptions
Ġp ound
Ġcr ude
Ġswim ming
Ġin clusion
Ġadv ances
c ulation
Ġconserv ation
Ġover d
ed ge
Ġaw a
Ġsid ew
Ġcat ast
uc le
Ġactiv ation
Ġuncons cious
ill ery
Ġarr anged
i op
Ġrum ors
ur ring
th ink
Ġavoid ing
by n
n ut
r us
n ames
Ġgu ilt
Ġsa il
lev ant
a ft
Ġment ally
Ġimp ress
m ount
Ġintent ions
Ġlike lihood
Ġto ys
Ġur ge
Ġoccur ring
Ġst ones
z b
Ġpolit ician
k ens
Ġab ol
Ġref resh
Ġarbit rary
pe ction
Ġtrou bles
t v
Ġpil ots
Ġdist ribute
Ġaud it
Ġp ause
orig inal
Ġr ivals
ab il
ry ing
ion ed
l on
Ġf ancy
Ġcr ashed
Ġt ract
Ġshe d
Ġcons ume
down load
in it
Ġvolt age
Ġcondem ned
res pect
Ġex cluded
Ġestablish ing
her ic
Ġher itage
Ġspect acular
Ġun st
Ġprotect ions
st ruction
inc inn
Ġmac ro
ios ity
Ġes p
Ġfunction ing
Ġm ush
Ġp uzzle
Ġeth ical
Ġgo verning
Ġrest ored
Ġst ressed
cl ip
Ġse iz
by ss
old own
ap i
Ġperman ently
oun ters
at oes
Ġne at
Ġc ord
ure r
Ġsevere ly
Ġinter rog
Ġtri ple
Ġar ise
Ġs her
pl ant
Ġfl ower
Ġat e
Ġnew er
b ul
Ġmean while
Ġadjust ment
Ġd ivers
i ological
Ġgam ers
o at
Ġhistor ically
Ġanal og
Ġlong time
Ġpres cription
Ġmulti pl
r ants
epend ence
Ġrec y
ate ur
Ġqu ad
Ġgl ob
Ġcon ced
te am
Ġcapital ist
Ġroy al
Ġblack s
met ic
ri v
Ġsp o
Ġanim ated
rypt ed
Ġrend ered
Ġstre ak
Ġcloud s
Ġdisc our
Ġpsych ology
Ġcry stal
Ġsuspic ion
Ġrel ate
or us
com ed
ut ing
incinn ati
Ġvulner ability
ost ic
Ġisol ation
Ġcool ing
se mble
ram ent
Ġcoc aine
ocaly pse
ogen ic
Ġmut ation
Ġcrypt oc
a is
Ġs isters
Ġactiv ate
Ġd read
yl on
Ġprop ri
Ġout door
Ġshe er
ce ive
Ġg ently
Ġve gan
Ġrespons ibilities
Ġprev ents
Ġst iff
Ġathlet ic
Ġcolumn s
av ailable
Ġcompan ion
Ġpack s
Ġf art
Ġstream s
Ġsh ore
Ġapp eals
h aul
z an
Ġtw in
uls ion
Ġelect ro
Ġstat ue
ation ally
Ġins pection
ig ue
Ġcomp assion
g irl
Ġwithdraw al
Ġobject ives
Ġblood y
Ġprelim inary
Ġj acket
Ġdim ensions
Ġw reck
Ġdoub led
ank ing
Ġglass es
pro v
connect ed
agon ist
Ġfe ared
Ġtouch ing
Ġarg uably
che m
Ġsp at
ig ger
Ġattack er
ob ject
ett a
Ġelim inated
d et
Ġdest ruct
ct uary
au kee
Ġtim eline
Ġdeleg ates
w ritten
uff icient
Ġsh apes
ou ble
serv ice
Ġp ione
Ġcolleg es
Ġrow s
Ġsp ite
Ġassess ed
Ġle ase
Ġconfident ial
ck er
Ġse aled
Ġcalcul ate
Ġteen ager
ul ent
ather ine
Ġm ock
Ġd iamond
Ġf est
Ġsw itched
Ġres ume
Ġl anes
ir ation
Ġro d
e ous
Ġvar iant
Ġw ard
br is
Ġexcept ional
Ġman ages
Ġco pper
ut t
Ġex ports
Ġport folio
Ġelev ated
Ġres ur
ven ant
Ġmon etary
pe ople
Ġfif ty
Ġconf using
ud a
uten ant
Ġpra ised
Ġvol umes
t urn
Ġm ature
Ġnon profit
Ġpassion ate
Ġdesc end
uff y
head ed
ri en
ze ch
be it
Ġch rom
Ġd ancing
Ġe leg
Ġadvoc acy
amb ling
Ġprior ities
Ġthere of
Ġsubst itute
Ġlight ly
u its
ys ical
Ġshif ts
Ġd rones
Ġwork place
Ġres id
ens ed
ah n
Ġpref erences
ser ver
Ġdeb ates
d oc
Ġhelicop ter
Ġhon our
Ġconsider ably
ed ed
Ġre un
Ġcondem n
Ġt ender
ocr atic
Ġa pt
d isc
Ġgar bage
in put
k n
Ġtrad itions
Ġad vertisement
Ġarch ive
Ġvill ages
Ġimplement ing
w aukee
Ġdiet ary
Ġswitch ing
Ġvel ocity
Ġc it
Ġfin ancing
Ġlast ed
Ġrem inder
Ġprec ision
Ġdesign ers
Ġtr agic
Ġw ield
Ġiniti atives
w er
Ġjo ins
in ery
Ġar row
Ġgener ating
found er
Ġsear ches
Ġrandom ly
Ġb atch
Ġp osed
l at
Ġpursu ing
as a
Ġtest ified
form ing
w iki
Ġsen ators
Ġanaly zed
op ard
ii i
f ight
Ġign oring
i ang
so ever
Ġref using
Ġswe at
Ġb ay
ir med
ak y
Ġdis pro
Ġlabel ed
Ġple asant
ab a
Ġtri umph
Ġab oard
Ġinc om
le tt
Ġfol k
Ġch ase
Ġte ens
c ue
Ġter rain
h yd
il ight
ew s
ll i
rain ts
Ġab used
ach ment
l arg
Ġsupp orter
ac cess
Ġnew est
ed u
Ġadm its
Ġend e
Ġfail ures
ur ate
ful ness
cy cl
Ġinf inite
th ree
p it
ili ation
Ġcontin ent
Ġaccommod ate
Ġp up
Ġham mer
Ġrev ised
Ġminor ities
Ġmeasure ment
Ġdis able
Ġfor k
Ġimpl ies
umb lr
Ġprote ins
Ġagg ression
Ġfacilit ate
Ġilleg ally
u er
Ġacad em
Ġp uzz
p ay
oll o
Ġaud iences
Ġno ble
Ġsynt ax
Ġbe am
Ġorig ins
v ideo
Ġgar age
Ġver dict
Ġd war
e vent
Ġsent iment
Ġwild life
sh irt
Ġb urg
Ġrecommend ation
rep resent
Ġgall ery
own ers
Ġsch olar
Ġconven ience
Ġconv inc
Ġwar fare
Ġconst itute
Ġab ort
Ġmart ial
Ġinc oming
et ition
Ġtoler ance
Ġfl ows
Ġsoul s
Ġf oul
b c
he nd
Ġgen ius
omet er
p ad
Ġlim iting
Ġvar ied
f in
Ġinv ented
Ġd ive
Ġo z
Ġexp ose
let ters
s ite
im ated
Ġh acking
Ġeduc ated
Ġdep ri
Ġincent ive
Ġovers ight
Ġtrib es
Ġlicens ing
our t
ah l
Ġspecial ist
Ġc ra
ann ers
Ġsum mar
Ġover look
Ġin appropriate
Ġdownload ed
Ġth umb
Ġdemonstr ates
s ky
c end
m atch
Ġgluc ose
ie g
eg u
Ġcert ified
Ġrel ie
Ġhuman itarian
Ġpr ayers
Ġn an
h ou
ul u
Ġrenew able
Ġdistingu ish
Ġd ense
Ġedit ors
Ġm igr
Ġloc ally
Ġlast ing
Ġhand y
Ġt ensions
Ġformer ly
Ġide ological
Ġsens ors
Ġdeal ers
Ġdef ines
Ġproceed s
Ġpro xy
az ines
eal ous
Ġshe ets
omet ry
cl ock
Ġch apters
Ġmill enn
Ġd ough
Ġimag ined
av ior
Ġclin ic
Ġhold er
ro ot
oles ter
Ġrest art
Ġor b
Ġr am
Ġdiscl ose
Ġtransl ate
Ġimm igrant
Ġannoy ing
Ġtreat y
an ium
Ġcrowd s
oh yd
Ġl bs
Ġagg ress
Ġse am
Ġinter cept
mer cial
act iv
Ġdim ension
Ġconsist ency
Ġr ushing
Ġtr im
ick er
Ġsh y
Ġment ions
pe lled
c ost
Ġclass room
Ġfort une
dri ven
Ġun le
Ġinvest or
k it
Ġassoci ations
op ing
us cript
Ġprov incial
av i
Ġun limited
ne red
Ġreven ge
Ġout right
um per
Ġf itting
Ġform ally
Ġproblem atic
Ġhaz ard
Ġenc ryption
Ġstraight forward
Ġp se
Ġloyal ty
Ġl yrics
Ġwel comed
Ġcook ed
Ġmon op
Ġn urse
Ġmis leading
Ġe ternal
Ġshif ting
Ġinst itutional
ill ary
Ġp ant
Ġinc on
Ġdon ated
Ġexhib it
Ġt ire
Ġmob ility
Ġvary ing
Ġl ord
o ak
Ġve ctor
us ions
Ġsc rap
Ġen abling
m ake
Ġsocial ist
Ġc argo
Ġfar ms
Ġmid night
se en
Ġshe ep
Ġspons ored
Ġch arts
d ir
Ġadj acent
Ġtr icks
Ġman ga
Ġex agger
foot ball
and ra
Ġfru its
Ġmid st
ank a
Ġlegisl ature
Ġtour ists
Ġm old
Ġdraft ed
Ġsubst ances
Ġbre ed
Ġt ags
Ġver b
Ġmanufact ured
com ments
Ġdetermin es
k ers
Ġutter ly
Ġse ct
sc he
Ġal uminum
Ġz ombie
Ġsatisf y
Ġpred omin
asc ript
Ġelabor ate
Ġmeas uring
any ahu
Ġs ir
ul ates
id ges
ick ets
oub ted
Ġpre y
Ġinstall ing
re ed
re ated
Ġwr ist
Ġc otton
Ġload s
an as
b one
Ġclass ical
Ġdes ires
Ġaut ism
support ed
Ġcomp act
writ er
c ision
Ġcy cles
Ġdr ill
Ġcolle ague
Ġm aker
Ġmist aken
Ġwhat soever
Ġsell s
l iv
Ġsol ved
Ġse ctors
Ġhorizont al
Ġequ ation
g ement
Ġtradem ark
Ġmake up
Ġassemb led
Ġsa ves
Ġfar ming
accept able
Ġas leep
ull ivan
Ġrefere n
Ġbul lets
ok o
Ġst airs
Ġmain tains
Ġmar ine
Ġac res
Ġcoordin ator
Ġcounterpart s
Ġind ict
b ra
Ġch unk
Ġc ents
Ġaccording ly
if les
Ġey eb
Ġr anges
f c
Ġpl asma
Ġsw ap
Ġath lete
Ġinfect ions
Ġcor rid
Ġv ib
Ġpat ches
Ġtradition ally
Ġrevel ation
Ġswe ep
Ġgl ance
Ġin ex
work ing
os ures
Ġle verage
Ġcorrel ation
ian ces
av ascript
Ġrep ository
ret ty
Ġo un
p ol
Ġtact ical
is ite
Ġrap ed
ill o
Ġalgorith ms
i u
Ġill um
Ġf ame
Ġintrodu cing
Ġdel ays
Ġwh istle
Ġnovel s
Ġder iv
Ġpublic ations
Ġa ston
l anguage
Ġm ate
Ġpar ade
Ġman eu
m itting
Ġwa ist
Ġdisc ont
Ġst aring
Ġal ias
Ġsec urities
Ġtoile t
Ġun law
v ised
Ġpre st
Ġmem o
cent er
Ġgal axy
Ġto oth
Ġsubject ed
Ġline back
Ġretail ers
Ġd angers
Ġvolunt ary
ew ay
Ġinterpret ed
ot ine
Ġp el
Ġcare ers
Ġthreat en
Ġmem or
anc ies
s n
Ġsh adows
ail and
izz ard
Ġpull s
Ġstr anger
Ġback wards
imens ional
Ġch ron
Ġtheoret ical
k top
Ġw are
o ven
oc ide
Ġfl ames
sh it
Ġc ab
Ġdefin ing
Ġorder ing
Ġimm un
Ġpers istent
m ans
Ġh ind
Ġphot ography
Ġh ug
i ots
ude au
Ġsubsid ies
Ġroutine ly
it ic
Ġdisg ust
land er
Ġassign ment
w ick
us c
struct ed
de velop
Ġf ond
Ġinter section
Ġdign ity
Ġcommission er
re ach
Ġcart oon
Ġsc ales
Ġsurve ys
Ġart work
Ġun ch
Ġcy cling
un ct
au er
or ate
Ġcharacter ized
fe ld
Ġaff irm
Ġinn ings
Ġal iens
Ġcl oth
et ooth
Ġdig est
k now
Ġpredict ions
Ġd in
Ġafter math
Ġmin er
Ġcl arity
heim er
Ġpron ounced
Ġcreat ors
Ġearthqu ake
atter y
ge ons
Ġo d
Ġlay ing
or p
pro ject
Ġunder min
Ġsequ el
Ġre ception
b ull
Ġsequ ences
Ġout fit
Ġdel ivers
Ġbl own
per m
Ġgl im
Ġfac ial
Ġgreen house
Ġto kens
Ġteen age
Ġsu ed
ivid ually
Ġpat ience
ch air
reg ular
Ġa ug
in v
ex cept
Ġn est
f d
s um
Ġoff season
Ġr iot
form er
Ġdefend ers
iot ic
rib ly
Ġautom ated
Ġpen is
Ġins ist
Ġdi agram
Ġw itch
cl ient
ier ra
am bers
Ġrec ount
f ar
oster one
Ġappreci ated
Ġd oses
oca ust
Ġcost ly
Ġg rams
Ġwrest ling
Ġtro phy
Ġn erve
Ġpled ged
Ġplay back
Ġcreat ivity
by e
Ġattack ers
Ġhold ers
Ġtransf ers
Ġcol ored
Ġd rown
Ġlist ened
ias m
Ġappeal ing
Ġdiscl osed
ag ging
Ġple aded
Ġnav igation
Ġphotograp her
ipp ers
Ġsl ice
Ġe rect
Ġhe d
iss ance
ur ious
Ġapp et
oubted ly
Ġauthent ic
o os
Ġannoun cing
Ġb od
Ġmet er
Ġwork force
Ġrenew ed
Ġorganis ations
ac s
Ġcomp ounds
Ġen velop
ear th
Ġsupport ive
gg le
Ġaver aged
ri ages
Ġlength y
Ġforg ot
Ġdeal er
Ġrec ession
Ġdesper ately
Ġhun ger
Ġst icks
Ġm ph
Ġintention ally
Ġdem ol
ue ller
Ġde bris
s pring
Ġle ap
Ġcontain ers
se lling
rane an
atter ing
Ġcomment ed
on ut
Ġwood s
es pecially
Ġorgan ize
iv ic
ang a
s qu
Ġm aj
am on
Ġax is
Ġwar rior
Ġout lined
ins ula
z illa
eb ook
Ġd are
Ġsear ched
Ġnav igate
writ ing
Ġun ited
Ġfl ame
Ġrel ies
Ġcatch ing
Ġimprison ment
Ġp ockets
Ġclos ure
t im
ade qu
Ġrecru iting
d est
Ġapolog ize
or o
Ġlack s
Ġtun ed
Ġinf amous
Ġcelebr ity
ss on
Ġcred ibility
Ġeconom ies
Ġhead line
Ġind ef
Ġl ately
Ġincent ives
but ton
Ġres igned
c amp
Ġprof iles
Ġsche mes
olph ins
ay ed
en h
Ġab st
Ġan k
su its
Ġw ished
udd en
Ġsp here
Ġincorpor ated
Ġh ated
p ic
Ġdon ate
Ġl ined
Ġbe ans
Ġsteal ing
Ġcost ume
Ġsher iff
Ġfor ty
Ġint act
Ġadapt ed
Ġtrave lling
b art
Ġnice ly
Ġdri ed
Ġsc al
os ity
Ġint imate
Ġchem istry
Ġopt imal
ich i
vent ions
Ġpop ul
un ning
Ġqu een
head s
Ġanaly ze
op ic
ear chers
Ġd ot
leg raph
ast ically
Ġupgr ades
Ġca res
Ġext ending
Ġfree ze
Ġin ability
Ġorg ans
Ġpret end
Ġout let
ol an
ul ing
t alk
Ġexpress ing
f iles
Ġlic enses
Ġfil ters
Ġunf old
Ġnut rition
pp o
Ġfound ing
Ġunder mine
Ġeas iest
Ġsexual ity
ic er
Ġfort un
Ġsurf aces
agh d
Ġcar riers
Ġinter val
Ġfrust rating
ff e
Ġbo ats
in is
Ġsu ited
th read
i ov
ab ul
Ġto m
su per
Ġcast le
alth ough
iox ide
ec hes
Ġevolution ary
Ġnegoti ate
Ġconfront ed
m ult
ur ry
ke es
spe c
Ġbelong ing
Ġvill ain
ist ani
Ġaccount able
Ġport ions
g re
Ġmag azines
Ġregul ate
om on
Ġover view
Ġsc ram
Ġl oot
Ġcharacter istic
s ay
Ġtra it
au cus
Ġadapt ation
Ġarch ae
Ġb ikes
Ġliter ary
Ġinflu ences
Ġple a
Ġp ond
Ġeval uated
Ġob taining
Ġdem ographic
Ġvig il
ale y
Ġsp ouse
resp ons
um atic
Ġr ises
run ner
Ġpot ent
r ace
olester ol
ress es
ign ment
ic ides
Ġspark ed
Ġsm iling
Ġdefend ants
Ġdis hes
sh aped
Ġpro long
m t
Ġcalcul ations
Ġp iv
Ġcance lled
Ġgr in
Ġterrit ories
ist ically
Ġneg lig
Ġam mo
olute ly
Ġmis under
w al
m os
path y
Ġalbum s
Ġpist ol
t arget
hel p
Ġinter pre
cons cious
Ġbe ers
s cience
effect ive
Ġspace craft
ve t
Ġcor ps
iber al
e fficient
Ġpreval ence
Ġeconom ists
ord able
if iable
Ġpo le
Ġwilling ness
Ġcomple ment
Ġsc attered
Ġin mates
Ġble eding
e very
Ġque ue
Ġh ij
Ġme lee
ple ted
Ġdig it
Ġg em
offic ial
Ġlif ting
it utes
Ġpack aging
h ran
ol esc
Ġpun ished
Ġj am
Ġm apping
ic ates
Ġinev itably
Ġvan illa
Ġwat ches
Ġle agues
Ġiniti ated
deg ree
port ion
Ġrec alls
Ġru in
Ġm elt
Ġhe m
Ġb aking
at ible
Ġrad ius
pl ug
et ically
Ġf ict
atin um
Ġin k
Ġco h
b oth
te x
Ġsp ends
Ġneur ons
ig nt
Ġr all
Ġbus es
b uilding
Ġadjust ments
Ġc ried
ibl ical
att ed
Ġmed itation
Ġour s
Ġrank ings
ort al
Ġad vers
Ġsur render
ci um
om as
im eter
Ġmulti player
Ġhero in
Ġoptim istic
Ġindic ator
Ġgro cery
Ġapplic ant
v id
p ent
Ġorgan izing
Ġenc ounters
Ġjew el
Ġhe ating
Ġl azy
Ġcous in
Ġreg ener
Ġne arest
Ġachie ving
th row
ant le
Ġan ten
b ird
Ġn arc
r aint
un ny
ourn aments
Ġprop he
Ġinject ion
Ġinher it
rav is
Ġmed i
Ġwho ever
p rom
Ġp or
Ġover head
Ġviol ate
Ġhe ated
Ġdescript ions
Ġachieve ments
Ġe ighth
Ġspecial ized
oph y
Ġnews letters
Ġg ard
Ġimm unity
Ġimpl icit
w d
rav ity
omet ric
Ġsurv iving
ur ai
Ġr ust
Ġbe es
Ġmer it
ch at
Ġm im
Ġpast e
Ġignor ance
Ġbas ement
he ight
Ġf oster
Ġdet ain
in formation
Ġne ural
Ġprov es
all ery
Ġinv itation
um bers
Ġc attle
Ġbicy cle
z i
Ġconsult ant
Ġap ology
Ġind ividually
r t
ig ion
Ġdist urb
Ġentreprene urs
Ġfore sts
cer pt
pl ates
p her
clip se
Ġtw itter
Ġac ids
ograph ical
h um
if ully
Ġcomp iler
Ġdon or
as i
Ġtrib al
l ash
Ġapplic ants
Ġsal aries
ir s
Ġmisc onduct
Ġeat en
v iol
Ġfavor able
Ġst ub
ad in
Ġfaith ful
Ġelectron ics
Ġvac uum
w ait
back ed
econom ic
d ist
Ġten ure
Ġsince re
Ġprog ression
Ġden ying
Ġdist ress
br aska
th ird
Ġmix ing
Ġcolon ial
Ġpriv ately
Ġun rest
atern ity
Ġprem ises
ant i
greg ation
Ġlic ence
Ġconvinc ing
Ġhand les
orient ed
ah o
Ġhack ers
claim er
Ġcustom s
f ighters
Ġl uc
Ġman uscript
aren thood
Ġdev il
Ġwar riors
Ġoff enders
Ġhol idays
Ġnight mare
Ġle ver
iff erent
Ġexhib ition
put ed
Ġal pha
Ġenthus iasm
Ġwhe at
Ġcor rection
Ġev angel
Ġs oup
Ġimpl ied
par am
Ġsex y
Ġrep ublic
p atch
ab lish
Ġic ons
Ġfather s
Ġregul ated
Ġn er
Ġb ent
vent ory
Ġmurd ers
r ise
ke ll
Ġn asty
et a
Ġadminist ered
Ġgenuine ly
n ick
Ġhyd ro
Ġfin es
Ġg orge
aus ible
r h
Ġapp le
ment ioned
Ġro pe
ot yp
Ġdisappoint ing
Ġc age
n ik
Ġdoub ts
print s
Ġvend ors
Ġliber als
Ġcontract or
Ġup side
child ren
Ġtrick y
Ġregul ators
charg ed
l iter
Ġreb ell
l ang
Ġloc als
Ġphys icians
Ġhe y
ar se
t m
Ġbehavior al
success ful
Ġbr ick
ov ic
Ġcon form
Ġreview ing
Ġins ights
Ġbi ology
Ġcomm itting
indu ced
ignt y
ig m
Ġat omic
e h
Ġpres erved
Ġprison er
Ġbankrupt cy
Ġg ren
us hes
Ġexplo itation
Ġsign atures
Ġfin an
Ġme g
rem lin
Ġmusic ians
Ġselect ing
Ġexam ining
l ated
Ġart ic
Ġp ets
Ġimp air
Ġtable ts
in clude
Ġca ut
Ġlog s
Ġmount ing
Ġun aware
Ġdynam ics
Ġm a
Ġcollect ions
ci ation
Ġsuccess or
Ġcl one
Ġaim ing
Ġposs essed
Ġstick ing
Ġsh aking
Ġloc ate
Ġfif teen
Ġcontinu ously
Ġby pass
am ount
Ġm ast
Ġprotect s
Ġart istic
Ġsomet ime
Ġsh oe
Ġshout ed
ific ant
et itive
Ġconcent rated
ling ton
on ies
Ġgener ator
yr im
Ġclear ing
id o
al ph
Ġlad ies
Ġdial og
Ġinput s
Ġpos es
Ġsl ots
Ġle aks
Ġboss es
c ourse
Ġte aches
ab ad
Ġwe ars
Ġc yl
Ġcur se
Ġp sy
Ġg aps
Ġland lord
Ġdefin itions
Ġsufficient ly
Ġsur pass
Ġsuper hero
Ġpri ests
Ġdefin itive
Ġsecret ly
inst all
ch ief
Ġlock er
Ġmem orial
f at
Ġdis gu
Ġflav ors
Ġk icks
Ġen v
Ġteen agers
Ġh alt
Ġfe ver
Ġs atur
Ġm all
Ġaffili ate
Ġj ar
Ġret ained
Ġlim itation
in ces
Ġref usal
Ġacc idents
Ġimport ed
z el
Ġdiv isions
h ots
at isf
red ict
Ġrecept or
ok a
Ġmal icious
Ġste pping
Ġatt raction
Ġchar ter
Ġd ining
Ġins ists
Ġconfig ure
Ġmarket place
Ġref res
Ġg ates
er red
Ġbeh ave
n ode
Ġendors ed
he tt
as ive
Ġr ides
er ness
Ġflood ing
Ġris en
Ġcontin ually
Ġun anim
Ġgu ided
b d
Ġsu cc
pt ic
Ġcomm ittees
Ġs ab
Ġp ixel
sm all
Ġp ul
Ġcontr ace
arch ive
Ġcoast al
ick y
Ġw olf
id get
am as
Ġspons or
Ġmor ph
Ġrun ner
Ġun bel
Ġm ud
Ġdub bed
Ġg odd
ure rs
wind ow
Ġrel ied
Ġcelebr ating
os c
Ġlobb ying
Ġincom plete
Ġrestrict ion
Ġinc ap
it us
Ġexpect ation
Ġint ens
Ġsyn c
Ġmanip ulation
Ġspe ar
Ġbre asts
Ġvol can
il ia
Ġform ats
Ġparliament ary
Ġsn ake
Ġserv ants
st ation
Ġprospect ive
ord e
in itialized
Ġb ored
Ġaccess ed
Ġtax i
aid en
urs ed
in ates
Ġad ventures
Ġt ribute
Ġsk etch
Ġem power
Ġgu ides
Ġd ioxide
Ġval ued
c ond
Ġpo inter
Ġrisk y
Ġabsor b
im ages
Ġref uses
Ġbon uses
Ġh ilar
cul us
Ġd awn
Ġwork out
Ġphilosoph ical
Ġl iable
bl ue
Ġovert urn
less ness
Ġfact ories
Ġcat ches
Ġpr one
Ġmat rix
Ġlog in
Ġin acc
Ġex ert
s ys
Ġneed le
Ġnot ified
ould er
t x
Ġremind s
Ġpublisher s
Ġn ort
Ġg it
Ġfl ies
Ġflow ing
Ġhard est
Ġmod ification
Ġcr ashes
st airs
n umber
Ġur ging
ch annel
Ġinhabit ants
Ġterr ifying
Ġutil ize
Ġban ner
Ġcig arettes
Ġsens es
Ġpract ition
ott o
Ġcomp ile
Ġmed ications
Ġfundament ally
Ġwe aker
Ġgar lic
Ġout break
Ġeconom ist
Ġobst acles
ar cer
Ġplace bo
asp berry
Ġdis charge
Ġdestruct ive
Ġd airy
l ate
Ġcoll ision
ean or
ocument ed
Ġd ont
Ġhyd rogen
Ġvari ants
Ġind igenous
Ġtrad es
Ġremain der
Ġswe pt
Ġred ist
Ġun int
grad uate
Ġf isher
Ġv icious
Ġrevers ed
Ġshoot ings
Ġfil ming
Ġtouchdown s
ai res
m el
Ġgrand father
Ġaffect ion
ing le
Ġover ly
Ġsup reme
Ġsport ing
Ġmer cy
ount y
Ġperform s
Ġtight ly
Ġdem ons
Ġkill ings
Ġfact ion
aut s
Ġund oubtedly
ar in
Ġunder way
ra k
Ġl iv
Ġbrief ing
s ers
cl oud
us p
Ġpred iction
az or
Ġport able
Ġpresent ing
ush i
there um
Ġjust ification
Ġcontract ors
ming ham
Ġprov ing
Ġw ives
set t
Ġmole cules
Ġconsist ing
Ġp ier
al one
in ition
Ġn ucle
j son
Ġg otta
Ġmob il
Ġver bal
ar ium
Ġmon ument
uck ed
mine craft
Ġt ile
Ġcompat ibility
as is
Ġs add
Ġinstruct ed
Ġle thal
Ġhorm one
Ġor che
el se
Ġske let
Ġentert aining
Ġminim ize
ag ain
Ġunder go
Ġconst raints
Ġcig arette
Ġtravel s
l ings
Ġlaw suits
ur as
Ġcry st
Ġlow ered
Ġaer ial
Ġcomb inations
Ġha un
Ġch a
Ġv ine
Ġquant ities
Ġlink ing
b ank
Ġso y
Ġrecip ient
Ġs ocket
Ġsolid arity
m ill
Ġvar ies
Ġun e
Ġhor izon
Ġprov inces
Ġfrank ly
Ġenact ed
not es
ocr acy
Ġendorse ment
Ġover time
lic ted
Ġbe ats
Ġaccount ed
h ash
p ires
Ġles bian
Ġamend ments
Ġhop eful
Ġspot light
Ġconfig ured
Ġtrou bled
Ġg aze
Ġrel iability
Ġins urg
sw er
b uy
Ġp ixels
Ġhand gun
Ġpar as
Ġcateg or
Ġkind a
Ġconj unction
y ang
ish ment
Ġdom inate
Ġn ail
Ġo ath
Ġeru pt
it bart
Ġbuy er
Ġdiss ent
Ġr ider
Ġill usion
c in
Ġin adequ
ov ation
i ants
Ġreb uild
ia z
acher s
Ġse gments
Ġsystem atic
d c
Ġport al
h or
Ġdrag ged
om o
Ġthe e
ad vert
Ġbarrel s
Ġcompar isons
Ġhe x
Ġan throp
bor ough
ab i
Ġpict ured
play ing
Ġt ires
Ġclass ification
Ġreject ion
min ation
Ġr anged
list ed
th irds
Ġsaf egu
br and
Ġprob able
Ġch ick
Ġimport s
h it
l oc
Ġble w
Ġany time
Ġwh oles
ik ed
Ġcal culation
cre ate
Ġupgr aded
Ġapp ar
ut ory
Ġd ice
urt le
Ġre lying
cl osure
Ġprof itable
Ġsl aughter
c aster
Ġfe ather
ie ves
Ġdeter ior
Ġst amp
Ġfl aws
Ġsh ade
ham mer
Ġpass port
Ġcont ing
am el
Ġobser vers
Ġneg lect
Ġskept ical
f amily
us k
Ġemotion ally
ason able
id ity
Ġkick ing
oll ah
Ġlad der
Ġun acceptable
leg al
Ġcrowd ed
ag i
j e
Ġmor ality
Ġfu els
Ġc ables
Ġman kind
Ġanch or
Ġby te
Ġcraft ed
Ġhistor ian
Ġtow ers
Ġhel m
Ġcred entials
Ġsing ular
Ġtack les
Ġcont empt
Ġa fore
Ġn il
Ġur gent
app le
bl ood
Ġv on
Ġoff line
Ġbreat he
Ġj umps
Ġirre levant
ox ic
om al
import ant
Ġgl oves
arm ing
dep th
Ġtal ents
ook ie
Ġpal m
uff s
est a
Ġcan on
Ġcou pled
vel t
Ġfundra ising
Ġmathemat ical
te lling
Ġspons ors
op tion
Ġprop ose
Ġmem orable
Ġembr aced
Ġdecl ining
ed a
Ġsp am
m ile
Ġpit cher
Ġcar ing
ut ic
ro le
Ġair line
ernand ez
Ġcert ification
ux e
rig er
Ġem pir
Ġsens ation
Ġdis m
Ġb olt
Ġev olve
Ġconsult ation
Ġtou ches
Ġf aint
h ad
iz oph
Ġanx ious
ul ously
Ġsoc ially
Ġsol ving
ed uc
Ġrel oad
am ic
Ġp ork
Ġdisc ourse
Ġt ournaments
ai ro
Ġviol ating
Ġinterf ere
Ġrecre ational
uff le
Ġspe eches
Ġneed ing
Ġremem bers
Ġcred ited
n ia
f ocused
amer a
Ġb ru
um bs
Ġpreced ing
Ġnons ense
ac ial
Ġsmart phones
oun cing
ef ined
Ġb er
Ġconsult ing
Ġm asters
he astern
Ġsus cept
pr ises
st itial
mod ules
if ter
ul er
Ġwho lly
Ġsupp ress
Ġconce aled
Ġhapp ily
Ġaccept s
Ġr ivers
Ġp ussy
fer red
ut able
Ġatt ain
Ġdepos its
roph ic
Ġnot orious
il itation
Ġepid emic
all ic
Ġsmall est
ov ich
Ġaccess ories
per ties
Ġsur plus
Ġamb ig
Ġch im
ev al
Ġpract icing
Ġdom ains
app s
Ġkilomet ers
e a
Ġwarrant y
Ġn ost
s il
re v
Ġtast es
Ġb out
g reat
er ror
Ġsw itches
ok i
Ġsour ced
pro du
Ġattach ment
Ġf itted
Ġunlaw ful
ere k
Ġauthent ication
Ġst ole
Ġaccount ability
l abel
Ġal beit
atic an
fund ed
Ġsub mar
l it
a que
Ġint eger
Ġprem ier
Ġbl essed
Ġlegit im
Ġdispos al
Ġgau ge
pe at
Ġindu ced
Ġquestion able
arth y
worth y
Ġmed al
Ġclar ify
Ġtrack ed
Ġautonom ous
Ġten ant
er ie
Ġgr im
Ġresist ant
Ġmin ers
iot ics
Ġmiss es
g ian
g it
p res
Ġgrad uated
Ġang el
Ġsyn chron
Ġefficient ly
Ġtrans mitted
Ġglob ally
r aged
Ġp iss
Ġshe lf
ik er
h all
Ġsp ont
Ġshut down
Ġincons istent
Ġsubscrib ers
Ġske leton
Ġins pire
Ġang les
Ġbench mark
Ġvacc ines
izoph ren
se xual
uff ed
Ġsh ine
Ġgest ure
ine a
Ġr ip
Ġopp ression
Ġcons cience
b t
Ġinc idence
w r
Ġmin eral
alk y
Ġth under
Ġop io
Ġwas ted
Ġl b
i aries
Ġcur ric
Ġmark er
Ġext ensions
Ġoffer ings
Ġdef enses
Ġvend or
Ġcontrad ict
Ġredd it
Ġper ipher
Ġs ins
Ġadministr ator
Ġporn ography
Ġtu ition
in ence
Ġcat alog
Ġsu ite
Ġh ike
Ġreprodu ctive
eng ine
Ġd rought
Ġd ude
Ġrelax ed
Ġpart ition
Ġparticip ant
Ġtel esc
Ġfe as
own er
Ġswe eping
Ġl enses
Ġmatch up
ourn als
Ġcred ible
Ġgrand mother
Ġther mal
Ġsubscrib ing
Ġident ities
col m
Ġreluct ant
us ers
Ġassist ed
Ġpharm aceutical
ic able
ad ian
Ġph osph
Ġtreat s
Ġstead ily
Ġrel ates
Ġcl ue
a uth
Ġrev ision
Ġe ld
os ion
Ġbr on
ri kes
Ġmin es
Ġblank et
el ed
a ic
Ġcap ac
Ġl ing
min ster
og s
ens itive
Ġcar n
Ġr ifles
Ġtour ist
Ġunve iled
Ġpredec essor
u ber
Ġoff shore
Ġopt ical
et on
Ġst ared
Ġfart her
at ility
cont in
ri ents
Ġdesign ing
er ver
Ġmas cul
Ġcasual ties
Ġa ster
w s
Ġhot els
Ġconsider ations
Ġcou ch
Ġmanip ulate
l ied
Ġsynt hetic
Ġassault ed
Ġoff enses
Ġim pe
h l
Ġg rief
Ġopt ed
Ġresign ation
il o
Ġver se
Ġu pt
Ġa ired
Ġassum es
out ed
Ġinfer ior
Ġbund le
ograp her
Ġmult ip
Ġillust rated
Ġtact ic
Ġdress ing
Ġdu o
Ġrel ent
Ġc ant
Ġscar ce
Ġcand y
Ġaffili ated
Ġspr int
yl an
Ġj unk
ex ec
Ġport rait
ir ies
Ġdisp utes
Ġh ipp
op ath
Ġflo ors
Ġwor ries
Ġsett lements
Ġmos que
Ġfin als
Ġcr ushed
Ġsovere ignty
Ġsell er
Ġap ost
Ġam ateur
Ġd orm
Ġconsum ing
Ġarm our
Ġint ensive
Ġelim inating
j in
Ġadv ise
p al
Ġdes cent
Ġsimpl er
Ġbo oth
Ġm ol
Ġf ist
Ġshot gun
su pp
Ġrob bery
Ġobsc ure
Ġemb assy
Ġmilit ant
Ġinc arcer
Ġgener ates
Ġlaun ches
Ġadministr ators
Ġsh aft
Ġcirc ular
Ġfresh man
s ight
Ġb ore
Ġbroad ly
ount ain
ip es
Ġh ills
Ġsim ulation
Ġdisappoint ment
it an
Ġup ward
Ġbound ary
Ġdark er
h art
Ġdomin ance
Ġscholars hip
ed e
Ġencour ages
ro v
Ġqu o
Ġprem ise
Ġrhyth m
Ġmet ric
cl ub
Ġtransport ed
Ġn od
Ġancest ors
th umbnails
ven ge
cast le
Ġqual ifying
Ġmight y
Ġexplan ations
Ġfix ing
Ġdecl aring
Ġanonym ity
Ġju ven
ph is
Ġinc omes
ok ers
Ġpe cul
Ġlight weight
g ue
Ġacc ent
Ġincre ment
Ġcompl aining
Ġmidfield er
Ġover haul
man uel
Ġdispro portion
n esty
en es
Ġdemonstr ations
Ġen rolled
Ġc el
Ġa ide
Ġhe els
Ġbroad band
Ġmark ing
Ġw izard
Ġingred ient
Ġd ug
urch ase
end or
Ġfar mer
Ġl ion
i ably
Ġst ain
ar ray
ilit ary
Ġexpl oded
ek ing
l n
ens en
Ġmotor cycle
Ġpartic le
Ġch olesterol
Ġst air
Ġox id
Ġdes irable
ib les
Ġthe or
for cing
Ġpromot ional
ov o
b oot
raw ling
Ġshort age
Ġrecru ited
Ġinf ants
Ġtest osterone
Ġded uct
Ġdistinct ive
Ġfirm ware
bu ilt
Ġexpl ored
Ġfact ions
Ġv ide
Ġtatt oo
Ġfinan cially
Ġfat igue
Ġproceed ing
const itutional
Ġmis er
Ġch airs
gg ing
ipp le
Ġd ent
Ġdis reg
st ant
ll o
b ps
aken ing
Ġab normal
Ġcon cess
Ġserv ant
Ġas pir
l av
am o
Ġprec ip
Ġrecord ings
Ġproceed ed
Ġcol ony
ab lo
Ġstri pped
to o
Ġpot atoes
Ġfin est
Ġc rap
ab ases
Ġbillion aire
w olf
Ġsan ction
Ġlog ged
ey ed
un al
Ġcr icket
Ġarm ies
Ġunc overed
Ġreb ounds
Ġm es
Ġnation ally
Ġinsert ed
p ict
Ġgovern ance
Ġprivile ges
Ġfavor ites
im ity
Ġlo ver
the m
em pl
Ġgorge ous
Ġsl ipped
Ġve to
Ġsl im
u cc
udden ly
Ġden ies
Ġdist ances
Ġw anna
t ar
Ġle mon
at hetic
Ġlit eral
Ġdistingu ished
Ġansw ering
Ġrelig ions
Ġcomp os
ire ments
ine z
roll ing
Ġyoung est
and ise
Ġalt ar
am ina
v oc
Ġdig ging
Ġpress ures
Ġl en
Ġassass ination
Ġsovere ign
Ġdep icted
Ġdisp ens
orth y
Ġamb ul
int eg
Ġhier archy
Ġc u
Ġpre season
Ġcol ours
Ġworry ing
Ġback ers
Ġcontribut or
Ġhear ings
Ġur ine
ourge ois
s omething
Ġstrength s
Ġlog ging
in qu
Ġcrew s
it ism
Ġshar ply
um ed
Ġred irect
r ators
Ġte asp
Ġint ro
other apy
Ġmal ware
Ġbre eding
Ġmole cular
oc hem
Ġa in
Ġlineback er
es ar
Ġk in
Ġpl anted
ot on
Ġdun geon
Ġsymb olic
Ġfil med
Ġdi ets
Ġconclud es
Ġcertain ty
Ġstr angers
form at
Ġcop ied
Ġmet res
ld a
Ġdeliber ate
Ġwas hed
im ation
Ġimpro per
ick r
Ġreal ise
Ġembarrass ing
alk ing
b ucks
Ġver ified
Ġout line
year s
Ġz ombies
Ġmod ifications
ver b
iter ranean
Ġnav al
Ġur l
Ġvict ories
Ġnon etheless
Ġinj ust
Ġins ufficient
re view
face book
Ġnegoti ating
Ġguarant ees
im en
uten berg
Ġg ambling
Ġcon gr
Ġnever theless
Ġpres idents
Ġp oured
ange red
Ġorgan izers
Ġad ul
Ġens ures
Ġmass acre
Ġgr ades
be fore
Ġo we
Ġbackground s
Ġexha usted
Ġcl an
Ġcomprom ised
ens on
Ġinterrupt ed
Ġtw isted
Ġfert il
he res
ph an
f ed
Ġunw illing
Ġprior it
Ġgrad uates
Ġsubject ive
Ġiss uing
Ġview er
Ġw oke
bro ok
Ġdep ressed
Ġbr acket
Ġstri ker
Ġne o
w ed
Ġflee ing
sh adow
ident ified
Ġstret ched
Ġrevel ations
art ed
Ġalign ment
est on
Ġblog s
up date
g om
r isk
Ġcl ash
Ġrun time
Ġunw anted
Ġsc am
Ġr ack
Ġen light
on est
Ġconv ictions
Ġp iano
Ġcirc ulation
Ġback lash
Ġrece ivers
ot ive
Ġnetwork ing
Ġlect ure
Ġupload ed
st ud
ro ots
ri ans
Ġportray ed
s un
Ġover see
Ġste alth
Ġappreci ation
Ġbas ics
Ġcl ips
Ġnurs ing
Ġpropos ition
Ġreal ised
Ġall ocated
ri um
ar an
Ġsm ugg
Ġhun ter
az er
Ġfl uct
y on
Ġk its
Ġuncom mon
Ġrest ing
ell s
w ould
Ġpurs ued
Ġassert ion
omet own
io let
Ġshare holders
Ġtra ils
ty pes
Ġsatisf ying
il ogy
w ave
c ity
Ġconfront ation
ah an
ht m
if a
hold ing
Ġdelic ate
Ġj aw
or um
Ġd ull
Ġpr isons
Ġe go
avor ite
Ġsp ider
ats u
Ġsam pling
Ġabsor bed
iet h
Ġbuck et
Ġb acter
Ġprem iere
Ġcur rencies
Ġaccompany ing
Ġfat ty
Ġloc ks
Ġcent ered
augh s
or ie
v ance
em et
Ġthr one
Ġn aming
if ts
Ġcorrect ed
Ġprompt ly
Ġgen ome
Ġcop e
Ġval ley
Ġround ed
al ion
p ers
Ġtour ism
Ġst ark
v l
Ġblow ing
st d
Ġunh appy
Ġlit igation
ced es
Ġand roid
Ġinteg ral
ere rs
ud ed
t ax
Ġre iter
oci ated
Ġwond ers
uck ing
f ram
Ġyield s
Ġconstit utes
aw k
Ġinter im
Ġbreak through
Ġpro sec
Ġs perm
ed it
count ry
le ague
Ġd ick
Ġo ct
Ġinsert ing
Ġsc ra
Ġrun ners
Ġpl un
id y
Ġdys function
Ġex clusion
Ġdis gr
Ġincorpor ate
Ġrecon c
Ġnom inated
d raw
achel or
Ġwrit ings
Ġshall ow
Ġh ast
Ġth igh
Ġl amb
Ġfav ored
ag le
Ġcool er
Ġglim pse
Ġche ek
Ġj ealous
Ġhar ness
Ġdis abilities
ne apolis
Ġout look
Ġnot ify
Ġab rupt
ns ic
Ġenc rypted
Ġfor fe
reat h
Ġr abb
Ġfound ations
Ġcompl iment
Ġad olesc
Ġmon itors
Ġtime ly
Ġcontem pl
Ġposition ed
Ġpost ers
ph ies
iov ascular
v oid
Ġinvestig ative
Ġinteg rate
ish a
ibl ings
Ġsl ides
Ġfemin ism
Ġdat as
Ġb end
ir us
Ġair plane
Ġpublic ity
ixt y
Ġcommit ments
Ġaggreg ate
Ġdisplay ing
Ġrespect s
and roid
s ix
Ġrest oration
oy s
Ġillust rate
with out
Ġpick up
n els
f ood
Ġphenomen a
Ġcompan ions
Ġsp ill
Ġbr idges
Ġinsect s
Ġsc are
il tr
Ġsever ity
Ġind ul
Ġnorm s
Ġp ulse
Ġhorr ific
Ġo live
Ġdiscuss es
op ed
Ġro oted
Ġl ol
Ġcommod ity
red ited
Ġliber tarian
Ġforb idden
Ġgr an
Ġl ag
en z
dri ve
Ġmathemat ics
Ġw ires
Ġcrit ically
Ġcarb ohyd
Ġban ning
Ġcompl ications
et ric
Ġband width
Ġhalf way
yn asty
sh ine
Ġt ales
rit ies
av ier
Ġspin ning
Ġneighbour hood
b ach
Ġcommer ce
Ġentreprene ur
Ġpecul iar
f re
Ġimag ery
sh ort
Ġcomm em
u ced
Ġincl ined
Ġcl iff
Ġpo etry
Ġprosper ity
Ġp ills
m ember
Ġfin ale
un c
Ġl od
Ġback ward
Ġth ri
s ure
Ġso ap
oul os
Ġfool ish
Ġright eous
Ġco ff
terror ism
ust ain
ot er
Ġab uses
ne xt
Ġab usive
Ġthere after
Ġprohib ition
Ġd ip
Ġr ipped
Ġinher ited
Ġb ats
st ru
Ġflaw ed
ph abet
Ġf og
do ors
Ġim aging
Ġdig its
Ġar rog
Ġteach ings
Ġprotocol s
p ound
Ġex emption
end ix
Ġimpro ves
d imensional
d ates
Ġint ends
Ġdep ict
Ġpark ed
chn ology
Ġjud ged
Ġwe ights
Ġapart ments
he ster
Ġrein force
Ġoff ender
occ up
Ġs ore
e pt
Ġauthor ization
Ġnot ifications
Ġsun light
Ġex clude
d at
Ġm esh
Ġbelong ed
Ġsub way
Ġno on
ol ics
Ġc oding
Ġdis l
Ġconfir ms
Ġrecruit ment
Ġhom icide
ft y
Ġobject ion
do ing
Ġgl ow
Ġver ification
Ġpack et
Ġpl ag
es ville
Ġshout ing
Ġo v
Ġn inth
Ġener g
Ġvalid ity
Ġup s
j ack
Ġneighbor ing
ew orks
are z
Ġsp ine
Ġevent ual
Ġprob ation
Ġrom ance
ms g
Ġpart isan
ass ets
min ent
Ġforeign ers
Ġtest ify
l ords
Ġs r
Ġadd ict
Ġshell s
Ġs igh
tern ity
Ġpat ron
em a
an ity
Ġtrop ical
c ross
Ġhum ble
ass ing
Ġupd ating
ys on
Ġcal cium
Ġcompet ent
Ġste ering
Ġaccommod ation
Ġaest hetic
art isan
Ġpr ince
Ġpreced ent
Ġtyp ing
author ized
l ishes
ach t
m ag
mont on
Ġa rom
Ġsec uring
Ġconf ined
priv ate
Ġsw ords
Ġmark ers
Ġmetab olic
se lect
g ressive
Ġinc umb
Ġpr iced
Ġclear ance
Ġdr illing
Ġnot ices
Ġb ourgeois
Ġv est
Ġcook ie
ry s
in yl
Ġpl ausible
on gh
Ġconcept ion
Ġintern ationally
Ġc yn
Ġcho oses
Ġcomb ining
Ġrad i
def ense
atch ing
ic iency
Ġche ss
Ġtim er
Ġt in
Ġord inance
emet ery
Ġacc using
Ġnotice able
Ġcent res
Ġl id
img ur
Ġz oom
erg ic
Ġcomp ression
pr im
f ind
Ġsur g
Ġp and
cell ence
oy le
Ġsocial ism
Ġgu ild
Ġoccur rence
itch ing
Ġfict ional
Ġcr ush
c od
m ix
Ġretrie ve
Ġstimul us
Ġpsych iat
Ġhomosexual ity
Ġelement ary
Ġcell ular
id ian
Ġintrig uing
Ġfo am
id i
its u
Ġass ure
Ġcongr at
Ġbusiness man
cl ose
Ġl ied
Ġsc iences
sp oken
Ġconnect ivity
Ġto ggle
Ġank le
Ġnational ist
mod el
ophob ia
ator ies
Ġaggress ively
act ers
Ġhed ge
Ġpip es
Ġbl unt
Ġs q
Ġremote ly
as ers
Ġref riger
Ġt iles
Ġresc ued
Ġcompr ised
ins ky
Ġman if
avan augh
Ġprol ifer
Ġal igned
x ml
Ġtri v
Ġcoord ination
b f
Ġtermin ation
Ġadd itions
Ġtri o
Ġproject ions
Ġpositive ly
Ġin clusive
Ġmem br
old er
Ġpract iced
ink le
Ġstar ters
ari us
Ġinter mediate
Ġinter ventions
Ġprem ature
Ġpsych iatric
Ġind ie
Ġcoll ar
af i
Ġdis ruption
cast ing
Ġmis dem
c ro
Ġw ipe
ard on
Ġb ast
Ġbell y
Ġmess aging
ist ical
Ġintu itive
ke eping
Ġdiscont in
Ġun related
Ġstatist ically
orn s
Ġs ized
p u
Ġca f
l iving
Ġc ared
Ġclim bed
Ġconsist ed
Ġmed ieval
fol k
Ġh acked
Ġd ire
Ġt ended
ce ans
w ent
Ġlegisl ators
Ġred es
g ames
Ġg n
am iliar
gg y
th reat
Ġmag net
Ġper ceive
Ġz ip
Ġindict ment
Ġcrit ique
g ard
Ġad vent
ob a
Ġv owed
ous ands
Ġsk i
Ġabort ions
u art
Ġstun ned
Ġadv ancing
Ġlack ed
Ġsch izophren
Ġeleg ant
Ġconf erences
Ġcance led
Ġtr ump
Ġfrequ encies
Ġmet eor
Ġh obby
Ġs way
Ġt ide
Ġinter vals
Ġhabit at
lish ing
Ġtrig gers
Ġch asing
Ġchar m
it ored
Ġbless ing
Ġtext ures
Ġliqu or
Ġres il
Ġabund ance
Ġpredict able
r ar
Ġbull shit
le en
che t
Ġemphas ized
Ġcr ust
Ġprim itive
Ġenjoy able
Ġteam mate
pl er
Ġsummon ed
th y
ram a
Ġreal izing
Ġquick er
Ġconcent rate
cle ar
ar is
Ġrespond s
Ġelig ibility
Ġpus hes
Ġagg rav
Ġru ins
ur ations
Ġb ans
Ġan at
sh are
Ġgr ind
h in
um en
Ġut ilities
Ġdat abases
Ġdispl aced
Ġdepend encies
Ġstim ulation
h un
h ouses
Ġassoci ates
Ġthe rape
cl ed
Ġde er
Ġrep airs
rent ice
Ġrecept ors
Ġrem ed
Ġmar riages
Ġball ots
Ġhilar ious
op l
Ġinherent ly
Ġignor ant
Ġb ounce
Ġdece ased
Ġmer ge
heart ed
c reat
m itt
m und
Ġproject ion
Ġj ava
Ġcoc onut
Ġtra ject
Ġimp ly
Ġcur iosity
Ġheav ier
ne ys
gom ery
Ġdes erved
Ġphr ases
Ġye ast
d esc
Ġreb oot
Ġmet adata
Ġrep ay
Ġsubur ban
ical s
Ġat op
Ġall ocation
gener ation
Ġmoist ure
Ġp ine
Ġa ides
Ġund erest
Ġcere mon
ast rous
Ġt ense
Ġlo vers
Ġg iants
Ġeffic acy
Ġint est
Ġmaneu ver
Ġperfect ion
Ġb ang
p aper
r ill
b order
in ters
Ġcl ues
Ġv apor
Ġfortun ate
Ġthreat ens
Ġve t
Ġdepend ency
ers ed
art icle
Ġch lor
Ġmin us
Ġcryptoc urrency
Ġmetabol ism
ter ing
Ġp estic
step s
ract ed
Ġtem p
ur ally
Ġrecover ing
Ġcort ex
cl osed
Ġprejud ice
aun ted
Ġstorm s
Ġmach inery
Ġcompe lled
Ġdesp air
b ane
Ġveget able
Ġbed s
Ġcolor ful
Ġsp ike
Ġmarg ins
Ġsymp athy
Ġworks hop
Ġburn s
Ġdeb ts
Ġreflect ing
Ġa irst
Ġr im
ram id
Ġweakness es
ogg le
t i
Ġwe ighed
Ġl aughter
Ġrou ter
Ġhas ht
Ġd y
Ġhint s
run ning
Ġfin ishes
ar us
res ult
asc us
Ġv intage
Ġcon qu
Ġwild ly
ac ist
Ġl ingu
Ġprot agonist
st rom
te enth
m ac
f illed
Ġre nown
it ives
Ġmot ive
Ġrock ets
Ġtrou bling
e i
Ġorgan isms
ass is
Ġsw all
Ġw ax
v d
stand ard
Ġdrag ons
Ġacceler ation
r ational
f inal
Ġp aired
Ġinterf aces
Ġres ent
Ġartif acts
are l
Ġcompet itor
c pp
Ġeconom ically
Ġorgan ised
Ġen forced
in ho
Ġvar ieties
Ġab dom
id av
p aid
Ġalt itude
ess ert
are a
op oulos
Ġprofess ors
igg s
he y
Ġtw ins
c ill
Ġtra ps
Ġwe ed
Ġy oga
Ġrecip ients
Ġpool s
att ack
par agraph
j l
Ġself ish
anche z
t ml
Ġraid s
Ġsatell ites
Ġlast s
Ġunp redict
gh ai
Ġart illery
Ġcru ise
Ġg el
Ġbl ows
Ġprox imity
ot he
ob o
Ġenjoy s
Ġrepe ating
Ġu int
Ġprocess ors
q a
vent ional
Ġhur ts
s kin
Ġadvis ers
Ġmethod ology
Ġdet on
sequ ently
Ġconnect s
Ġcontribut ors
Ġbr ass
int o
Ġbro ker
bal ance
Ġlength s
Ġv ic
Ġaver aging
Ġappropri ately
Ġsand wich
Ġcoord inate
Ġnav ig
Ġgood ness
l aim
Ġbra ke
Ġextrem ist
Ġref ined
Ġl amp
Ġb apt
Ġp ap
Ġcommission ed
Ġbot hered
Ġlike wise
c ry
n n
im on
b m
r ays
Ġregist ry
ach ine
re lla
ant ing
Ġru ined
sp ot
Ġt a
Ġmaxim ize
Ġincon ven
Ġch ill
Ġstar ring
Ġsuppl iers
m essage
Ġser um
Ġen comp
Ġamb ition
ues e
Ġar rows
Ġanten na
Ġb ool
Ġrail way
Ġtoug her
Ġwas hing
em bed
ack le
Ġfam ously
ov ies
Ġmind set
Ġsne ak
Ġliv est
Ġland mark
Ġc ement
Ġthr illed
in el
Ġch uck
id ate
gl obal
Ġwh it
ad ays
s ki
Ġvir uses
Ġthe aters
Ġunbel iev
Ġcommun ist
Ġpal ace
the ning
Ġsent encing
umbn ail
Ġp ins
re cy
Ġs iblings
Ġprolong ed
Ġinadequ ate
Ġus ername
Ġbatt ling
Ġcurric ulum
Ġs oda
Ġsens ible
sp ons
Ġw icked
Ġdict ators
og yn
Ġsimilar ities
Ġh ollow
it ations
Ġh over
s ch
Ġc ad
Ġl ur
Ġhy pe
is ure
Ġshoot s
Ġclos es
Ġd b
Ġrepl ies
op ers
Ġint oler
akes pe
Ġpropri etary
Ġrequest ing
Ġcontro llers
im edia
be cca
Ġexp ans
Ġoil s
Ġpr inter
Ġto pped
av in
Ġdecre ases
Ġspecific ations
Ġfre el
Ġdil ig
ro e
Ġdecent ral
an ut
Ġplug ins
Ġfuck ed
el ines
t ake
Ġcle ans
ong yang
st ro
al ine
Ġbo il
Ġnurs es
Ġexceed ed
Ġextrem ists
Ġtr aces
ex pl
Ġcom r
Ġm asks
Ġsc i
Ġreg ression
we gian
Ġadvis or
it ures
ex ample
Ġs iege
Ġredu ctions
pt r
Ġstat utory
Ġrem oves
Ġp uck
red its
Ġbe e
Ġsal ad
Ġpromot ions
with standing
im us
Ġexpend iture
aun ting
Ġdelight ed
be h
Ġcar pet
Ġj ungle
l ists
Ġbull ying
Ġreferen ced
Ġintrodu ces
se in
Ġcho pped
gl ass
Ġneutral ity
Ġinvestig ator
Ġshel ves
Ġun constitutional
Ġreprodu ction
Ġmer chant
m ia
Ġmet rics
Ġexplos ives
Ġbod ily
Ġthick ness
Ġpredomin antly
Ġmon itored
Ġvis ibility
Ġqu eries
Ġgen ocide
Ġstud ios
Ġemb ry
Ġcorrid or
Ġclean ed
com plete
Ġenroll ment
Ġimpact ed
Ġdis astrous
y t
uster ity
Ġindirect ly
w ik
Ġd od
Ġam p
Ġprohib it
ij i
Ġeduc ate
c orn
i ott
Ġdetect ive
s ince
Ġst agger
Ġob ese
Ġb ree
olog ic
is se
walk er
Ġbl ades
Ġlaw ful
fun c
Ġappet ite
Ġt ennis
Ġoff spring
Ġj ets
Ġstruct ured
Ġafore mentioned
Ġsc aling
f ill
Ġst ew
Ġcur b
ob ic
ou g
Ġgen etically
ope z
Ġu mb
anc ers
Ġcoh ort
Ġmerch andise
Ġimp osing
iv ia
Ġoff ences
Ġmir acle
Ġsn apped
Ġf oes
Ġextensive ly
Ġc ater
ed ience
Ġrecomm ends
Ġrig id
Ġcertific ates
ant is
o iler
d id
Ġsurvey ed
Ġdown ward
Ġprint s
ron ics
oss ibly
u ctions
Ġcolon ies
un it
Ġsp oil
Ġadvis ory
ber ries
Ġspecific ation
op hers
Ġsh irts
prising ly
commun ications
Ġtriv ial
Ġmention ing
ise xual
Ġsupp lements
Ġsuper vision
v or
Ġw it
Ġco oldown
Ġplaint iff
Ġafter ward
og ene
Ġstretch ing
Ġinflamm ation
Ġl ining
Ġfree zing
Ġins piring
spe cial
pr ice
Ġsu e
oun ge
u o
ym ph
Ġex terior
ih il
in ator
Ġnut rients
Ġfin ances
Ġspe cially
oint ed
sh ots
Ġex cerpt
co on
Ġrecogn ised
Ġv om
is le
Ġnot ebook
Ġd urable
Ġforg ive
p ark
Ġpersonal ities
an alysis
cl amation
Ġelev ator
Ġware house
un n
Ġillust ration
Ġatmosp heric
rict ed
f u
Ġar che
Ġreward ed
akespe are
Ġintern ally
alk er
Ġeleph ant
ow itz
Ġbip artisan
Ġslow ed
Ġover ride
undred s
be e
ot or
Ġ ip
Ġu b
oc ations
r ice
Ġc ripp
ff f
Ġorig inated
Ġoverwhel med
app a
Ġfore most
re lease
eat ured
at ches
Ġre ps
Ġl ending
vent h
Ġsw orn
c am
Ġshut tle
Ġh ometown
on al
Ġpersu ade
Ġcomb ines
Ġv ivid
Ġenc oding
Ġsal vation
w en
i ya
Ġbud gets
f its
Ġhon ored
Ġp ython
cl one
Ġbl ink
Ġunemploy ed
Ġcl ashes
Ġdirect ing
Ġpun ct
Ġsh ark
Ġje ans
Ġemb ark
Ġse ize
Ġup wards
Ġex otic
l ower
Ġsubur bs
ber ger
Ġm int
Ġsuff ers
Ġher b
t ree
Ġfrag ile
Ġflood ed
ole an
ny der
Ġow ed
Ġwh isk
Ġsu do
r r
app ro
Ġi i
he e
Ġpromot es
per ature
k ar
Ġs odium
ros so
intend ent
Ġcorrespond ent
sec ret
Ġident ifies
ag ne
Ġl ou
Ġcoinc idence
m ove
Ġmilit ia
Ġinf iltr
Ġpitch ing
ir al
Ġsad ly
Ġadm ire
Ġembarrass ed
c b
Ġtub es
Ġbeaut ifully
re z
qu et
ple asant
Ġdec isive
ut ton
h n
au nder
Ġcl erk
Ġca ffe
Ġwip ed
Ġre im
Ġimprison ed
Ġdevelop s
Ġmodel ing
ance l
Ġshield s
Ġl awn
Ġcard iovascular
Ġdemonstr ating
Ġpar se
Ġeuro s
Ġgl orious
ins ki
ec d
Ġcondition ing
Ġhel pless
Ġmicro sc
Ġst akes
Ġun equ
Ġd amp
Ġappar atus
Ġcoun ters
Ġindu ce
at able
Ġsl am
Ġpers ist
Ġim minent
Ġsh red
Ġph ases
c irc
Ġa rose
g ow
Ġsuper f
Ġend ure
Ġkey word
yr us
Ġy arn
Ġpath way
mid t
Ġcens orship
d ependent
Ġinstruct or
Ġto e
Ġball oon
Ġsw ear
Ġgl oss
Ġremark ably
y ers
Ġvalid ation
Ġcann on
Ġcaut ious
Ġf etch
Ġrem edy
Ġsc ent
Ġbe ard
Ġpat ents
Ġun just
Ġpot ato
Ġforth coming
Ġche f
aff e
Ġp ads
Ġon set
Ġsquee ze
s afe
Ġpref ix
ot iation
ant ry
Ġep it
Ġextract ed
verse ly
ri ad
Ġstr ains
Ġto ps
Ġpo em
up iter
Ġun con
per ing
Ġsle pt
in ers
Ġunder water
g one
Ġhistor ians
Ġsynt hesis
Ġf rog
b asketball
Ġvibr ant
Ġsub ord
Ġcooper ate
Ġgreet ed
Ġj azz
Ġinto x
Ġsuper visor
s end
s d
n l
Ġtour s
Ġcul p
g d
Ġple as
Ġillust rates
Ġhighlight ing
Ġexp osing
Ġir ony
r itional
Ġad apter
Ġun m
Ġcor pse
Ġceleb rities
at um
lin ing
Ġhorm ones
alky rie
inos aur
Ġfeed s
v ity
Ġdefe ating
Ġemphas ize
yr inth
le ys
Ġcollect ively
any on
Ġment ality
Ġdownload s
Ġsurround ings
Ġflags hip
Ġindic ators
Ġgra pp
ib al
Ġs ights
Ġcap ita
Ġvo iced
let te
Ġy a
Ġexp ired
n ature
Ġunst able
Ġquest s
Ġhand ler
n is
Ġvers atile
Ġconce al
enge ance
Ġobs essed
Ġcr acked
s v
ro ads
f x
Ġsl ammed
Ġgl owing
s ale
Ġtiss ues
ne e
Ġc her
s ic
ur rection
Ġb acon
ul atory
Ġir regular
ass ed
Ġintention al
Ġcompens ate
Ġconvent ions
b ands
em ade
Ġe cc
Ġdepend ence
Ġnic he
Ġb ark
Ġdisadvant age
Ġgas oline
ess a
mod ule
ang ular
it as
ol ation
Ġfe ud
Ġthe atre
ew ater
Ġmin ors
olic y
div ision
Ġtr unk
Ġcapt uring
Ġex empl
Ġclin ics
Ġsubst it
Ġpay load
Ġfrag ments
Ġpass words
Ġg ospel
Ġten ants
ol ith
Ġbl at
Ġem pathy
sm ith
b ag
Ġred e
Ġsmooth ly
ste am
re a
aly st
urs or
Ġelim ination
Ġcrypt o
ch t
Ġu h
w age
Ġresp ir
Ġrem inis
het ical
Ġg y
Ġutil ized
ic idal
Ġhun ters
Ġvis itor
Ġh ips
om ers
Ġkn ocking
Ġt il
Ġm i
Ġcas ino
Ġmot ives
Ġreg ain
re x
Ġweek ends
Ġstab bed
bor o
Ġexplo ited
c ock
Ġprepar ations
Ġende av
Ġinform ational
Ġpl ots
Ġhur ting
Ġacad emy
n m
el ong
Ġretail er
Ġar ising
Ġrebell ion
Ġbl onde
play ed
Ġinstrument al
Ġret ention
Ġtherape utic
Ġse as
Ġinfant ry
Ġprompt ing
Ġbit ch
Ġst ems
Ġthe sis
ru ed
Ġk ings
Ġcl ay
ific ent
vey ard
els h
in arily
Ġev olving
Ġrecogn izes
Ġgrad uation
is ers
Ġfert ility
Ġbox ing
Ġgl uten
Ġid ol
Ġcon ceived
udd y
uss ions
iet al
Ġunch anged
ball s
ator ial
Ġdepth s
Ġempir ical
Ġtrans m
Ġuns afe
miss ible
com fort
Ġmechan ic
l ins
Ġsm oked
Ġslow ing
Ġl av
Ġche ating
eth yl
Ġdiscover ing
as se
Ġpen cil
Ġclos et
ou stic
Ġmy st
er ate
ari at
Ġminer als
Ġmusic ian
Ġper missions
Ġ iv
en ary
ick ers
he a
en able
Ġgri ev
Ġassert ed
Ġaff idav
w o
Ġse ated
Ġpaint ings
ish i
umb ai
g otten
Ġin ning
Ġc ensus
Ġtrave lled
b ind
Ġsimpl icity
Ġoverlook ed
Ġmon key
Ġoverwhelming ly
pt ive
Ġturn out
w ald
Ġon ion
Ġcraft ing
m ma
Ġarr ange
Ġalert s
zb ollah
Ġg ases
s al
l ar
Ġfro st
Ġlower ing
Ġacc laim
Ġstart ups
ess ment
Ġguard ian
Ġmer its
Ġaw ake
Ġparent al
Ġexceed s
Ġid le
ipe g
Ġtrad ers
olit ics
unk er
os i
an mar
est ial
it ating
if ted
Ġconnect or
ill es
h ma
Ġoverl ap
Ġclean er
Ġlung s
Ġc ite
Ġpit ched
reat ment
Ġtro phies
Ġattend ees
Ġspat ial
Ġpri zes
Ġshow case
vid ia
Ġf usion
p ie
Ġsound track
Ġprin cess
sh ould
Ġlim bs
Ġlone ly
Ġc ores
she et
Ġbook ed
Ġadmin ister
Ġequ als
w y
Ġobserv ing
Ġv irgin
gh azi
Ġbre wing
Ġmerch ants
bur se
Ġdiv or
Ġmet als
Ġsum s
Ġen vision
Ġgrant ing
Ġsoc io
gr aded
Ġselect ive
act ivity
Ġfur ious
Ġrespons ive
Ġchar itable
Ġle aning
Ġviol ates
w ire
Ġpo et
Ġres olutions
comm and
Ġnick name
Ġde af
Ġrecogn ise
Ġentire ty
Ġseason al
pl aced
Ġmicro phone
our ing
Ġgr ains
Ġgovern ed
Ġpost p
in ement
Ġund ocumented
Ġf ox
Ġassault s
re on
man y
Ġassess ments
Ġdown s
Ġsuper b
k t
Ġtax ation
Ġsm iles
Ġundert aken
Ġex h
Ġenthusi astic
Ġtw ent
Ġgovernment al
Ġautonom y
Ġpreval ent
f b
Ġnic otine
og ram
j ob
Ġawa iting
Ġdep uties
k ov
ish ops
Ġdies el
j ury
ent e
Ġinacc urate
edd y
Ġshow c
od us
et r
Ġplaint iffs
Ġpriv at
Ġpremium s
Ġt am
Ġel ites
otten ham
Ġdefin ite
Ġs ighed
Ġeven ly
ak ia
Ġmail ing
Ġcr ashing
ru gged
Ġjuven ile
Ġreact or
iv able
qu in
ve red
Ġkid ney
inn amon
l as
Ġpolic ing
Ġtoler ate
Ġbi ased
s ave
Ġprivile ged
Ġbe asts
Ġcome back
Ġext inction
h ops
Ġtrans mit
Ġdoub les
Ġdis puted
Ġinjust ice
f oo
role um
iss ue
Ġcounsel ing
an ne
d ark
Ġobject ions
u ilt
Ġg ast
Ġpl ac
Ġun used
hed ral
ob b
Ġtempor al
Ġther m
Ġd avid
Ġsystem ic
m ut
add ress
Ġscan ning
Ġunderstand able
Ġcan vas
Ġang els
ov able
sh aring
ocr ats
st ated
Ġweigh ing
w ild
Ġaston ishing
Ġop ener
Ġtrain er
Ġsurg ical
p n
Ġadjust ing
whe el
Ġf rown
erv ative
Ġsusp end
te in
Ġobst acle
Ġliber ties
ym es
Ġur anium
ans om
an ol
ub a
Ġa rous
s pl
c ur
Ġtheir s
Ġdownload ing
Ġdisc ern
Ġh ath
Ġun pleasant
exp ensive
Ġscreens hot
Ġall ied
Ġmonop oly
Ġat om
Ġcan cell
Ġcinem a
f air
Ġd uck
arg s
Ġsign aling
in ar
Ġlaugh s
Ġfor wards
Ġreck less
Ġlisten ers
at ivity
Ġvast ly
n ant
Ġkn ight
us a
t mp
Ġr ude
Ġar ises
pe g
Ġreal ities
Ġro de
Ġstri ve
Ġan ecd
Ġshort s
Ġhypot hes
Ġcoord inated
Ġsuscept ible
Ġshr ink
Ġ ion
de ep
rib es
Ġc ough
w ife
Ġl end
Ġposition ing
Ġlot tery
Ġf ade
Ġbron ze
Ġbo asts
rec ord
Ġemer gence
Ġa kin
it ous
Ġst ip
Ġexch anged
om ore
als h
Ġreserv oir
Ġstand point
Ġiniti ate
Ġdec ay
Ġbrew ery
Ġter ribly
Ġmort al
lev ard
Ġrev is
el o
Ġconf ess
Ġsub missions
Ġl aund
ien cies
Ġrenown ed
ble ms
Ġterr ified
Ġwar ns
Ġper t
Ġuns ure
ale z
ult z
Ġst yl
Ġp anc
Ġd ictionary
Ġf oe
rim inal
Ġj ailed
Ġm aternal
c op
Ġuns igned
Ġpast or
Ġinform al
an throp
jo in
it ational
f n
Ġy elling
Ġdr astically
Ġe ject
Ġne ut
Ġth rive
ou x
Ġpossess es
uch i
Ġinc arn
Ġfound ers
Ġbright ness
Ġwh ale
m ass
Ġecho ed
c rit
af ia
Ġgodd ess
Ġele ven
uls ive
in burgh
Ġparad ox
Ġh urd
c ourt
Ġoff ended
Ġeval uating
Ġto mb
Ġpay roll
Ġextra ction
if i
Ġsuper natural
dog s
Ġide als
m and
Ġhum ili
b uffer
Ġliber ation
Ġstuff ed
ac a
ind a
raph ic
Ġmos qu
Ġcampaign ing
Ġoccup y
r ina
Ġphys ic
Ġp uls
r int
oad ed
Ġven ues
h ner
Ġl ust
Ġappeal ed
que z
il ib
Ġo mn
d ro
Ġobs ession
Ġsl iding
Ġdisapp ro
Ġvolunt arily
g b
ane y
Ġprop het
aur us
Ġb ounds
ie u
Ġcro re
Ġcolumn ist
Ġseek ers
ond o
Ġnost alg
Ġnew com
Ġdet rim
ent ric
Ġaut op
Ġacadem ics
Ġid iot
Ġteasp oon
Ġpop ulated
Ġp igs
Ġsymp athetic
Ġmar athon
Ġseiz ure
s ided
Ġd op
irt ual
osa urs
Ġl os
Ġsubsid iary
Ġmir rors
Ġk et
t imes
Ġneuro log
Ġc av
Ġtum or
sc ill
Ġcle arer
Ġstere otypes
Ġd ur
not hing
Ġnegoti ated
Ġfl own
Ġdisappear ance
g rown
Ġgrab s
r il
Ġpedest rian
Ġjer sey
Ġment or
Ġmor ally
Ġob ey
sec ure
iff e
Ġantib iotics
ang led
Ġm arsh
ic ans
och ond
icult y
Ġmisdem eanor
Ġl y
Ġanim ations
Ġinter course
Ġterrit orial
Ġarch ives
Ġcommand ed
Ġpit ches
Ġrat ios
Ġaccum ulated
Ġgentle man
acer b
Ġp enn
Ġa ka
Ġinterven e
Ġsuccess ion
oh an
d oes
Ġsepar at
Ġcorrespond ence
Ġsh iny
Ġs ulf
Ġmiser able
Ġded ication
Ġspecial ists
Ġdefect s
Ġje opard
Ġle ar
Ġamb itions
Ġpres ervation
ific ate
Ġash amed
l oss
Ġrese mble
Ġen rich
fl oat
Ġplay able
Ġharm ony
arr ison
w ere
Ġpoison ing
m ajor
ad os
Ġtort ured
Ġbal ancing
bott om
Ġacqu iring
ard i
Ġa ura
Ġintr ins
Ġcamp ing
Ġt apped
bl ade
st rous
t ip
ster dam
n um
Ġcaffe ine
Ġbo o
Ġapp les
Ġwel coming
Ġappl aud
Ġa usterity
ef e
Ġsu cks
Ġtab s
Ġback pack
Ġgif ted
abul ary
ir teen
Ġch in
Ġo mitted
Ġnegative ly
Ġaccess ing
Ġambul ance
Ġhead phones
p resident
om ical
Ġborrow ed
Ġav iation
Ġst all
rim ination
Ġuniform s
it ime
ener gy
ab lished
y y
qual ified
Ġrall ies
fl ight
Ġgang s
r ag
Ġv ault
lu x
Ġdesign ation
d ollar
z ero
Ġwell s
Ġconstitu ents
Ġhe ck
Ġc ows
Ġcommand ers
Ġdifferent ial
Ġval ve
Ġbr ace
Ġperspect ives
c ert
f act
icular ly
pl anes
Ġint ric
Ġpe as
ov an
Ġtoss ed
ret ch
Ġunf amiliar
de ath
Ġrelie ved
rop he
Ġair ports
Ġfre ak
ut il
m ale
ro b
r ising
Ġfire fighters
Ġauthor itarian
ex ternal
Ġbrow sers
iche ver
or ian
Ġun b
Ġpo ke
Ġco vert
Ġcont ributes
Ġcont ention
Ġcons oles
Ġchrom os
Ġvis ually
Ġjewel ry
Ġdeleg ation
Ġacceler ate
Ġsl ope
Ġind oor
it ially
Ġhuge ly
Ġtun nels
Ġfin ed
Ġdirect ive
Ġfore head
ustom ed
Ġsk ate
g as
Ġrecogn izing
am bo
Ġover weight
Ġsound ing
Ġlock ing
Ġexc av
Ġel bow
w ic
Ġhands ome
Ġadequ ately
Ġstri ps
Ġcrack down
Ġmar vel
Ġpass ages
Ġthought ful
names e
Ġprost itution
bus iness
Ġball istic
person al
c ig
iz ational
Ġadm itting
Ġbit coins
Ġfair ness
Ġsupp lier
Ġcatast rophic
o qu
g ie
Ġend angered
Ġdest iny
ol ia
ax is
Ġche at
Ġun ified
qu ote
Ġsupp ression
Ġanaly zing
Ġsqu at
Ġfig uring
Ġcoordin ates
Ġch unks
Ġsub p
Ġw iki
im er
Ġlegitim acy
Ġd ental
Ġdefic its
Ġcontam ination
ll ah
Ġconf isc
an ed
Ġrul er
Ġfemin ists
g ay
Ġr abbit
ownt own
Ġgl ue
Ġvol atile
Ġsh ining
Ġf oll
Ġimp aired
Ġsup ers
Ġcl utch
Ġpro let
Ġy elled
Ġsit uated
qu ery
Ġan nex
char acter
Ġautom ation
Ġl inem
Ġwild erness
Ġmain land
Ġsec recy
Ġp unk
Ġhand ing
r ase
Ġj ournals
Ġcon gest
ir rel
Ġschizophren ia
Ġmis ogyn
health y
Ġreact ed
Ġpl ural
Ġpl um
Ġbarg ain
Ġground ed
f inder
Ġdis se
Ġat roc
Ġmin ions
Ġo ri
Ġexped ition
Ġexpl ode
Ġext r
Ġhard core
feed ing
Ġd ile
Ġvacc ination
osp here
Ġcont ests
Ġf ren
isp here
Ġdis connect
Ġper secution
Ġhealth ier
Ġc ob
Ġspecial ty
Ġg ru
Ġcooper ative
wh y
st re
ens or
em ia
Ġcelebr ations
ra ud
Ġun real
con text
Ġpartners hips
Ġadop ting
t ical
Ġspl ash
c ategory
cycl op
xt on
urd y
t z
Ġenvelop e
Ġwhere in
Ġte lev
al iation
Ġmyth s
Ġrig orous
Ġcommun icating
Ġobser ver
Ġre he
Ġapolog ized
Ġexpend itures
work ers
d ocument
Ġhes itate
Ġunpredict able
Ġrenew al
cl er
ok ia
Ġpost season
Ġex acerb
Ġbet ting
Ġelev ation
out put
Ġredu nd
Ġreprodu ce
Ġb og
Ġc d
Ġpo pped
Ġincomp et
pro p
ay an
g uy
Ġty r
Ġmast urb
Ġge ometry
Ġtraject ory
Ġdistract ed
Ġf oo
m ith
Ġrug by
Ġrespir atory
Ġtri angle
Ġunder graduate
ch anging
Ġright ly
Ġrefere e
Ġluc rative
Ġun authorized
Ġresemb les
Ġpath ways
Ġend urance
Ġst int
Ġcollect or
Ġd ots
Ġnational s
Ġwh ip
Ġlearn s
Ġdetail ing
m oon
Ġbroadcast ing
Ġb aked
hol m
Ġge ographic
pe ace
Ġjud ging
Ġstory line
Ġbur nt
Ġp ave
ch oes
Ġcamp uses
Ġmut ations
Ġcapt ures
Ġcomp ares
Ġbad ge
Ġer ad
ier y
o i
ett es
Ġst rap
Ġproud ly
Ġf ried
Ġwithd rawn
ph ony
b ard
Ġann otation
ant on
ill on
Ġhapp ier
ad just
Ġstaff ers
Ġactiv ism
Ġper f
Ġal right
Ġcomm ence
Ġopio id
Ġind o
t c
end ant
Ġlegal ization
Ġtask ed
Ġt sp
Ġrefres hing
Ġinfring ement
in ning
k u
Ġrot ate
pro gram
ar ah
Ġst oring
Ġwar rants
Ġjud gement
us ually
ph oto
Ġoutrage ous
lu ence
Ġrele vance
Ġtermin ated
Ġd essert
Ġfulf illed
Ġprosecut ed
Ġm igrant
Ġcultiv ation
idel ity
Ġmetaph or
Ġrecru its
rib ing
Ġenthusi asts
ex per
Ġfright ening
ans on
str ate
Ġh i
Ġown ing
n one
Ġdis like
Ġkn ives
pher d
Ġloud ly
ab l
ver ages
at oon
in tern
Ġwarm th
Ġto pp
Ġgun man
Ġem peror
od i
in atory
Ġw aking
Ġcomed ian
en berg
Ġbelie vers
Ġpaper work
c ustom
Ġle v
Ġl ament
Ġpour ing
p olitical
m aid
Ġcruel ty
Ġt read
ys ics
rit es
Ġmod ifier
l b
ub s
Ġimper fect
Ġcl usters
Ġinaug uration
Ġembod iment
Ġover r
Ġexplos ions
c ule
Ġincorrect ly
Ġearn est
Ġpil gr
Ġslee ve
Ġhe ars
Ġbrow sing
ag in
Ġhom eland
Ġha w
Ġd iving
ist ered
Ġbarg aining
Ġdeleg ate
ters on
Ġst agn
Ġad am
Ġsub urb
Ġconver ting
Ġch ambers
l ove
Ġam ino
Ġmad ness
m c
def ined
Ġul tr
ind ust
Ġw olves
l ance
Ġcr acks
as ia
Ġaccident al
Ġinitial ized
ell i
Ġun named
Ġn oun
Ġhost age
sh irts
Ġun rel
Ġat oms
Ġpur ported
Ġgall ons
Ġp g
en ment
Ġsort ed
Ġhe ights
Ġtr aced
Ġunder going
Ġs acks
Ġproport ions
Ġhall uc
ac et
Ġwar mer
Ġgrab bing
Ġreal ization
Ġen chant
Ġabund ant
Ġc ivic
is i
Ġv ow
Ġre per
Ġpenet ration
Ġax e
Ġsh attered
Ġv inyl
e on
Ġoblig ed
Ġdavid jl
lin ux
Ġhur ry
Ġv oy
Ġhop eless
ess ors
tt le
b org
f ell
Ġw ary
d ue
Ġnot or
Ġoccup ations
Ġposs essions
Ġinv iting
Ġpred ators
Ġacceler ated
uter te
e ast
acc ount
Ġtrans plant
red ients
id able
Ġscreens hots
Ġtravel ers
Ġsens ory
Ġ° Ġ­
Ġchar ming
Ġenjoy ment
m ph
b ia
Ġcomp ilation
ro st
Ġcop ying
f alls
t otal
Ġdis ciples
d ouble
Ġexceed ing
Ġsm ashed
Ġconcept ual
Ġg rap
Ġn ails
Ġproc ure
e ur
Ġconfir ming
aw i
Ġn g
Ġengine ered
at ics
Ġhook ed
Ġdisgust ing
hem atic
Ġkidn apped
Ġhack er
Ġcreep y
Ġdraw ings
Ġcycl ists
Ġoptim ized
Ġst aged
bet ween
en o
n ings
av is
Ġincap able
Ġreward ing
oles cent
Ġcontract ed
Ġstick y
f est
Ġto mat
squ are
Ġnit rogen
Ġdupl icate
Ġint ra
Ġd ock
Ġout reach
Ġmamm als
am pton
Ġsn aps
Ġd os
ear ance
Ġinc urred
ren ched
il ot
rain e
Ġc ube
g ot
Ġrun way
etermin ed
Ġsurviv or
Ġmush rooms
Ġcris p
be y
Ġdevelopment al
Ġparad igm
Ġcha otic
b ons
Ġbacter ial
Ġcomm its
Ġcos mic
Ġme ga
oc ative
ophob ic
Ġv ain
Ġcar ved
ows hip
Ġc ites
Ġdimin ished
Ġacknowled ges
Ġmic row
Ġsen iors
Ġwhere by
at ron
Ġun available
Ġsl ated
Ġgram mar
Ġhead set
Ġcurs or
Ġex cluding
any e
aunder ing
eb in
Ġfeas ible
Ġp ac
vis ible
mark ed
pe ll
Ġpol ite
Ġstagger ing
Ġsuper st
Ġpar an
Ġspecific s
ul us
angu ard
rest rial
Ġhero ic
Ġincumb ent
Ġcr unch
t ro
Ġsc oop
Ġblog ger
Ġsell ers
ure n
Ġmedic ines
ox y
Ġout ward
Ġinqu iries
Ġpsych ologist
ev il
Ġcontam inated
he rence
Ġbrand ed
z h
Ġparagraph s
Ġmin s
Ġcor related
er b
Ġimp art
Ġmil estone
ot le
Ġunder cover
Ġmar ched
f ax
Ġr uth
we ather
Ġfemin ine
Ġsh am
Ġprest igious
igg ins
Ġs ung
hist ory
ett le
gg ie
Ġout dated
ol and
Ġper ceptions
u j
Ġdefic iency
Ġretro spect
Ġdiagn ostic
Ġharm less
Ġro gue
Ġtrans c
iv o
Ġhost ility
Ġµ Ġº
Ġdis comfort
spec ified
Ġimper ative
Ġstate wide
Ġsy mm
Ġlo ops
Ġaut umn
Ġsh aping
Ġqu ot
Ġc herry
he ed
Ġo st
Ġreb ound
pl aces
Ġshel ters
Ġins isting
Ġpen al
he ard
Ġdial ect
iz a
it cher
Ġspir al
Ġquarterback s
Ġh ull
Ġgo ogle
Ġto dd
Ġsp ying
mb ol
Ġtermin ate
Ġprotest ing
gu ided
Ġun cover
Ġboy cott
Ġreal izes
s ound
Ġpret ending
Ġfram ed
Ġdesc ended
Ġrehab ilitation
Ġborrow ing
Ġbl ur
en za
Ġtransl ates
Ġerupt ed
Ġsuccess es
Ġpl ague
Ġg ems
d oms
Ġstret ches
Ġstory telling
Ġtra ction
Ġin effective
Ġt apes
Ġanaly tics
erc ise
Ġprogram mes
Ġbeh old
he avy
Ġs ack
ter min
ric ks
Ġhous ed
Ġunus ually
Ġexecut ing
ed ay
Ġed itions
Ġsm arter
Ġout law
Ġvan ished
ib a
Ġphilos opher
Ġevac uated
Ġvis as
aut o
it ant
Ġrein forced
Ġscrew s
parent s
Ġo ceans
ma res
Ġbra kes
vas ive
Ġhell o
rim p
Ġo re
Ġterr ific
Ġt ones
Ġcur ves
Ġinflamm atory
Ġbat ting
Ġunp op
v able
Ġr iots
b augh
Ġorg asm
Ġconstruct or
et z
Ġant agon
Ġthe at
Ġde eds
ha o
c uts
Ġu m
Ġgrass roots
ys sey
Ġsurf aced
Ġsh ades
Ġneighb ours
Ġad vertis
oy a
Ġmer ged
Ġg ad
Ġanticip ate
Ġsl ogan
Ġdis respect
act ed
Ġsubp oen
medi ately
Ġwa iver
Ġvulner abilities
ott esville
x on
it ems
Ġf ills
Ġcum ulative
and als
Ġfr iction
ig ator
Ġsc ans
ld om
Ġperform ers
Ġb idding
Ġlean ed
al ks
Ġcall back
Ġacc ustomed
Ġfreed oms
ur acy
Ġl ump
is man
Ġwor m
com pl
Ġnew born
Ġfant as
Ġsymp ath
Ġub iqu
Ġoutput s
Ġal lev
Ġpr ag
Ġfav ors
Ġbur ial
Ġn urt
so lete
c ache
Ġunl ocks
te chn
Ġcon quer
ad ic
Ġel f
Ġelect orate
Ġkind ness
Ġhelicop ters
ot ics
com ment
Ġcritic ised
Ġpol ished
Ġrec ons
Ġdo i
at em
Ġbar red
Ġsl ap
p ine
Ġem pt
Ġh ats
l ab
a verage
form s
Ġcan s
mod ern
Ġsur geon
Ġrandom ized
im pl
Ġpro claim
th ouse
Ġto es
Ġam ple
Ġpres erving
Ġdis bel
gr and
Ġsil k
h m
Ġenter prises
Ġaffidav it
Ġadvert ised
se ctions
psy ch
aw ays
Ġhasht ag
Ġv ampire
Ġfore nsic
rosso ver
n ar
Ġn avy
Ġvac ant
Ġhall way
Ġface book
ident ally
Ġm att
Ġhur ricane
Ġsk irt
ou st
du llah
Ġanal ogy
in ion
Ġtomat oes
Ġappoint ments
Ġm asc
Ġal ley
re hend
Ġchar ities
Ġund o
Ġdest inations
Ġdest ined
Ġimp lements
Ġoptim ization
Ġkilomet res
Ġc md
Ġimpair ment
Ġun successful
Ġswift ly
art en
Ġnut ritional
Ġbl oc
Ġwholes ale
Ġneg lected
Ġlaun cher
Ġannounce ments
com b
Ġrot ating
Ġrest s
ched el
Ġtem plates
Ġrepl aces
Ġillness es
Ġsched ules
Ġheter osexual
Ġhere in
Ġco erc
Ġdecre asing
Ġde portation
s udo
Ġweigh s
Ġjoint s
ver ts
na ire
Ġsimpl est
Ġl ore
f iction
Ġreserv ation
Ġs ou
Ġsan ctuary
aud io
ap le
Ġveget arian
Ġanticip ation
m icro
Ġend uring
Ġdepart ed
Ġsidew alk
Ġprohib its
Ġcomp ute
Ġbom ber
Ġdist raction
Ġend ured
Ġpractition ers
Ġdistur bed
Ġdr ank
ord ered
Ġsurpr ises
se at
og o
Ġsub paragraph
ire n
igg le
Ġgrat itude
over ty
im an
ct r
c ould
g em
Ġsk ies
Ġch amp
Ġagree ing
Ġmess y
um ption
ern o
Ġdev ote
Ġdump ed
Ġaccum ulation
st ad
hib ition
Ġsm okers
Ġinspect or
iss an
Ġresearch ing
Ġcl oak
so ld
mod s
Ġmult itude
Ġrel iance
Ġartif act
Ġalarm ing
h on
med ium
Ġref lex
Ġweaken ed
Ġcost umes
Ġunique ly
Ġs orrow
Ġm ansion
w p
Ġsal v
bs p
Ġund is
Ġbrand ing
Ġinherit ance
ener y
Ġpack ing
Ġregul ator
l ocked
Ġcont ested
Ġunpop ular
Ġst acked
Ġyear ly
Ġst are
Ġassess ing
Ġbe verages
Ġcompet itions
Ġstreng thening
al ong
Ġmel ted
stan bul
Ġb ounty
Ġdecl ares
Ġcustom ize
Ġcomp osite
ograph ics
Ġcont ender
Ġins ign
Ġdis asters
ins pired
Ġjud gments
ustain able
urs ion
Ġvar iance
u ador
Ġmel ting
Ġsy rup
qu ick
Ġinnoc ence
Ġf al
Ġcontinu ity
st ill
Ġun supported
xxxx xxxx
Ġinst itute
Ġfrag ment
ast ics
Ġb ishop
Ġcross es
Ġmit igate
Ġtom ato
Ġst umbled
Ġdiff ers
Ġign ores
Ġt ant
Ġrel ay
Ġb isexual
Ġconf ession
Ġd ement
in as
pl atform
dri ving
bour g
Ġhy ster
Ġdr ift
or f
Ġexp ire
zy me
g old
Ġunp aid
Ġun armed
Ġill icit
Ġsm ash
ink er
Ġst ing
Ġtruth s
b irth
Ġso ber
Ġ ib
Ġus able
Ġst acks
Ġnort heast
Ġdom ination
Ġprogram mer
Ġback yard
ir ling
Ġdetect ives
Ġlo oph
Ġgate way
Ġdo omed
od o
Ġslic es
Ġemail ed
Ġren ov
ody nam
get ic
Ġoptim ism
ul ators
prot ected
y les
Ġex ile
en v
om aly
Ġrail road
Ġrepl icate
Ġcomfort ably
act ly
Ġr av
Ġtelesc ope
Ġhonest y
Ġric hest
Ġout doors
Ġh alls
Ġcont end
Ġsub mitting
Ġna ive
ar ations
Ġpo ised
respons ible
Ġsoc ks
Ġdiscover ies
Ġpuzz les
Ġce ased
cript ions
Ġbo iling
Ġdisc rep
Ġded uction
Ġar senal
rox imately
Ġpos ing
Ġthe ology
qu arter
Ġalleg ation
Ġindef initely
Ġcommod ities
Ġbr ig
Ġt enth
met hod
Ġinv oked
Ġc aucus
Ġoun ces
b ay
Ġbud dy
f an
ad h
Ġiter ation
em b
re ra
en ch
Ġlivest ock
h ours
b ral
Ġwas ting
ing ed
g roups
Ġw ishing
Ġt apping
Ġnational ism
Ġsqu ares
deb ug
Ġapp end
Ġstub born
Ġt earing
or c
fil ter
Ġacc use
Ġtor rent
Ġdecl ines
g allery
Ġneg otiation
op ia
em ort
ers ive
Ġroll er
Ġin expensive
Ġwor s
Ġv ul
Ġunbeliev able
Ġn ause
Ġent r
bo at
Ġbus h
Ġw o
Ġpa used
l ived
Ġsc out
Ġl ith
du ino
c ool
Ġcirc ulating
id as
viol ent
udd le
mor ph
Ġwand ering
Ġsoph omore
Ġque er
r ue
Ġpadd ing
Ġfold ers
Ġmeaning less
Ġcandid acy
af ort
Ġwhistle bl
Ġcig ar
Ġh id
Ġpost ure
Ġh iking
e ffic
Ġsal mon
Ġmet ro
Ġb ilateral
Ġcelebr ates
b illion
Ġre leg
Ġpse udo
ple tion
Ġatt ribut
Ġtun ing
ic us
Ġcock tail
Ġsp oon
Ġbrut ality
Ġun ite
Ġmicro bi
pos itive
Ġam azed
Ġfalse ly
Ġdistribut ions
the ir
Ġp od
Ġepid em
Ġhe ap
Ġan them
Ġre app
Ġconc urrent
Ġhom emade
k ick
Ġch assis
c ounter
Ġmer ger
Ġl aps
un ion
Ġdeb ated
Ġsil ently
Ġrest raint
Ġform idable
Ġsacrific es
Ġdwar f
in ian
Ġtang ible
ops is
o an
Ġrepresent ations
Ġth irst
Ġcor p
ire ment
l oe
c ats
Ġgest ures
gener al
Ġpack ets
Ġfraud ulent
Ġcritic ize
Ġbl aming
nd ra
Ġsl ash
Ġpropos ing
Ġwh ales
Ġtherap ist
Ġsub set
Ġle isure
Ġcul min
sh op
is cher
Ġmem oir
Ġfold ed
Ġsex ist
Ġread ings
Ġembarrass ment
w art
ch in
Ġcontin uation
l ia
Ġd uel
Ġevac uation
Ġdis position
Ġbol ts
Ġins urers
Ġret aliation
Ġmis ery
Ġunre asonable
r aining
em er
Ġgen ital
Ġon ions
lin er
Ġconced ed
Ġf a
Ġfor c
deb ian
Ġc ries
Ġhome owners
Ġst itch
Ġstat istic
Ġhead ers
Ġmot ors
Ġh ates
Ġhe el
i pl
ort ing
Ġann ot
old emort
Ġfoot print
Ġf n
Ġseiz ures
n as
h ide
Ġreserv ations
f emale
Ġsatur ated
Ġb iblical
Ġtroll s
ph otos
Ġdr ums
f ighter
ri ber
Ġc ush
Ġdiscipl inary
ba um
ilib rium
Ġs ixty
ro ts
Ġp und
Ġspr ings
Ġcon ve
Ġqual ifications
Ġvers es
Ġnarc iss
ed o
Ġinterrog ation
Ġalleg es
ond s
id ation
y u
Ġl akes
Ġworth while
Ġcryst als
Ġcomp rehend
Ġfl ush
Ġabsor ption
Ġfright ened
Ġbu ys
Ġbu cks
Ġapp ell
Ġlist ener
Ġc z
ud s
Ġre play
Ġdecor ated
Ġs unk
aa aa
Ġse ating
Ġemploy s
Ġgig antic
in ventory
Ġtow el
at che
l asting
Ġlat ency
Ġkn e
me aning
Ġup held
Ġplay ground
Ġm ant
Ġstere o
Ġnorth west
Ġexception ally
Ġr ays
Ġrec urring
Ġup right
Ġab duct
Ġgood bye
Ġal phabet
h p
Ġcourt room
ring ton
ot hing
Ġdiplom ats
Ġbar bar
Ġmat urity
Ġinst ability
Ġfast ing
ett i
Ġacqu aint
Ġarm ored
Ġphilos ophers
in vest
Ġmy riad
Ġcomr ades
Ġremember ing
Ġcorrespond s
Ġprogram mers
Ġo lig
Ġco herent
yn chron
Ġj ugg
p air
post s
Ġsem ester
ott est
ric anes
or ously
m its
Ġd odge
l ocation
Ġf aded
j ournal
Ġstat utes
m obile
b uster
pe x
Ġleg ends
Ġhead ache
f aced
if ty
Ġcirc uits
ol in
Ġcyl inder
osp ace
ik ers
Ġconflic ting
Ġslight est
Ġfor ged
ion age
Ġbl o
Ġrul ers
Ġh uh
Ġsubmar ine
f y
ass er
Ġallow ance
am ins
t ier
Ġcr ushing
Ġadvoc ating
keep ers
Ġsex ism
x d
Ġcall er
chie ve
Ġfuel ed
Ġreminis cent
Ġobs ess
ur st
Ġup hold
het ics
Ġbe verage
Ġo scill
Ġpol es
Ġgrad ual
Ġex ting
Ġlik ing
un ciation
am ination
Ġsynt hes
Ġp ains
Ġinteract ing
u ously
inc re
Ġrum or
Ġspe lling
Ġexting u
ms on
Ġg h
Ġremark ed
g ae
Ġmeth ane
Ġimag in
i q
Ġwrong doing
att a
Ġbig ot
Ġdemonstr ators
Ġmembr ane
Ġbenef ic
Ġmagn ificent
Ġdetain ees
Ġwhis pered
Ġa we
fund ing
Ġphys iological
Ġlim b
Ġmanip ulated
Ġbub bles
Ġpse ud
Ġhyd ra
Ġst ellar
Ġm ans
Ġdrag ging
Ġec ological
Ġg ent
Ġbenef ited
Ġpoly g
Ġpro w
Ġrecon struction
Ġwas t
Ġpsych ic
Ġsol icit
Ġsy s
Ġinflu x
per cent
Ġprolifer ation
Ġtax able
Ġdisreg ard
Ġesc aping
Ġg inger
Ġwith stand
Ġdevast ated
ser ies
Ġinject ed
ela ide
Ġturn over
he at
Ġ» Ġ¤
iv ism
Ġir rational
Ġre ef
r ub
Ġbank ers
v v
Ġcritic isms
Ġno od
Ġdist ortion
od ore
Ġt asty
Ġdivor ced
ian i
ign ant
Ġtra umatic
Ġsab ot
on line
r andom
Ġren amed
ra red
d ead
Ġse af
Ġse ldom
Ġbo olean
u let
Ġref rain
ru le
Ġshut ting
Ġutil izing
load ing
co al
oot er
Ġattract ing
Ġher s
ag netic
im o
Ġdisc arded
Ġm ug
Ġcurs ed
spe aking
ong o
Ġsub reddit
Ġcr us
g rowing
Ġinstall ment
Ġgl ac
Ġac et
Ġsuccess ive
Ġcircumst ance
ack ets
ort ium
Ġguess ed
Ġperpet rators
Ġhand c
r and
d in
urt les
h ig
ff iti
b ial
Ġkidn apping
dev ice
Ġb arn
auc as
Ġneed les
Ġad vertisements
Ġv ou
Ġexhib ited
Ġcan cers
ump ing
Ġpr ud
Ġn as
Ġathe ist
Ġbal ances
Ġland sc
Ġpet ty
Ġex cellence
Ġtransl ations
Ġpar cel
im i
Ġamb ient
Ġvill ains
Ġtall er
Ġle aking
c up
Ġpol ish
Ġinfect ious
back ground
Ġbureaucr acy
un less
it ious
Ġhyp ocr
Ġpit chers
Ġguess ing
Ġvill agers
f ashion
Ġspec s
Ġinv ari
Ġgl ut
Ġimp ulse
Ġhon ors
g el
Ġjurisd ictions
ul as
Ġp ear
Ġsing les
Ġc ues
Ġunder went
Ġexagger ated
Ġdub ious
Ġfl ashing
t g
Ġsad ness
Ġiron ic
x c
is ch
h orn
Ġun aff
ill as
Ġper imeter
Ġspont aneous
Ġdown side
Ġdescend ants
Ġor n
w orm
els en
umb les
Ġrad ically
Ġli abilities
Ġmem e
yn es
Ġfinger print
Ġundert ake
g od
Ġhypot hetical
s cient
Ġchar ism
Ġad missions
tr ade
Ġexerc ising
Ġvoc als
whe ther
Ġv i
Ġl itter
Ġvari ability
Ġe ats
b row
Ġeleph ants
Ġstr at
Ġsett lers
Ġin advert
Ġnerv es
ey e
ablish ment
am oto
het amine
ep s
Ġmit ochond
Ġcomp ressed
Ġtwe ak
Ġpin ch
Ġcancell ation
Ġfoc al
umn i
Ġdem ise
d l
Ġcr acking
Ġcollabor ative
Ġexpl ores
s ql
Ġher bs
Ġconfig urations
m is
ace y
Ġsan ct
el ia
Ġdeg ener
Ġdeep est
Ġscream ed
Ġn ap
spons ored
mans hip
Ġprim aries
Ġfilter ing
Ġas semble
m il
b ows
Ġpun ched
Ġinnov ations
Ġfun c
and o
Ġfr acking
osh op
Ġsett ling
Ġadolesc ents
Ġreb uilding
Ġtransform ing
Ġpar ole
Ġhar bor
Ġbook ing
ot ional
onge vity
b ug
Ġemer ges
Ġtra iling
Ġvers a
c ss
ax ies
he et
Ġgre ed
Ġgard ens
Ġconting ent
h ook
ro be
Ġdiplom acy
Ġupgr ading
Ġe lic
Ġrelent less
ap esh
pro duction
art y
Ġpun ches
ak o
cyclop edia
Ġf oil
Ġimplement ations
ixt ures
Ġaw ait
am us
Ġumb rella
Ġfore see
se par
Ġcircum cision
Ġperipher al
Ġwithd rew
f ried
Ġradio active
Ġboard ing
Ġover throw
Ġmot ions
v ic
a er
Ġthank ful
mo il
Ġpredict ing
ch oice
Ġkill ers
Ġinc ub
ather ing
Ġpro claimed
fl ower
oss om
umbled ore
Ġpack aged
Ġheight ened
c ot
st ack
Ġst amps
m age
Ġpersu aded
Ġens l
Ġsol itary
Ġpossess ing
Ġev id
Ġbl ues
Ġextrem ism
Ġlun ar
Ġcl own
Ġfest ivals
Ġconsequ ently
p resent
Ġsom eday
Ġtour ing
c ulture
Ġbe aches
c ause
Ġpur ity
th ose
Ġem ission
b olt
Ġch ord
cre ated
Ġelement al
Ġannoy ed
d an
Ġfair y
Ġskelet ons
Ġpup ils
link ed
Ġur gency
en abled
Ġcoun cill
r ab
Ġlif es
Ġconf essed
Ġharm on
Ġst aple
oc o
Ġswing ing
ge x
ole on
pl ain
v ari
ran ch
Ġrest oring
Ġha ul
uc ing
ner g
Ġfut ures
Ġstrateg ist
quest ion
Ġlater al
Ġs or
Ġco il
st reet
ne um
Ġsuck ed
Ġr apper
Ġtend encies
cell aneous
Ġbrow se
Ġover c
head er
o ise
Ġbe et
Ġm um
Ġtyp ed
Ġdiscount s
ex isting
u ph
Ġdismiss al
Ġaver ages
c amera
Ġalleg iance
Ġcomment ators
Ġpharm ac
Ġstain less
Ġt an
Ġcountry side
Ġpin ned
Ġcr ises
Ġstandard ized
col ored
f orth
Ġpat rons
Ġsp ice
Ġm ourn
Ġlaund ry
Ġequ ip
y ll
n ation
Ġiss u
Ġsystem atically
Ġcont ra
Ġrational e
Ġcar riage
Ġpe aks
Ġcontrad iction
ens ation
Ġpro ps
Ġnames pace
Ġc ove
field s
Ġw ool
Ġpresum ed
r agon
ig i
Ġh amm
Ġst unt
Ġsmell s
ann ah
Ġcock pit
Ġopp ressed
bre aker
Ġcommand ing
Ġfr idge
ual ity
Ġo l
ag ent
read ing
Ġin h
Ġcl icks
al an
op us
ate l
Ġritual s
Ġcapt ive
Ġoun ce
Ġdisag reement
Ġsl og
f uel
Ġexerc ised
Ġsol ic
Ġrain fall
Ġdev otion
Ġrob otic
opt ions
Ġassign ments
aked own
Ġvoc abulary
Ġc aval
g ars
Ġsupp ressed
Ġwar p
bro ken
Ġstat ues
Ġadvoc ated
Ġper il
om orph
per fect
Ġh atch
Ġlif elong
Ġche eks
Ġnum bered
ra vel
Ġkiss ing
Ġw aving
u pload
Ġins ider
tt a
Ġviol ently
ip ation
Ġskept icism
Ġgen etics
Ġon board
at l
cept ive
Ġpir ate
Ġmyth ology
Ġe clipse
Ġsk ins
Ġgly ph
ing ham
w omen
Ġreg imes
Ġphotograp hed
Ġunexpected ly
Ġimpress ions
Ġsuprem acy
Ġs ang
Ġaggrav ated
Ġabrupt ly
Ġexc uses
Ġcost ing
ide press
ob il
Ġghost s
ld on
at ibility
Ġreim burse
Ġth ief
y et
ogen esis
le aning
Ġf i
Ġrecy cling
Ġlect ures
Ġne p
Ġm aid
Ġori ented
Ġrespect ful
re ne
fl ush
re quest
gr id
Ġdec ree
and um
Ġacknowled ging
hes ive
th ren
Ġho ax
Ġa unt
Ġdistribut ing
ou lt
Ġm l
Ġext rad
d ream
Ġstation ed
opt ional
ew orthy
Ġundert aking
Ġchick ens
Ġstimul i
ig ators
ct ory
Ġprep ares
Ġdel ta
Ġvic inity
t ool
Ġworks hops
Ġaccus ation
Ġhist ories
rop olis
Ġne on
Ġb aff
d ies
may be
Ġsympt om
Ġban ana
c oll
Ġpr aying
Ġembr acing
ot ers
Ġday light
al ias
Ġcler gy
Ġs outheast
Ġalcohol ic
Ġpropos es
liv ion
Ġcalcul ating
Ġstim ulate
Ġspl itting
e ight
pl ays
Ġdom est
Ġforg iveness
pat ient
kins on
ig ible
Ġperiod ically
amm ad
p ard
Ġarbit ration
Ġsn akes
a um
Ġbl asted
Ġmyster ies
Ġrev ive
oc amp
Ġor phan
Ġspec ifies
Ġfire works
Ġprosec ute
d p
us age
l iness
ris es
at ra
d iff
Ġac oustic
Ġam use
Ġc er
Ġcard iac
er gy
Ġf uzz
Ġbit es
Ġhazard ous
Ġbr ighter
r ans
ext ra
stat ement
Ġbol ster
Ġant it
Ġvis ions
Ġin line
is ans
t aking
Ġincons ist
Ġl ig
th ro
Ġalleg ing
Ġforecast s
Ġsp iders
des ign
Ġfact o
Ġbom bers
res istant
ateg ories
Ġhom ework
Ġcor ro
Ġstake holders
Ġtransfer ring
Ġt ac
r b
Ġinterpret ations
Ġup stairs
Ġvag ina
Ġing est
x f
Ġsand wic
Ġimm ortal
Ġfl ipped
ort ex
threat ening
Ġsn iper
Ġconver ts
Ġinstall ations
ors che
m ails
Ġl ure
Ġnarrow ly
Ġgren ade
Ġunder wear
Ġch ased
Ġparent ing
Ġanarch ist
Ġob j
orm an
an qu
at ism
op a
Ġfulf illing
Ġpupp y
Ġent it
Ġshoot ers
Ġric her
Ġtempt ed
Ġto re
in ational
Ġass urance
Ġwh ichever
pos ure
Ġf ury
Ġunivers ally
resp onse
Ġo ak
Ġwork load
ee le
Ġdepri ved
k owski
Ġcast s
Ġaffili ation
at he
Ġl act
r m
Ġair lines
Ġnot ions
dri ver
Ġtrans cend
Ġsp inal
Ġdefault s
Ġpref ers
rend ered
th us
fil m
Ġt iger
rec ogn
Ġp ity
Ġcomp artment
c asters
Ġcorrect ions
Ġdop amine
Ġro omm
Ġspec ulate
Ġrestrict ive
red ible
on el
Ġramp ant
re ported
al ys
az ard
lo op
Ġl ent
sh a
Ġv andal
men u
Ġnarr atives
Ġauthent icity
an ic
d uty
Ġthank ed
Ġbetray ed
l ift
Ġsouth west
Ġkey words
Ġethnic ity
iox id
Ġwid get
Ġpast a
Ġbill ing
Ġtr ilogy
Ġsn iff
Ġnep hew
Ġprinc ip
Ġdiss olved
Ġcontext s
Ġtot als
Ġorgan izer
Ġup rising
s hips
m oney
grad ation
Ġgoal keeper
Ġste ak
Ġsole mn
Ġpo pping
Ġad here
by te
Ġun in
Ġrec ol
it ud
Ġmim ic
ib us
Ġpredict s
i ating
Ġde ception
Ġlear nt
Ġdi ary
Ġcond itional
Ġre lic
Ġinv oke
ien ced
Ġcell phone
Ġspeed ing
Ġtack ling
Ġn ude
op ened
Ġmaj ors
Ġlog istics
Ġweight ed
Ġsick ness
Ġdivid ends
z on
Ġen z
Ġmean ings
Ġp enny
Ġst ern
Ġl ar
Ġback drop
Ġdeb uted
w m
Ġregul ating
ott i
ices ter
Ġpop s
Ġcomment ing
os lav
enz ie
Ġrival ry
Ġor c
Ġbe an
Ġrent ed
st en
Ġfore front
Ġyield ed
t ails
ic ator
Ġmarch ing
Ġres ide
zz le
Ġtor que
st rap
p enter
Ġexam s
Ġr ansom
ete enth
ens ing
Ġsun set
Ġorgan ism
Ġcl a
aj i
pr us
Ġch orus
Ġden ounced
Ġbi ography
lect ions
Ġf erry
h om
Ġsuper market
Ġnomine es
Ġdictators hip
idd ler
Ġannoun ces
Ġde ity
Ġmon arch
Ġinv aded
unt ary
eg a
Ġk idding
Ġtr ay
Ġphotograp hers
Ġdis charged
Ġevangel ical
Ġinter change
Ġfilm maker
Ġwr ath
l ot
Ġproject ile
Ġemploy ing
atell ite
pack age
Ġindic ations
Ġarg s
Ġt ilt
n ants
w on
red d
res cent
Ġmod ular
Ġassist ing
Ġred eem
Ġwor sh
Ġdecentral ized
Ġarr ays
Ġaccomplish ments
d ot
Ġmut ually
Ġob struct
Ġmis represent
ore st
ion ic
ru ce
Ġknow ingly
port ing
in ently
Ġob solete
Ġ§ Ġ­
g ive
Ġb ait
Ġen larg
Ġrecons ider
Ġf ost
Ġstir ring
se ven
ugg ets
Ġmed d
Ġtrigger ing
Ġscream s
Ġca usal
Ġaw aken
Ġdisp atched
Ġorgan izational
Ġdile mma
d emon
Ġhook s
ud ing
Ġvalid ate
Ġpot ion
Ġcl aw
Ġburg l
Ġqu ir
Ġdur ability
Ġbomb ings
Ġculp rit
umb ered
per formance
w arts
Ġen forcing
Ġre print
if ax
al pha
Ġsin ister
Ġbur ger
fight ing
i em
che my
Ġvine gar
n om
Ġprev ailing
Ġb a
Ġcollect s
Ġquant itative
Ġhor rors
og ens
Ġl ays
h aw
Ġnight club
Ġbr ide
y mm
vel ength
Ġrev ival
Ġsoft ly
Ġz oo
ita ire
Ġelect rom
Ġplant ing
Ġsw allow
por ter
Ġlapt ops
Ġpe anut
Ġlobby ists
im il
t nc
Ġresist ed
Ġout we
Ġret aining
at ri
Ġpo orer
Ġwe ld
ud er
top ic
ric ia
Ġth ieves
are th
Ġbroad caster
sh ield
ass ium
ub le
Ġairst rikes
on so
Ġped al
Ġcollect ors
Ġdict ator
Ġd ir
ent on
c art
sc ore
ad der
Ġs sh
gg er
Ġdrunk en
Ġcorner back
Ġsk ipped
Ġhaun ted
c z
Ġp s
Ġst igma
opp y
Ġmon keys
oss ip
Ġpro state
Ġund en
Ġg amer
Ġse gregation
Ġdr ills
Ġsp ur
Ġca fe
Ġimag inary
Ġgu iding
Ġsw ings
ob y
Ġn ud
Ġbe gging
Ġstr ongh
Ġreject ing
Ġpedest rians
s le
Ġconcess ions
Ġbe ams
Ġfib ers
p oon
Ġinstinct s
pro perty
im ates
Ġco ating
Ġcorps es
check ed
Ġcommun al
Ġener getic
oooo oooo
Ġnow adays
ib o
Ġdwell ing
Ġt ally
Ġcow ard
Ġgener als
Ġhorn s
Ġcirc ulated
Ġrob bed
Ġharass ed
Ġinhib it
Ġcomp oser
Ġspread s
Ġsu icidal
Ġno ises
Ġs aga
is o
Ġtheoret ically
Ġsimilar ity
Ġslic ed
ut ils
ing es
Ġan th
Ġimp ed
Ġmen us
comm ittee
and i
ob j
in av
f ired
Ġund ead
Ġfont s
Ġsustain ability
Ġfl ick
Ġr azor
Ġword ing
Ġpopul ist
Ġcritic izing
Ġm use
v ine
Ġcard board
Ġkind ly
Ġfr inge
icult ural
Ġgovern ors
Ġtime out
Ġred emption
Ġw aved
Ġastron auts
og rams
Ġsw amp
Ġcand le
Ġton nes
ut m
Ġr ay
Ġsp un
Ġfear ful
art icles
Ġca us
or ically
Ġpop e
Ġinaug ural
Ġg le
Ġwatch dog
Ġbal con
ent ity
Ġgall on
Ġdoub ling
Ġimpl ication
Ġdoct r
Ġm alt
Ġrec ap
add ing
u ces
fig ure
Ġtur key
Ġsoc ietal
Ġcommer cially
Ġsp icy
Ġsuperior ity
Ġconsult ed
Ġlist ings
Ġsle w
reens hot
Ġh ottest
Ġrock y
Ġmass age
Ġpar aly
Ġp ony
Ġcart ridge
Ġsn ack
ple ment
Ġm ater
Ġsn ipp
Ġjoint ly
Ġpump ing
Ġgo at
eal ing
Ġcor on
Ġan omal
rah im
Ġsculpt ure
Ġsched uling
at hing
Ġeyeb rows
Ġcur ved
Ġsent iments
Ġdraft ing
Ġnom inal
Ġconstruct ive
iv ation
Ġcorrupt ed
ger ald
Ġal mond
pro bably
Ġfe ast
Ġcheck point
Ġtrans cription
Ġtwe aks
Ġrel ieve
Ġperform er
Ġtur moil
ig ated
hib it
the med
Ġflu or
ben ch
Ġde com
Ġt asting
v on
Ġdist orted
Ġag on
Ġl an
orn ed
Ġrel iably
Ġgl or
Ġad ren
Ġmicrow ave
irc raft
dig it
sm art
Ġsimpl ified
Ġinf licted
Ġtake over
Ġyour selves
ad itional
Ġmus cular
Ġing en
Ġcru c
Ġcr ate
Ġun identified
Ġacclaim ed
Ġsl ain
Ġdism ant
Ġdatas et
b uck
Ġpal ette
ic ol
Ġplanet ary
ak in
ab we
Ġha iled
Ġen umer
f ounded
com merce
Ġexplo its
ay ette
Ġdr astic
Ġarchitect ural
ump ed
Ġwra pping
Ġwid ow
l ace
on ce
av oid
Ġtem ples
l ov
for ces
Ġsc outing
Ġlou der
tes y
Ġbefore hand
Ġbuild er
Ġder ive
Ġp oker
Ġambig uous
Ġlif ts
Ġcy t
Ġrib s
ood le
h air
t f
Ġproport ional
u id
Ġper taining
Ġreiter ated
oth s
Ġo wing
elf are
oc ating
Ġess ays
Ġburd ens
Ġillust rations
ar ious
Ġx en
Ġredes ign
Ġrevers al
Ġs inking
Ġg um
c apt
Ġfoot steps
isp ers
Ġpro se
ed in
Ġoverturn ed
Ġcontent ious
Ġpoint less
val ues
olph in
d ain
Ġdepos ited
Ġpreced ed
m iddle
Ġfl att
oper ative
Ġcouncil s
imb abwe
el in
Ġstress ful
Ġres h
l ake
Ġwheel chair
Ġoptim ize
oper ation
Ġpe ek
Ġones elf
ig il
Ġtrans itions
op athy
bl ank
Ġl aundering
Ġwork outs
Ġsp ikes
Ġdin osaurs
Ġdiscrim inatory
tes ters
et o
Ġve in
Ġarc ade
p ill
Ġcub ic
the se
st ates
Ġun official
h awks
Ġrain bow
Ġincarcer ation
and ing
Ġsy ll
m eter
Ġant iqu
Ġfact ual
ne ck
n orm
m ust
Ġhigh ways
Ġgl am
Ġdivid ing
Ġbirth s
ri o
Ġderiv ative
v ote
Ġthere in
Ġsepar ating
sy nc
Ġr att
Ġmunicip ality
Ġmon k
Ġscr ub
Ġoper atives
Ġconstit uted
Ġprotest ed
ild a
Ġflood s
Ġcos metic
pert ure
up on
t ons
ess ing
Ġro oft
Ġant idepress
Ġincomp atible
Ġoper a
Ġgener ators
l ime
for um
Ġsav age
n z
Ġmet allic
Ġex pelled
Ġres idency
Ġdress es
f ires
Ġge ek
al is
Ġc emetery
educ ated
Ġc rawl
ak is
Ġp ardon
Ġstrengthen ed
Ġvisual s
ett lement
g ro
Ġb ash
Ġpo orest
Ġex cel
Ġaspir ations
ens ible
Ġceremon ies
Ġintimid ation
be ck
as u
Ġtradem arks
net work
Ġso b
Ġpair ing
Ġoverd ose
ab er
Ġrev olt
act ing
e q
est ation
bl ocks
Ġver ge
est ine
Ġinv asive
Ġprofound ly
e ach
Ġl est
inter pret
Ġshr inking
Ġerr one
Ġche es
ly s
Ġhint ed
Ġcontact ing
he i
Ġlabel ing
Ġmerc ury
Ġexp ires
Ġdest abil
rit is
c u
Ġfeather s
Ġste er
Ġprogram med
Ġy o
Ġslee ves
Ġb ully
Ġcomp ress
Ġa while
Ġcal ib
Ġspons orship
Ġident ifier
Ġy og
Ġclean up
Ġvib e
int rodu
im ming
Ġout lines
tr ain
Ġde ported
Ġcent r
Ġinj unction
Ġsacrific ed
ep h
ib ling
Ġfreel ance
Ġevident ly
ph al
Ġret ains
Ġfin ite
d ar
Ġrep aired
Ġperiod ic
Ġchampions hips
Ġaster oid
bl ind
Ġexpress ly
Ġsc aled
Ġge ographical
Ġel astic
be gin
Ġdisco vers
Ġtele communications
Ġscan ner
Ġen large
Ġsh arks
Ġpsy chedel
Ġsnap shot
is ine
Ġpestic ides
re ally
Ġde gradation
Ġdisgu ise
Ġbi om
Ġequ ations
Ġhaz ards
Ġvirt ues
Ġeld ers
Ġenh ancing
er os
ang ling
Ġcomb ust
ucc i
Ġconc ussion
Ġcontrace ption
Ġexpress es
Ġa ux
Ġexhib its
Ġexp ands
Ġreconc iliation
Ġpir ates
Ġpur se
Ġdiscour age
Ġspect acle
Ġwra ps
Ġimp ending
Ġscrew ed
ret ched
Ġencour agement
mod els
Ġconf use
mm m
Ġkn ights
Ġdisc ard
Ġb ishops
k an
Ġmascul ine
cap ital
Ġfat ally
th anks
Ġsur rog
ra its
Ġresur rection
Ġnut rient
Ġdepict ing
Ġspr ink
Ġm uff
ps c
ib i
gener ated
Ġspec imens
Ġdiss atisf
Ġtail ored
Ġhold ings
po ons
Ġne c
Ġfront ier
Ġp ensions
Ġj oked
r ade
Ġr ails
Ġem it
Ġsl ate
Ġsm ug
Ġsp it
f eat
Ġrest ruct
Ġregener ation
Ġenerg ies
Ġg er
Ġresur rect
man agement
Ġpres ently
id an
Ġboost ing
w yn
requ isite
Ġp ics
nes ium
Ġemb ro
z u
on ian
rel igious
Ġc raz
Ġst ove
Ġheaven s
Ġher d
Ġfundra iser
Ġprop onents
Ġj elly
Ġmon ks
Ġadvance ment
e us
ert ility
Ġfet al
Ġout fits
Ġstair case
b omb
Ġcustom ized
cl air
Ġm apped
Ġmeth yl
Ġapprox imate
Ġdo om
Ġc rossover
Ġstand alone
Ġinv ites
Ġgra veyard
Ġh p
Ġesc ort
Ġpredec essors
Ġh ay
Ġen zyme
vis ors
ane ously
Ġf ec
Ġout spoken
or b
Ġz eal
Ġdisgr ace
Ġout raged
Ġrecre ation
x e
Ġped oph
Ġfall out
ambo o
Ġpresent ations
Ġh tml
Ġrub bing
Ġhum idity
se ys
est ablished
Ġrespect able
Ġthri ving
ang s
reg ulation
p ick
Ġdr acon
Ġstick er
re rs
Ġsun ny
reg ulated
d im
Ġhus bands
om ination
it ars
asc al
Ġm alf
bal anced
Ġmole cule
met ics
c ards
Ġt ug
Ġcon e
Ġt x
Ġcatast rophe
pp e
g io
Ġcommun ism
Ġhal ted
cle an
Ġw ander
enn ial
f ollow
product ive
Ġc raw
Ġsim ulations
or u
ang les
Ġmen stru
aj a
Ġcas ually
board ing
ov y
um at
Ġcert s
Ġsl id
Ġto ast
Ġfort unes
Ġf als
Ġg p
Ġf iery
l aughter
in fect
Ġatroc ities
Ġjust ices
Ġins ults
Ġsh aken
Ġperson a
est amp
br ain
Ġexperiment ing
dom ain
Ġgraph ical
b ishop
Ġwho pping
Ġadvertis ers
Ġb ids
Ġdestro ys
ut z
Ġunders c
Ġan ts
ipp les
Ġgl anced
Ġind icted
Ġmis con
Ġab ide
Ġcaps ule
Ġund es
Ġc itation
Ġdict ate
x a
is ec
Ġquarter ly
an an
out heastern
Ġge ography
Ġut most
ab outs
Ġdisag reed
Ġdement ia
Ġlab s
Ġubiqu itous
Ġconsolid ated
s r
Ġcream y
ogen ous
Ġinsult ing
bet ter
Ġsuck ing
at z
Ġcoll ateral
g if
Ġplag ued
Ġsix teen
ur istic
c ook
Ġcompr ising
f le
g rowth
agon al
Ġsr f
af ety
m ot
st own
Ġautom obile
Ġproced ural
m ask
amp ires
Ġdisapp ears
j ab
ne eded
Ġd aring
le ader
Ġp odium
Ġun healthy
Ġm und
Ġpy ramid
oc re
Ġkiss ed
Ġdream ed
Ġgreat ness
Ġsp ices
Ġmet ropolitan
Ġcomp uls
i ets
fl ies
Ġswall owed
Ġgen res
Ġdisp atch
Ġa ven
al ities
th ings
Ġm ates
ol ate
Ġre charge
c aps
ic one
Ġgal axies
ile aks
Ġaffirm ative
Ġtutorial s
Ġf ats
Ġr ab
l is
Ġun ic
Ġe ve
Ġadul thood
ty p
Ġsect arian
Ġcheck out
Ġmart yr
Ġch illing
ou fl
Ġcongest ion
m k
ur rencies
er ion
Ġbo ast
Ġch ap
Ġexam ines
h ov
Ġstart ling
w id
om ew
br ance
w ig
Ġtor ch
st ead
r ights
t u
Ġprofession ally
Ġcl o
ic z
Ġste als
Ġst urdy
Ġmed als
Ġfil ings
d one
Ġmult inational
Ġf eder
Ġworth less
Ġp est
ank ind
Ġg ays
Ġb orne
Ġpercent ages
r ame
Ġpot ions
Ġr ang
ong s
Ġpen insula
oh a
Ġunanim ous
Ġl enders
Ġhang s
Ġfranch ises
ore rs
Ġisol ate
and ro
Ġdisrupt ive
Ġst itches
Ġsupp lying
Ġtur ret
Ġbr ackets
Ġnot icing
Ġafford ed
Ġth a
se ver
e enth
Ġobst ruction
st aff
j as
or get
sc enes
l aughs
cr ime
Ġorche str
Ġde let
ili ary
rie ved
Ġmilit ar
Ġunle ashed
Ġadjust able
Ġcal iber
Ġmotiv ations
hand le
Ġp ent
umb ing
Ġphil anthrop
Ġde hyd
Ġtox icity
e er
w itz
commun ity
Ġret ali
Ġmass ively
Ġcar cin
Ġrout ing
ry ce
Ġwa ived
Ġco venant
Ġrelax ing
Ġqu art
al most
Ġguard ed
Ġout going
Ġre write
Ġphenomen al
Ġl ongevity
Ġimp at
ir ie
Ġod or
ok s
Ġmilit ias
Ġtoler ated
ars er
Ġsur real
s f
Ġresemb lance
Ġcarbohyd rate
Ġaccess ory
me al
larg est
ieg el
Ġtoug hest
os o
Ġfun nel
Ġcondemn ation
lu ent
Ġw ired
Ġselect ions
part isan
Ġhigh s
Ġcraft s
le ad
Ġre claim
ek er
ae per
Ġlo oming
Ġbenefic iaries
d j
Ġp act
tem plate
Ġhe mp
Ġyouth s
Ġende avor
Ġhipp ocamp
Ġd inosaur
Ġcalcul ator
t arians
Ġrestrict ing
rac use
Ġweek day
Ġsh rugged
leg round
Ġb ald
Ġt outed
Ġdiplom at
Ġrep ression
Ġconstitu ency
v ice
r anked
g ang
t un
Ġbul b
Ġres umed
Ġfab ulous
Ġam using
Ġor thodox
fl oor
Ġquestion naire
Ġpenet rate
Ġfilm makers
Ġst amped
Ġth irteen
Ġout field
Ġforward ed
Ġapp ra
Ġa ided
t ry
Ġunf ocused
Ġreject s
Ġleft ist
reg n
Ġprophe cy
Ġfor ge
Ġintrins ic
Ġw ont
Ġfam ed
aeper nick
Ġregister ing
ort ality
rop y
ocaly ptic
a an
n av
Ġfasc ist
Ġimpl icated
ys c
us ra
Ġunanim ously
Ġke eper
Ġadd icted
Ġhelm ets
Ġant ioxid
aps ed
gi ene
Ġwa its
Ġmin ion
ra ved
Ġdream ing
Ġun for
ass o
k un
hard t
Ġn ested
Ġt ying
en os
Ġc ue
sk irts
Ġclick ed
Ġexp iration
Ġbless ings
Ġaddict ive
y x
Ġrent s
Ġt ipped
ous se
Ġhier arch
out ine
Ġwa velength
ch id
r anking
Ġt et
ins ured
Ġqu oting
Ġcommun icated
in x
Ġin mate
Ġerect ed
Ġun im
he id
Ġcl aws
Ġsuper star
ab ol
Ġsk et
Ġper ks
Ġaff inity
Ġopen ings
phas is
Ġdiscrim inate
v c
Ġgr inding
Ġast hma
hol es
Ġreg isters
Ġcre ations
Ġlith ium
Ġappl ause
unt il
Ġsc andals
Ġb ake
t ank
is al
wind ows
Ġveget ation
t ri
Ġfl ux
ins ert
Ġclar ified
Ġmort g
Ġdiscl aim
met al
Ġindu ction
Ġinf l
Ġathe ists
amp h
Ġe ther
Ġweapon ry
ad min
g am
cont ract
af a
Ġderiv atives
Ġsn acks
Ġch urn
Ġca pped
Ġd uct
augh ty
Ġsa iling
Ġt ed
Ġreact ors
Ġcho ke
Ġadm iration
Ġsw ung
ens ibly
Ġr ash
Ġtrain ers
Ġhar med
Ġmush room
ol iberal
Ġgentle men
Ġling ering
Ġgra ffiti
Ġqu int
ist rate
aze era
Ġpay able
Ġdep icts
Ġencl osed
Ġenact ment
dem and
Ġmouth s
Ġstr anded
Ġenhance ment
Ġhe aled
en y
ro ach
Ġconcert s
Ġstick ers
Ġter med
Ġgrand parents
ul ic
Ġthr ill
cent ric
Ġsubstant ive
m ur
Ġstr ay
Ġrep etitive
Ġqual ification
ew itness
Ġsim ulated
Ġun sc
Ġsum mons
Ġdis connected
ci us
od ka
Ġer ase
elect ed
Ġun cont
Ġalert ed
Ġoper ative
arn a
u int
Ġneglig ence
ac ements
Ġsup ra
Ġprev ail
Ġbel ts
Ġt ighter
Ġin active
Ġexp onent
a ples
Ġhe ir
ian n
Ġcurrent s
Ġar ist
Ġbree ze
Ġpron oun
Ġde ed
Ġof t
Ġinf lict
Ġpun ishing
Ġn m
ik u
Ġsubsid y
Ġdef erred
Ġship ment
Ġal le
b earing
Ġscroll ing
Ġsc anned
ch rom
d t
col umn
Ġtor so
Ġimp erson
ud ic
Ġpiss ed
og l
Ġsuper vised
Ġad olescent
Ġatt ained
Ġmini ature
Ġo s
Ġinn ate
Ġtem po
Ġprov ocative
Ġt urtle
Ġflu ids
Ġcous ins
requ ency
s ets
sh ared
pass word
Ġg ears
ri ka
Ġup stream
Ġdisproportion ately
iv ities
Ġund efined
Ġelect rons
Ġcommem or
Ġir responsible
st ellar
tt ed
dam age
ed ition
Ġl ime
Ġconf inement
Ġcal orie
we apon
Ġdiff ering
m ys
am d
Ġintric ate
k k
st ones
lin ks
Ġr anch
Ġdifferent iate
occup ied
Ġfort ress
c md
Ġinter ception
Ġre pt
Ġrem ake
p red
Ġd ared
aut ions
Ġdebug ging
Ġgraph s
Ġb un
Ġpill ow
Ġprog ressed
fashion ed
Ġob edience
Ġrehe ars
t l
Ġher ald
Ġrep ent
uck land
Ġple asing
Ġshort ages
Ġjur ors
q qa
Ġw ow
Ġt sun
Ġcomp rises
Ġsp ies
Ġprec inct
n u
Ġur ges
Ġtim ed
Ġstrip es
Ġy en
Ġdisc rete
employ ment
Ġmon uments
work er
utter stock
Ġhomeless ness
Ġcomment ator
Ġrac ially
f ing
se ed
ell ation
Ġeth anol
Ġpar ish
Ġdev iation
Ġrec ess
Ġl ymph
Ġd ra
Ġloose ly
Ġinterpre ter
Ġbigot ry
Ġgren ades
ave z
pict ured
Ġmand ated
Ġl ava
Ġcyn ical
l ocks
Ġcon gregation
orn ings
ph il
Ġf erv
Ġdisapp earing
Ġarrog ant
sy n
Ġab bre
ack ers
Ġext inct
Ġexecut able
ox ide
Ġresent ment
Ġcompr ise
Ġinter ceptions
Ġprol ific
though t
un ky
chem ist
Ġbr icks
ri ly
Ġr ud
Ġl aud
Ġrev ived
Ġdam ned
id em
ct ica
Ġpatri arch
me g
Ġcheap est
re ements
empt y
Ġdepri vation
ch anted
Ġopp oses
v ik
nt on
es que
Ġplum met
Ġsu ing
Ġpron ounce
Ġresist ing
Ġy ell
Ġin duct
Ġpersonal ized
oft en
Ġview point
Ġexist ential
rem ove
l asses
Ġev apor
Ġa isle
met a
Ġreflect ive
Ġentit lement
Ġdev ised
mus ic
asc ade
Ġwind ing
off set
Ġaccess ibility
ke red
th inking
Ġtext book
Ġsl ider
b ol
Ġgrand children
Ġc erv
Ġe ternity
Ġtweet ing
Ġspec ulative
Ġpiv otal
ynam ic
Ġu pl
per haps
Ġclass mates
Ġblat ant
Ġl akh
ant ine
i om
Ġs ar
Ġad orable
Ġspawn ed
Ġimpl ant
Ġp umps
av our
Ġcentral ized
Ġfresh ly
Ġouts iders
her ty
ak able
Ġm p
Ġr ipe
ry an
Ġclass ics
Ġret iring
Ġa h
Ġdeal ings
Ġpunch ing
max well
vol ume
Ġst al
Ġex ported
Ġnumer ical
Ġtrend ing
Ġalter ing
Ġtempt ation
Ġprest ige
Ġbar r
Ġres ides
Ġind ec
vol ent
Ġperpet ual
ub es
Ġworld view
Ġfil tered
Ġen su
orget own
Ġvit amins
Ġrib bon
Ġsincere ly
Ġeight een
Ġcontradict ory
Ġgl aring
Ġexpect ancy
Ġcons pir
Ġmon strous
re ci
Ġhand ic
Ġpump ed
Ġindic ative
Ġr app
Ġav ail
ert on
Ġtwent ieth
Ġval uation
Ġaffili ates
adjust ed
Ġenz ymes
itud inal
Ġimp rint
Ġinstall er
m ology
lin ear
ig ating
Ġspec ulated
or ity
Ġdef er
Ġinspect ors
appro ved
Ġinform ing
ib li
Ġgl ove
Ġauthor ize
Ġcontract ing
she ll
p ract
h arm
Ġattract ions
ad an
et us
w agen
Ġmultip ly
Ġequ ilibrium
Ġfour teen
Ġmis use
Ġab using
Ġancest ry
ram er
Ġwor ms
Ġthick er
Ġpeas ants
Ġv ind
Ġcon quest
Ġm ocked
Ġc innamon
Ġavoid ance
Ġincarn ation
Ġt asted
ent a
p ared
Ġtermin ology
ject ion
Ġdirect ories
br ight
Ġb ob
Ġprefer ably
Ġgl itch
f urt
Ġe g
id is
Ġsur rendered
Ġtest ament
ug gest
an other
Ġpat hetic
Ġwhis key
Ġf ixture
Ġbet s
Ġfl ashes
Ġmask ed
ge bra
Ġcomput ed
che l
aud er
Ġdefe ats
Ġtar iffs
Ġm age
Ġinadvert ently
ink y
gr ading
Ġstere otyp
Ġcur l
Ġfram eworks
Ġflav our
car bon
Ġperm itting
let cher
Ġmurd erer
Ġrest ed
Ġow es
res olution
Ġcompar ative
Ġneighbour ing
Ġbi ases
Ġgun fire
ur ous
Ġper vasive
tt p
r ir
Ġun sett
ip ers
l ayer
up le
Ġtur bo
Ġthat s
Ġper me
Ġintimid ating
t ube
Ġecc entric
ab olic
box es
v otes
Ġsim ulate
um bo
aster y
Ġship ments
an th
Ġseason ed
Ġexperiment ation
law s
idd les
ant ics
h ift
Ġfront s
b uf
Ġun att
le ases
t ouch
ve ll
s aving
Ġer osion
Ġearn s
Ġaccomplish ment
Ġir rig
Ġconqu ered
Ġassert s
Ġmanip ulating
Ġtranscript s
Ġplot ting
Ġbetray al
load er
Ġdispl acement
Ġroy alty
he it
alle l
Ġmunicipal ities
Ġcan al
ab ove
Ġreson ance
add ed
Ġhere by
Ġshare holder
Ġstrange ly
Ġadm ired
Ġpl ight
Ġb achelor
cipl inary
Ġun man
isco ver
Ġautom otive
Ġs idelines
Ġsl ick
Ġp ing
Ġshort cut
Ġbur sts
Ġcl amp
Ġm ish
Ġsort ing
Ġpatri ot
Ġcorrect ness
p ython
az ar
Ġdetrim ental
Ġstab bing
Ġpoison ed
Ġf ountain
oc ent
or st
Ġr ains
ud get
t ale
Ġhead aches
Ġlands l
Ġhop s
Ġexplo iting
ry n
Ġhypocr isy
op ening
Ġgun shot
Ġw ed
inter stitial
Ġam en
Ġmarket ed
ore an
iz ons
Ġescal ation
us ername
Ġcur tain
Ġcounter fe
l ene
Ġcont enders
d aily
most ly
Ġfil ename
he ne
Ġresemb ling
Ġst aging
Ġw iring
ott age
m uch
Ġstro kes
Ġpolicy makers
pl ot
Ġassist ants
Ġde port
Ġinflu enza
Ġskin ny
Ġincrement al
product s
Ġd ome
Ġlos ers
int s
Ġd ens
tem p
od ic
ets k
Ġretrie ved
Ġarchitect s
Ġeth ic
st ocks
ad ia
Ġsimultane ous
Ġd izz
ul p
Ġsmugg ling
ipp ery
f acing
Ġstock p
Ġdiscl osures
po inter
Ġcor al
ival ent
Ġruth less
Ġensu ing
Ġcongress man
Ġbelie ver
Ġun specified
Ġknowledge able
Ġstra ps
Ġtur f
apesh ifter
Ġmar ital
Ġfl ock
Ġtre asures
Ġmodel ed
uss ed
Ġpione er
par se
b read
rit z
ore n
Ġprov oked
Ġbre eds
Ġbr ink
Ġrum ored
Ġun seen
Ġgar nered
al ted
Ġtatt oos
Ġhes itation
is itions
Ġtherap ies
Ġconsult ants
Ġresid ual
i ago
ub i
Ġremed ies
Ġadapt ive
Ġwal lets
c rypt
etermin ation
Ġsl ipping
oton in
Ġall iances
pat rick
ir is
Ġor th
Ġdry ing
ge e
fore st
ore m
Ġvague ly
Ġp neum
Ġrub ble
enc ia
Ġd st
inf lamm
Ġb ots
d aughter
Ġbre thren
Ġlog os
Ġgo bl
f ps
Ġsub division
Ġp awn
Ġsquee zed
Ġmor ale
Ġkn ot
ook y
Ġdiv isive
Ġboost ed
ch y
if act
Ġnewcom ers
Ġsc outs
w olves
Ġnin eteenth
Ġem powered
Ġpsych opath
ugg age
Ġanarch ists
est hes
l oo
Ġdeploy ing
Ġstaff er
Ġdiscount ed
uck le
ple ase
Ġan te
Ġrep etition
Ġpar ody
Ġlive ly
Ġp its
ind ers
ellect ual
Ġp ens
Ġey el
ig uous
Ġj oking
Ġinv al
Ġcredit ors
ov sky
Ġcease fire
Ġse als
is oft
Ġt resp
ew are
en ne
mount ed
les h
Ġimmense ly
Ġche ering
sc ene
ish ly
atche wan
Ġdr ained
j un
Ġflo ated
u ania
Ġsuper v
Ġmyst ical
cut ting
Ġenhance ments
Ġj erk
Ġst alled
Ġcryptoc urrencies
sing le
Ġl umin
Ġfin anced
Ġt id
Ġcoll usion
Ġped iatric
Ġneat ly
Ġsandwic hes
Ġt ucked
Ġbalcon y
Ġearthqu akes
qu ire
Ġhe fty
Ġspecial izes
Ġstress es
Ġs ender
Ġmisunder standing
Ġep ile
Ġprov oke
Ġdis may
uk o
ne utral
Ġdon ating
Ġconvenient ly
Ġt ents
Ġpart nered
ir ming
s ometimes
Ġobject ed
ub ric
p osed
gr ass
Ġattribut able
Ġrepe ats
v ag
ut a
in ous
Ġin ert
Ġart ific
as io
Ġappl iances
Ġnational ity
Ġass hole
Ġnot ch
h ani
Ġintercept ed
Ġcontin ental
Ġsw elling
b ies
ith metic
Ġtempt ing
add r
Ġoversee ing
cl ad
Ġm un
Ġalter ations
Ġha voc
Ġdiscipl ines
Ġnotor iously
aku ya
ier i
Ġsil icon
Ġtre mb
Ġmort ar
est e
ick a
Ġsp arse
g ins
Ġin ward
Ġantib iotic
Ġel usive
Ġass ail
Ġdimin ish
s ession
ies el
Ġdisbel ief
Ġbl asts
ext reme
Ġunder gone
Ġgr ill
Ġfiles ystem
Ġcl ocks
Ġwra pper
Ġfold ing
ous and
Ġas hes
Ġaccum ulate
orks hire
Ġwh im
Ġrep o
Ġincorpor ating
Ġbail out
Ġlingu istic
Ġdis integ
Ġcinem atic
il ion
c hens
Ġne oc
Ġbo iled
on o
un cle
ik en
Ġreceipt s
Ġdisp osed
Ġnot withstanding
oll en
Ġunrel iable
Ġbl oom
Ġmedi ocre
Ġtr am
Ġsh akes
Ġmanifest o
Ġsatisf actory
Ġsh ores
Ġcomput ation
Ġassert ions
orm ons
ar ag
ab it
ha ired
Ġgrav itational
Ġthro ttle
Ġtyr anny
Ġrob ber
Ġsh rine
sc ope
pur pose
Ġnucle us
our cing
w ra
x i
w right
Ġsail ors
ous ed
t oken
Ġe ll
Ġchance llor
Ġamount ed
ome z
Ġtrack er
ow ler
Ġmar itime
Ġecosystem s
Ġgrad uating
and em
Ġclim ax
Ġb ury
Ġcons pic
Ġesc orted
Ġbrut ally
e ating
Ġpill ar
ar ling
Ġrem inding
hes da
Ġfl ashed
per ate
fe ature
Ġsw ipe
Ġgra ves
oult ry
bre aks
Ġsh rimp
qu ist
Ġanaly tical
Ġtables poons
Ġresear ched
Ġdisrupt ed
Ġj our
Ġrepl ica
Ġcart oons
b ians
c opy
ou ched
Ġsw arm
not ations
s aid
Ġreb uilt
Ġcollabor ate
Ġr aging
Ġn ar
Ġdem ographics
Ġdist rust
oss ier
Ġpump kin
Ġreg rets
Ġfatal ities
p d
Ġpupp et
Ġre written
Ġfasc inated
Ġve ctors
Ġtrib unal
u ay
Ġrend ers
Ġesp ionage
Ġsum m
Ġd itch
Ġspread sheet
Ġmut ant
p ast
Ġd ye
Ġinit iation
Ġpunish able
Ġth inner
Ġinter medi
Ġeager ly
Ġvag inal
p owers
Ġpred ator
ams ung
Ġdispar ity
Ġam ph
Ġout skirts
Ġskelet al
Ġissu ance
re leased
Ġex its
is ol
Ġw re
t aker
Ġhour ly
hen ko
Ġfantas ies
Ġdis ob
Ġdemol ition
Ġen listed
rat ulations
Ġmis guided
Ġens ured
Ġdiscour aged
m ort
Ġfl ank
Ġc ess
Ġreact s
s ensitive
ass ad
Ġcalm ly
b usters
Ġble ed
Ġamuse ment
Ġs cept
a q
ason ic
Ġsp rawling
n ative
atur ated
Ġappre hend
Ġback end
Ġevid enced
ge ant
ch ard
en aries
Ġchief s
Ġc f
Ġcorro bor
ra il
rie ve
ger ies
Ġdump ing
Ġneurolog ical
it imate
raft ed
Ġtermin als
reg ister
Ġfl are
Ġenc oded
Ġautop sy
p el
m achine
Ġexempt ions
d istance
Ġdraft s
Ġl ame
Ġsp ouses
Ġimp lying
s id
Ġl oser
Ġvigil ant
Ġimpe achment
Ġaug mented
Ġunint ended
tern ally
Ġrecogn izable
ess im
Ġco ated
r ha
Ġlie utenant
pub lished
Ġide ally
Ġsimpl ify
Ġple ading
organ ized
hand ler
Ġun ravel
cor rect
Ġ icy
Ġparan oid
Ġpass er
Ġinspect ions
of er
iol a
for ge
ie vers
m u
ug a
Ġsho ppers
Ġinform ative
Ġsupplement ation
ty ard
ocy tes
erman ent
all a
Ġven om
Ġreun ion
Ġm uc
Ġge op
al ogue
ech o
Ġcor ros
Ġrepl ication
Ġinf lic
Ġgl oom
Ġundermin ing
Ġadv ising
h idden
Ġover flow
Ġg or
urd ue
Ġe choes
enh agen
Ġimp uls
d rug
c ash
Ġas ync
Ġmir ac
at ts
p unk
Ġpiv ot
Ġblog gers
s burg
d yl
Ġver te
Ġprohib iting
Ġo min
Ġhate ful
down s
Ġas ymm
Ġinform s
Ġmedic inal
Ġre aff
b ool
Ġthigh s
Ġmark ings
p oll
ts ky
Ġdeb unk
end ered
a vers
Ġmortg ages
ha us
au ld
Ġm ash
sh oot
Ġdi arr
Ġconscious ly
e as
Ġdash board
serv ices
Ġmillenn ials
Ġinv ade
Ġcomm issions
Ġbroadcast s
Ġfront al
Ġcr ank
Ġrum ours
Ġster il
Ġboost er
rock et
ut sche
Ġinval uable
Ġunint ention
Ġscrut in
Ġg igg
Ġeng ulf
Ġprolet ariat
Ġh acks
ar ak
ield ing
ag her
Ġtele com
ult an
Ġlifes pan
Ġbl asp
Ġjud iciary
ask ing
Ġbag gage
Ġrem nants
ets u
des igned
ush ima
agn ar
Ġrec oil
Ġpass ions
Ġte e
Ġabol ition
j ac
Ġpill ars
ric hed
t k
Ġlive lihood
Ġro asted
ah on
ass ert
Ġdivid end
Ġkn it
Ġd aunting
Ġdisturb ance
Ġsh ale
Ġcultiv ated
Ġrefriger ator
Ġcommercial s
Ġthink ers
Ġch op
Ġsuspic ions
Ġtag ged
l ifting
Ġsty lish
Ġt ails
Ġse ism
olog ne
Ġcow ork
Ġforc ibly
Ġthy roid
mar ried
h orse
Ġpoly mer
od or
Ġbl iss
Ġpin point
leg ram
Ġlab elled
Ġb art
it les
Ġest rogen
Ġvis ibly
Ġouts ider
aid a
Ġdisse min
Ġdish onest
sw ord
our ced
c ake
em is
onom y
Ġmanifest ation
sw orth
Ġch ore
Ġsanction ed
Ġcult urally
Ġthe ological
Ġstr ut
Ġconstruct ing
s ac
p olicy
Ġvit ro
Ġl am
Ġgar ment
Ġinter mitt
Ġn pm
Ġord eal
Ġplug ged
o oming
in ished
fram ework
Ġtim ber
Ġc ass
il ess
Ġsurpass ed
w hel
Ġparalle ls
Ġve il
Ġread iness
s ort
Ġmod ifying
ru ff
Ġmar ble
Ġinf rared
Ġaud itor
Ġexecut ions
est ones
Ġform ations
Ġdom inating
Ġdiscipl ined
Ġv engeance
Ġland lords
ano ia
Ġpier cing
Ġcon greg
Ġscore r
ob ia
Ġnic kel
Ġre jo
Ġmaster piece
Ġinhab ited
Ġar ter
Ġpl ur
Ġmaster y
Ġlong standing
st ed
Ġw ines
Ġtelev ised
Ġencl osure
j ohn
Ġprophe ts
Ġun even
r als
Ġd wind
Ġins istence
aff le
Ġhard ship
Ġple ad
Ġreview ers
Ġc ured
as ley
f ake
yd ia
o it
Ġwh ipped
Ġb ouncing
com ings
Ġcann abin
Ġco ats
Ġprow ess
Ġplain ly
Ġfre ight
Ġinhib ition
Ġcl am
ke f
ale igh
Ġpsych o
ator ium
Ġtreat ies
Ġind isc
Ġd c
Ġresil ient
Ġsl ack
Ġmund ane
Ġestab lishes
Ġstr ained
Ġn ond
Ġcast e
ar ate
ie ving
Ġunfair ly
Ġpars er
on ial
urs ive
stro ke
Ġfurn ished
Ġout set
Ġmet ic
olith ic
og ical
Ġh ides
Ġeduc ators
re aching
Ġvol atility
Ġtodd ler
Ġgra pe
Ġspl its
Ġpe asant
Ġre neg
st ars
Ġtre k
b inding
Ġreal ism
Ġox ide
Ġmount s
Ġbit ing
Ġcollaps ing
Ġpost al
Ġmuse ums
Ġdet ached
Ġrespect ing
Ġmonop ol
Ġwork flow
Ġpers istence
Ġredund ant
Ġb ending
Ġrev oked
Ġoff ending
Ġfram ing
Ġprint f
mem bers
Ġconst rued
Ġc oded
Ġch ast
iv ated
ich t
umer able
Ġcoff in
Ġsecure ly
Ġin ception
end ants
Ġpsych ologists
c ultural
sh ift
oc he
Ġc akes
og ging
e lement
Ġpund its
Ġh itter
Ġdrown ed
Ġch alk
Ġmeas les
Ġdist ort
Ġantib odies
Ġvom iting
Ġoccup ying
Ġev asion
Ġprom o
Ġelect r
Ġblue print
pr iced
Ġallev iate
m arg
n ine
Ġnostalg ia
Ġcaval ry
Ġtor ped
x b
Ġs ank
Ġgo alt
report print
embed reportprint
clone embedreportprint
Ġnot eworthy
c ern
Ġin efficient
raw download
rawdownload cloneembedreportprint
c ation
l ag
Ġdistinct ly
Ġopen ness
Ġg ossip
ru ck
Ġpet roleum
Ġav atar
ath a
Ġc aves
Ġsafegu ard
iss on
sl aught
Ġsub conscious
Ġp iles
Ġavoid s
Ġble ak
iv ist
light ly
Ġins anity
atal ie
Ġtw ists
Ġfault y
Ġpir acy
Ġimp over
Ġrug ged
Ġs ands
sw ick
Ġn atives
Ġhe n
Ġg reens
Ġfree zer
Ġd ynasty
Ġarchae ological
Ġo t
ob ar
Ġblock ade
Ġall erg
Ġdeb it
Ġwill ingly
Ġdisproportion ate
Ġopp ressive
Ġdiamond s
Ġbelong ings
Ġbell s
Ġimperial ism
Ġexpl oding
Ġr ant
Ġnom inations
Ġpeace fully
ric a
Ġvib ration
mal ink
Ġro pes
go ers
just ice
Ġb ri
Ġdisc s
Ġprom inently
Ġvul gar
Ġsk ipping
l ves
Ġtsun ami
rec ated
p hen
Ġfault s
Ġp i
Ġdetect or
Ġbast ard
Ġvalid ated
Ġuns ur
Ġaff irmed
Ġfasc ism
Ġres olving
Ġdet ract
Ġrig ged
Ġhom age
ec a
Ġpress es
Ġhum our
Ġsp acing
olk ien
ier re
m ong
o zy
Ġliquid ity
Ġsl ug
elect ric
Ġsc enery
Ġconst rained
Ġgoal ie
Ġtax ed
Ġfet us
th ia
Ġrecon struct
Ġextrem es
Ġconclud ing
ook s
Ġded uctions
Ġground breaking
res ource
Ġmo ons
Ġelectrom agnetic
Ġamid st
Ġcomm ute
Ġfluct uations
Ġnood les
Ġpip elines
Ġsc ars
end o
ag us
Ġvis c
Ġj umper
Ġcogn ition
Ġassass in
Ġwitness ing
Ġl ac
v im
p ages
Ġad ject
indust rial
l ore
cher y
Ġgl itter
Ġc alf
Ġspoil ers
Ġsucceed s
Ġch anting
Ġslog ans
rol ogy
Ġm ornings
Ġline age
Ġs ip
Ġintense ly
Ġflour ish
or por
h ack
Ġtum ors
Ġprocure ment
Ġra ided
s q
Ġdeliver ies
Ġshut ter
Ġcere bral
Ġbip olar
l ass
j et
Ġdeb ating
Ġe agle
gr ades
aff er
Ġem an
pr on
Ġcompar atively
Ġle x
Ġfert ile
Ġdep ressing
Ġsuperf icial
ess ential
g p
Ġprom inence
ote chnology
Ġm ocking
Ġ¸ Ġ¼
Ġpsychiat rist
Ġno isy
Ġsl apped
Ġpar a
p ull
as her
Ġn our
v ous
ord ial
ne ed
Ġmess enger
ere t
Ġteam ed
Ġliter acy
Ġem itted
Ġev ade
Ġm aze
Ġwrong ly
Ġstere otype
Ġpled ges
Ġarom a
Ġac re
Ġf f
Ġbrew eries
und le
in ctions
Ġco er
Ġundermin ed
ro vers
Ġbl aze
um ers
Ġfam ine
amp hetamine
ulk an
Ġdesper ation
wik ipedia
develop ment
uss ia
Ġattend ant
Ġrespond ent
Ġb oun
st able
Ġp aved
Ġunex pl
bl own
Ġconfront ing
oc ese
serv ing
ann i
Ġst alk
h d
Ġv ener
ynchron ous
um ably
hist oric
Ġresil ience
spe ction
Ġabandon ing
Ġgrad ient
Ġexpans ive
Ġfun g
Ġb ounced
Ġprec autions
Ġclar ification
Ġd agger
Ġgri ps
is ites
aud i
Ġhost ages
Ġcompl iant
Ġal umni
Ġcyber security
e ither
Ġinvari ably
Ġlaw maker
Ġa le
Ġcustom ization
eat uring
Ġsp ared
Ġdiscontin ued
Ġcomput ational
Ġsuprem acist
government al
Ġparad ise
Ġcat alyst
ber ra
bet a
Ġunreal istic
ve ctor
it iveness
s in
o ji
ent in
hell o
ff ield
ok y
Ġmap le
Ġa ids
chem ical
n uts
Ġx x
umer ous
ft ime
Ġw inger
t ools
Ġg eared
Ġjihad ists
Ġc p
Ġster oids
cler osis
nes ia
Ġl inger
Ġimm ersive
Ġoutwe igh
ens ual
Ġtransform s
mat ched
ps ons
f actor
Ġrefer ral
Ġodd ly
Ġl ions
kef eller
Ġl yn
co at
app lication
Ġm ound
cond ition
Ġcompet ence
Ġwith held
Ġost ensibly
Ġms g
Ġden omin
Ġplun ged
Ġp amph
m oving
cent ral
Ġdown right
Ġf ading
uk es
it he
Ġo ve
Ġbatt led
Ġseaf ood
Ġfig ur
c rop
Ġsqu ads
Ġinterview ing
Ġas piring
Ġcla uses
Ġl uggage
Ġh ose
Ġsystem d
Ġdesc ending
al ign
Ġf ug
charg ing
t ags
Ġut er
k ish
prof its
Ġvoy age
Ġa ce
Ġvolcan ic
Ġwom b
Ġbegin ner
Ġdetect ing
c n
Ġbre aches
Ġrest rained
Ġrul ings
Ġhum ane
ev ents
onna issance
Ġassault ing
Ġvig orous
Ġintoler ance
Ġd ummy
im eters
Ġsepar ates
Ġt v
j ah
uss ian
Ġintu ition
Ġdis dain
Ġcondem ning
Ġgener osity
zz y
Ġpant ies
Ġspec ifying
Ġcryst all
Ġru pt
Ġprof iling
Ġsid eline
Ġoblig ated
Ġocc ult
Ġbureaucr atic
ant ically
rupt ed
neg ative
Ġins iders
el igible
i ologist
Ġsubstit uted
p rem
Ġbuild ers
Ġstation ary
Ġdoubt ful
Ġvig orously
Ġthr illing
geon ing
y ton
Ġborrow ers
Ġsat ir
Ġinsurg ents
Ġis ot
our ning
ak ens
doc s
l ittle
ass ic
Ġstar red
et ies
Ġt ipping
s ame
Ġcav ity
Ġgo of
um mer
Ġemphas izes
Ġreg rett
Ġnovel ty
Ġen vy
r w
Ġind ifferent
Ġad ip
Ġbreak out
Ġhur ried
Ġro aming
Ġmarginal ized
Ġed its
mem ory
Ġspec imen
Ġvert ically
Ġaud ition
Ġc aster
ad al
Ġdef lect
Ġvers atility
ot hes
class ified
st asy
not iced
f uck
Ġair ing
Ġspect ators
ili ated
n osis
st ay
Ġdecl arations
id ae
Ġon wards
Ġn ets
part icularly
Ġpolit ic
o other
Ġport raits
Ġpave ment
c ffff
Ġs aints
Ġbegin ners
Ġshort comings
Ġcom et
qu el
Ġhospital ized
Ġpe el
dyl ib
asp x
ur ances
Ġread able
Ġm uzzle
Ġbench marks
d al
he ng
Ġover load
Ġimm oral
Ġf ries
Ġreprodu ced
Ġform ulation
j ug
ire z
g ear
Ġco ached
d eal
asion ally
Ġunc ond
olly wood
Ġprogress ives
Ġwreck age
Ġbr ushed
Ġz oning
ish able
het ically
Ġk arma
Ġtrad er
Ġseem ing
b ish
Ġt unes
Ġindo ors
Ġno b
m aps
Ġpe ppers
Ġoverse es
vert ising
off ice
xx x
Ġra ft
Ġtext books
Ġinconven ience
Ġimplicit ly
Ġboost s
Ġsens ational
Ġgre edy
ed en
Ġinex per
Ġtight en
Ġancest or
urg ical
all ah
Ġsa p
amb a
tw itch
Ġgrand son
Ġfract ure
Ġmoder ator
Ġestim ation
Ġpar ach
Ġbar ric
Ġcomp ass
Ġall ergic
err illa
Ġw agon
Ġz inc
Ġrub bed
Ġli ar
est eem
Ġselect or
is ance
Ġtro op
Ġg uts
Ġrout ines
Ġsummar ized
steam apps
Ġtr anqu
or an
Ġg maxwell
Ġappre hens
Ġpo ems
Ġsa usage
ur us
Ġthem ed
Ġl ounge
Ġcharg er
Ġsp illed
h og
Ġdis qual
Ġhel per
Ġhorr ifying
Ġa il
Ġh olog
eren n
Ġatt en
Ġup ro
bec ue
Ġcounsel or
Ġtox ins
Ġb anners
r ifice
Ġgreet ing
Ġfren zy
Ġall ocate
ex pr
Ġconsolid ation
sw itch
fr ac
cl ips
Ġscholar ly
rap ed
Ġe greg
Ġin secure
Ġvict orious
cffff cc
Ġsing led
Ġel ves
bur st
Ġcam oufl
Ġcondition ed
ans wered
Ġcompuls ory
asc ist
Ġpodcast s
bn b
Ġne oliberal
w arm
Ġtrust s
Ġins ured
us able
Ġsabot age
Ġlod ged
f elt
Ġg a
Ġsevent y
p ocket
Ġwhis per
Ġm ating
om ics
Ġan gered
Ġcoll isions
Ġextraord inarily
Ġcoerc ion
b irds
k ok
Ġper missible
avor able
Ġpo inters
Ġdiss ip
ac i
Ġtheat rical
Ġforget ting
Ġfinal ized
y out
l ibrary
Ġbo oming
Ġprecip itation
Ġinteg rating
Ġch rome
Ġintest inal
Ġmatch ups
Ġblock buster
Ġpre aching
ra x
f if
Ġauthor itative
ast ical
Ġdish on
Ġchat ting
Ġrecre ate
Ġdel inqu
Ġbro th
z man
Ġscholars hips
cont act
als a
c reen
abb age
Ġbl ended
Ġal armed
Ġbl ends
Ġhe pat
Ġper secut
Ġsweet ness
art e
Ġforfe iture
im pro
Ġinsign ificant
Ġse aw
amin er
end if
f inals
u ish
Ġem blem
Ġserious ness
Ġpars ing
Ġsubst itution
Ġpress ured
Ġrecy cled
ale b
Ġprof iciency
Ġm antle
fl ag
Ġpractition er
c overed
add afi
Ġcond o
Ġutil ization
Ġnause a
rid ges
p ause
Ġform ulas
Ġchall enger
Ġdefect ive
Ġyog urt
l bs
Ġdistribut or
Ġscroll s
Ġextract s
Ġv iability
Ġexp oses
Ġstar vation
f ew
Ġclos ures
Ġcomplement ary
ump y
Ġmon et
Ġartic ulate
k iller
Ġsc rim
Ġprost itutes
Ġse vered
Ġattach ments
Ġcool ed
f ail
Ġpolic eman
Ġpray ed
Ġcl ut
Ġc ath
Ġan omaly
em aker
ul i
o ire
h z
Ġexp osures
f aces
ra f
Ġop aque
Ġdisgu ised
Ġp ots
Ġfrown ed
Ġpoison ous
ee ks
Ġcr ab
Ġtre ason
Ġr anc
Ġescal ating
Ġwar r
Ġmob s
Ġl amps
Ġspe lled
Ġme ats
Ġst omp
ad v
Ġal oud
Ġb umper
ub untu
f itting
Ġser otonin
Ġcultiv ate
ag ogue
Ġmos ques
Ġre active
rev olution
Ġdefense man
ist ine
Ġdrown ing
Ġthr iller
Ġacceler ating
Ġdirect s
od ied
b ike
d uration
Ġpain fully
Ġproduct ions
Ġg ag
Ġwh ist
Ġs ock
Ġinf initely
Ġlie u
Ġcand les
ogene ous
arg er
Ġheaven ly
inflamm atory
ruct ose
az aki
Ġp essim
Ġinf erence
Ġpow d
Ġpain ts
Ġd azz
pt a
Ġins pir
reg or
b ors
Ġshow ers
rom eda
Ġs aint
Ġben ign
Ġenvision ed
Ġsh roud
Ġsh uff
Ġse greg
Ġrevis it
ighth ouse
Ġsub strate
s bm
Ġelim inates
Ġst amina
Ġconst raint
Ġappropri ated
Ġp es
r anging
Ġintellectual s
ach u
Ġrestruct uring
Ġrun es
Ġdelight ful
Ġcarbohyd rates
Ġtransport ing
all oc
Ġring ing
Ġscarce ly
Ġprot otypes
Ġnarr ator
cd n
Ġdecided ly
ix ir
oc ious
Ġre use
Ġforg iven
in ical
n at
Ġseam less
land ers
Ġso fter
neg ie
Ġtrans ient
Ġorb ital
Ġfulf il
Ġdynam ically
el man
ber to
Ġp ige
lim it
Ġve ins
Ġso aring
p acks
ist or
g ression
Ġjihad ist
Ġgam ble
Ġcare g
Ġinf lated
Ġsh ocks
gr ab
Ġspl end
ab ortion
play ers
Ġcomm enced
ul ence
Ġfulfill ment
Ġembod iments
Ġha il
tt en
Ġcat cher
Ġvolcan o
Ġstabil ize
Ġintens ified
Ġhum iliation
p aced
Ġhe ed
Ġabol ished
j ong
sh ake
v ict
Ġde em
Ġexceed ingly
ib e
Ġdoor way
Ġcompet ed
ig mat
Ġnational ists
Ġg room
Ġdispos able
de cl
Ġb iod
Ġav id
ag ar
Ġartific ially
Ġadvis ors
Ġted ious
Ġtro pe
Ġdec imal
ote ch
Ġent renched
Ġfr aternity
Ġlat itude
Ġenh ances
Ġsh ines
id ad
Ġbread th
Ġcapac ities
Ġsex es
Ġdifferent iation
Ġheavy weight
d ra
Ġmigr ate
Ġexhaust ion
els ius
Ġgu itars
Ġcl ones
Ġwarr anted
cy cles
Ġsalv age
Ġdis ks
Ġadd icts
oj ure
il let
Ġamazing ly
art ments
p ixel
Ġimpart ial
f ork
b ryce
Ġr idge
ri ous
Ġbl itz
cig arettes
Ġcan ned
Ġiron ically
Ġcompassion ate
Ġrall ied
in ternal
Ġqu ota
st akes
m om
Ġcomple tes
Ġsh rug
Ġrev ise
Ġtre acher
Ġqu asi
Ġdep osition
Ġconfidential ity
iss ors
Ġim balance
Ġspan ning
Ġang ular
commun ication
op ter
Ġs acked
Ġfine ly
w aves
Ġsh itty
Ġreferen cing
Ġclass rooms
ab ee
Ġs od
hes ion
an tha
Ġcr ater
yout u
Ġro ast
Ġinflu encing
Ġd up
Ġstat ure
Ġbath rooms
me an
Ġhyper t
Ġcommence ment
Ġmoder ately
Ġdistribut ors
Ġbreast feeding
ust ing
Ġmess ed
Ġe h
Ġblack mail
Ġconvers ions
Ġscientific ally
Ġmant ra
p aying
Ġiv ory
aunt let
Ġpe e
Ġlin ux
Ġsub mer
Ġdoctr ines
Ġatt ent
ur ger
Ġpresc ribe
Ġenc aps
Ġsecret ive
d n
Ġ ll
Ġcapital ists
Ġbrief ed
elve t
Ġplun ge
ill in
Ġsafegu ards
Ġo ste
ap a
ur ban
br ush
ill ard
int elligence
Ġsm oother
Ġfoot ing
Ġmotor ists
arc ity
Ġmascul inity
Ġm ism
Ġabdom inal
Ġesc apes
s igned
Ġsacrific ing
Ġintim acy
Ġan terior
Ġmot if
Ġg raz
Ġvisual ization
Ġguitar ist
m agic
Ġw ards
Ġtoile ts
l est
Ġtele port
en ko
Ġhas sle
gg les
Ġh ob
aint ain
Ġair borne
Ġsp ans
Ġch ili
Ġa perture
Ġvolunte ered
augh tered
ing o
Ġun insured
Ġf use
Ġer otic
Ġadvert ise
ra ising
Ġatt ends
udd led
Ġsm oot
Ġbl ond
on ica
Ġstrongh old
Ġprosper ous
Ġbo asted
g ren
Ġpharm acy
k ai
Ġth umbs
Ġmother board
Ġguard ians
ll ular
Ġsh ack
Ġwise ly
Ġback bone
erv a
Ġsu icides
ij ah
Ġdesign ate
produ ced
Ġcleans ing
irl wind
ex istent
Ġv ested
Ġstring ent
ion a
Ġuns ub
Ġsum med
sub ject
Ġcharacter ization
Ġsav vy
Ġf ri
Ġmis information
Ġins ulation
Ġcorrid ors
Ġair planes
ah i
k b
arm ac
Ġsh un
Ġsche ma
Ġhorr ified
aund ers
i ates
er ity
Ġr arity
Ġgroup ed
again st
ow ell
sh aw
ol son
aun a
c ru
Ġsequ encing
Ġradical s
v irtual
Ġany ways
Ġreper c
Ġhand lers
Ġhes itant
ple mentation
ass ociated
Ġcampaign ed
ut ations
Ġsim mer
Ġro ds
Ġmel ody
Ġconv oy
v ideos
Ġscreen ed
ochem ical
Ġultr as
Ġant ip
Ġfet ish
Ġridic ulously
Ġmitochond rial
Ġinterf ering
Ġover fl
Ġac ne
f lex
our age
Ġpet itions
Ġsubsc ript
Ġs orce
ut on
Ġph on
Ġr aced
Ġday time
Ġeng ages
Ġmir acles
Ġmem es
Ġhair s
ath om
Ġsl ippery
Ġcar amel
Ġal k
a ution
Ġap ologies
Ġout ing
app ointed
Ġcount ered
u ld
pos ing
Ġfire wall
work ed
se ller
Ġrepe aled
ere o
ass uming
m ite
ellig ent
Ġw art
Ġsubsc riber
s ports
Ġbe gged
Ġsem if
eth ical
Ġpre ach
Ġrev ital
Ġpun itive
Ġshort cuts
Ġinstit uted
Ġabdom en
Ġsuper intendent
Ġf ry
Ġcontrad ictions
apt ic
Ġlandsc apes
b ugs
Ġcl ust
Ġvol ley
c ribed
Ġt andem
Ġrob es
Ġpromot er
Ġel oqu
review ed
Ġf ps
Ġpriorit ize
as per
ne c
Ġm og
n ir
st all
in ness
Ġprec aution
i ak
ist ries
Ġoverl apping
res y
rac ial
Ġj ars
Ġcan e
oll a
iff erence
Ġphysic ist
Ġdep iction
Ġsl ows
Ġcommission ers
hov ah
Ġtechn ician
Ġhom icides
u ctor
Ġsh ader
Ġre ver
Ġhard ened
Ġwhere abouts
Ġrede velop
Ġcar bs
Ġtra vers
Ġsqu irrel
Ġfoll ower
Ġs ings
Ġrabb its
emon ium
Ġdocument ing
Ġmisunder stood
gg ies
Ġprem ie
Ġsk ating
Ġpass ports
Ġf ists
aged don
Ġpriest hood
h ua
Ġdun geons
Ġant is
Ġfamiliar ity
op al
st rike
Ġc ram
Ġlegal ized
Ġcu isine
Ġfib re
eth y
Ġinter state
em porary
develop ed
Ġsadd le
Ġg ithub
ro let
Ġmultipl ier
Ġstir red
Ġcustom ary
Ġbill ed
he x
Ġmultipl ied
Ġfl ipping
Ġfundament als
ia e
am azon
ee z
activ ated
Ġtables poon
Ġliberal ism
Ġs urn
Ġco ined
Ġprag matic
Ġtrail ers
Ġsil hou
Ġprob es
Ġcirc us
Ġconcess ion
Ġgast ro
and el
Ġg imm
Ġaut obi
Ġwonder fully
Ġtheor ists
Ġsle ek
ograph ically
ath s
n atal
fl ags
Ġs ul
Ġpot assium
Ġlinem an
Ġcere al
Ġmat hematic
Ġastron omers
prof essional
Ġf ares
cknow led
Ġch i
Ġyoung sters
Ġmistaken ly
Ġhem isphere
r one
r ings
Ġattract s
v ana
Ġplay list
Ġpor ch
Ġincorpor ates
Ġso ak
Ġassert ing
ces ter
Ġfear ing
Ġescal ated
Ġro be
ac ists
Ġinex pl
Ġl ords
le af
l iber
Ġcig ars
eb us
Ġl ubric
angu ages
Ġnarrow ed
com puter
Ġmurder ing
Ġdown stream
l ost
Ġprogress es
b ear
Ġestablish ments
Ġmix es
Ġhyp oc
Ġs ane
id ious
Ġ io
Ġdanger ously
h ang
Ġcircum vent
h ref
Ġcel estial
Ġsubpoen a
uk u
Ġpers isted
pe i
old ing
Ġprim er
Ġsyn onymous
Ġn ib
om bs
Ġnot ation
Ġforb id
pat tern
l os
Ġproject iles
b rown
Ġfierce ly
ub lished
Ġguard ing
app end
Ġlevel ed
Ġcond oms
ih ilation
Ġnight mares
Ġroomm ate
Ġhy giene
o pping
Ġl vl
ab etic
Ġformat ting
eral a
Ġrev isions
Ġres urg
p od
Ġind isp
Ġg own
Ġc is
Ġby stand
col lect
act ively
te ll
Ġimport ing
g encies
Ġloc om
Ġshow down
Ġrespond ers
Ġt akedown
le ted
Ġmat tered
Ġpredict ive
Ġover lay
Ġconvey ed
pe er
Ġdefensive ly
v ae
Ġappro ving
Ġt iers
quer ade
Ġdemol ished
Ġmon o
Ġhospital ity
Ġbl ah
erent ial
Ġbank er
Ġmosqu it
Ġh ust
Ġtor ment
Ġstand off
Ġampl ifier
Ġda emon
Ġmatt ress
Ġobsc ene
hett i
Ġcomp iling
vere tt
ist ration
Ġpr ank
dd ing
Ġm ourning
test ing
Ġsed iment
Ġreact ing
oms day
Ġtransl ator
Ġbog us
at u
oll s
Ġbapt ism
Ġs ibling
ve z
gu ards
assad ors
Ġcontin ents
Ġtoler ant
Ġhor ribly
Ġimpat ient
oc ado
er i
Ġdef ends
ens able
Ġanat omy
Ġdraw er
Ġpatri otic
Ġundis closed
Ġfare well
b able
Ġcon co
t ight
l ich
represent ed
Ġenthusi ast
b il
Ġinvent or
with in
Ġm k
Ġdracon ian
hel m
erv ille
Ġcommon place
re place
ograph s
inc ible
ugg le
Ġcit ations
h urst
Ġunle ash
Ġsucc umb
Ġreluct ance
Ġwire t
Ġcomb os
Ġchar coal
Ġdrive way
ove re
Ġtechn icians
fl ation
an amo
Ġmag nesium
Ġsl ut
Ġgrow ers
miss ive
l ane
Ġb orough
h ower
Ġch ant
Ġcompos itions
Ġmild ly
Ġmedd ling
Ġag ility
ane ers
Ġsyn th
ling er
Ġex claimed
Ġcont amin
Ġpra ising
Ġman ners
fle et
gr im
Ġbow ling
st ri
y nt
Ġmand ates
Ġreconc ile
view s
vet te
il on
ic ia
Ġportray al
Ġcush ion
oss al
sc ription
Ġmit igation
p ac
Ġer ased
Ġdefic iencies
Ġb red
Ġpregn ancies
f emin
Ġem ph
Ġpl anners
Ġout per
utter ing
Ġperpet rator
Ġm otto
Ġadmitted ly
Ġmill isec
Ġcombust ion
Ġfabric ated
Ġbat tered
Ġs idel
Ġkn ots
Ġsur geries
Ġcour thouse
Ġm astered
Ġhover ing
Ġsaf est
m ilitary
Ġbull ied
Ġbar rage
ro th
gl ers
al tern
Ġveter in
Ġint el
ren ches
Ġam nesty
Ġp iled
Ġhonor able
Ġso aked
Ġcom a
by tes
le in
m aterial
Ġinstruct ors
Ġconce ive
ub b
Ġeas ing
Ġcar ic
Ġsho vel
de lete
Ġp uff
Ġseam lessly
Ġacqu isitions
ak ery
Ġaut istic
sett ings
Ġmust ard
Ġmore over
Ġcopyright ed
en f
Ġcust od
Ġim g
j ay
Ġfeder ally
Ġmicro bes
Ġover run
dd s
ot ent
adi ator
Ġtorn ado
Ġadj ud
Ġintrig ued
Ġs i
pro gress
Ġburgl ary
Ġser pent
Ġcomp el
ess ler
reg istered
ular ity
Ġrighteous ness
Ġdemon ic
u itive
c ia
Ġme ll
Ġder ail
y ards
Ġnotice ably
Ġun noticed
Ġse q
av age
Ġconced e
Ġcapt ivity
ara oh
Ġstr ide
al ways
Ġal gae
Ġpolic emen
Ġastron aut
access ible
cl iffe
udic rous
Ġdep ended
al ach
Ġvent ures
ra ke
Ġt its
Ġcond om
ormon al
Ġind ent
Ġupload ing
Ġmind ful
Ġcont ends
Ġcal ibr
plug in
ans en
Ġsp rite
Ġhand held
Ġsem antics
s ense
Ġcler ic
Ġch rist
Ġinv ading
ib u
Ġen um
aur a
Ġal lege
Ġth ru
Ġsa iled
Ġem ulate
Ġin security
Ġc rou
Ġaccommod ations
Ġincompet ent
Ġsl ips
s ama
as aki
Ġby e
Ġar d
Ġext ras
Ġsl aughtered
Ġcrowd funding
res so
Ġfil ib
e gg
Ġen list
Ġser geant
Ġdiss olve
Ġstand ings
ri que
Ġbenef iciary
Ġaqu arium
Ġbright est
Ġbegin nings
head ing
Ġrooft op
k ernel
turn ed
Ġprefer able
Ġturn overs
ve h
Ġex iting
Ġj ab
Ġac ron
ber n
Ġend lessly
Ġbr ute
Ġtrust ing
Ġh ots
Ġmal aria
Ġj son
Ġp ounding
ort ment
Ġpostp oned
Ġunequ iv
udd ing
ur rence
sh apeshifter
os ate
Ġca vern
Ġconserv atism
Ġmile age
Ġarrest ing
Ġmix er
Ġauth ored
Ġpro active
t re
Ġincarcer ated
Ġpe aked
Ġwield ing
re ciation
Ġex qu
tt o
ph ant
Ġf ret
Ġeth n
Ġarch ived
c ases
Ġim b
c v
y ss
im ony
Ġcount down
Ġaw akening
Ġun natural
iz en
he ss
Ġev ils
Ġintrodu ctory
l oving
Ġambig uity
Ġcolor ing
set ting
Ġstorm ed
we apons
igh am
Ġun answered
Ġle ve
Ġc oy
c as
b ags
as ured
ser ious
Ġcourage ous
Ġconfisc ated
Ġuncon ventional
Ġmom s
Ġdisc redit
f ixed
do i
Ġbureaucr ats
et een
oh m
Ġb umps
Ġsubmar ines
ren heit
re search
Ġsket ches
Ġde ceptive
es ame
Ġramp age
isk y
Ġmut tered
th ritis
f et
b ars
Ġpup il
s ong
Ġfract ured
Ġre vert
pict ure
Ġcrit erion
us her
Ġreperc ussions
Ġflag ged
Ġbl ames
Ġin verse
ograp hers
Ġmakes hift
Ġdev oid
Ġfoss ils
Ġde pleted
Ġw oes
Ġlip id
Ġsit u
requ isites
Ġfurn ish
Ġshame ful
Ġadverse ly
Ġad ept
Ġrem orse
Ġmurder ous
uck les
s ent
Ġred ef
ig ans
Ġpres criptions
Ġf res
ocr ates
itiz ens
Ġp oultry
Ġharvest ing
Ġcaution ed
t n
Ġeval uations
Ġharass ing
Ġbind ings
Ġhit ters
Ġadvers ary
un ts
Ġset back
Ġenc rypt
Ġl ows
eng es
Ġbul bs
Ġbott led
Ġsp heres
p olitics
Ġsubt ract
Ġsens ations
Ġapp alling
Ġenvironment ally
Ġpub lishes
Ġdilig ence
Ġadv ises
Ġpet rol
Ġimag ining
Ġpatrol s
act us
it ability
ht aking
Ġnu anced
pie ces
Ġlow ers
oo o
Ġqu itting
mark ets
Ġbas in
Ġdoc s
an ie
fl ash
ct l
Ġcivil ized
ar at
Ġconstruct s
Ġwith holding
Ġsan ity
any a
Ġgro cer
Ġrecount ed
ate red
h appy
Ġspo iler
Ġlog ically
Ġsucceed ing
Ġpoly morph
Ġax es
art a
Ġsc or
Ġrelax ation
Ġdeter rent
idd y
Ġpower less
Ġles bians
Ġch ords
se lected
Ġseparat ists
Ġair space
Ġturn around
Ġc unning
Ġbomb ed
Ġt ion
x s
Ġwith hold
Ġw aged
Ġcomfort ing
are rs
Ġr ag
Ġrel ocated
Ġstrateg ically
Ġgam ma
uber ty
g res
Ġgr illed
st ats
Ġsens ing
Ġrent ing
ot rop
Ġse w
Ġimproper ly
Ġstar ving
Ġstri ving
th ora
Ġharvest ed
Ġplay ful
Ġaven ues
Ġoccup ational
Ġw akes
Ġdrum mer
it u
Ġapp arel
p aste
Ġhun ted
l ain
ic ons
Ġcock tails
Ġs izable
Ġhurd les
est inal
Ġe co
m int
Ġfinger prints
Ġdis pose
ts y
Ġins pected
Ġf uss
Ġamb ush
Ġmanif ested
Ġsuff ice
ren ces
Ġcompens ated
Ġgen us
Ġh ikes
Ġen rol
Ġpol itely
Ġey ewitness
Ġun comp
Ġposter ior
Ġprogress ively
Ġind ifference
Ġacadem ia
Ġse wer
Ġast ounding
r ather
Ġeld est
Ġclim bs
Ġout cry
Ġcont ag
Ġpe pt
interest ed
fil ename
Ġchromos ome
d x
Ġscram bled
Ġtremend ously
Ġcra ving
Ġbund led
p ipe
Ġinj uring
Ġarc ane
st y
Ġto pping
rent ices
b h
Ġpar anoia
Ġegreg ious
Ġgra vel
Ġbl and
lin ers
Ġpar ity
Ġs ided
at ters
d k
comp an
Ġform ulated
il ers
hem oth
Ġintr usion
Ġcar rots
Ġmoder ation
oc oc
Ġcharacter ize
Ġsocio economic
Ġper k
tr aining
ph ys
Ġtrust worthy
Ġembod ied
c urrency
Ġte asing
Ġabsor bing
Ġunf inished
Ġdis ple
writ ers
Ġprofess ions
Ġang rily
Ġprev ailed
Ġcart el
l p
as ms
effect s
d ose
Ġv as
advert ising
zz a
Ġret arded
ach able
Ġret ract
Ġident ifiable
s ol
hel le
as semb
r anged
Ġarri vals
Ġshort ened
Ġdiscrep ancy
Ġkind erg
p olit
Ġrem ix
Ġconnect ors
dom inated
Ġsu gars
im ble
on en
ur ia
aza ar
Ġsun shine
Ġpsychedel ic
Ġdigit ally
Ġsh immer
Ġsh ave
Ġc rawling
Ġunfold ing
Ġappropri ation
b ilt
Ġkey boards
Ġover th
Ġla ure
ach a
j p
Ġtotal itarian
Ġobserv es
Ġt aps
Ġro ar
Ġch ars
Ġpain ter
Ġbe acon
Ġdownt urn
Ġh inder
cc oli
et rical
Ġutil izes
Ġsen ate
Ġen semble
Ġche ers
Ġaff luent
k il
ry lic
ord ering
Ġgru esome
ost ics
Ġw rench
Ġbourgeois ie
w orn
ar ist
reat ing
Ġst ained
ar ine
Ġsl ime
Ġche sts
Ġground water
ann ot
Ġd udes
Ġpar amed
rup al
g z
j ee
Ġd h
ber man
arch s
Ġen qu
Ġdevast ation
Ġfriends hips
Ġsp urred
Ġd ossier
Ġover looking
Ġf ixtures
Ġcur ry
Ġsqu ash
Ġcat alogue
Ġabnormal ities
Ġdigest ive
Ġsubord inate
og ly
Ġmass ac
Ġburg ers
Ġdown stairs
Ġl asers
der ived
Ġcycl ist
onel iness
Ġbuff s
leg ate
Ġrap ing
Ġrecomm ending
ro red
Ġmult icultural
un ique
Ġbusiness men
Ġune asy
Ġdisp ersed
cipl ine
Ġabst raction
Ġprin ters
ij a
ow der
Ġanalog ous
af er
Ġunfold ed
Ġlevel ing
Ġbre ached
Ġn at
Ġtransl ating
crit ical
Ġant agonist
Ġfuzz y
w ash
m ere
Ġbe wild
ph rase
Ġsign aled
Ġprot ester
Ġgar ner
unk nown
Ġk ay
Ġabduct ed
Ġst alking
am n
Ġdes erving
Ġscratch ing
ip ing
Ġte ase
Ġmission ary
Ġchem otherapy
tern ess
Ġst aunch
iat us
Ġcove ted
Ġex ited
f ruit
Ġner d
Ġv ivo
ru ly
rehens ible
Ġad herence
Ġche w
dig ital
g ently
enth al
Ġwe ary
Ġgu ise
at cher
Ġb inge
Ġman ned
ans k
Ġill usions
Ġbillion aires
oly n
odynam ic
Ġcol oured
ab o
Ġmac ros
ind ependent
s weet
Ġsp ac
em e
Ġdict ated
Ġsh outs
Ġr ipping
direct ed
Ġanalys ed
ag ons
Ġche ered
Ġar ithmetic
Ġw itches
Ġspo iled
re ro
t p
Ġover he
Ġadministr ations
Ġt int
Ġreg iment
Ġpist ols
Ġblank ets
Ġep ist
Ġbowl s
Ġhydra ulic
Ġde an
Ġj ung
Ġasc end
Ġun avoid
re b
Ġstem ming
st icks
esthes ia
Ġmor bid
any l
Ġdele ting
Ġdirect ives
Ġiter ations
Ġpat ented
Ġprec ursor
Ġm aiden
Ġn ods
Ġvent ilation
Ġw izards
Ġomin ous
Ġl umber
Ġancest ral
Ġwrest ler
ph i
Ġy uan
Ġice berg
Ġmag ically
Ġdivers ion
ar ro
yth m
Ġhar ms
p acked
Ġmarry ing
Ġbl ending
Ġwr ink
desc ribed
Ġhuman oid
ilit ating
Ġwhistlebl ower
ort mund
ets y
arre tt
Ġsupplement al
Ġpower house
aph ael
att i
Ġp erenn
Ġcub es
idd led
iling ual
Ġso fa
Ġintimid ate
ays on
Ġextrad ition
Ġdis abling
Ġmemor andum
se ctor
Ġbl adder
ant asy
Ġforesee able
cont ainer
Ġbar ring
key e
Ġsl ashed
Ġhum ility
Ġdr illed
Ġse wage
Ġhome page
Ġcour tyard
Ġv ile
Ġsubsid iaries
aj o
direct ory
Ġam mon
charg es
n ob
Ġper cept
Ġg rit
Ġfisher men
g raph
at ial
Ġcooper ating
Ġmel an
Ġenlight ened
Ġal i
t ailed
Ġsal ute
Ġweak est
Ġsem en
oc ene
s pr
itt ens
iph ate
ig ers
d h
p ayer
Ġentert ained
Ġpenn ed
Ġcoup on
Ġweaken ing
c arry
Ġunderest imate
Ġshoot out
Ġcharism atic
Ġprud ent
in ances
Ġric hes
Ġcort ical
Ġstr ides
Ġd rib
Ġe uth
Ġsimpl istic
t ops
camp aign
Ġimpover ished
Ġaug ment
Ġinterven ed
Ġlist ens
Ġs age
Ġrub bish
Ġm ull
pe lling
Ġvide ot
m iah
Ġadapt ations
Ġmed ically
Ġboard ed
Ġarrog ance
Ġscra pped
Ġopp ress
Ġj unction
Ġsub du
Ġle tt
Ġreg ained
ref lect
Ġth ugs
Ġdict ates
Ġbatt leground
s child
Ġcond ol
h unt
osit ories
Ġacc uses
Ġsh ri
Ġmotiv ate
Ġreflect ions
n in
Ġju icy
ut ra
Ġrest raining
Ġappropri ations
Ġsl opes
Ġmans laughter
Ġwork ings
Ġt rench
Ġglad ly
Ġbull pen
b ones
Ġgro ove
Ġpre text
Ġtransm itter
Ġunder age
Ġo y
Ġbl oss
Ġrepl icated
Ġliber ated
Ġbutter fly
Ġfer mentation
Ġyou tube
Ġoff end
res ist
Ġcess ation
Ġinsurg ency
Ġb ir
Ġhypothes es
Ġpl aque
ocr at
Ġjack ets
am ong
Ġconf er
Ġadapt ing
Ġsh oved
ve c
Ġref ine
Ġg on
Ġgun men
z ai
Ġple thora
Ġp uberty
pr ison
Ġwater proof
Ġathlet icism
Ġcapital ize
Ġillum inated
Ġirrit ation
ad le
Ġf ax
Ġres iding
Ġst umble
Ġadvers aries
Ġsm ear
Ġar son
ident al
Ġsc ant
Ġmon archy
Ġhal ftime
Ġresid ue
Ġind ign
aur i
hel ps
Ġlobby ist
Ġdimin ishing
Ġout breaks
Ġgo ats
f avorite
son ian
Ġsand box
ld e
Ġnavig ating
Ġunt rue
Ġl udicrous
blog spot
ern al
Ġdelay ing
Ġimpl ants
att r
Ġjournal istic
go al
Ġsm ashing
w ives
print ln
in us
Ġcru iser
umin ium
Ġoccup ants
m op
Ġp int
Ġhe ct
direct or
Ġst ag
Ġg ust
Ġbright ly
ors i
Ġup hill
Ġles ions
liv ious
Ġbi ologist
Ġpert inent
ot aur
es se
Ġunman ned
Ġend anger
Ġrepl en
ed ient
Ġtail or
Ġgad gets
Ġaud ible
Ġbomb ard
Ġdef iance
Ġunaff ected
erv atives
Ġso ared
Ġcomprom ising
icy cle
Ġv ampires
Ġdi pped
oy er
Ġsidew ays
Ġhabit ats
tr uth
tr ained
spl it
p id
Ġfut ile
hig hest
f requency
Ġepile psy
Ġcop ing
Ġconc ise
Ġtr acing
pan el
Ġsh aky
p kg
Ġupt ake
Ġpred atory
Ġintox icated
od der
he ment
Ġbas eman
st orage
ed itor
ir ting
Ġse wing
r ift
Ġag ony
Ġl odge
Ġp unt
Ġerrone ous
Ġm ould
kay a
Ġanonym ously
Ġsim ulator
Ġstream ed
Ġte ased
Ġco efficient
Ġwart ime
mp ire
Ġf andom
Ġl ia
Ġdown hill
Ġinterpre ting
Ġjealous y
bit coin
Ġple asures
Ġrecept ions
Ġcit rus
ir u
ject ed
an z
Ġcompl ied
ores cent
contin ental
n ox
Ġreal ms
te k
Ġirrig ation
Ġbicy cles
Ġelectron ically
p oly
t all
Ġaest hetics
Ġd unk
p ain
Ġreun ited
Ġhum id
Ġyouth ful
Ġent ails
Ġmosqu ito
spe cies
Ġcoord inating
Ġflow ed
Ġtack led
Ġfashion ed
Ġre organ
iv ari
f inger
Ġreluct antly
et ting
you ng
Ġpresum ption
Ġamen ities
on ential
Ġmor als
Ġcl ich
Ġwel comes
Ġstand out
Ġdread ful
Ġban anas
Ġball oons
h ooting
bas ic
Ġsuff ix
Ġd uly
can o
at os
Ġgeop olitical
Ġacqu itted
prot ect
Ġsc arcity
Ġmind fulness
ec ided
pr ime
add ock
p un
Ġsty ling
Ġpunish ments
Ġnum b
Ġasc ertain
f lu
Ġperpet rated
Ġdis arm
Ġexponent ially
Ġabol ish
pt oms
Ġgre ase
ik ini
Ġpers ists
b ill
Ġinf usion
Ġbud dies
Ġdem os
Ġacquaint ance
at ari
Ġx ml
Ġfasc ination
br anded
Ġa z
Ġover shadow
Ġro am
Ġspeed y
n umbered
hel ial
Ġdisc iple
Ġass urances
g iven
pect ing
Ġmosquit oes
rote in
Ġnumer ic
Ġindepend ents
Ġtrans itional
Ġreaction ary
do ctor
Ġshort est
Ġsequ ential
ach y
ract ive
Ġbreat htaking
ffic iency
Ġward robe
ft s
iver ing
ident ial
lu cent
Ġen riched
Ġlegal ize
Ġfre aking
Ġter restrial
es ian
ci ents
Ġled ge
Ġs outheastern
hett o
Ġslow down
Ġret reated
end as
er ic
Ġre ins
opp able
ear ances
rig an
Ġwa ivers
s oc
Ġalter ation
trans form
Ġindef inite
Ġstim ulating
y g
Ġdescript ive
Ġpneum onia
vent us
Ġlabor atories
ug ar
Ġmalf unction
Ġhomosexual s
un i
Ġturb ines
Ġmind ed
Ġfe ats
re pl
lad en
Ġindisp ensable
ly ss
tt i
Ġre el
Ġdiver ted
Ġlik eness
Ġsubscript ions
Ġfing ert
Ġfil thy
dest ruct
d raft
l aunch
Ġper plex
car b
Ġswe ater
Ġstead fast
Ġathlet ics
Ġcomm end
in formed
Ġweb page
Ġforce fully
Ġrel ocation
Ġsat ire
Ġinform ant
Ġbow el
Ġpur ge
Ġpic nic
le arn
Ġobject ively
Ġob liter
Ġlooph ole
Ġjour neys
Ġo mission
pl oma
Ġspray ed
Ġg uru
Ġtra itor
Ġtim et
Ġsn apping
urn al
Ġb owed
por al
l iberal
Ġsummar ize
ap est
Ġl ender
br inging
Ġcollaps es
x iety
Ġantib ody
Ġdis band
y re
ill usion
Ġro ver
s hed
cc i
Ġcal am
ord es
Ġf ences
Ġsqu e
Ġqu otation
Ġtroubles ome
er ker
s outh
Ġle vy
Ġnick named
Ġapp e
Ġphot ographic
Ġcorp us
re ference
Ġactiv ating
Ġlicense e
Ġdispar ities
Ġfree ing
ins k
Ġsil icone
ibr arian
Ġsp or
Ġcorrel ations
ag hetti
Ġtu ber
il us
Ġwealth iest
an za
Ġfool ed
Ġd addy
ran o
il ian
Ġknock out
f man
requ ired
Ġins ol
Ġb ou
sc an
Ġd ancers
Ġid iots
major ity
Ġt art
pan ic
Ġcoc oa
Ġsam pled
Ġlook up
Ġinject ions
gen re
Ġa u
Ġroad way
Ġgen itals
Ġpar alysis
Ġre ap
Ġsl oppy
pos ium
ner y
en ic
Ġher bal
Ġinc ur
Ġide ologies
Ġback ups
cons uming
de ck
Ġtough ness
Ġh ive
ald e
and estine
m ouse
Ġbrig ade
Ġrev ol
op oly
eb ted
Ġtab oo
Ġw edge
ch ip
b g
Ġinf uri
r n
Ġanomal ies
omed ical
Ġcomprehens ion
Ġempower ing
Ġ ire
Ġju ices
Ġfacilit ated
p oke
tra vel
Ġcivil izations
Ġliber tarians
Ġrun e
at hed
Ġcampaign ers
Ġl ace
Ġdr aining
Ġl iner
t ask
ord inary
Ġpot ency
uss en
osp ons
Ġcul inary
Ġenlight enment
Ġwe arer
Ġmin ed
Ġp ly
Ġinc est
Ġdev al
ib and
Ġd art
Ġm ul
Ġrem ovable
Ġmisc ar
Ġmer ging
che ster
Ġbr isk
Ġlux urious
Ġbit terness
Ġed ible
Ġrect angle
bel ow
Ġdark est
Ġh itch
Ġdos age
Ġsc aven
Ġdiarr hea
Ġenorm ously
sh r
qu art
Ġadam ant
Ġren ovation
Ġcerv ical
en ers
Ġflo ats
Ġde x
d m
Ġsal ty
y ellow
Ġca pe
les i
Ġhom ophobic
Ġwand ered
ood oo
Ġtight ening
Ġdesert ed
Ġfacilit ating
Ġemer gencies
Ġexhaust ive
Ġheart beat
ack y
ilt ration
Ġpres ume
Ġsur ged
Ġdoll s
Ġchim pan
Ġt icks
Ġcouncill or
Ġpilgr image
x ia
ik k
b red
Ġinsert ion
Ġco arse
Ġcontem por
ot ions
Ġfun n
h off
Ġram ifications
az es
Ġgar ments
ar ial
Ġhum orous
Ġn ylon
Ġlur king
Ġmisogyn y
ract ical
Ġt aped
Ġgroup ing
Ġbe ads
Ġcon du
quer que
Ġgriev ances
Ġend point
a qu
Ġa venue
v p
Ġsh ady
Ġcare less
Ġbro kers
Ġtemper ament
Ġut tered
Ġp edd
Ġimpro vised
Ġtab l
Ġpl ains
press ure
marg in
friend s
Ġpoll ut
or ama
Ġth wart
se ek
Ġp agan
cp u
Ġg arn
Ġass ortment
t ower
Ġun born
Ġparaly zed
Ġeru ption
Ġinter sect
Ġall oy
Ġunderest imated
Ġm ural
Ġb usted
so on
l if
Ġnone x
Ġall ergy
Ġh rs
by ter
Ġrepl acements
Ġactiv ates
ri ved
Ġp ans
Ġlong itudinal
Ġnu isance
al er
Ġsw ell
s ci
Ġdef iant
Ġson ic
oc on
t ie
ah ah
Ġb isc
ga ard
Ġdist ressed
former ly
Ġche fs
Ġopt ics
Ġredes igned
irm ation
Ġsight ings
Ġcont raction
Ġstart led
Ġunderstand ably
Ġsung lasses
Ġd ocker
Ġsurf ing
ton es
Ġsh alt
c ussion
Ġunrest ricted
Ġt ad
Ġre name
employ ed
Ġeduc ating
Ġgrin ned
bed room
Ġsh uffle
ig or
Ġsatur ation
c ream
ic ter
Ġv odka
tr acking
te c
Ġfore ground
[...]
