{"<long>": 0, "<mask>": 1, "<pad>": 2, "<unk>": 3, "<s>": 4, "</s>": 5, "!": 6, "\"": 7, "#": 8, "$": 9, "%": 10, "&": 11, "'": 12, "(": 13, ")": 14, "*": 15, "+": 16, ",": 17, "-": 18, ".": 19, "/": 20, "0": 21, "1": 22, "2": 23, "3": 24, "4": 25, "5": 26, "6": 27, "7": 28, "8": 29, "9": 30, ":": 31, ";": 32, "<": 33, "=": 34, ">": 35, "?": 36, "@": 37, "A": 38, "B": 39, "C": 40, "D": 41, "E": 42, "F": 43, "G": 44, "H": 45, "I": 46, "J": 47, "K": 48, "L": 49, "M": 50, "N": 51, "O": 52, "P": 53, "Q": 54, "R": 55, "S": 56, "T": 57, "U": 58, "V": 59, "W": 60, "X": 61, "Y": 62, "Z": 63, "[": 64, "\\": 65, "]": 66, "^": 67, "_": 68, "`": 69, "a": 70, "b": 71, "c": 72, "d": 73, "e": 74, "f": 75, "g": 76, "h": 77, "i": 78, "j": 79, "k": 80, "l": 81, "m": 82, "n": 83, "o": 84, "p": 85, "q": 86, "r": 87, "s": 88, "t": 89, "u": 90, "v": 91, "w": 92, "x": 93, "y": 94, "z": 95, "{": 96, "|": 97, "}": 98, "~": 99, "\u00a1": 100, "\u00a2": 101, "\u00a3": 102, "\u00a4": 103, "\u00a5": 104, "\u00a6": 105, "\u00a7": 106, "\u00a8": 107, "\u00a9": 108, "\u00aa": 109, "\u00ab": 110, "\u00ac": 111, "\u00ae": 112, "\u00af": 113, "\u00b0": 114, "\u00b1": 115, "\u00b2": 116, "\u00b3": 117, "\u00b4": 118, "\u00b5": 119, "\u00b6": 120, "\u00b7": 121, "\u00b8": 122, "\u00b9": 123, "\u00ba": 124, "\u00bb": 125, "\u00bc": 126, "\u00bd": 127, "\u00be": 128, "\u00bf": 129, "\u00c0": 130, "\u00c1": 131, "\u00c2": 132, "\u00c3": 133, "\u00c4": 134, "\u00c5": 135, "\u00c6": 136, "\u00c7": 137, "\u00c8": 138, "\u00c9": 139, "\u00ca": 140, "\u00cb": 141, "\u00cc": 142, "\u00cd": 143, "\u00ce": 144, "\u00cf": 145, "\u00d0": 146, "\u00d1": 147, "\u00d2": 148, "\u00d3": 149, "\u00d4": 150, "\u00d5": 151, "\u00d6": 152, "\u00d7": 153, "\u00d8": 154, "\u00d9": 155, "\u00da": 156, "\u00db": 157, "\u00dc": 158, "\u00dd": 159, "\u00de": 160, "\u00df": 161, "\u00e0": 162, "\u00e1": 163, "\u00e2": 164, "\u00e3": 165, "\u00e4": 166, "\u00e5": 167, "\u00e6": 168, "\u00e7": 169, "\u00e8": 170, "\u00e9": 171, "\u00ea": 172, "\u00eb": 173, "\u00ec": 174, "\u00ed": 175, "\u00ee": 176, "\u00ef": 177, "\u00f0": 178, "\u00f1": 179, "\u00f2": 180, "\u00f3": 181, "\u00f4": 182, "\u00f5": 183, "\u00f6": 184, "\u00f7": 185, "\u00f8": 186, "\u00f9": 187, "\u00fa": 188, "\u00fb": 189, "\u00fc": 190, "\u00fd": 191, "\u00fe": 192, "\u00ff": 193, "\u0100": 194, "\u0101": 195, "\u0102": 196, "\u0103": 197, "\u0104": 198, "\u0105": 199, "\u0106": 200, "\u0107": 201, "\u0108": 202, "\u0109": 203, "\u010a": 204, "\u010b": 205, "\u010c": 206, "\u010d": 207, "\u010e": 208, "\u010f": 209, "\u0110": 210, "\u0111": 211, "\u0112": 212, "\u0113": 213, "\u0114": 214, "\u0115": 215, "\u0116": 216, "\u0117": 217, "\u0118": 218, "\u0119": 219, "\u011a": 220, "\u011b": 221, "\u011c": 222, "\u011d": 223, "\u011e": 224, "\u011f": 225, "\u0120": 226, "\u0121": 227, "\u0122": 228, "\u0123": 229, "\u0124": 230, "\u0125": 231, "\u0126": 232, "\u0127": 233, "\u0128": 234, "\u0129": 235, "\u012a": 236, "\u012b": 237, "\u012c": 238, "\u012d": 239, "\u012e": 240, "\u012f": 241, "\u0130": 242, "\u0131": 243, "\u0132": 244, "\u0133": 245, "\u0134": 246, "\u0135": 247, "\u0136": 248, "\u0137": 249, "\u0138": 250, "\u0139": 251, "\u013a": 252, "\u013b": 253, "\u013c": 254, "\u013d": 255, "\u013e": 256, "\u013f": 257, "\u0140": 258, "\u0141": 259, "\u0142": 260, "\u0143": 261, "\u0120t": 262, "\u0120a": 263, "he": 264, "in": 265, "re": 266, "on": 267, "\u0120the": 268, "er": 269, "\u0120s": 270, "at": 271, "\u0120w": 272, "\u0120o": 273, "en": 274, "\u0120c": 275, "it": 276, "is": 277, "an": 278, "or": 279, "es": 280, "\u0120b": 281, "ed": 282, "\u0120f": 283, "ing": 284, "\u0120p": 285, "ou": 286, "\u0120an": 287, "al": 288, "ar": 289, "\u0120to": 290, "\u0120m": 291, "\u0120of": 292, "\u0120in": 293, "\u0120d": 294, "\u0120h": 295, "\u0120and": 296, "ic": 297, "as": 298, "le": 299, "\u0120th": 300, "ion": 301, "om": 302, "ll": 303, "ent": 304, "\u0120n": 305, "\u0120l": 306, "st": 307, "\u0120re": 308, "ve": 309, "\u0120e": 310, "ro": 311, "ly": 312, "\u0120be": 313, "\u0120g": 314, "ct": 315, "id": 316, "ot": 317, "ut": 318, "et": 319, "\u0120is": 320, "\u0120on": 321, "im": 322, "am": 323, "ow": 324, "ay": 325, "ad": 326, "se": 327, "\u0120that": 328, "ig": 329, "\u0120for": 330, "ac": 331, "\u0120y": 332, "ver": 333, "ur": 334, "\u0120u": 335, "ld": 336, "\u0120st": 337, "\u0120he": 338, "\u0120it": 339, "ation": 340, "ith": 341, "ir": 342, "ce": 343, "\u0120you": 344, "il": 345, "\u0120wh": 346, "ol": 347, "\u0120with": 348, "ter": 349, "ch": 350, "\u0120as": 351, "\u0120we": 352, "nd": 353, "ill": 354, "if": 355, "ag": 356, "ers": 357, "ke": 358, "em": 359, "\u0120con": 360, "her": 361, "\u0120was": 362, "\u0120r": 363, "od": 364, "ul": 365, "ate": 366, "\u0120at": 367, "ri": 368, "pp": 369, "ore": 370, "\u0120se": 371, "us": 372, "\u0120pro": 373, "\u0120ha": 374, "um": 375, "\u0120are": 376, "\u0120de": 377, "ain": 378, "and": 379, "\u0120or": 380, "igh": 381, "est": 382, "ist": 383, "ab": 384, "rom": 385, "th": 386, "\u0120com": 387, "un": 388, "op": 389, "\u0120not": 390, "ess": 391, "\u0120ex": 392, "\u0120v": 393, "res": 394, "ew": 395, "ity": 396, "ant": 397, "\u0120by": 398, "el": 399, "os": 400, "ort": 401, "oc": 402, "qu": 403, "\u0120from": 404, "\u0120have": 405, "\u0120su": 406, "ive": 407, "ould": 408, "\u0120sh": 409, "\u0120this": 410, "nt": 411, "ra": 412, "pe": 413, "ight": 414, "art": 415, "ment": 416, "\u0120al": 417, "ust": 418, "end": 419, "all": 420, "ack": 421, "\u0120ch": 422, "\u0120le": 423, "ies": 424, "red": 425, "ard": 426, "out": 427, "\u0120ab": 428, "ear": 429, "iv": 430, "ally": 431, "our": 432, "ost": 433, "gh": 434, "pt": 435, "\u0120pl": 436, "ast": 437, "\u0120can": 438, "ak": 439, "ome": 440, "ud": 441, "\u0120his": 442, "\u0120do": 443, "\u0120go": 444, "\u0120has": 445, "ge": 446, "rou": 447, "\u0120sa": 448, "\u0120j": 449, "\u0120but": 450, "\u0120wor": 451, "\u0120all": 452, "ect": 453, "\u0120k": 454, "ame": 455, "\u0120will": 456, "ok": 457, "\u0120whe": 458, "\u0120they": 459, "ide": 460, "ff": 461, "ich": 462, "pl": 463, "ther": 464, "\u0120tr": 465, "\u0120int": 466, "ie": 467, "ure": 468, "age": 469, "\u0120ne": 470, "ial": 471, "ap": 472, "ine": 473, "ice": 474, "\u0120me": 475, "\u0120out": 476, "ans": 477, "one": 478, "ong": 479, "ions": 480, "\u0120who": 481, "\u0120up": 482, "\u0120their": 483, "\u0120ad": 484, "\u0120us": 485, "ated": 486, "ous": 487, "\u0120more": 488, "ue": 489, "og": 490, "ind": 491, "ike": 492, "\u0120so": 493, "ime": 494, "per": 495, "ber": 496, "iz": 497, "act": 498, "\u0120one": 499, "\u0120said": 500, "are": 501, "\u0120your": 502, "cc": 503, "\u0120cl": 504, "ep": 505, "ake": 506, "able": 507, "ip": 508, "\u0120cont": 509, "\u0120which": 510, "ia": 511, "\u0120im": 512, "\u0120about": 513, "\u0120were": 514, "very": 515, "ub": 516, "\u0120had": 517, "\u0120en": 518, "\u0120comp": 519, "\u0120un": 520, "\u0120ag": 521, "ire": 522, "ace": 523, "au": 524, "ary": 525, "\u0120would": 526, "ass": 527, "ry": 528, "cl": 529, "ook": 530, "ere": 531, "so": 532, "ign": 533, "ib": 534, "\u0120off": 535, "\u0120te": 536, "ven": 537, "ile": 538, "ose": 539, "ite": 540, "orm": 541, "\u0120res": 542, "\u0120man": 543, "\u0120per": 544, "\u0120other": 545, "ord": 546, "ult": 547, "\u0120been": 548, "\u0120like": 549, "ase": 550, "ance": 551, "ks": 552, "ays": 553, "own": 554, "ence": 555, "\u0120dis": 556, "ction": 557, "\u0120any": 558, "\u0120app": 559, "\u0120sp": 560, "int": 561, "ress": 562, "ations": 563, "ail": 564, "ical": 565, "\u0120them": 566, "\u0120her": 567, "ount": 568, "\u0120ar": 569, "\u0120if": 570, "\u0120there": 571, "\u0120pe": 572, "\u0120year": 573, "av": 574, "\u0120my": 575, "\u0120some": 576, "\u0120when": 577, "ough": 578, "ach": 579, "\u0120than": 580, "ru": 581, "ond": 582, "ick": 583, "\u0120over": 584, "vel": 585, "\u0120qu": 586, "\u0120sc": 587, "reat": 588, "ree": 589, "ound": 590, "port": 591, "\u0120also": 592, "\u0120part": 593, "fter": 594, "\u0120kn": 595, "\u0120bec": 596, "\u0120time": 597, "ens": 598, "ople": 599, "\u0120what": 600, "\u0120no": 601, "du": 602, "mer": 603, "ang": 604, "\u0120new": 605, "\u0120get": 606, "ory": 607, "ition": 608, "ings": 609, "\u0120just": 610, "\u0120into": 611, "ents": 612, "ove": 613, "te": 614, "\u0120people": 615, "\u0120pre": 616, "\u0120its": 617, "\u0120rec": 618, "\u0120tw": 619, "ian": 620, "irst": 621, "ark": 622, "ors": 623, "\u0120work": 624, "ade": 625, "ob": 626, "\u0120she": 627, "\u0120our": 628, "wn": 629, "ink": 630, "lic": 631, "ish": 632, "nder": 633, "ause": 634, "\u0120him": 635, "ons": 636, "\u0120ro": 637, "form": 638, "ild": 639, "ates": 640, "vers": 641, "\u0120only": 642, "oll": 643, "\u0120spe": 644, "ck": 645, "ell": 646, "amp": 647, "\u0120acc": 648, "\u0120bl": 649, "ious": 650, "urn": 651, "ft": 652, "ood": 653, "\u0120how": 654, "hed": 655, "\u0120after": 656, "aw": 657, "\u0120att": 658, "ov": 659, "ne": 660, "\u0120play": 661, "erv": 662, "ict": 663, "\u0120could": 664, "itt": 665, "\u0120am": 666, "\u0120first": 667, "\u0120act": 668, "ec": 669, "hing": 670, "ual": 671, "ull": 672, "\u0120comm": 673, "oy": 674, "old": 675, "ces": 676, "ater": 677, "\u0120fe": 678, "\u0120bet": 679, "we": 680, "iff": 681, "\u0120two": 682, "ock": 683, "\u0120back": 684, "ident": 685, "\u0120under": 686, "rough": 687, "sel": 688, "xt": 689, "\u0120may": 690, "round": 691, "\u0120po": 692, "ph": 693, "iss": 694, "\u0120des": 695, "\u0120most": 696, "\u0120did": 697, "\u0120add": 698, "ject": 699, "\u0120inc": 700, "fore": 701, "\u0120pol": 702, "ont": 703, "\u0120again": 704, "clud": 705, "tern": 706, "\u0120know": 707, "\u0120need": 708, "\u0120cons": 709, "\u0120co": 710, "\u0120want": 711, "\u0120see": 712, "ning": 713, "iew": 714, "ced": 715, "\u0120even": 716, "\u0120ind": 717, "ty": 718, "ath": 719, "\u0120these": 720, "\u0120pr": 721, "\u0120use": 722, "\u0120because": 723, "\u0120fl": 724, "ng": 725, "\u0120now": 726, "com": 727, "ise": 728, "\u0120make": 729, "\u0120then": 730, "ower": 731, "\u0120every": 732, "\u0120sec": 733, "oss": 734, "uch": 735, "\u0120em": 736, "ied": 737, "rit": 738, "\u0120inv": 739, "lect": 740, "\u0120supp": 741, "ating": 742, "\u0120look": 743, "man": 744, "pect": 745, "row": 746, "\u0120bu": 747, "\u0120where": 748, "ific": 749, "\u0120years": 750, "ily": 751, "\u0120diff": 752, "\u0120should": 753, "\u0120rem": 754, "\u0120ev": 755, "day": 756, "rib": 757, "\u0120rel": 758, "ss": 759, "\u0120def": 760, "\u0120right": 761, "\u0120sy": 762, "les": 763, "hen": 764, "\u0120through": 765, "\u0120way": 766, "\u0120don": 767, "ased": 768, "\u0120ass": 769, "ublic": 770, "\u0120reg": 771, "ix": 772, "\u0120very": 773, "\u0120includ": 774, "other": 775, "\u0120imp": 776, "oth": 777, "\u0120sub": 778, "\u0120being": 779, "arg": 780, "ible": 781, "\u0120does": 782, "ange": 783, "ram": 784, "ert": 785, "ps": 786, "ited": 787, "ational": 788, "\u0120br": 789, "\u0120down": 790, "\u0120many": 791, "aking": 792, "\u0120call": 793, "uring": 794, "ities": 795, "\u0120ph": 796, "ics": 797, "als": 798, "\u0120dec": 799, "ative": 800, "ener": 801, "\u0120before": 802, "ility": 803, "\u0120well": 804, "\u0120much": 805, "erson": 806, "\u0120those": 807, "\u0120such": 808, "\u0120ke": 809, "\u0120end": 810, "ason": 811, "ting": 812, "\u0120long": 813, "ef": 814, "\u0120think": 815, "ys": 816, "\u0120bel": 817, "\u0120sm": 818, "its": 819, "ax": 820, "\u0120own": 821, "\u0120prov": 822, "\u0120set": 823, "ife": 824, "ments": 825, "ble": 826, "ward": 827, "\u0120show": 828, "\u0120pres": 829, "ms": 830, "omet": 831, "\u0120ob": 832, "\u0120say": 833, "ts": 834, "ful": 835, "\u0120eff": 836, "\u0120gu": 837, "\u0120inst": 838, "und": 839, "ren": 840, "cess": 841, "\u0120ent": 842, "\u0120good": 843, "\u0120start": 844, "ince": 845, "\u0120made": 846, "tt": 847, "stem": 848, "olog": 849, "up": 850, "ump": 851, "\u0120hel": 852, "vern": 853, "ular": 854, "ually": 855, "\u0120ac": 856, "\u0120mon": 857, "\u0120last": 858, "\u0120stud": 859, "ures": 860, "self": 861, "ars": 862, "meric": 863, "ues": 864, "cy": 865, "\u0120min": 866, "ollow": 867, "\u0120col": 868, "io": 869, "\u0120mod": 870, "\u0120count": 871, "hes": 872, "\u0120fin": 873, "air": 874, "ier": 875, "read": 876, "ank": 877, "atch": 878, "ever": 879, "\u0120str": 880, "\u0120point": 881, "ork": 882, "\u0120sur": 883, "ool": 884, "alk": 885, "ement": 886, "\u0120used": 887, "ract": 888, "ween": 889, "\u0120same": 890, "oun": 891, "ci": 892, "\u0120differe": 893, "\u0120while": 894, "\u0120game": 895, "cept": 896, "\u0120sim": 897, "\u0120inter": 898, "ek": 899, "\u0120report": 900, "\u0120produ": 901, "\u0120still": 902, "led": 903, "ah": 904, "\u0120here": 905, "\u0120world": 906, "\u0120though": 907, "\u0120num": 908, "arch": 909, "imes": 910, "ale": 911, "\u0120ret": 912, "\u0120ref": 913, "\u0120trans": 914, "ner": 915, "ution": 916, "ters": 917, "\u0120take": 918, "\u0120conf": 919, "way": 920, "ave": 921, "\u0120going": 922, "\u0120sl": 923, "ug": 924, "\u0120spec": 925, "\u0120hand": 926, "\u0120between": 927, "ists": 928, "oot": 929, "\u0120ear": 930, "\u0120against": 931, "\u0120high": 932, "gan": 933, "az": 934, "ather": 935, "\u0120exp": 936, "\u0120op": 937, "\u0120ins": 938, "\u0120gr": 939, "\u0120help": 940, "\u0120requ": 941, "ets": 942, "ins": 943, "ism": 944, "\u0120found": 945, "land": 946, "ata": 947, "uss": 948, "ames": 949, "\u0120person": 950, "\u0120great": 951, "pr": 952, "\u0120sign": 953, "\u0120somet": 954, "\u0120ser": 955, "hip": 956, "\u0120run": 957, "\u0120ter": 958, "irect": 959, "\u0120follow": 960, "\u0120det": 961, "ices": 962, "\u0120find": 963, "\u0120mem": 964, "\u0120cr": 965, "ered": 966, "ex": 967, "\u0120ext": 968, "uth": 969, "ense": 970, "co": 971, "\u0120team": 972, "ving": 973, "ouse": 974, "ash": 975, "att": 976, "ved": 977, "\u0120system": 978, "der": 979, "ives": 980, "min": 981, "\u0120lead": 982, "cent": 983, "\u0120around": 984, "\u0120govern": 985, "\u0120cur": 986, "velop": 987, "any": 988, "\u0120cour": 989, "alth": 990, "ages": 991, "ize": 992, "\u0120car": 993, "ode": 994, "\u0120law": 995, "\u0120read": 996, "con": 997, "\u0120real": 998, "\u0120support": 999, "\u0120really": 1000, "ness": 1001, "\u0120fact": 1002, "\u0120day": 1003, "\u0120both": 1004, "ying": 1005, "\u0120serv": 1006, "\u0120three": 1007, "\u0120wom": 1008, "\u0120med": 1009, "ody": 1010, "\u0120exper": 1011, "ton": 1012, "\u0120each": 1013, "akes": 1014, "\u0120che": 1015, "\u0120cre": 1016, "ines": 1017, "\u0120rep": 1018, "gg": 1019, "illion": 1020, "\u0120grou": 1021, "ute": 1022, "ik": 1023, "get": 1024, "\u0120met": 1025, "\u0120says": 1026, "ox": 1027, "\u0120during": 1028, "ern": 1029, "ized": 1030, "ared": 1031, "\u0120fam": 1032, "ically": 1033, "\u0120happ": 1034, "\u0120char": 1035, "med": 1036, "vent": 1037, "\u0120gener": 1038, "ient": 1039, "ple": 1040, "iet": 1041, "rent": 1042, "ves": 1043, "ption": 1044, "formation": 1045, "\u0120cor": 1046, "\u0120offic": 1047, "ield": 1048, "\u0120too": 1049, "ision": 1050, "\u0120inf": 1051, "the": 1052, "oad": 1053, "\u0120public": 1054, "\u0120prog": 1055, "ric": 1056, "\u0120war": 1057, "\u0120power": 1058, "view": 1059, "\u0120few": 1060, "\u0120loc": 1061, "\u0120different": 1062, "\u0120state": 1063, "\u0120head": 1064, "\u0120poss": 1065, "\u0120stat": 1066, "ret": 1067, "ants": 1068, "\u0120val": 1069, "\u0120iss": 1070, "\u0120cle": 1071, "ivers": 1072, "anc": 1073, "\u0120expl": 1074, "\u0120another": 1075, "\u0120av": 1076, "thing": 1077, "nce": 1078, "\u0120child": 1079, "\u0120since": 1080, "ired": 1081, "less": 1082, "\u0120life": 1083, "\u0120develop": 1084, "ittle": 1085, "\u0120dep": 1086, "\u0120pass": 1087, "\u0120turn": 1088, "orn": 1089, "bers": 1090, "ross": 1091, "\u0120fr": 1092, "\u0120resp": 1093, "\u0120second": 1094, "oh": 1095, "\u0120disc": 1096, "\u0120something": 1097, "\u0120comple": 1098, "\u0120ed": 1099, "\u0120fil": 1100, "\u0120month": 1101, "aj": 1102, "uc": 1103, "\u0120government": 1104, "\u0120without": 1105, "\u0120leg": 1106, "\u0120dist": 1107, "\u0120put": 1108, "\u0120quest": 1109, "ann": 1110, "\u0120prot": 1111, "\u0120never": 1112, "ience": 1113, "\u0120level": 1114, "\u0120art": 1115, "\u0120things": 1116, "\u0120might": 1117, "\u0120effect": 1118, "\u0120contro": 1119, "\u0120cent": 1120, "\u0120allow": 1121, "\u0120belie": 1122, "chool": 1123, "ott": 1124, "\u0120incre": 1125, "\u0120feel": 1126, "\u0120result": 1127, "\u0120lot": 1128, "\u0120fun": 1129, "ote": 1130, "\u0120ty": 1131, "erest": 1132, "\u0120contin": 1133, "\u0120using": 1134, "\u0120big": 1135, "\u0120ask": 1136, "\u0120best": 1137, "\u0120opp": 1138, "\u0120number": 1139, "iness": 1140, "lease": 1141, "\u0120ca": 1142, "\u0120must": 1143, "\u0120direct": 1144, "\u0120gl": 1145, "\u0120open": 1146, "\u0120post": 1147, "\u0120come": 1148, "\u0120seem": 1149, "ording": 1150, "\u0120week": 1151, "ately": 1152, "ital": 1153, "\u0120el": 1154, "riend": 1155, "\u0120far": 1156, "\u0120tra": 1157, "inal": 1158, "\u0120pri": 1159, "\u0120place": 1160, "\u0120form": 1161, "\u0120told": 1162, "ains": 1163, "ature": 1164, "\u0120stand": 1165, "ider": 1166, "\u0120next": 1167, "\u0120soc": 1168, "\u0120pur": 1169, "\u0120let": 1170, "\u0120little": 1171, "\u0120hum": 1172, "\u0120i": 1173, "ron": 1174, "\u0120commun": 1175, "\u0120mark": 1176, "\u0120wr": 1177, "\u0120information": 1178, "ways": 1179, "\u0120bus": 1180, "app": 1181, "\u0120invest": 1182, "me": 1183, "\u0120hard": 1184, "ained": 1185, "ead": 1186, "\u0120import": 1187, "\u0120appro": 1188, "\u0120test": 1189, "\u0120tri": 1190, "\u0120rest": 1191, "osed": 1192, "\u0120full": 1193, "\u0120care": 1194, "\u0120case": 1195, "\u0120sk": 1196, "\u0120less": 1197, "\u0120partic": 1198, "ably": 1199, "uck": 1200, "ished": 1201, "chn": 1202, "be": 1203, "\u0120list": 1204, "ator": 1205, "\u0120top": 1206, "\u0120adv": 1207, "ruct": 1208, "\u0120dem": 1209, "ration": 1210, "ling": 1211, "gy": 1212, "reen": 1213, "ger": 1214, "\u0120home": 1215, "\u0120left": 1216, "\u0120better": 1217, "\u0120data": 1218, "\u0120attack": 1219, "\u0120proble": 1220, "line": 1221, "ards": 1222, "\u0120beh": 1223, "ral": 1224, "arge": 1225, "\u0120bro": 1226, "ats": 1227, "\u0120build": 1228, "ww": 1229, "ided": 1230, "aim": 1231, "ases": 1232, "ency": 1233, "\u0120main": 1234, "ined": 1235, "\u0120including": 1236, "\u0120got": 1237, "\u0120interest": 1238, "\u0120keep": 1239, "\u0120eas": 1240, "aining": 1241, "\u0120class": 1242, "\u0120var": 1243, "\u0120small": 1244, "ample": 1245, "\u0120ide": 1246, "\u0120rece": 1247, "\u0120polit": 1248, "\u0120mov": 1249, "\u0120plan": 1250, "\u0120percent": 1251, "iving": 1252, "\u0120camp": 1253, "\u0120pay": 1254, "sc": 1255, "ised": 1256, "\u0120unt": 1257, "oney": 1258, "ploy": 1259, "\u0120didn": 1260, "els": 1261, "ertain": 1262, "\u0120pos": 1263, "iver": 1264, "\u0120process": 1265, "\u0120program": 1266, "ified": 1267, "uro": 1268, "ology": 1269, "atter": 1270, "ina": 1271, "\u0120name": 1272, "\u0120four": 1273, "\u0120return": 1274, "vious": 1275, "bs": 1276, "\u0120called": 1277, "\u0120move": 1278, "ird": 1279, "\u0120group": 1280, "\u0120bre": 1281, "\u0120men": 1282, "\u0120cap": 1283, "ten": 1284, "ee": 1285, "\u0120dri": 1286, "leg": 1287, "here": 1288, "uthor": 1289, "\u0120pat": 1290, "\u0120current": 1291, "ides": 1292, "\u0120pop": 1293, "to": 1294, "ention": 1295, "\u0120always": 1296, "\u0120mil": 1297, "\u0120women": 1298, "\u0120old": 1299, "iven": 1300, "raph": 1301, "ror": 1302, "ently": 1303, "\u0120near": 1304, "ream": 1305, "sh": 1306, "\u0120free": 1307, "ission": 1308, "stand": 1309, "ality": 1310, "used": 1311, "\u0120design": 1312, "\u0120change": 1313, "\u0120chang": 1314, "\u0120bo": 1315, "\u0120vis": 1316, "ember": 1317, "\u0120book": 1318, "ready": 1319, "\u0120kill": 1320, "pped": 1321, "\u0120away": 1322, "\u0120able": 1323, "\u0120country": 1324, "\u0120const": 1325, "arn": 1326, "\u0120order": 1327, "ior": 1328, "ium": 1329, "orth": 1330, "ailable": 1331, "\u0120sw": 1332, "\u0120million": 1333, "atic": 1334, "ted": 1335, "\u0120oper": 1336, "eng": 1337, "\u0120thing": 1338, "ajor": 1339, "conom": 1340, "\u0120why": 1341, "ured": 1342, "ural": 1343, "\u0120school": 1344, "by": 1345, "\u0120aff": 1346, "\u0120days": 1347, "\u0120ann": 1348, "ush": 1349, "ane": 1350, "eg": 1351, "\u0120prof": 1352, "\u0120health": 1353, "outh": 1354, "ional": 1355, "\u0120sol": 1356, "\u0120already": 1357, "\u0120charact": 1358, "\u0120friend": 1359, "ians": 1360, "icle": 1361, "\u0120least": 1362, "\u0120prom": 1363, "\u0120dr": 1364, "\u0120hist": 1365, "ither": 1366, "\u0120est": 1367, "iqu": 1368, "son": 1369, "\u0120tell": 1370, "\u0120talk": 1371, "ohn": 1372, "oint": 1373, "lection": 1374, "\u0120until": 1375, "augh": 1376, "\u0120later": 1377, "\u0120ve": 1378, "\u0120view": 1379, "ending": 1380, "ived": 1381, "\u0120word": 1382, "ware": 1383, "\u0120cost": 1384, "\u0120enough": 1385, "\u0120give": 1386, "\u0120techn": 1387, "arent": 1388, "\u0120par": 1389, "rist": 1390, "ering": 1391, "\u0120large": 1392, "side": 1393, "acy": 1394, "ccess": 1395, "\u0120win": 1396, "\u0120important": 1397, "\u0120doesn": 1398, "\u0120business": 1399, "\u0120clear": 1400, "\u0120rese": 1401, "ury": 1402, "\u0120equ": 1403, "aster": 1404, "alf": 1405, "nect": 1406, "\u0120expect": 1407, "iversity": 1408, "\u0120occ": 1409, "\u0120kind": 1410, "\u0120mean": 1411, "\u0120past": 1412, "\u0120dev": 1413, "\u0120bas": 1414, "let": 1415, "raft": 1416, "\u0120organ": 1417, "\u0120del": 1418, "\u0120perform": 1419, "\u0120story": 1420, "\u0120season": 1421, "\u0120claim": 1422, "\u0120came": 1423, "\u0120within": 1424, "\u0120line": 1425, "\u0120project": 1426, "\u0120control": 1427, "ended": 1428, "\u0120air": 1429, "ization": 1430, "ley": 1431, "\u0120money": 1432, "idd": 1433, "for": 1434, "\u0120family": 1435, "\u0120making": 1436, "\u0120bit": 1437, "\u0120police": 1438, "\u0120happen": 1439, "\u0120vers": 1440, "ony": 1441, "uff": 1442, "\u0120sit": 1443, "ideo": 1444, "lf": 1445, "ison": 1446, "\u0120sure": 1447, "gin": 1448, "\u0120appear": 1449, "\u0120light": 1450, "\u0120es": 1451, "of": 1452, "\u0120water": 1453, "\u0120times": 1454, "not": 1455, "\u0120grow": 1456, "\u0120company": 1457, "ows": 1458, "\u0120mar": 1459, "ource": 1460, "iol": 1461, "arm": 1462, "br": 1463, "\u0120example": 1464, "\u0120conc": 1465, "\u0120fore": 1466, "pro": 1467, "ries": 1468, "ney": 1469, "\u0120actually": 1470, "\u0120ever": 1471, "urity": 1472, "aken": 1473, "aps": 1474, "\u0120tax": 1475, "\u0120major": 1476, "ama": 1477, "\u0120often": 1478, "eral": 1479, "\u0120human": 1480, "\u0120job": 1481, "ister": 1482, "\u0120available": 1483, "ocr": 1484, "enn": 1485, "aid": 1486, "ivid": 1487, "\u0120record": 1488, "\u0120sing": 1489, "idence": 1490, "\u0120news": 1491, "ster": 1492, "\u0120econom": 1493, "\u0120following": 1494, "ising": 1495, "\u0120hour": 1496, "most": 1497, "ument": 1498, "\u0120sex": 1499, "\u0120desc": 1500, "\u0120become": 1501, "\u0120took": 1502, "\u0120having": 1503, "\u0120product": 1504, "ault": 1505, "aring": 1506, "\u0120means": 1507, "\u0120hop": 1508, "une": 1509, "\u0120cho": 1510, "\u0120certain": 1511, "\u0120non": 1512, "\u0120deal": 1513, "lement": 1514, "oci": 1515, "ene": 1516, "\u0120side": 1517, "\u0120reason": 1518, "ued": 1519, "ched": 1520, "ulation": 1521, "\u0120elect": 1522, "\u0120official": 1523, "\u0120possible": 1524, "\u0120hold": 1525, "ands": 1526, "ots": 1527, "\u0120city": 1528, "ories": 1529, "\u0120sever": 1530, "\u0120children": 1531, "\u0120once": 1532, "\u0120activ": 1533, "ler": 1534, "\u0120night": 1535, "itions": 1536, "ape": 1537, "play": 1538, "\u0120done": 1539, "\u0120lim": 1540, "\u0120working": 1541, "orld": 1542, "eb": 1543, "\u0120body": 1544, "ails": 1545, "utes": 1546, "\u0120whether": 1547, "\u0120author": 1548, "rop": 1549, "\u0120proper": 1550, "\u0120seen": 1551, "\u0120fac": 1552, "\u0120cond": 1553, "iting": 1554, "\u0120course": 1555, "aign": 1556, "\u0120event": 1557, "\u0120eng": 1558, "\u0120pot": 1559, "\u0120intern": 1560, "iam": 1561, "\u0120short": 1562, "empt": 1563, "ilar": 1564, "\u0120orig": 1565, "ourn": 1566, "ability": 1567, "itive": 1568, "\u0120dam": 1569, "\u0120press": 1570, "\u0120doing": 1571, "\u0120protect": 1572, "ring": 1573, "\u0120thought": 1574, "\u0120question": 1575, "rew": 1576, "\u0120several": 1577, "\u0120given": 1578, "\u0120fund": 1579, "\u0120went": 1580, "ances": 1581, "work": 1582, "por": 1583, "my": 1584, "\u0120arg": 1585, "artment": 1586, "ustom": 1587, "\u0120polic": 1588, "\u0120meet": 1589, "\u0120creat": 1590, "\u0120games": 1591, "raw": 1592, "uture": 1593, "\u0120understand": 1594, "urs": 1595, "lish": 1596, "sy": 1597, "\u0120makes": 1598, "\u0120won": 1599, "agon": 1600, "\u0120htt": 1601, "\u0120love": 1602, "ential": 1603, "\u0120complete": 1604, "par": 1605, "\u0120account": 1606, "ored": 1607, "vert": 1608, "\u0120ident": 1609, "\u0120others": 1610, "iber": 1611, "verage": 1612, "itional": 1613, "dd": 1614, "\u0120prob": 1615, "\u0120young": 1616, "\u0120along": 1617, "\u0120according": 1618, "\u0120yet": 1619, "\u0120members": 1620, "oid": 1621, "\u0120among": 1622, "ai": 1623, "\u0120employ": 1624, "\u0120invol": 1625, "\u0120low": 1626, "af": 1627, "\u0120hig": 1628, "ination": 1629, "\u0120likely": 1630, "\u0120ant": 1631, "aged": 1632, "\u0120ben": 1633, "\u0120rele": 1634, "back": 1635, "\u0120president": 1636, "ball": 1637, "\u0120access": 1638, "ividual": 1639, "\u0120known": 1640, "irl": 1641, "\u0120early": 1642, "use": 1643, "iety": 1644, "\u0120fight": 1645, "\u0120sent": 1646, "\u0120today": 1647, "\u0120market": 1648, "\u0120based": 1649, "\u0120strong": 1650, "urther": 1651, "\u0120deb": 1652, "mber": 1653, "\u0120problem": 1654, "\u0120death": 1655, "\u0120social": 1656, "imate": 1657, "ortun": 1658, "\u0120campaign": 1659, "ery": 1660, "\u0120ey": 1661, "ially": 1662, "\u0120mus": 1663, "wh": 1664, "pos": 1665, "\u0120er": 1666, "\u0120saf": 1667, "\u0120months": 1668, "iron": 1669, "\u0120viol": 1670, "\u0120five": 1671, "\u0120stre": 1672, "\u0120players": 1673, "inc": 1674, "ald": 1675, "year": 1676, "aun": 1677, "\u0120success": 1678, "\u0120present": 1679, "erence": 1680, "\u0120sugg": 1681, "\u0120particular": 1682, "\u0120try": 1683, "\u0120suggest": 1684, "ones": 1685, "\u0120priv": 1686, "\u0120crit": 1687, "\u0120land": 1688, "\u0120local": 1689, "ify": 1690, "\u0120aut": 1691, "\u0120mult": 1692, "\u0120political": 1693, "\u0120asked": 1694, "\u0120former": 1695, "itter": 1696, "ript": 1697, "\u0120close": 1698, "\u0120pract": 1699, "\u0120getting": 1700, "\u0120across": 1701, "\u0120comb": 1702, "\u0120believe": 1703, "\u0120z": 1704, "\u0120toget": 1705, "\u0120together": 1706, "irc": 1707, "\u0120individual": 1708, "isk": 1709, "\u0120face": 1710, "\u0120value": 1711, "\u0120area": 1712, "ev": 1713, "\u0120writ": 1714, "\u0120vot": 1715, "\u0120key": 1716, "\u0120mom": 1717, "put": 1718, "\u0120anything": 1719, "\u0120experience": 1720, "attle": 1721, "\u0120mind": 1722, "aff": 1723, "omm": 1724, "\u0120future": 1725, "ged": 1726, "\u0120cut": 1727, "\u0120tot": 1728, "itch": 1729, "\u0120video": 1730, "\u0120investig": 1731, "\u0120net": 1732, "rict": 1733, "ien": 1734, "\u0120impro": 1735, "though": 1736, "wards": 1737, "\u0120connect": 1738, "selves": 1739, "ensive": 1740, "mb": 1741, "ober": 1742, "ators": 1743, "\u0120redu": 1744, "resent": 1745, "\u0120above": 1746, "\u0120fre": 1747, "sw": 1748, "\u0120amount": 1749, "\u0120either": 1750, "\u0120milit": 1751, "\u0120anal": 1752, "\u0120fail": 1753, "ales": 1754, "\u0120special": 1755, "\u0120black": 1756, "cher": 1757, "\u0120looking": 1758, "\u0120fire": 1759, "yn": 1760, "\u0120almost": 1761, "oon": 1762, "\u0120study": 1763, "\u0120miss": 1764, "ches": 1765, "rown": 1766, "\u0120tre": 1767, "\u0120community": 1768, "\u0120media": 1769, "\u0120food": 1770, "\u0120comes": 1771, "\u0120single": 1772, "uly": 1773, "\u0120half": 1774, "ague": 1775, "hod": 1776, "\u0120started": 1777, "\u0120quick": 1778, "oto": 1779, "book": 1780, "\u0120issue": 1781, "itor": 1782, "\u0120else": 1783, "\u0120consider": 1784, "rodu": 1785, "\u0120taken": 1786, "\u0120true": 1787, "\u0120wa": 1788, "\u0120trad": 1789, "\u0120ago": 1790, "\u0120mess": 1791, "ief": 1792, "\u0120added": 1793, "oke": 1794, "\u0120bad": 1795, "\u0120fav": 1796, "\u0120similar": 1797, "ask": 1798, "\u0120character": 1799, "orts": 1800, "\u0120reported": 1801, "\u0120type": 1802, "val": 1803, "iod": 1804, "\u0120targ": 1805, "\u0120entire": 1806, "pping": 1807, "\u0120history": 1808, "\u0120live": 1809, "ffic": 1810, "ederal": 1811, "\u0120trying": 1812, "\u0120discuss": 1813, "aces": 1814, "lished": 1815, "\u0120self": 1816, "osp": 1817, "rest": 1818, "\u0120room": 1819, "elt": 1820, "\u0120fall": 1821, "olution": 1822, "\u0120et": 1823, "\u0120x": 1824, "\u0120isn": 1825, "\u0120idea": 1826, "bo": 1827, "\u0120sound": 1828, "\u0120someone": 1829, "cially": 1830, "ully": 1831, "\u0120foc": 1832, "\u0120object": 1833, "ift": 1834, "aper": 1835, "\u0120player": 1836, "\u0120rather": 1837, "\u0120service": 1838, "ashing": 1839, "rug": 1840, "mon": 1841, "ply": 1842, "\u0120mor": 1843, "\u0120nothing": 1844, "\u0120provide": 1845, "ung": 1846, "\u0120party": 1847, "\u0120exist": 1848, "\u0120mag": 1849, "\u0120rul": 1850, "\u0120house": 1851, "\u0120behind": 1852, "\u0120however": 1853, "\u0120sum": 1854, "\u0120applic": 1855, "\u0120function": 1856, "gr": 1857, "\u0120front": 1858, "\u0120series": 1859, "\u0120tem": 1860, "\u0120typ": 1861, "ills": 1862, "\u0120opt": 1863, "\u0120points": 1864, "\u0120below": 1865, "itted": 1866, "\u0120specific": 1867, "umb": 1868, "\u0120ra": 1869, "\u0120previous": 1870, "\u0120pret": 1871, "reme": 1872, "\u0120custom": 1873, "\u0120court": 1874, "\u0120repl": 1875, "\u0120whole": 1876, "go": 1877, "cer": 1878, "\u0120treat": 1879, "\u0120probably": 1880, "\u0120learn": 1881, "ender": 1882, "\u0120version": 1883, "now": 1884, "\u0120check": 1885, "minist": 1886, "ources": 1887, "\u0120benef": 1888, "\u0120doc": 1889, "\u0120deter": 1890, "\u0120enc": 1891, "\u0120super": 1892, "\u0120address": 1893, "\u0120vict": 1894, "\u0120meas": 1895, "tr": 1896, "\u0120field": 1897, "\u0120signific": 1898, "uge": 1899, "\u0120feat": 1900, "\u0120common": 1901, "load": 1902, "\u0120begin": 1903, "\u0120bring": 1904, "\u0120action": 1905, "erman": 1906, "\u0120describ": 1907, "\u0120indust": 1908, "\u0120wanted": 1909, "ried": 1910, "ming": 1911, "\u0120attempt": 1912, "fer": 1913, "\u0120due": 1914, "ression": 1915, "\u0120shall": 1916, "\u0120six": 1917, "oo": 1918, "\u0120step": 1919, "\u0120pub": 1920, "\u0120himself": 1921, "\u0120cop": 1922, "\u0120dest": 1923, "\u0120stop": 1924, "ibility": 1925, "\u0120lab": 1926, "icult": 1927, "\u0120hours": 1928, "\u0120create": 1929, "\u0120further": 1930, "\u0120dou": 1931, "head": 1932, "cing": 1933, "\u0120national": 1934, "ule": 1935, "\u0120taking": 1936, "irt": 1937, "\u0120red": 1938, "\u0120research": 1939, "viron": 1940, "\u0120break": 1941, "ana": 1942, "\u0120space": 1943, "aterial": 1944, "\u0120recent": 1945, "\u0120general": 1946, "\u0120hit": 1947, "\u0120period": 1948, "\u0120everything": 1949, "ively": 1950, "\u0120phys": 1951, "\u0120saying": 1952, "anks": 1953, "\u0120cou": 1954, "\u0120cult": 1955, "aced": 1956, "eal": 1957, "uation": 1958, "\u0120coun": 1959, "lu": 1960, "\u0120include": 1961, "\u0120position": 1962, "\u0120imm": 1963, "\u0120pick": 1964, "\u0120compl": 1965, "\u0120matter": 1966, "reg": 1967, "ext": 1968, "angu": 1969, "isc": 1970, "ole": 1971, "aut": 1972, "\u0120compet": 1973, "eed": 1974, "fect": 1975, "asing": 1976, "\u0120cannot": 1977, "\u0120init": 1978, "\u0120relations": 1979, "ached": 1980, "\u0120bar": 1981, "\u0120vol": 1982, "\u0120ground": 1983, "\u0120security": 1984, "\u0120upd": 1985, "ilt": 1986, "\u0120concern": 1987, "\u0120white": 1988, "\u0120seems": 1989, "pecially": 1990, "ients": 1991, "\u0120announ": 1992, "\u0120fig": 1993, "ights": 1994, "\u0120stri": 1995, "like": 1996, "ids": 1997, "\u0120sus": 1998, "\u0120watch": 1999, "\u0120wind": 2000, "\u0120itself": 2001, "\u0120mass": 2002, "yle": 2003, "ique": 2004, "\u0120abs": 2005, "\u0120pack": 2006, "\u0120outside": 2007, "\u0120anim": 2008, "\u0120pain": 2009, "eter": 2010, "\u0120manag": 2011, "duct": 2012, "ogn": 2013, "sec": 2014, "off": 2015, "\u0120foot": 2016, "ades": 2017, "\u0120third": 2018, "\u0120mot": 2019, "\u0120evidence": 2020, "inton": 2021, "\u0120threat": 2022, "apt": 2023, "ples": 2024, "cle": 2025, "\u0120lo": 2026, "\u0120decl": 2027, "\u0120item": 2028, "medi": 2029, "\u0120represent": 2030, "omb": 2031, "amer": 2032, "\u0120significant": 2033, "ograph": 2034, "su": 2035, "\u0120cal": 2036, "ires": 2037, "\u0120simply": 2038, "\u0120longer": 2039, "\u0120file": 2040, "che": 2041, "ateg": 2042, "org": 2043, "\u0120ener": 2044, "\u0120dom": 2045, "\u0120upon": 2046, "ili": 2047, "\u0120themselves": 2048, "\u0120coming": 2049, "\u0120quite": 2050, "\u0120difficult": 2051, "ilities": 2052, "rel": 2053, "ends": 2054, "cial": 2055, "\u0120woman": 2056, "rap": 2057, "yr": 2058, "\u0120necess": 2059, "ips": 2060, "\u0120text": 2061, "\u0120require": 2062, "\u0120military": 2063, "\u0120review": 2064, "\u0120respons": 2065, "\u0120subject": 2066, "\u0120instead": 2067, "\u0120issues": 2068, "\u0120gen": 2069, "\u0120minutes": 2070, "\u0120weap": 2071, "ray": 2072, "amed": 2073, "time": 2074, "bl": 2075, "\u0120code": 2076, "\u0120higher": 2077, "ris": 2078, "\u0120page": 2079, "\u0120students": 2080, "\u0120method": 2081, "\u0120policy": 2082, "\u0120exec": 2083, "\u0120accept": 2084, "ume": 2085, "ribut": 2086, "\u0120words": 2087, "\u0120final": 2088, "\u0120changes": 2089, "\u0120friends": 2090, "\u0120respect": 2091, "\u0120ep": 2092, "\u0120compan": 2093, "ivil": 2094, "\u0120damage": 2095, "ogle": 2096, "vironment": 2097, "\u0120neg": 2098, "ental": 2099, "\u0120ap": 2100, "\u0120total": 2101, "ival": 2102, "lim": 2103, "\u0120needs": 2104, "\u0120agre": 2105, "\u0120development": 2106, "\u0120age": 2107, "iple": 2108, "\u0120results": 2109, "\u0120gun": 2110, "roll": 2111, "\u0120rights": 2112, "\u0120running": 2113, "\u0120wasn": 2114, "\u0120port": 2115, "\u0120rate": 2116, "\u0120pretty": 2117, "\u0120target": 2118, "\u0120saw": 2119, "\u0120circ": 2120, "\u0120works": 2121, "icro": 2122, "alt": 2123, "over": 2124, "www": 2125, "lier": 2126, "\u0120everyone": 2127, "ude": 2128, "\u0120pie": 2129, "iddle": 2130, "rael": 2131, "\u0120rad": 2132, "\u0120block": 2133, "\u0120walk": 2134, "nes": 2135, "aul": 2136, "rote": 2137, "ession": 2138, "oph": 2139, "\u0120shows": 2140, "\u0120site": 2141, "\u0120jo": 2142, "\u0120risk": 2143, "clus": 2144, "lt": 2145, "\u0120inj": 2146, "iding": 2147, "\u0120chall": 2148, "irm": 2149, "itting": 2150, "str": 2151, "\u0120hy": 2152, "key": 2153, "\u0120began": 2154, "atur": 2155, "ashington": 2156, "lam": 2157, "bit": 2158, "\u0120size": 2159, "ournal": 2160, "face": 2161, "\u0120decision": 2162, "\u0120larg": 2163, "\u0120jud": 2164, "rect": 2165, "\u0120continue": 2166, "overed": 2167, "\u0120parent": 2168, "\u0120easy": 2169, "\u0120drug": 2170, "anger": 2171, "\u0120sense": 2172, "\u0120di": 2173, "iday": 2174, "\u0120energy": 2175, "istic": 2176, "\u0120associ": 2177, "arter": 2178, "obal": 2179, "eks": 2180, "urch": 2181, "\u0120girl": 2182, "oe": 2183, "itle": 2184, "\u0120request": 2185, "\u0120soon": 2186, "\u0120host": 2187, "ky": 2188, "\u0120states": 2189, "omes": 2190, "\u0120material": 2191, "lex": 2192, "\u0120moment": 2193, "\u0120answ": 2194, "onse": 2195, "\u0120especially": 2196, "\u0120norm": 2197, "\u0120services": 2198, "pite": 2199, "ran": 2200, "\u0120role": 2201, "\u0120cred": 2202, "\u0120mat": 2203, "\u0120log": 2204, "\u0120office": 2205, "\u0120charg": 2206, "\u0120track": 2207, "ma": 2208, "\u0120heart": 2209, "\u0120ball": 2210, "\u0120personal": 2211, "\u0120building": 2212, "na": 2213, "set": 2214, "body": 2215, "\u0120increase": 2216, "itten": 2217, "\u0120needed": 2218, "\u0120lost": 2219, "\u0120became": 2220, "\u0120groups": 2221, "\u0120wrote": 2222, "\u0120prop": 2223, "joy": 2224, "\u0120dead": 2225, "\u0120http": 2226, "\u0120webs": 2227, "\u0120inside": 2228, "\u0120wrong": 2229, "\u0120statement": 2230, "yl": 2231, "\u0120film": 2232, "\u0120music": 2233, "\u0120share": 2234, "ification": 2235, "\u0120release": 2236, "\u0120forward": 2237, "\u0120stay": 2238, "\u0120comput": 2239, "itte": 2240, "ser": 2241, "\u0120original": 2242, "\u0120card": 2243, "\u0120cand": 2244, "\u0120div": 2245, "atural": 2246, "\u0120favor": 2247, "\u0120cases": 2248, "uses": 2249, "\u0120section": 2250, "\u0120leave": 2251, "ging": 2252, "oved": 2253, "\u0120required": 2254, "action": 2255, "apan": 2256, "oor": 2257, "iter": 2258, "\u0120countries": 2259, "lling": 2260, "\u0120questions": 2261, "\u0120prim": 2262, "\u0120cell": 2263, "\u0120shoot": 2264, "\u0120anyone": 2265, "\u0120affect": 2266, "epend": 2267, "\u0120online": 2268, "\u0120ability": 2269, "\u0120content": 2270, "ises": 2271, "\u0120reve": 2272, "\u0120laun": 2273, "\u0120indic": 2274, "\u0120force": 2275, "cast": 2276, "\u0120sold": 2277, "aving": 2278, "fl": 2279, "\u0120soft": 2280, "\u0120companies": 2281, "ceed": 2282, "\u0120article": 2283, "\u0120aud": 2284, "\u0120rev": 2285, "\u0120educ": 2286, "\u0120playing": 2287, "\u0120held": 2288, "ctor": 2289, "\u0120released": 2290, "\u0120federal": 2291, "\u0120administ": 2292, "\u0120interview": 2293, "\u0120install": 2294, "\u0120received": 2295, "\u0120source": 2296, "uk": 2297, "\u0120serious": 2298, "\u0120created": 2299, "\u0120cause": 2300, "\u0120immedi": 2301, "\u0120defin": 2302, "uel": 2303, "ctions": 2304, "ze": 2305, "ites": 2306, "itution": 2307, "\u0120late": 2308, "\u0120speak": 2309, "ners": 2310, "\u0120legal": 2311, "ari": 2312, "\u0120weeks": 2313, "\u0120model": 2314, "\u0120pred": 2315, "\u0120exact": 2316, "osing": 2317, "\u0120takes": 2318, "\u0120regard": 2319, "\u0120opportun": 2320, "\u0120price": 2321, "fully": 2322, "\u0120ord": 2323, "\u0120problems": 2324, "ruction": 2325, "ham": 2326, "lege": 2327, "\u0120leaders": 2328, "lev": 2329, "\u0120deep": 2330, "ological": 2331, "ese": 2332, "haps": 2333, "\u0120pers": 2334, "\u0120contract": 2335, "\u0120relationship": 2336, "sp": 2337, "oud": 2338, "\u0120base": 2339, "mit": 2340, "ancial": 2341, "\u0120consum": 2342, "\u0120potential": 2343, "\u0120langu": 2344, "rem": 2345, "eth": 2346, "\u0120relig": 2347, "ressed": 2348, "\u0120link": 2349, "\u0120lower": 2350, "ayer": 2351, "\u0120fem": 2352, "unt": 2353, "erc": 2354, "urd": 2355, "\u0120contact": 2356, "\u0120ill": 2357, "\u0120mother": 2358, "\u0120estab": 2359, "htt": 2360, "\u0120squ": 2361, "\u0120provided": 2362, "\u0120average": 2363, "asons": 2364, "\u0120exam": 2365, "lin": 2366, "ned": 2367, "\u0120perfect": 2368, "\u0120tou": 2369, "alse": 2370, "ux": 2371, "\u0120buy": 2372, "\u0120shot": 2373, "\u0120collect": 2374, "\u0120phot": 2375, "\u0120played": 2376, "\u0120surpr": 2377, "\u0120officials": 2378, "\u0120simple": 2379, "avy": 2380, "\u0120industry": 2381, "\u0120hands": 2382, "ground": 2383, "\u0120pull": 2384, "\u0120round": 2385, "\u0120user": 2386, "\u0120range": 2387, "uary": 2388, "\u0120private": 2389, "ops": 2390, "ees": 2391, "\u0120ways": 2392, "\u0120veh": 2393, "\u0120except": 2394, "\u0120terms": 2395, "imum": 2396, "pper": 2397, "ores": 2398, "oul": 2399, "\u0120den": 2400, "\u0120performance": 2401, "\u0120bill": 2402, "cil": 2403, "\u0120environment": 2404, "\u0120exc": 2405, "add": 2406, "\u0120worth": 2407, "\u0120pict": 2408, "\u0120chance": 2409, "bor": 2410, "\u0120speed": 2411, "iction": 2412, "\u0120alleg": 2413, "atory": 2414, "reet": 2415, "\u0120match": 2416, "\u0120stru": 2417, "order": 2418, "\u0120ste": 2419, "\u0120living": 2420, "\u0120struct": 2421, "ino": 2422, "\u0120separ": 2423, "hern": 2424, "\u0120response": 2425, "\u0120enjoy": 2426, "\u0120via": 2427, "uments": 2428, "acebook": 2429, "\u0120member": 2430, "ibr": 2431, "izing": 2432, "\u0120tool": 2433, "hood": 2434, "\u0120offer": 2435, "aur": 2436, "\u0120turned": 2437, "down": 2438, "anced": 2439, "\u0120recently": 2440, "\u0120ce": 2441, "rought": 2442, "\u0120blood": 2443, "\u0120hope": 2444, "\u0120comment": 2445, "aint": 2446, "\u0120arri": 2447, "iles": 2448, "\u0120particip": 2449, "ought": 2450, "ription": 2451, "\u0120gave": 2452, "\u0120select": 2453, "\u0120killed": 2454, "sych": 2455, "\u0120goes": 2456, "ij": 2457, "\u0120coll": 2458, "\u0120impact": 2459, "atives": 2460, "\u0120boy": 2461, "de": 2462, "\u0120felt": 2463, "\u0120expected": 2464, "\u0120image": 2465, "ccording": 2466, "oice": 2467, "ened": 2468, "hold": 2469, "\u0120prevent": 2470, "\u0120involved": 2471, "\u0120eyes": 2472, "\u0120quickly": 2473, "unk": 2474, "\u0120behav": 2475, "\u0120ur": 2476, "\u0120led": 2477, "come": 2478, "ey": 2479, "\u0120candid": 2480, "\u0120earlier": 2481, "\u0120focus": 2482, "ety": 2483, "ledge": 2484, "ixed": 2485, "illed": 2486, "\u0120popular": 2487, "\u0120sett": 2488, "light": 2489, "\u0120various": 2490, "inks": 2491, "\u0120levels": 2492, "\u0120road": 2493, "ellig": 2494, "ables": 2495, "hel": 2496, "ittee": 2497, "ype": 2498, "\u0120heard": 2499, "icles": 2500, "\u0120mis": 2501, "\u0120users": 2502, "\u0120improve": 2503, "\u0120father": 2504, "\u0120search": 2505, "vil": 2506, "\u0120profess": 2507, "\u0120knew": 2508, "\u0120loss": 2509, "\u0120events": 2510, "\u0120billion": 2511, "\u0120cover": 2512, "where": 2513, "ension": 2514, "\u0120bott": 2515, "\u0120areas": 2516, "ences": 2517, "ope": 2518, "ael": 2519, "\u0120gets": 2520, "\u0120sn": 2521, "iant": 2522, "\u0120vote": 2523, "\u0120nearly": 2524, "\u0120included": 2525, "\u0120recogn": 2526, "zz": 2527, "mm": 2528, "aled": 2529, "\u0120happened": 2530, "\u0120hot": 2531, "\u0120whose": 2532, "\u0120civil": 2533, "\u0120suff": 2534, "oes": 2535, "itiz": 2536, "\u0120respond": 2537, "\u0120hon": 2538, "\u0120features": 2539, "\u0120economic": 2540, "rim": 2541, "\u0120technology": 2542, "\u0120option": 2543, "aging": 2544, "\u0120purch": 2545, "\u0120lat": 2546, "chie": 2547, "isl": 2548, "\u0120recomm": 2549, "uf": 2550, "\u0120training": 2551, "\u0120effects": 2552, "\u0120fast": 2553, "\u0120occur": 2554, "\u0120website": 2555, "\u0120email": 2556, "\u0120sens": 2557, "ech": 2558, "\u0120oil": 2559, "\u0120influ": 2560, "\u0120currently": 2561, "\u0120goal": 2562, "\u0120scient": 2563, "\u0120conv": 2564, "emy": 2565, "\u0120decided": 2566, "\u0120travel": 2567, "\u0120mention": 2568, "\u0120election": 2569, "\u0120phone": 2570, "\u0120looks": 2571, "\u0120situation": 2572, "\u0120cy": 2573, "\u0120hor": 2574, "bed": 2575, "aily": 2576, "aves": 2577, "\u0120quality": 2578, "wise": 2579, "\u0120table": 2580, "\u0120staff": 2581, "ett": 2582, "\u0120tried": 2583, "idered": 2584, "\u0120addition": 2585, "\u0120box": 2586, "\u0120lack": 2587, "arily": 2588, "\u0120wide": 2589, "\u0120mid": 2590, "\u0120board": 2591, "ysis": 2592, "\u0120anti": 2593, "ha": 2594, "\u0120dig": 2595, "ening": 2596, "\u0120dro": 2597, "\u0120slow": 2598, "based": 2599, "sequ": 2600, "\u0120path": 2601, "aker": 2602, "\u0120worked": 2603, "\u0120pen": 2604, "\u0120engine": 2605, "\u0120looked": 2606, "\u0120victim": 2607, "\u0120property": 2608, "\u0120introdu": 2609, "\u0120execut": 2610, "\u0120color": 2611, "\u0120network": 2612, "\u0120date": 2613, "cul": 2614, "idge": 2615, "\u0120extra": 2616, "\u0120sle": 2617, "\u0120wond": 2618, "\u0120reports": 2619, "just": 2620, "\u0120capital": 2621, "\u0120ens": 2622, "\u0120command": 2623, "\u0120allowed": 2624, "\u0120prep": 2625, "\u0120capt": 2626, "hib": 2627, "\u0120numbers": 2628, "chan": 2629, "\u0120fair": 2630, "mp": 2631, "oms": 2632, "\u0120reach": 2633, "tain": 2634, "\u0120broad": 2635, "\u0120couple": 2636, "ecause": 2637, "lying": 2638, "\u0120screen": 2639, "\u0120lives": 2640, "\u0120prior": 2641, "\u0120approach": 2642, "\u0120emer": 2643, "aries": 2644, "serv": 2645, "\u0120built": 2646, "cies": 2647, "\u0120repe": 2648, "\u0120rules": 2649, "force": 2650, "\u0120financial": 2651, "\u0120considered": 2652, "nces": 2653, "\u0120brought": 2654, "\u0120bi": 2655, "iers": 2656, "\u0120products": 2657, "\u0120visit": 2658, "\u0120document": 2659, "\u0120conduct": 2660, "\u0120completely": 2661, "ining": 2662, "ibly": 2663, "\u0120written": 2664, "ements": 2665, "\u0120draw": 2666, "\u0120published": 2667, "\u0120secret": 2668, "rain": 2669, "het": 2670, "onday": 2671, "\u0120sexual": 2672, "\u0120thous": 2673, "\u0120ess": 2674, "\u0120standard": 2675, "\u0120arm": 2676, "ges": 2677, "ection": 2678, "\u0120fell": 2679, "\u0120foreign": 2680, "ani": 2681, "\u0120regular": 2682, "inary": 2683, "\u0120increased": 2684, "\u0120usually": 2685, "\u0120demon": 2686, "\u0120dark": 2687, "\u0120additional": 2688, "rol": 2689, "\u0120production": 2690, "undred": 2691, "\u0120international": 2692, "idents": 2693, "roup": 2694, "\u0120race": 2695, "\u0120mach": 2696, "\u0120huge": 2697, "lear": 2698, "ovember": 2699, "\u0120town": 2700, "\u0120attention": 2701, "yond": 2702, "field": 2703, "\u0120terror": 2704, "raz": 2705, "\u0120meeting": 2706, "\u0120arrest": 2707, "\u0120fear": 2708, "\u0120aw": 2709, "oring": 2710, "\u0120extreme": 2711, "arr": 2712, "\u0120workers": 2713, "net": 2714, "ament": 2715, "\u0120directly": 2716, "\u0120population": 2717, "ube": 2718, "\u0120cross": 2719, "cember": 2720, "\u0120message": 2721, "irit": 2722, "\u0120nation": 2723, "\u0120poll": 2724, "isions": 2725, "\u0120answer": 2726, "ny": 2727, "isode": 2728, "\u0120carry": 2729, "\u0120hear": 2730, "ength": 2731, "roy": 2732, "\u0120natural": 2733, "inally": 2734, "\u0120dog": 2735, "mitted": 2736, "\u0120trade": 2737, "\u0120subst": 2738, "\u0120multiple": 2739, "\u0120fans": 2740, "\u0120sort": 2741, "\u0120global": 2742, "ication": 2743, "ara": 2744, "\u0120achie": 2745, "\u0120language": 2746, "vey": 2747, "\u0120tal": 2748, "\u0120necessary": 2749, "\u0120details": 2750, "\u0120sen": 2751, "\u0120sil": 2752, "ressive": 2753, "\u0120medical": 2754, "unch": 2755, "ornia": 2756, "\u0120und": 2757, "fort": 2758, "ocks": 2759, "uesday": 2760, "craft": 2761, "urt": 2762, "\u0120ver": 2763, "\u0120receive": 2764, "\u0120morning": 2765, "estern": 2766, "\u0120bank": 2767, "\u0120sat": 2768, "irth": 2769, "\u0120device": 2770, "\u0120safe": 2771, "\u0120ple": 2772, "\u0120systems": 2773, "\u0120assist": 2774, "\u0120surv": 2775, "\u0120battle": 2776, "vertis": 2777, "\u0120paper": 2778, "\u0120growth": 2779, "\u0120cast": 2780, "\u0120plans": 2781, "lled": 2782, "\u0120parts": 2783, "\u0120wall": 2784, "\u0120movement": 2785, "\u0120practice": 2786, "imately": 2787, "\u0120display": 2788, "\u0120sometimes": 2789, "omp": 2790, "king": 2791, "oly": 2792, "\u0120son": 2793, "\u0120avoid": 2794, "okes": 2795, "\u0120towards": 2796, "asc": 2797, "\u0120talking": 2798, "\u0120correct": 2799, "\u0120spent": 2800, "icks": 2801, "iable": 2802, "eared": 2803, "\u0120term": 2804, "\u0120wants": 2805, "oming": 2806, "\u0120ut": 2807, "\u0120doub": 2808, "\u0120forces": 2809, "\u0120please": 2810, "atform": 2811, "ondon": 2812, "\u0120ones": 2813, "\u0120immediately": 2814, "\u0120deg": 2815, "\u0120parents": 2816, "aly": 2817, "\u0120shown": 2818, "\u0120conditions": 2819, "\u0120stuff": 2820, "\u0120reb": 2821, "\u0120includes": 2822, "nown": 2823, "\u0120experien": 2824, "mission": 2825, "aught": 2826, "\u0120announced": 2827, "\u0120determin": 2828, "\u0120described": 2829, "\u0120door": 2830, "\u0120changed": 2831, "\u0120neigh": 2832, "\u0120clean": 2833, "\u0120pan": 2834, "iring": 2835, "apter": 2836, "\u0120club": 2837, "\u0120paid": 2838, "\u0120attacks": 2839, "\u0120characters": 2840, "\u0120alone": 2841, "\u0120director": 2842, "dom": 2843, "\u0120load": 2844, "\u0120rout": 2845, "\u0120finally": 2846, "\u0120rac": 2847, "\u0120contr": 2848, "\u0120exactly": 2849, "resh": 2850, "pri": 2851, "\u0120nature": 2852, "\u0120career": 2853, "\u0120latest": 2854, "\u0120convers": 2855, "pose": 2856, "cient": 2857, "ivity": 2858, "nesday": 2859, "\u0120weight": 2860, "ken": 2861, "\u0120note": 2862, "\u0120teams": 2863, "airs": 2864, "\u0120hundred": 2865, "onent": 2866, "\u0120streng": 2867, "\u0120consist": 2868, "icated": 2869, "\u0120regul": 2870, "\u0120lic": 2871, "astic": 2872, "\u0120ten": 2873, "ursday": 2874, "elligence": 2875, "ously": 2876, "\u0120costs": 2877, "\u0120independ": 2878, "\u0120normal": 2879, "\u0120hom": 2880, "\u0120obvious": 2881, "\u0120swe": 2882, "\u0120star": 2883, "\u0120ready": 2884, "acher": 2885, "\u0120implement": 2886, "gest": 2887, "\u0120song": 2888, "\u0120interesting": 2889, "using": 2890, "\u0120giving": 2891, "\u0120etc": 2892, "\u0120middle": 2893, "\u0120remember": 2894, "right": 2895, "osition": 2896, "utions": 2897, "\u0120max": 2898, "\u0120yourself": 2899, "\u0120demand": 2900, "\u0120treatment": 2901, "\u0120danger": 2902, "\u0120guy": 2903, "\u0120physical": 2904, "\u0120related": 2905, "\u0120remain": 2906, "\u0120couldn": 2907, "\u0120refer": 2908, "\u0120citiz": 2909, "box": 2910, "board": 2911, "\u0120inn": 2912, "ero": 2913, "ospital": 2914, "rench": 2915, "chers": 2916, "\u0120stra": 2917, "ager": 2918, "\u0120easily": 2919, "enge": 2920, "iny": 2921, "\u0120clos": 2922, "ocked": 2923, "\u0120uses": 2924, "uild": 2925, "more": 2926, "\u0120ang": 2927, "\u0120write": 2928, "olute": 2929, "\u0120leader": 2930, "\u0120reading": 2931, "\u0120autom": 2932, "ests": 2933, "\u0120legisl": 2934, "\u0120designed": 2935, "ares": 2936, "\u0120beaut": 2937, "\u0120appears": 2938, "\u0120strugg": 2939, "\u0120choice": 2940, "\u0120particularly": 2941, "oper": 2942, "anned": 2943, "\u0120allows": 2944, "obile": 2945, "\u0120difference": 2946, "\u0120although": 2947, "\u0120relative": 2948, "\u0120application": 2949, "atever": 2950, "\u0120aren": 2951, "\u0120myself": 2952, "\u0120imag": 2953, "\u0120dise": 2954, "\u0120society": 2955, "\u0120frequ": 2956, "\u0120poor": 2957, "\u0120writing": 2958, "\u0120seven": 2959, "\u0120starting": 2960, "\u0120bud": 2961, "\u0120print": 2962, "ufact": 2963, "new": 2964, "\u0120crim": 2965, "\u0120gives": 2966, "\u0120cool": 2967, "ae": 2968, "iance": 2969, "\u0120thinking": 2970, "\u0120save": 2971, "\u0120limited": 2972, "\u0120meaning": 2973, "pen": 2974, "owers": 2975, "\u0120nice": 2976, "rupt": 2977, "\u0120gas": 2978, "\u0120eight": 2979, "\u0120feet": 2980, "\u0120effort": 2981, "\u0120ign": 2982, "icit": 2983, "coin": 2984, "\u0120opin": 2985, "\u0120brain": 2986, "hest": 2987, "\u0120wouldn": 2988, "aughter": 2989, "\u0120touch": 2990, "lements": 2991, "\u0120studies": 2992, "\u0120center": 2993, "cont": 2994, "orge": 2995, "\u0120computer": 2996, "\u0120investigation": 2997, "orks": 2998, "\u0120increasing": 2999, "\u0120store": 3000, "\u0120comments": 3001, "\u0120bal": 3002, "men": 3003, "\u0120doll": 3004, "\u0120liber": 3005, "\u0120wife": 3006, "\u0120laws": 3007, "aturday": 3008, "itness": 3009, "\u0120modern": 3010, "\u0120administration": 3011, "\u0120opportunity": 3012, "\u0120sal": 3013, "\u0120powerful": 3014, "\u0120claims": 3015, "ords": 3016, "\u0120title": 3017, "\u0120esc": 3018, "name": 3019, "omen": 3020, "\u0120beyond": 3021, "\u0120camer": 3022, "\u0120sell": 3023, "itute": 3024, "earch": 3025, "\u0120appl": 3026, "iment": 3027, "\u0120unf": 3028, "\u0120violence": 3029, "urg": 3030, "\u0120compared": 3031, "\u0120options": 3032, "\u0120throughout": 3033, "\u0120vs": 3034, "igr": 3035, "aches": 3036, "\u0120files": 3037, "arian": 3038, "anch": 3039, "\u0120detail": 3040, "\u0120piece": 3041, "\u0120named": 3042, "\u0120education": 3043, "\u0120drive": 3044, "\u0120items": 3045, "\u0120student": 3046, "iced": 3047, "ico": 3048, "\u0120throw": 3049, "\u0120scene": 3050, "\u0120complex": 3051, "\u0120prec": 3052, "\u0120concept": 3053, "\u0120status": 3054, "aming": 3055, "\u0120died": 3056, "\u0120knowledge": 3057, "\u0120beginning": 3058, "ruary": 3059, "\u0120certainly": 3060, "\u0120guys": 3061, "\u0120slight": 3062, "inn": 3063, "ounds": 3064, "\u0120fine": 3065, "\u0120fat": 3066, "ications": 3067, "\u0120perhaps": 3068, "\u0120income": 3069, "\u0120https": 3070, "\u0120majority": 3071, "ports": 3072, "ston": 3073, "\u0120greater": 3074, "\u0120feed": 3075, "entially": 3076, "\u0120safety": 3077, "\u0120unique": 3078, "andom": 3079, "\u0120gone": 3080, "\u0120showed": 3081, "\u0120histor": 3082, "\u0120counter": 3083, "ius": 3084, "ida": 3085, "\u0120leading": 3086, "ipe": 3087, "\u0120send": 3088, "erve": 3089, "\u0120defense": 3090, "inese": 3091, "\u0120yes": 3092, "raq": 3093, "\u0120continued": 3094, "osh": 3095, "\u0120provides": 3096, "\u0120prison": 3097, "\u0120happy": 3098, "\u0120economy": 3099, "\u0120trust": 3100, "ags": 3101, "\u0120weapons": 3102, "uman": 3103, "itation": 3104, "\u0120analysis": 3105, "\u0120science": 3106, "\u0120figure": 3107, "\u0120disapp": 3108, "enty": 3109, "\u0120software": 3110, "\u0120ult": 3111, "\u0120officers": 3112, "\u0120remains": 3113, "\u0120psych": 3114, "rief": 3115, "\u0120cat": 3116, "esc": 3117, "\u0120observ": 3118, "\u0120stage": 3119, "\u0120enter": 3120, "change": 3121, "\u0120passed": 3122, "\u0120despite": 3123, "\u0120movie": 3124, "rs": 3125, "\u0120voice": 3126, "mine": 3127, "\u0120toward": 3128, "\u0120region": 3129, "\u0120values": 3130, "orters": 3131, "\u0120mount": 3132, "\u0120officer": 3133, "ban": 3134, "\u0120hous": 3135, "wood": 3136, "room": 3137, "see": 3138, "rog": 3139, "\u0120lay": 3140, "awn": 3141, "\u0120pressure": 3142, "\u0120books": 3143, "edom": 3144, "ago": 3145, "\u0120reasons": 3146, "ford": 3147, "\u0120activity": 3148, "cell": 3149, "night": 3150, "\u0120calls": 3151, "inter": 3152, "\u0120letter": 3153, "\u0120choose": 3154, "\u0120rob": 3155, "\u0120types": 3156, "\u0120platform": 3157, "\u0120quarter": 3158, "\u0120maybe": 3159, "pre": 3160, "\u0120moving": 3161, "\u0120lif": 3162, "\u0120gold": 3163, "\u0120som": 3164, "\u0120patients": 3165, "\u0120truth": 3166, "urance": 3167, "antly": 3168, "mar": 3169, "\u0120charge": 3170, "\u0120cele": 3171, "\u0120rock": 3172, "roid": 3173, "ancy": 3174, "\u0120credit": 3175, "aud": 3176, "\u0120moved": 3177, "inger": 3178, "ribution": 3179, "\u0120names": 3180, "\u0120straight": 3181, "\u0120feature": 3182, "\u0120rule": 3183, "\u0120sche": 3184, "inated": 3185, "berg": 3186, "iled": 3187, "band": 3188, "\u0120click": 3189, "onents": 3190, "\u0120aware": 3191, "part": 3192, "\u0120pattern": 3193, "\u0120grad": 3194, "igned": 3195, "\u0120associated": 3196, "\u0120style": 3197, "no": 3198, "iation": 3199, "aith": 3200, "ilies": 3201, "\u0120stories": 3202, "uration": 3203, "\u0120individuals": 3204, "miss": 3205, "ishing": 3206, "aby": 3207, "\u0120summer": 3208, "\u0120arch": 3209, "uty": 3210, "hol": 3211, "\u0120fully": 3212, "\u0120mill": 3213, "\u0120followed": 3214, "\u0120jobs": 3215, "\u0120seemed": 3216, "ipped": 3217, "\u0120reality": 3218, "\u0120lines": 3219, "\u0120park": 3220, "\u0120measure": 3221, "\u0120brother": 3222, "\u0120growing": 3223, "\u0120ban": 3224, "\u0120estim": 3225, "\u0120cry": 3226, "\u0120mechan": 3227, "\u0120rates": 3228, "\u0120positive": 3229, "\u0120culture": 3230, "istics": 3231, "ica": 3232, "\u0120har": 3233, "ya": 3234, "itely": 3235, "ipp": 3236, "\u0120map": 3237, "encies": 3238, "akers": 3239, "\u0120altern": 3240, "itude": 3241, "\u0120coach": 3242, "rowd": 3243, "\u0120kids": 3244, "\u0120journal": 3245, "\u0120corpor": 3246, "\u0120false": 3247, "\u0120web": 3248, "\u0120sleep": 3249, "\u0120contain": 3250, "\u0120sto": 3251, "\u0120bed": 3252, "iverse": 3253, "\u0120pun": 3254, "\u0120meant": 3255, "known": 3256, "\u0120notice": 3257, "\u0120favorite": 3258, "aven": 3259, "\u0120condition": 3260, "\u0120purpose": 3261, "\u0120organization": 3262, "\u0120challeng": 3263, "\u0120manufact": 3264, "\u0120susp": 3265, "\u0120critic": 3266, "unes": 3267, "uclear": 3268, "\u0120mer": 3269, "vention": 3270, "\u0120mist": 3271, "http": 3272, "olf": 3273, "\u0120larger": 3274, "\u0120advant": 3275, "\u0120resear": 3276, "\u0120actions": 3277, "ml": 3278, "\u0120kept": 3279, "\u0120aim": 3280, "col": 3281, "\u0120benefits": 3282, "ifying": 3283, "\u0120actual": 3284, "\u0120vehicle": 3285, "\u0120chief": 3286, "\u0120efforts": 3287, "\u0120wait": 3288, "\u0120adult": 3289, "\u0120overall": 3290, "\u0120speech": 3291, "\u0120highly": 3292, "\u0120female": 3293, "\u0120error": 3294, "\u0120effective": 3295, "\u0120encour": 3296, "well": 3297, "\u0120failed": 3298, "\u0120conserv": 3299, "\u0120programs": 3300, "\u0120trou": 3301, "\u0120ahead": 3302, "vertisement": 3303, "pir": 3304, "\u0120crime": 3305, "ander": 3306, "\u0120location": 3307, "\u0120behavior": 3308, "azing": 3309, "\u0120rare": 3310, "\u0120emb": 3311, "\u0120caused": 3312, "\u0120ship": 3313, "\u0120active": 3314, "\u0120contribut": 3315, "\u0120green": 3316, "\u0120acqu": 3317, "\u0120reflect": 3318, "venue": 3319, "\u0120firm": 3320, "\u0120birth": 3321, "\u0120clearly": 3322, "\u0120emot": 3323, "\u0120agency": 3324, "riage": 3325, "\u0120memory": 3326, "acing": 3327, "\u0120biggest": 3328, "\u0120rap": 3329, "\u0120basic": 3330, "\u0120band": 3331, "eat": 3332, "\u0120suspect": 3333, "mark": 3334, "istan": 3335, "\u0120spread": 3336, "ams": 3337, "ki": 3338, "asy": 3339, "rav": 3340, "\u0120demonstr": 3341, "rated": 3342, "\u0120absolute": 3343, "\u0120places": 3344, "\u0120impl": 3345, "ibrary": 3346, "\u0120cards": 3347, "\u0120destroy": 3348, "\u0120virt": 3349, "vere": 3350, "\u0120appeared": 3351, "yan": 3352, "point": 3353, "\u0120beg": 3354, "\u0120temper": 3355, "spe": 3356, "anted": 3357, "ears": 3358, "\u0120length": 3359, "\u0120blog": 3360, "amb": 3361, "\u0120integ": 3362, "\u0120resources": 3363, "acc": 3364, "iful": 3365, "\u0120spot": 3366, "\u0120forced": 3367, "\u0120thousands": 3368, "\u0120qual": 3369, "atically": 3370, "\u0120generally": 3371, "\u0120drink": 3372, "\u0120thus": 3373, "odes": 3374, "\u0120appropri": 3375, "\u0120whom": 3376, "\u0120eye": 3377, "\u0120college": 3378, "irection": 3379, "\u0120ensure": 3380, "\u0120apparent": 3381, "iders": 3382, "\u0120religious": 3383, "\u0120minor": 3384, "olic": 3385, "\u0120tro": 3386, "ribute": 3387, "met": 3388, "\u0120primary": 3389, "\u0120developed": 3390, "\u0120peace": 3391, "\u0120skin": 3392, "ste": 3393, "ava": 3394, "\u0120blue": 3395, "\u0120families": 3396, "\u0120ir": 3397, "\u0120apply": 3398, "\u0120inform": 3399, "ii": 3400, "\u0120limit": 3401, "\u0120resist": 3402, "umn": 3403, "\u0120conflic": 3404, "\u0120twe": 3405, "udd": 3406, "\u0120liter": 3407, "que": 3408, "bon": 3409, "\u0120hair": 3410, "\u0120eventually": 3411, "\u0120pus": 3412, "\u0120helped": 3413, "\u0120agg": 3414, "orney": 3415, "\u0120fit": 3416, "\u0120prem": 3417, "\u0120sales": 3418, "\u0120seconds": 3419, "\u0120strength": 3420, "\u0120feeling": 3421, "\u0120tour": 3422, "\u0120knows": 3423, "oom": 3424, "\u0120exerc": 3425, "\u0120somew": 3426, "\u0120spokes": 3427, "\u0120ideas": 3428, "\u0120regist": 3429, "soft": 3430, "\u0120propos": 3431, "\u0120launch": 3432, "\u0120bottom": 3433, "vest": 3434, "itz": 3435, "\u0120script": 3436, "\u0120rat": 3437, "arning": 3438, "\u0120il": 3439, "\u0120whatever": 3440, "oken": 3441, "cience": 3442, "\u0120mode": 3443, "\u0120agree": 3444, "\u0120sources": 3445, "\u0120initial": 3446, "\u0120restrict": 3447, "\u0120wonder": 3448, "usion": 3449, "ville": 3450, "\u0120burn": 3451, "tw": 3452, "asion": 3453, "\u0120nor": 3454, "uing": 3455, "\u0120reached": 3456, "\u0120sun": 3457, "\u0120categ": 3458, "igration": 3459, "\u0120cook": 3460, "\u0120promot": 3461, "\u0120male": 3462, "\u0120climate": 3463, "\u0120fix": 3464, "\u0120alleged": 3465, "alled": 3466, "\u0120images": 3467, "ota": 3468, "\u0120schools": 3469, "ios": 3470, "\u0120drop": 3471, "\u0120stream": 3472, "\u0120previously": 3473, "aling": 3474, "\u0120pet": 3475, "\u0120double": 3476, "annel": 3477, "\u0120default": 3478, "ties": 3479, "\u0120rank": 3480, "\u0120weapon": 3481, "\u0120stock": 3482, "\u0120analy": 3483, "\u0120picture": 3484, "ference": 3485, "\u0120century": 3486, "\u0120citizens": 3487, "\u0120onto": 3488, "\u0120expand": 3489, "\u0120hero": 3490, "\u0120wild": 3491, "\u0120update": 3492, "\u0120customers": 3493, "ront": 3494, "def": 3495, "\u0120lik": 3496, "\u0120criminal": 3497, "\u0120leaving": 3498, "\u0120otherwise": 3499, "\u0120basis": 3500, "icip": 3501, "\u0120recommend": 3502, "\u0120floor": 3503, "\u0120crowd": 3504, "oles": 3505, "\u0120central": 3506, "\u0120dream": 3507, "\u0120download": 3508, "\u0120confir": 3509, "\u0120window": 3510, "\u0120happens": 3511, "\u0120unit": 3512, "\u0120tend": 3513, "\u0120spl": 3514, "\u0120becomes": 3515, "\u0120fighting": 3516, "\u0120predict": 3517, "\u0120heavy": 3518, "aked": 3519, "\u0120fan": 3520, "orter": 3521, "ategy": 3522, "izes": 3523, "\u0120spend": 3524, "\u0120adop": 3525, "\u0120football": 3526, "oday": 3527, "ampions": 3528, "\u0120transfer": 3529, "ht": 3530, "term": 3531, "acity": 3532, "\u0120bur": 3533, "ternal": 3534, "rig": 3535, "but": 3536, "\u0120therefore": 3537, "resp": 3538, "rey": 3539, "\u0120mission": 3540, "\u0120noted": 3541, "\u0120assum": 3542, "\u0120disease": 3543, "\u0120edit": 3544, "\u0120progress": 3545, "rd": 3546, "ocal": 3547, "\u0120adding": 3548, "\u0120raised": 3549, "\u0120tick": 3550, "\u0120seeing": 3551, "\u0120agreement": 3552, "\u0120server": 3553, "\u0120wat": 3554, "\u0120debate": 3555, "\u0120supposed": 3556, "iling": 3557, "\u0120largest": 3558, "\u0120successful": 3559, "\u0120jump": 3560, "\u0120owners": 3561, "\u0120offers": 3562, "\u0120shooting": 3563, "\u0120effic": 3564, "sey": 3565, "\u0120haven": 3566, "verse": 3567, "tered": 3568, "imal": 3569, "\u0120defend": 3570, "\u0120beat": 3571, "\u0120records": 3572, "\u0120scen": 3573, "\u0120employees": 3574, "\u0120devices": 3575, "hem": 3576, "\u0120commer": 3577, "\u0120benefit": 3578, "\u0120illeg": 3579, "\u0120surface": 3580, "\u0120harm": 3581, "ingly": 3582, "wide": 3583, "\u0120shut": 3584, "\u0120lose": 3585, "pm": 3586, "\u0120challenge": 3587, "semb": 3588, "\u0120station": 3589, "\u0120intelligence": 3590, "\u0120accur": 3591, "\u0120requires": 3592, "bum": 3593, "\u0120hospital": 3594, "\u0120spirit": 3595, "\u0120offered": 3596, "\u0120produce": 3597, "\u0120creating": 3598, "\u0120cris": 3599, "spect": 3600, "\u0120ended": 3601, "\u0120daily": 3602, "\u0120voters": 3603, "lands": 3604, "ias": 3605, "ih": 3606, "ona": 3607, "\u0120smart": 3608, "rial": 3609, "\u0120circum": 3610, "\u0120extremely": 3611, "\u0120opinion": 3612, "\u0120gain": 3613, "yp": 3614, "\u0120useful": 3615, "\u0120budget": 3616, "\u0120comfort": 3617, "isf": 3618, "\u0120background": 3619, "eline": 3620, "\u0120episode": 3621, "\u0120enemy": 3622, "\u0120trial": 3623, "\u0120establish": 3624, "date": 3625, "\u0120continues": 3626, "\u0120showing": 3627, "with": 3628, "\u0120posted": 3629, "\u0120eat": 3630, "rian": 3631, "\u0120rise": 3632, "ils": 3633, "\u0120signed": 3634, "\u0120vill": 3635, "\u0120grand": 3636, "mor": 3637, "\u0120projects": 3638, "umber": 3639, "\u0120conference": 3640, "za": 3641, "\u0120responsible": 3642, "\u0120learned": 3643, "ipping": 3644, "\u0120returned": 3645, "\u0120brief": 3646, "\u0120brand": 3647, "illing": 3648, "abled": 3649, "\u0120highest": 3650, "\u0120train": 3651, "while": 3652, "\u0120nom": 3653, "ception": 3654, "\u0120mut": 3655, "\u0120incident": 3656, "vant": 3657, "\u0120nuclear": 3658, "li": 3659, "mail": 3660, "\u0120charges": 3661, "\u0120adjust": 3662, "ado": 3663, "\u0120earth": 3664, "\u0120prices": 3665, "\u0120draft": 3666, "\u0120runs": 3667, "\u0120candidate": 3668, "enses": 3669, "\u0120management": 3670, "\u0120teach": 3671, "gram": 3672, "\u0120understanding": 3673, "ait": 3674, "icago": 3675, "secut": 3676, "\u0120separate": 3677, "\u0120instance": 3678, "\u0120eth": 3679, "\u0120unless": 3680, "inate": 3681, "\u0120operations": 3682, "\u0120faith": 3683, "gar": 3684, "ronic": 3685, "\u0120config": 3686, "osure": 3687, "\u0120activities": 3688, "\u0120traditional": 3689, "\u0120direction": 3690, "\u0120machine": 3691, "\u0120surround": 3692, "\u0120push": 3693, "unction": 3694, "\u0120easier": 3695, "\u0120argument": 3696, "\u0120micro": 3697, "\u0120spending": 3698, "izations": 3699, "\u0120theory": 3700, "adow": 3701, "\u0120calling": 3702, "\u0120der": 3703, "\u0120influence": 3704, "\u0120commit": 3705, "\u0120photo": 3706, "\u0120unc": 3707, "istry": 3708, "gn": 3709, "aste": 3710, "acks": 3711, "\u0120disp": 3712, "ady": 3713, "do": 3714, "\u0120wish": 3715, "\u0120revealed": 3716, "lig": 3717, "\u0120enforce": 3718, "\u0120chem": 3719, "\u0120miles": 3720, "\u0120interested": 3721, "\u0120solution": 3722, "icy": 3723, "inct": 3724, "\u0120removed": 3725, "\u0120compar": 3726, "eah": 3727, "\u0120plant": 3728, "\u0120achieve": 3729, "\u0120advantage": 3730, "\u0120slightly": 3731, "bing": 3732, "\u0120placed": 3733, "under": 3734, "\u0120tim": 3735, "oses": 3736, "\u0120cru": 3737, "\u0120mostly": 3738, "\u0120negative": 3739, "\u0120setting": 3740, "\u0120produced": 3741, "\u0120mur": 3742, "\u0120connection": 3743, "\u0120driver": 3744, "\u0120executive": 3745, "\u0120assault": 3746, "\u0120born": 3747, "tained": 3748, "\u0120structure": 3749, "\u0120reduce": 3750, "\u0120decades": 3751, "\u0120ded": 3752, "uke": 3753, "idden": 3754, "\u0120league": 3755, "\u0120join": 3756, "\u0120disco": 3757, "\u0120die": 3758, "cks": 3759, "actions": 3760, "\u0120assess": 3761, "agn": 3762, "\u0120goals": 3763, "ours": 3764, "\u0120senior": 3765, "iller": 3766, "mod": 3767, "ipment": 3768, "ocol": 3769, "uy": 3770, "\u0120parties": 3771, "irgin": 3772, "\u0120learning": 3773, "itable": 3774, "\u0120street": 3775, "\u0120camera": 3776, "\u0120skills": 3777, "bre": 3778, "cious": 3779, "\u0120celebr": 3780, "\u0120existing": 3781, "\u0120willing": 3782, "lor": 3783, "\u0120id": 3784, "\u0120critical": 3785, "ortunately": 3786, "\u0120serve": 3787, "\u0120cold": 3788, "\u0120species": 3789, "\u0120animals": 3790, "\u0120older": 3791, "estic": 3792, "\u0120teacher": 3793, "\u0120prefer": 3794, "vis": 3795, "\u0120thread": 3796, "\u0120manager": 3797, "\u0120professional": 3798, "\u0120notes": 3799, "ula": 3800, "\u0120fresh": 3801, "ented": 3802, "uzz": 3803, "edy": 3804, "clusion": 3805, "\u0120doubt": 3806, "\u0120opened": 3807, "\u0120guess": 3808, "\u0120sequ": 3809, "\u0120explain": 3810, "otten": 3811, "\u0120attract": 3812, "aks": 3813, "\u0120string": 3814, "\u0120context": 3815, "ossible": 3816, "\u0120solid": 3817, "\u0120cities": 3818, "\u0120asking": 3819, "\u0120random": 3820, "ups": 3821, "uries": 3822, "arant": 3823, "dden": 3824, "gl": 3825, "\u0120depend": 3826, "icon": 3827, "\u0120mentioned": 3828, "\u0120claimed": 3829, "\u0120definitely": 3830, "ulf": 3831, "\u0120core": 3832, "\u0120opening": 3833, "which": 3834, "\u0120believed": 3835, "ada": 3836, "yright": 3837, "\u0120holding": 3838, "\u0120ice": 3839, "\u0120brow": 3840, "\u0120authorities": 3841, "host": 3842, "word": 3843, "\u0120score": 3844, "\u0120cells": 3845, "\u0120transl": 3846, "\u0120neighbor": 3847, "\u0120remove": 3848, "uct": 3849, "\u0120district": 3850, "\u0120worse": 3851, "\u0120concerns": 3852, "\u0120presidential": 3853, "\u0120policies": 3854, "\u0120hus": 3855, "\u0120independent": 3856, "iliar": 3857, "print": 3858, "ighter": 3859, "\u0120protection": 3860, "zen": 3861, "\u0120sudden": 3862, "house": 3863, "\u0120bul": 3864, "\u0120strategy": 3865, "ffect": 3866, "\u0120girls": 3867, "\u0120missing": 3868, "oyal": 3869, "ulated": 3870, "\u0120dat": 3871, "\u0120politics": 3872, "abor": 3873, "\u0120spell": 3874, "\u0120graph": 3875, "orthern": 3876, "\u0120labor": 3877, "isher": 3878, "\u0120kick": 3879, "\u0120steps": 3880, "poses": 3881, "\u0120smaller": 3882, "bert": 3883, "\u0120roll": 3884, "\u0120researchers": 3885, "\u0120closed": 3886, "\u0120transport": 3887, "\u0120lawy": 3888, "\u0120aspect": 3889, "\u0120none": 3890, "\u0120marriage": 3891, "\u0120elements": 3892, "\u0120dram": 3893, "top": 3894, "equ": 3895, "\u0120hearing": 3896, "\u0120supported": 3897, "\u0120testing": 3898, "cohol": 3899, "\u0120massive": 3900, "\u0120stick": 3901, "\u0120guard": 3902, "isco": 3903, "phone": 3904, "\u0120border": 3905, "\u0120copy": 3906, "ography": 3907, "list": 3908, "\u0120owner": 3909, "class": 3910, "ruit": 3911, "rate": 3912, "\u0120digital": 3913, "\u0120task": 3914, "\u0120incred": 3915, "tes": 3916, "\u0120breat": 3917, "owl": 3918, "\u0120issued": 3919, "\u0120detect": 3920, "\u0120partners": 3921, "\u0120shared": 3922, "\u0120cancer": 3923, "ache": 3924, "ribe": 3925, "\u0120explained": 3926, "\u0120heat": 3927, "\u0120investment": 3928, "\u0120wood": 3929, "\u0120tools": 3930, "\u0120belief": 3931, "\u0120crisis": 3932, "\u0120ge": 3933, "\u0120operation": 3934, "type": 3935, "ga": 3936, "\u0120contains": 3937, "anta": 3938, "\u0120express": 3939, "ka": 3940, "\u0120amb": 3941, "\u0120finding": 3942, "\u0120funding": 3943, "how": 3944, "\u0120established": 3945, "ideos": 3946, "\u0120degree": 3947, "\u0120dangerous": 3948, "anging": 3949, "\u0120freedom": 3950, "pport": 3951, "outhern": 3952, "\u0120church": 3953, "\u0120catch": 3954, "\u0120presence": 3955, "\u0120authority": 3956, "\u0120button": 3957, "\u0120consequ": 3958, "\u0120valid": 3959, "\u0120weak": 3960, "\u0120starts": 3961, "\u0120reference": 3962, "orage": 3963, "\u0120collection": 3964, "ym": 3965, "gency": 3966, "\u0120beautiful": 3967, "ros": 3968, "\u0120tells": 3969, "\u0120waiting": 3970, "nel": 3971, "\u0120providing": 3972, "\u0120daughter": 3973, "\u0120master": 3974, "\u0120purposes": 3975, "\u0120equal": 3976, "\u0120turns": 3977, "\u0120documents": 3978, "\u0120watching": 3979, "\u0120ran": 3980, "\u0120reject": 3981, "\u0120victims": 3982, "erences": 3983, "\u0120witness": 3984, "\u0120reform": 3985, "coming": 3986, "\u0120occup": 3987, "\u0120caught": 3988, "\u0120traffic": 3989, "ading": 3990, "\u0120models": 3991, "ario": 3992, "\u0120served": 3993, "\u0120batter": 3994, "uate": 3995, "\u0120agreed": 3996, "\u0120truly": 3997, "ynam": 3998, "\u0120units": 3999, "hand": 4000, "azine": 4001, "\u0120variety": 4002, "otal": 4003, "\u0120amazing": 4004, "\u0120confirmed": 4005, "\u0120entirely": 4006, "\u0120purchase": 4007, "\u0120element": 4008, "\u0120cash": 4009, "\u0120determine": 4010, "\u0120cars": 4011, "\u0120views": 4012, "\u0120drugs": 4013, "\u0120department": 4014, "uit": 4015, "asure": 4016, "\u0120covered": 4017, "\u0120mere": 4018, "uana": 4019, "\u0120multi": 4020, "\u0120mix": 4021, "\u0120unlike": 4022, "levision": 4023, "\u0120stopped": 4024, "\u0120sem": 4025, "ules": 4026, "\u0120wel": 4027, "la": 4028, "\u0120skill": 4029, "\u0120becoming": 4030, "rie": 4031, "\u0120appropriate": 4032, "fe": 4033, "ellow": 4034, "ulate": 4035, "ocation": 4036, "\u0120weekend": 4037, "odies": 4038, "\u0120sites": 4039, "\u0120animal": 4040, "\u0120scale": 4041, "\u0120charged": 4042, "\u0120instruct": 4043, "illa": 4044, "\u0120methods": 4045, "\u0120cert": 4046, "\u0120judge": 4047, "\u0120dollars": 4048, "\u0120standing": 4049, "\u0120debt": 4050, "liam": 4051, "\u0120driving": 4052, "\u0120album": 4053, "andon": 4054, "ader": 4055, "\u0120commercial": 4056, "esh": 4057, "\u0120discovered": 4058, "\u0120output": 4059, "\u0120abuse": 4060, "ancing": 4061, "\u0120switch": 4062, "\u0120annual": 4063, "\u0120stated": 4064, "agement": 4065, "inner": 4066, "\u0120democr": 4067, "\u0120residents": 4068, "\u0120allowing": 4069, "\u0120factors": 4070, "odd": 4071, "\u0120fuck": 4072, "emies": 4073, "\u0120occurred": 4074, "oti": 4075, "\u0120north": 4076, "\u0120injury": 4077, "\u0120insurance": 4078, "olly": 4079, "\u0120repeated": 4080, "\u0120arms": 4081, "anged": 4082, "\u0120construction": 4083, "\u0120fle": 4084, "icians": 4085, "\u0120forms": 4086, "antic": 4087, "\u0120mental": 4088, "pire": 4089, "\u0120equipment": 4090, "\u0120fant": 4091, "\u0120discussion": 4092, "\u0120regarding": 4093, "kin": 4094, "arp": 4095, "\u0120chair": 4096, "ogue": 4097, "\u0120proceed": 4098, "\u0120murder": 4099, "asp": 4100, "\u0120supply": 4101, "\u0120input": 4102, "\u0120wealth": 4103, "liament": 4104, "\u0120proced": 4105, "orial": 4106, "hens": 4107, "\u0120putting": 4108, "ournament": 4109, "etic": 4110, "\u0120located": 4111, "\u0120kid": 4112, "eria": 4113, "run": 4114, "\u0120princ": 4115, "going": 4116, "\u0120clot": 4117, "\u0120telling": 4118, "\u0120proposed": 4119, "iot": 4120, "orry": 4121, "\u0120funds": 4122, "gment": 4123, "\u0120baby": 4124, "\u0120spoke": 4125, "\u0120earn": 4126, "gu": 4127, "\u0120exchange": 4128, "oving": 4129, "\u0120pair": 4130, "azon": 4131, "\u0120arrested": 4132, "\u0120killing": 4133, "can": 4134, "yd": 4135, "\u0120identified": 4136, "\u0120mobile": 4137, "\u0120thanks": 4138, "onym": 4139, "\u0120hundreds": 4140, "\u0120trend": 4141, "hat": 4142, "oman": 4143, "\u0120electric": 4144, "\u0120restaur": 4145, "oted": 4146, "\u0120trig": 4147, "\u0120nine": 4148, "\u0120bomb": 4149, "\u0120coverage": 4150, "\u0120appeal": 4151, "\u0120finished": 4152, "\u0120flow": 4153, "\u0120deliver": 4154, "\u0120calcul": 4155, "\u0120photos": 4156, "\u0120phil": 4157, "\u0120pieces": 4158, "\u0120appre": 4159, "kes": 4160, "\u0120rough": 4161, "\u0120partner": 4162, "\u0120concerned": 4163, "ctors": 4164, "state": 4165, "\u0120suggested": 4166, "\u0120herself": 4167, "works": 4168, "ooth": 4169, "rency": 4170, "\u0120corner": 4171, "\u0120husband": 4172, "\u0120internet": 4173, "ems": 4174, "osen": 4175, "gen": 4176, "\u0120balance": 4177, "\u0120sounds": 4178, "text": 4179, "\u0120arr": 4180, "oves": 4181, "\u0120millions": 4182, "\u0120radio": 4183, "\u0120satisf": 4184, "\u0120combat": 4185, "rant": 4186, "\u0120fuel": 4187, "\u0120distance": 4188, "\u0120tests": 4189, "\u0120decre": 4190, "\u0120managed": 4191, "\u0120tit": 4192, "\u0120measures": 4193, "\u0120attend": 4194, "ashed": 4195, "dit": 4196, "outs": 4197, "\u0120generation": 4198, "\u0120advoc": 4199, "yth": 4200, "\u0120conversation": 4201, "active": 4202, "cel": 4203, "rier": 4204, "\u0120gender": 4205, "\u0120concent": 4206, "\u0120carried": 4207, "anda": 4208, "\u0120arrived": 4209, "icide": 4210, "aded": 4211, "\u0120failure": 4212, "\u0120minimum": 4213, "lets": 4214, "\u0120worst": 4215, "\u0120keeping": 4216, "\u0120intended": 4217, "\u0120illegal": 4218, "\u0120subsc": 4219, "\u0120determined": 4220, "\u0120trip": 4221, "\u0120raise": 4222, "\u0120feels": 4223, "\u0120package": 4224, "hi": 4225, "real": 4226, "\u0120fra": 4227, "\u0120symb": 4228, "ucky": 4229, "pret": 4230, "emic": 4231, "\u0120justice": 4232, "\u0120farm": 4233, "cknow": 4234, "eless": 4235, "\u0120reduced": 4236, "xx": 4237, "\u0120clin": 4238, "\u0120hyp": 4239, "iler": 4240, "ura": 4241, "kins": 4242, "\u0120san": 4243, "\u0120novel": 4244, "\u0120capacity": 4245, "\u0120impossible": 4246, "\u0120plays": 4247, "\u0120minister": 4248, "ijuana": 4249, "icate": 4250, "\u0120fram": 4251, "\u0120ing": 4252, "\u0120communities": 4253, "ita": 4254, "\u0120bon": 4255, "\u0120strateg": 4256, "\u0120interests": 4257, "lock": 4258, "gers": 4259, "mas": 4260, "\u0120conflict": 4261, "\u0120requirements": 4262, "\u0120sac": 4263, "\u0120operating": 4264, "ini": 4265, "related": 4266, "\u0120committed": 4267, "\u0120relatively": 4268, "\u0120south": 4269, "\u0120afford": 4270, "\u0120identity": 4271, "\u0120decisions": 4272, "\u0120accused": 4273, "place": 4274, "\u0120victory": 4275, "och": 4276, "iat": 4277, "tion": 4278, "eds": 4279, "\u0120seek": 4280, "\u0120tight": 4281, "\u0120initi": 4282, "\u0120humans": 4283, "\u0120familiar": 4284, "\u0120audience": 4285, "\u0120internal": 4286, "venture": 4287, "\u0120sides": 4288, "\u0120dim": 4289, "\u0120conclud": 4290, "\u0120appoint": 4291, "\u0120enforcement": 4292, "\u0120circumst": 4293, "\u0120joined": 4294, "\u0120differences": 4295, "\u0120protest": 4296, "\u0120twice": 4297, "win": 4298, "\u0120glass": 4299, "arsh": 4300, "\u0120expression": 4301, "\u0120decide": 4302, "\u0120planning": 4303, "ania": 4304, "\u0120handle": 4305, "\u0120maximum": 4306, "\u0120sea": 4307, "\u0120eval": 4308, "\u0120helps": 4309, "ref": 4310, "\u0120bound": 4311, "\u0120mouth": 4312, "\u0120standards": 4313, "\u0120clim": 4314, "cles": 4315, "\u0120army": 4316, "acking": 4317, "xy": 4318, "\u0120bug": 4319, "lo": 4320, "\u0120planet": 4321, "\u0120winning": 4322, "\u0120faster": 4323, "\u0120spect": 4324, "\u0120broken": 4325, "\u0120defined": 4326, "\u0120healthy": 4327, "\u0120competition": 4328, "https": 4329, "\u0120announce": 4330, "\u0120client": 4331, "\u0120possibly": 4332, "section": 4333, "ocket": 4334, "look": 4335, "\u0120finish": 4336, "\u0120crew": 4337, "\u0120reserv": 4338, "\u0120editor": 4339, "\u0120hate": 4340, "\u0120sale": 4341, "\u0120controvers": 4342, "\u0120pages": 4343, "wing": 4344, "\u0120numer": 4345, "\u0120opposition": 4346, "\u0120refuge": 4347, "\u0120flight": 4348, "\u0120apart": 4349, "\u0120applications": 4350, "\u0120gar": 4351, "\u0120upgr": 4352, "\u0120shape": 4353, "\u0120speaking": 4354, "ansion": 4355, "ao": 4356, "\u0120worry": 4357, "roud": 4358, "\u0120hun": 4359, "\u0120introduced": 4360, "\u0120diet": 4361, "\u0120functions": 4362, "uts": 4363, "\u0120stress": 4364, "\u0120accounts": 4365, "\u0120guarant": 4366, "edia": 4367, "\u0120honest": 4368, "\u0120tree": 4369, "\u0120sch": 4370, "\u0120fif": 4371, "igan": 4372, "\u0120exercise": 4373, "\u0120scientists": 4374, "\u0120legislation": 4375, "\u0120survey": 4376, "\u0120rich": 4377, "rip": 4378, "\u0120maintain": 4379, "\u0120flo": 4380, "\u0120leadership": 4381, "stream": 4382, "\u0120magic": 4383, "\u0120figures": 4384, "inder": 4385, "xual": 4386, "\u0120absolutely": 4387, "\u0120fourth": 4388, "\u0120presented": 4389, "respond": 4390, "rible": 4391, "\u0120alcohol": 4392, "ato": 4393, "porary": 4394, "\u0120grab": 4395, "\u0120vari": 4396, "\u0120quant": 4397, "\u0120plus": 4398, "rick": 4399, "arks": 4400, "\u0120alternative": 4401, "\u0120pil": 4402, "\u0120approx": 4403, "that": 4404, "\u0120objects": 4405, "\u0120significantly": 4406, "kay": 4407, "avor": 4408, "\u0120acknow": 4409, "\u0120uns": 4410, "prof": 4411, "\u0120negoti": 4412, "iki": 4413, "\u0120television": 4414, "\u0120committee": 4415, "\u0120motor": 4416, "\u0120appearance": 4417, "\u0120sitting": 4418, "\u0120strike": 4419, "comp": 4420, "\u0120fold": 4421, "acement": 4422, "\u0120belong": 4423, "\u0120mort": 4424, "\u0120prepared": 4425, "\u0120indeed": 4426, "\u0120rent": 4427, "ourney": 4428, "arc": 4429, "\u0120advice": 4430, "\u0120changing": 4431, "\u0120listed": 4432, "\u0120launched": 4433, "isation": 4434, "ishes": 4435, "\u0120lived": 4436, "ructure": 4437, "\u0120sets": 4438, "\u0120philos": 4439, "uous": 4440, "\u0120applied": 4441, "\u0120housing": 4442, "\u0120odd": 4443, "\u0120sust": 4444, "fficient": 4445, "olved": 4446, "\u0120powers": 4447, "\u0120thr": 4448, "\u0120remaining": 4449, "\u0120causes": 4450, "\u0120manner": 4451, "ads": 4452, "\u0120suggests": 4453, "\u0120ends": 4454, "standing": 4455, "fig": 4456, "idth": 4457, "\u0120gay": 4458, "\u0120termin": 4459, "\u0120scientific": 4460, "\u0120coal": 4461, "apers": 4462, "bar": 4463, "\u0120sym": 4464, "this": 4465, "igrants": 4466, "\u0120minute": 4467, "cellent": 4468, "\u0120leaves": 4469, "\u0120completed": 4470, "amin": 4471, "\u0120focused": 4472, "\u0120monitor": 4473, "\u0120vehicles": 4474, "\u0120affected": 4475, "itutional": 4476, "\u0120construct": 4477, "\u0120follows": 4478, "\u0120ton": 4479, "reens": 4480, "\u0120homes": 4481, "rast": 4482, "\u0120elim": 4483, "\u0120largely": 4484, "\u0120votes": 4485, "alls": 4486, "\u0120businesses": 4487, "\u0120yards": 4488, "\u0120materials": 4489, "ulner": 4490, "\u0120guide": 4491, "\u0120closer": 4492, "ums": 4493, "\u0120sports": 4494, "eder": 4495, "\u0120taxes": 4496, "\u0120decade": 4497, "ola": 4498, "\u0120vir": 4499, "\u0120dropped": 4500, "\u0120delay": 4501, "itect": 4502, "\u0120secure": 4503, "stein": 4504, "level": 4505, "\u0120treated": 4506, "\u0120filed": 4507, "aine": 4508, "\u0120van": 4509, "\u0120mir": 4510, "\u0120column": 4511, "icted": 4512, "eper": 4513, "\u0120rot": 4514, "\u0120consult": 4515, "\u0120entry": 4516, "\u0120marijuana": 4517, "\u0120apparently": 4518, "oking": 4519, "clusive": 4520, "\u0120increases": 4521, "ano": 4522, "\u0120specifically": 4523, "\u0120tele": 4524, "ensions": 4525, "\u0120religion": 4526, "abilities": 4527, "\u0120frame": 4528, "\u0120helping": 4529, "\u0120edge": 4530, "oston": 4531, "\u0120organizations": 4532, "hips": 4533, "\u0120bigger": 4534, "\u0120boost": 4535, "\u0120row": 4536, "uls": 4537, "abase": 4538, "\u0120rid": 4539, "aren": 4540, "rave": 4541, "\u0120stret": 4542, "\u0120vision": 4543, "\u0120wearing": 4544, "\u0120appreci": 4545, "\u0120award": 4546, "\u0120factor": 4547, "war": 4548, "ulations": 4549, "\u0120god": 4550, "\u0120territ": 4551, "\u0120param": 4552, "asts": 4553, "\u0120enemies": 4554, "\u0120accident": 4555, "\u0120ath": 4556, "\u0120forg": 4557, "\u0120veter": 4558, "free": 4559, "\u0120stars": 4560, "\u0120expensive": 4561, "\u0120acad": 4562, "rawn": 4563, "\u0120lock": 4564, "\u0120format": 4565, "\u0120soldiers": 4566, "sm": 4567, "\u0120agent": 4568, "\u0120responsibility": 4569, "ora": 4570, "\u0120rapid": 4571, "\u0120tough": 4572, "\u0120believes": 4573, "\u0120wear": 4574, "lete": 4575, "\u0120commission": 4576, "aped": 4577, "\u0120warm": 4578, "ortion": 4579, "\u0120hasn": 4580, "uster": 4581, "\u0120univers": 4582, "\u0120king": 4583, "ologies": 4584, "\u0120patient": 4585, "cean": 4586, "you": 4587, "pty": 4588, "\u0120happening": 4589, "\u0120bought": 4590, "uters": 4591, "iser": 4592, "\u0120soul": 4593, "\u0120seat": 4594, "ffee": 4595, "\u0120revolution": 4596, "ette": 4597, "\u0120ring": 4598, "\u0120offensive": 4599, "\u0120returns": 4600, "\u0120videos": 4601, "\u0120discl": 4602, "\u0120famous": 4603, "enced": 4604, "\u0120candidates": 4605, "arden": 4606, "\u0120percentage": 4607, "\u0120visual": 4608, "\u0120thank": 4609, "\u0120trouble": 4610, "nergy": 4611, "\u0120prove": 4612, "ashion": 4613, "\u0120enh": 4614, "\u0120connected": 4615, "\u0120possibility": 4616, "\u0120expert": 4617, "\u0120library": 4618, "arts": 4619, "\u0120fellow": 4620, "irty": 4621, "\u0120dry": 4622, "\u0120signs": 4623, "\u0120quiet": 4624, "foot": 4625, "\u0120pure": 4626, "\u0120filled": 4627, "phas": 4628, "endment": 4629, "\u0120unable": 4630, "ns": 4631, "mo": 4632, "\u0120vast": 4633, "obe": 4634, "\u0120identify": 4635, "apping": 4636, "gress": 4637, "\u0120prote": 4638, "\u0120fish": 4639, "\u0120circumstances": 4640, "razy": 4641, "\u0120bodies": 4642, "\u0120developing": 4643, "\u0120experienced": 4644, "\u0120substant": 4645, "esome": 4646, "\u0120domestic": 4647, "\u0120combined": 4648, "\u0120chemical": 4649, "\u0120pool": 4650, "\u0120egg": 4651, "cons": 4652, "sters": 4653, "\u0120hurt": 4654, "\u0120markets": 4655, "\u0120conservative": 4656, "\u0120supporters": 4657, "\u0120agencies": 4658, "idel": 4659, "urb": 4660, "ye": 4661, "dule": 4662, "\u0120temperature": 4663, "\u0120conducted": 4664, "\u0120pulled": 4665, "\u0120fol": 4666, "onto": 4667, "osis": 4668, "\u0120advance": 4669, "\u0120license": 4670, "rors": 4671, "\u0120imagine": 4672, "\u0120hell": 4673, "\u0120fixed": 4674, "\u0120incor": 4675, "osite": 4676, "icken": 4677, "\u0120surprise": 4678, "hab": 4679, "\u0120craft": 4680, "olt": 4681, "\u0120dial": 4682, "\u0120relevant": 4683, "\u0120entered": 4684, "\u0120leads": 4685, "\u0120pictures": 4686, "essor": 4687, "\u0120alt": 4688, "\u0120paying": 4689, "\u0120updates": 4690, "amily": 4691, "sembly": 4692, "rome": 4693, "\u0120greatest": 4694, "\u0120height": 4695, "\u0120heav": 4696, "aints": 4697, "\u0120listen": 4698, "aser": 4699, "\u0120capable": 4700, "acle": 4701, "\u0120perspect": 4702, "inating": 4703, "\u0120offering": 4704, "rypt": 4705, "abin": 4706, "rc": 4707, "\u0120bright": 4708, "alty": 4709, "arrow": 4710, "\u0120suppl": 4711, "inding": 4712, "acked": 4713, "gypt": 4714, "pg": 4715, "\u0120planned": 4716, "\u0120pit": 4717, "\u0120sweet": 4718, "\u0120typically": 4719, "\u0120prospect": 4720, "\u0120teen": 4721, "rees": 4722, "\u0120sched": 4723, "\u0120hol": 4724, "\u0120scr": 4725, "\u0120lots": 4726, "life": 4727, "\u0120newsp": 4728, "\u0120forget": 4729, "edd": 4730, "\u0120severe": 4731, "\u0120suit": 4732, "ller": 4733, "\u0120correspond": 4734, "\u0120explos": 4735, "uations": 4736, "\u0120flag": 4737, "game": 4738, "rid": 4739, "\u0120prin": 4740, "\u0120deploy": 4741, "suit": 4742, "ghan": 4743, "\u0120thoughts": 4744, "\u0120matters": 4745, "\u0120adapt": 4746, "\u0120fill": 4747, "\u0120forth": 4748, "\u0120sam": 4749, "\u0120payment": 4750, "\u0120spring": 4751, "duc": 4752, "\u0120losing": 4753, "\u0120bringing": 4754, "ala": 4755, "\u0120distribution": 4756, "hered": 4757, "bour": 4758, "oma": 4759, "\u0120combination": 4760, "\u0120plenty": 4761, "\u0120perman": 4762, "\u0120tow": 4763, "\u0120seeking": 4764, "\u0120examples": 4765, "\u0120classes": 4766, "cr": 4767, "\u0120beer": 4768, "\u0120moves": 4769, "\u0120panel": 4770, "\u0120properly": 4771, "\u0120ris": 4772, "\u0120plug": 4773, "\u0120estimated": 4774, "\u0120defensive": 4775, "agraph": 4776, "\u0120pregn": 4777, "\u0120instit": 4778, "\u0120volume": 4779, "\u0120positions": 4780, "\u0120links": 4781, "agues": 4782, "\u0120transform": 4783, "ker": 4784, "\u0120cas": 4785, "\u0120opponent": 4786, "\u0120tweet": 4787, "\u0120shop": 4788, "\u0120fly": 4789, "\u0120talks": 4790, "\u0120bag": 4791, "\u0120aid": 4792, "\u0120plants": 4793, "\u0120attorney": 4794, "arters": 4795, "quest": 4796, "\u0120begins": 4797, "\u0120myster": 4798, "\u0120environmental": 4799, "\u0120storage": 4800, "\u0120marg": 4801, "\u0120ske": 4802, "\u0120metal": 4803, "elly": 4804, "\u0120ordered": 4805, "\u0120remained": 4806, "\u0120loved": 4807, "\u0120prompt": 4808, "\u0120updated": 4809, "\u0120experts": 4810, "\u0120walking": 4811, "\u0120ancient": 4812, "\u0120performed": 4813, "\u0120neither": 4814, "iency": 4815, "\u0120manufacture": 4816, "\u0120selected": 4817, "\u0120mine": 4818, "\u0120ultimately": 4819, "\u0120explan": 4820, "\u0120label": 4821, "ributed": 4822, "\u0120syn": 4823, "\u0120meat": 4824, "\u0120giant": 4825, "\u0120adm": 4826, "\u0120interpret": 4827, "\u0120evening": 4828, "\u0120evil": 4829, "\u0120obviously": 4830, "\u0120advanced": 4831, "olar": 4832, "\u0120weather": 4833, "\u0120symbol": 4834, "\u0120sole": 4835, "\u0120potentially": 4836, "oster": 4837, "\u0120originally": 4838, "mun": 4839, "aze": 4840, "essions": 4841, "\u0120deck": 4842, "\u0120stood": 4843, "\u0120youth": 4844, "\u0120basically": 4845, "otic": 4846, "\u0120involve": 4847, "olit": 4848, "lyn": 4849, "\u0120aircraft": 4850, "\u0120confirm": 4851, "\u0120messages": 4852, "\u0120kit": 4853, "\u0120prohib": 4854, "\u0120vulner": 4855, "isters": 4856, "\u0120existence": 4857, "\u0120turning": 4858, "\u0120desire": 4859, "\u0120flat": 4860, "\u0120ment": 4861, "season": 4862, "anges": 4863, "\u0120neighborhood": 4864, "\u0120pointed": 4865, "bur": 4866, "\u0120innov": 4867, "ucks": 4868, "\u0120professor": 4869, "\u0120expressed": 4870, "icious": 4871, "\u0120session": 4872, "\u0120bare": 4873, "sen": 4874, "\u0120diss": 4875, "\u0120doctor": 4876, "orrow": 4877, "ailed": 4878, "person": 4879, "\u0120writer": 4880, "ighters": 4881, "ureau": 4882, "\u0120oblig": 4883, "\u0120recorded": 4884, "\u0120broke": 4885, "\u0120orders": 4886, "ilty": 4887, "\u0120motion": 4888, "inity": 4889, "law": 4890, "adium": 4891, "\u0120immigration": 4892, "\u0120contrast": 4893, "\u0120batt": 4894, "\u0120excellent": 4895, "\u0120technical": 4896, "ami": 4897, "\u0120tun": 4898, "\u0120cloud": 4899, "geon": 4900, "\u0120creation": 4901, "\u0120strange": 4902, "\u0120auth": 4903, "\u0120fort": 4904, "born": 4905, "\u0120extent": 4906, "\u0120rain": 4907, "\u0120sample": 4908, "\u0120accepted": 4909, "\u0120tact": 4910, "\u0120fired": 4911, "\u0120stands": 4912, "\u0120boot": 4913, "\u0120statements": 4914, "\u0120versions": 4915, "\u0120selling": 4916, "ounded": 4917, "\u0120weren": 4918, "\u0120experiment": 4919, "\u0120retail": 4920, "uled": 4921, "unte": 4922, "\u0120depart": 4923, "\u0120bond": 4924, "ivery": 4925, "ompl": 4926, "\u0120reaction": 4927, "apped": 4928, "aniel": 4929, "\u0120resolution": 4930, "\u0120react": 4931, "\u0120approved": 4932, "onom": 4933, "mond": 4934, "\u0120replace": 4935, "\u0120tack": 4936, "\u0120sport": 4937, "\u0120chain": 4938, "\u0120emergency": 4939, "rad": 4940, "\u0120automatically": 4941, "\u0120route": 4942, "\u0120pal": 4943, "\u0120banks": 4944, "road": 4945, "icing": 4946, "ixt": 4947, "isted": 4948, "\u0120grew": 4949, "\u0120coord": 4950, "omin": 4951, "\u0120subs": 4952, "\u0120corporate": 4953, "\u0120selection": 4954, "noon": 4955, "cs": 4956, "cluding": 4957, "orders": 4958, "anche": 4959, "\u0120slowly": 4960, "\u0120colle": 4961, "iques": 4962, "\u0120attempts": 4963, "url": 4964, "\u0120findings": 4965, "\u0120index": 4966, "ensity": 4967, "\u0120shock": 4968, "dis": 4969, "\u0120dynam": 4970, "\u0120cart": 4971, "mosp": 4972, "iest": 4973, "\u0120storm": 4974, "hew": 4975, "ilit": 4976, "\u0120essential": 4977, "iquid": 4978, "ivered": 4979, "\u0120reasonable": 4980, "\u0120subsequ": 4981, "\u0120considering": 4982, "\u0120university": 4983, "log": 4984, "\u0120married": 4985, "\u0120illust": 4986, "\u0120numerous": 4987, "rastructure": 4988, "\u0120seriously": 4989, "\u0120referred": 4990, "ua": 4991, "\u0120consistent": 4992, "onna": 4993, "ruption": 4994, "ciples": 4995, "\u0120facts": 4996, "otes": 4997, "erg": 4998, "\u0120accompl": 4999, "\u0120revenue": 5000, "\u0120passing": 5001, "\u0120mal": 5002, "een": 5003, "\u0120gather": 5004, "terday": 5005, "ework": 5006, "\u0120optim": 5007, "\u0120rub": 5008, "\u0120unknown": 5009, "stone": 5010, "\u0120union": 5011, "olve": 5012, "\u0120opportunities": 5013, "\u0120browser": 5014, "\u0120reporting": 5015, "sts": 5016, "pet": 5017, "\u0120sand": 5018, "\u0120suddenly": 5019, "\u0120surprising": 5020, "\u0120somewhat": 5021, "ulture": 5022, "izz": 5023, "\u0120challenges": 5024, "\u0120settings": 5025, "\u0120experiences": 5026, "\u0120cann": 5027, "\u0120receiving": 5028, "\u0120joint": 5029, "\u0120cultural": 5030, "\u0120ast": 5031, "astern": 5032, "ceived": 5033, "\u0120bull": 5034, "pired": 5035, "amm": 5036, "\u0120facing": 5037, "power": 5038, "\u0120boss": 5039, "\u0120instr": 5040, "\u0120increasingly": 5041, "\u0120shift": 5042, "\u0120streets": 5043, "abb": 5044, "\u0120lie": 5045, "\u0120laugh": 5046, "\u0120adults": 5047, "\u0120customer": 5048, "\u0120obtained": 5049, "\u0120supporting": 5050, "html": 5051, "fire": 5052, "\u0120detailed": 5053, "\u0120picked": 5054, "lder": 5055, "stood": 5056, "\u0120wire": 5057, "\u0120sight": 5058, "\u0120developers": 5059, "\u0120persons": 5060, "\u0120sad": 5061, "\u0120cup": 5062, "\u0120warning": 5063, "\u0120boys": 5064, "long": 5065, "\u0120bird": 5066, "fo": 5067, "\u0120wal": 5068, "\u0120observed": 5069, "\u0120zone": 5070, "iveness": 5071, "\u0120channel": 5072, "cript": 5073, "\u0120refused": 5074, "\u0120suc": 5075, "\u0120spokesman": 5076, "rite": 5077, "ouston": 5078, "\u0120acts": 5079, "\u0120struggle": 5080, "arry": 5081, "ometimes": 5082, "\u0120discrim": 5083, "\u0120category": 5084, "\u0120realize": 5085, "\u0120employee": 5086, "enger": 5087, "\u0120guns": 5088, "oked": 5089, "\u0120thick": 5090, "\u0120fairly": 5091, "illy": 5092, "\u0120surve": 5093, "weight": 5094, "\u0120troops": 5095, "\u0120agents": 5096, "\u0120battery": 5097, "\u0120motiv": 5098, "den": 5099, "overy": 5100, "\u0120flu": 5101, "\u0120confident": 5102, "\u0120empty": 5103, "\u0120phen": 5104, "\u0120sector": 5105, "\u0120excited": 5106, "\u0120remote": 5107, "aph": 5108, "oen": 5109, "\u0120destroyed": 5110, "\u0120moral": 5111, "\u0120dress": 5112, "\u0120lit": 5113, "\u0120af": 5114, "rum": 5115, "isms": 5116, "\u0120shouldn": 5117, "\u0120sympt": 5118, "hetic": 5119, "\u0120carbon": 5120, "\u0120installed": 5121, "\u0120violent": 5122, "\u0120solar": 5123, "ja": 5124, "\u0120practices": 5125, "\u0120ride": 5126, "\u0120improved": 5127, "\u0120audio": 5128, "\u0120behavi": 5129, "\u0120eating": 5130, "pass": 5131, "claim": 5132, "uated": 5133, "angers": 5134, "chen": 5135, "\u0120properties": 5136, "\u0120anywhere": 5137, "\u0120blow": 5138, "\u0120proud": 5139, "\u0120plane": 5140, "lines": 5141, "\u0120square": 5142, "\u0120proof": 5143, "ansas": 5144, "\u0120talked": 5145, "makers": 5146, "\u0120sister": 5147, "\u0120holds": 5148, "\u0120resident": 5149, "\u0120resistance": 5150, "\u0120split": 5151, "\u0120prosecut": 5152, "\u0120confidence": 5153, "resents": 5154, "\u0120cuts": 5155, "\u0120exception": 5156, "\u0120zero": 5157, "\u0120copyright": 5158, "\u0120totally": 5159, "ormal": 5160, "ifications": 5161, "\u0120sick": 5162, "\u0120household": 5163, "\u0120fees": 5164, "\u0120drivers": 5165, "ogen": 5166, "\u0120necessarily": 5167, "\u0120regulations": 5168, "earing": 5169, "sl": 5170, "\u0120perspective": 5171, "care": 5172, "icial": 5173, "\u0120escape": 5174, "\u0120surprised": 5175, "urrent": 5176, "\u0120vac": 5177, "\u0120emphas": 5178, "\u0120narr": 5179, "\u0120heads": 5180, "\u0120causing": 5181, "bel": 5182, "fortunately": 5183, "\u0120targets": 5184, "cipl": 5185, "\u0120afternoon": 5186, "\u0120adds": 5187, "essed": 5188, "plete": 5189, "\u0120usual": 5190, "cho": 5191, "ingu": 5192, "\u0120withd": 5193, "\u0120articles": 5194, "\u0120injured": 5195, "\u0120manage": 5196, "\u0120explains": 5197, "\u0120diagn": 5198, "atures": 5199, "\u0120linked": 5200, "\u0120discussed": 5201, "\u0120explo": 5202, "\u0120occasion": 5203, "athan": 5204, "\u0120opposite": 5205, "\u0120faces": 5206, "\u0120denied": 5207, "\u0120nut": 5208, "\u0120approximately": 5209, "\u0120disappoint": 5210, "onymous": 5211, "\u0120voting": 5212, "anwhile": 5213, "\u0120institutions": 5214, "agram": 5215, "\u0120drag": 5216, "\u0120nearby": 5217, "\u0120guilty": 5218, "\u0120conver": 5219, "ship": 5220, "\u0120reward": 5221, "\u0120philosoph": 5222, "ugh": 5223, "\u0120apps": 5224, "friend": 5225, "\u0120upper": 5226, "\u0120advert": 5227, "\u0120snow": 5228, "\u0120frust": 5229, "\u0120ourselves": 5230, "ampion": 5231, "\u0120dismiss": 5232, "\u0120cere": 5233, "\u0120signal": 5234, "from": 5235, "\u0120crimes": 5236, "itors": 5237, "estival": 5238, "useum": 5239, "\u0120council": 5240, "ician": 5241, "ether": 5242, "\u0120sufficient": 5243, "sole": 5244, "\u0120historical": 5245, "\u0120pin": 5246, "\u0120succeed": 5247, "mat": 5248, "lymp": 5249, "\u0120tradition": 5250, "\u0120cro": 5251, "\u0120description": 5252, "alle": 5253, "\u0120sky": 5254, "\u0120widely": 5255, "\u0120wave": 5256, "\u0120definition": 5257, "\u0120cycle": 5258, "\u0120refere": 5259, "\u0120brings": 5260, "usal": 5261, "\u0120alive": 5262, "\u0120frequently": 5263, "\u0120intention": 5264, "lv": 5265, "ystem": 5266, "\u0120privacy": 5267, "gent": 5268, "rence": 5269, "\u0120rail": 5270, "\u0120cooper": 5271, "\u0120tested": 5272, "asks": 5273, "\u0120comfortable": 5274, "\u0120delivered": 5275, "scape": 5276, "\u0120depth": 5277, "\u0120writes": 5278, "\u0120assets": 5279, "\u0120sav": 5280, "iments": 5281, "\u0120transition": 5282, "\u0120artist": 5283, "\u0120lob": 5284, "\u0120components": 5285, "arity": 5286, "\u0120walked": 5287, "\u0120root": 5288, "\u0120participants": 5289, "\u0120noticed": 5290, "\u0120resc": 5291, "\u0120nav": 5292, "da": 5293, "utral": 5294, "plate": 5295, "\u0120importance": 5296, "\u0120assert": 5297, "iously": 5298, "cription": 5299, "\u0120injuries": 5300, "\u0120registered": 5301, "\u0120intent": 5302, "\u0120missed": 5303, "ographic": 5304, "\u0120sentence": 5305, "ounter": 5306, "\u0120assistance": 5307, "evin": 5308, "\u0120database": 5309, "\u0120buildings": 5310, "\u0120classic": 5311, "\u0120thinks": 5312, "ugg": 5313, "\u0120fee": 5314, "pan": 5315, "\u0120effectively": 5316, "\u0120facility": 5317, "\u0120bear": 5318, "\u0120chapter": 5319, "\u0120dogs": 5320, "\u0120latter": 5321, "itial": 5322, "\u0120admitted": 5323, "\u0120posts": 5324, "\u0120lawyer": 5325, "\u0120equival": 5326, "\u0120mand": 5327, "\u0120controlled": 5328, "\u0120menu": 5329, "amental": 5330, "\u0120protected": 5331, "va": 5332, "\u0120administr": 5333, "oral": 5334, "\u0120rein": 5335, "\u0120amounts": 5336, "\u0120native": 5337, "\u0120represents": 5338, "\u0120abandon": 5339, "\u0120carrying": 5340, "\u0120tank": 5341, "mary": 5342, "\u0120declared": 5343, "\u0120hat": 5344, "\u0120punish": 5345, "ellect": 5346, "mes": 5347, "\u0120universe": 5348, "phy": 5349, "\u0120infrastructure": 5350, "\u0120opposed": 5351, "ownt": 5352, "ca": 5353, "\u0120hardware": 5354, "\u0120coffee": 5355, "bal": 5356, "world": 5357, "inals": 5358, "\u0120owned": 5359, "\u0120hall": 5360, "ersion": 5361, "\u0120describe": 5362, "\u0120portion": 5363, "\u0120atmosp": 5364, "\u0120governments": 5365, "\u0120depending": 5366, "\u0120offense": 5367, "\u0120trick": 5368, "awa": 5369, "\u0120desk": 5370, "\u0120movies": 5371, "\u0120remark": 5372, "\u0120mail": 5373, "\u0120conscious": 5374, "\u0120ruling": 5375, "\u0120medic": 5376, "hent": 5377, "\u0120replaced": 5378, "\u0120renew": 5379, "iform": 5380, "\u0120shots": 5381, "\u0120armed": 5382, "\u0120constant": 5383, "\u0120taste": 5384, "\u0120realized": 5385, "\u0120buff": 5386, "\u0120mo": 5387, "\u0120efficient": 5388, "oration": 5389, "ifies": 5390, "\u0120communication": 5391, "\u0120flood": 5392, "\u0120consequences": 5393, "\u0120anyway": 5394, "igg": 5395, "\u0120iron": 5396, "\u0120evolution": 5397, "twitter": 5398, "\u0120relationships": 5399, "adel": 5400, "\u0120proposal": 5401, "ayers": 5402, "uilding": 5403, "cos": 5404, "\u0120collabor": 5405, "axy": 5406, "\u0120knowing": 5407, "\u0120supports": 5408, "owed": 5409, "\u0120controls": 5410, "\u0120merely": 5411, "umer": 5412, "\u0120athlet": 5413, "\u0120fashion": 5414, "path": 5415, "\u0120gift": 5416, "\u0120era": 5417, "\u0120kinds": 5418, "\u0120legit": 5419, "ulous": 5420, "\u0120essentially": 5421, "\u0120therap": 5422, "nic": 5423, "\u0120suffered": 5424, "\u0120hur": 5425, "\u0120promise": 5426, "\u0120excess": 5427, "\u0120overw": 5428, "\u0120prime": 5429, "erry": 5430, "\u0120stores": 5431, "\u0120journey": 5432, "\u0120requests": 5433, "\u0120consumers": 5434, "\u0120tiny": 5435, "\u0120isol": 5436, "ba": 5437, "\u0120crash": 5438, "celer": 5439, "\u0120emotional": 5440, "\u0120goods": 5441, "\u0120elected": 5442, "\u0120moder": 5443, "\u0120blocks": 5444, "\u0120island": 5445, "\u0120elections": 5446, "\u0120broadcast": 5447, "\u0120cheap": 5448, "\u0120nations": 5449, "\u0120seasons": 5450, "\u0120waste": 5451, "\u0120fields": 5452, "employ": 5453, "\u0120profile": 5454, "\u0120authors": 5455, "west": 5456, "\u0120deaths": 5457, "\u0120vacc": 5458, "\u0120formed": 5459, "\u0120du": 5460, "\u0120ongoing": 5461, "elf": 5462, "igure": 5463, "\u0120assume": 5464, "water": 5465, "\u0120coast": 5466, "\u0120voted": 5467, "gor": 5468, "aza": 5469, "iro": 5470, "\u0120flex": 5471, "asters": 5472, "\u0120welcome": 5473, "arl": 5474, "\u0120locations": 5475, "igation": 5476, "\u0120buying": 5477, "\u0120architect": 5478, "\u0120harder": 5479, "\u0120interface": 5480, "\u0120restaurant": 5481, "\u0120discover": 5482, "\u0120exceed": 5483, "\u0120favour": 5484, "gery": 5485, "\u0120duty": 5486, "\u0120pitch": 5487, "ador": 5488, "boy": 5489, "\u0120responded": 5490, "\u0120extended": 5491, "hers": 5492, "raid": 5493, "ifer": 5494, "\u0120medium": 5495, "she": 5496, "\u0120magazine": 5497, "utation": 5498, "\u0120limits": 5499, "\u0120external": 5500, "razil": 5501, "\u0120younger": 5502, "tle": 5503, "\u0120remind": 5504, "\u0120immediate": 5505, "\u0120hidden": 5506, "\u0120volunte": 5507, "\u0120simpl": 5508, "odcast": 5509, "\u0120phase": 5510, "dr": 5511, "\u0120plot": 5512, "\u0120exposure": 5513, "ograp": 5514, "vin": 5515, "anish": 5516, "\u0120expansion": 5517, "\u0120pushed": 5518, "\u0120marketing": 5519, "ket": 5520, "\u0120hits": 5521, "\u0120gro": 5522, "\u0120stim": 5523, "\u0120narrow": 5524, "\u0120perfectly": 5525, "\u0120enable": 5526, "utch": 5527, "\u0120precise": 5528, "\u0120regime": 5529, "\u0120shif": 5530, "\u0120compens": 5531, "gun": 5532, "div": 5533, "\u0120chosen": 5534, "\u0120trees": 5535, "\u0120recommended": 5536, "uable": 5537, "\u0120arguments": 5538, "\u0120exists": 5539, "\u0120bike": 5540, "\u0120breaking": 5541, "\u0120crazy": 5542, "\u0120virtual": 5543, "aylor": 5544, "ixel": 5545, "\u0120permission": 5546, "\u0120consumer": 5547, "\u0120closely": 5548, "called": 5549, "\u0120hopes": 5550, "\u0120array": 5551, "\u0120spons": 5552, "\u0120pow": 5553, "\u0120readers": 5554, "\u0120employment": 5555, "\u0120creature": 5556, "\u0120resulting": 5557, "\u0120accurate": 5558, "\u0120moments": 5559, "\u0120argued": 5560, "\u0120ped": 5561, "\u0120sought": 5562, "\u0120suffering": 5563, "\u0120icon": 5564, "lee": 5565, "alian": 5566, "\u0120pra": 5567, "\u0120bonus": 5568, "ko": 5569, "\u0120acting": 5570, "fall": 5571, "\u0120comparison": 5572, "\u0120smooth": 5573, "upp": 5574, "eping": 5575, "\u0120sending": 5576, "fast": 5577, "\u0120dealing": 5578, "user": 5579, "\u0120attached": 5580, "\u0120sees": 5581, "\u0120typical": 5582, "\u0120finds": 5583, "umin": 5584, "inent": 5585, "uce": 5586, "\u0120emails": 5587, "\u0120highlight": 5588, "\u0120confront": 5589, "atus": 5590, "uted": 5591, "\u0120unus": 5592, "\u0120topic": 5593, "\u0120ble": 5594, "ati": 5595, "\u0120understood": 5596, "struct": 5597, "\u0120mob": 5598, "aa": 5599, "pected": 5600, "sell": 5601, "\u0120dedicated": 5602, "uan": 5603, "\u0120songs": 5604, "escription": 5605, "\u0120tech": 5606, "\u0120rape": 5607, "\u0120aside": 5608, "\u0120grant": 5609, "sub": 5610, "\u0120argue": 5611, "\u0120containing": 5612, "\u0120schedule": 5613, "\u0120liberal": 5614, "\u0120publicly": 5615, "\u0120heavily": 5616, "iner": 5617, "weet": 5618, "ls": 5619, "\u0120bes": 5620, "ji": 5621, "ested": 5622, "\u0120everybody": 5623, "\u0120femin": 5624, "\u0120facilities": 5625, "\u0120conven": 5626, "core": 5627, "\u0120anx": 5628, "\u0120division": 5629, "mates": 5630, "\u0120explore": 5631, "plom": 5632, "\u0120shares": 5633, "pload": 5634, "anes": 5635, "\u0120ideal": 5636, "eters": 5637, "\u0120plastic": 5638, "\u0120distinct": 5639, "\u0120trading": 5640, "ensus": 5641, "intend": 5642, "\u0120exhib": 5643, "\u0120initially": 5644, "\u0120thousand": 5645, "acter": 5646, "\u0120paragraph": 5647, "\u0120roughly": 5648, "\u0120www": 5649, "\u0120creative": 5650, "\u0120consumption": 5651, "\u0120films": 5652, "agan": 5653, "\u0120obtain": 5654, "\u0120tall": 5655, "\u0120tor": 5656, "\u0120acknowled": 5657, "\u0120grown": 5658, "alo": 5659, "enders": 5660, "taining": 5661, "\u0120suicide": 5662, "\u0120watched": 5663, "ali": 5664, "rehens": 5665, "\u0120surrounding": 5666, "\u0120pip": 5667, "\u0120flying": 5668, "ordan": 5669, "\u0120serving": 5670, "inations": 5671, "post": 5672, "\u0120sho": 5673, "\u0120jail": 5674, "zy": 5675, "\u0120literally": 5676, "\u0120exposed": 5677, "\u0120lies": 5678, "star": 5679, "\u0120bat": 5680, "\u0120earned": 5681, "\u0120specified": 5682, "\u0120degrees": 5683, "\u0120centre": 5684, "\u0120sharing": 5685, "\u0120winter": 5686, "\u0120unw": 5687, "\u0120fewer": 5688, "\u0120somewhere": 5689, "\u0120attacked": 5690, "\u0120domain": 5691, "\u0120stronger": 5692, "\u0120penalty": 5693, "\u0120declined": 5694, "\u0120neck": 5695, "\u0120fraud": 5696, "\u0120currency": 5697, "\u0120rising": 5698, "\u0120tab": 5699, "\u0120talent": 5700, "nam": 5701, "\u0120village": 5702, "\u0120legs": 5703, "\u0120acid": 5704, "\u0120hyd": 5705, "\u0120involving": 5706, "\u0120yesterday": 5707, "\u0120terrorist": 5708, "\u0120sup": 5709, "\u0120synt": 5710, "\u0120west": 5711, "\u0120ru": 5712, "burg": 5713, "\u0120visible": 5714, "\u0120struck": 5715, "rison": 5716, "\u0120awesome": 5717, "\u0120drawn": 5718, "\u0120answers": 5719, "\u0120threats": 5720, "\u0120defeat": 5721, "osit": 5722, "\u0120vent": 5723, "aturally": 5724, "enda": 5725, "\u0120rum": 5726, "case": 5727, "\u0120situations": 5728, "\u0120saved": 5729, "\u0120recip": 5730, "ologist": 5731, "\u0120faced": 5732, "\u0120elig": 5733, "uh": 5734, "\u0120mistake": 5735, "\u0120symptoms": 5736, "\u0120domin": 5737, "\u0120falling": 5738, "\u0120ending": 5739, "ashes": 5740, "\u0120matches": 5741, "\u0120explanation": 5742, "redit": 5743, "\u0120anymore": 5744, "ushed": 5745, "\u0120letters": 5746, "\u0120risks": 5747, "\u0120reportedly": 5748, "\u0120plate": 5749, "\u0120subjects": 5750, "\u0120attempted": 5751, "ifier": 5752, "iana": 5753, "\u0120unlikely": 5754, "uma": 5755, "ican": 5756, "aug": 5757, "\u0120veget": 5758, "aos": 5759, "ria": 5760, "\u0120shel": 5761, "\u0120marked": 5762, "\u0120spr": 5763, "po": 5764, "\u0120defe": 5765, "\u0120theme": 5766, "\u0120passion": 5767, "\u0120info": 5768, "izer": 5769, "\u0120shit": 5770, "apse": 5771, "cre": 5772, "\u0120poly": 5773, "\u0120component": 5774, "\u0120doctors": 5775, "\u0120granted": 5776, "\u0120paint": 5777, "\u0120honor": 5778, "\u0120smoke": 5779, "\u0120payments": 5780, "\u0120primarily": 5781, "rich": 5782, "atell": 5783, "\u0120deals": 5784, "\u0120scheduled": 5785, "\u0120fundamental": 5786, "\u0120protein": 5787, "\u0120newspaper": 5788, "\u0120clients": 5789, "ython": 5790, "hus": 5791, "\u0120feedback": 5792, "\u0120stretch": 5793, "\u0120cock": 5794, "\u0120hotel": 5795, "\u0120sugar": 5796, "\u0120ju": 5797, "\u0120milk": 5798, "\u0120approval": 5799, "\u0120equivalent": 5800, "efully": 5801, "\u0120insert": 5802, "zona": 5803, "\u0120extension": 5804, "dri": 5805, "\u0120accomp": 5806, "\u0120constantly": 5807, "\u0120generated": 5808, "\u0120recognize": 5809, "\u0120vary": 5810, "pha": 5811, "df": 5812, "etch": 5813, "\u0120patterns": 5814, "\u0120profession": 5815, "aning": 5816, "\u0120colors": 5817, "\u0120infect": 5818, "\u0120phenomen": 5819, "\u0120shell": 5820, "\u0120puts": 5821, "\u0120delivery": 5822, "\u0120brown": 5823, "\u0120processing": 5824, "\u0120lights": 5825, "essage": 5826, "lation": 5827, "\u0120industrial": 5828, "rous": 5829, "\u0120somehow": 5830, "\u0120proport": 5831, "\u0120politicians": 5832, "\u0120indicate": 5833, "\u0120hole": 5834, "\u0120techniques": 5835, "\u0120competitive": 5836, "\u0120phr": 5837, "\u0120vo": 5838, "istent": 5839, "\u0120campus": 5840, "\u0120aspects": 5841, "\u0120helpful": 5842, "\u0120shield": 5843, "orse": 5844, "\u0120trigger": 5845, "mal": 5846, "\u0120tort": 5847, "\u0120personally": 5848, "\u0120tag": 5849, "\u0120keeps": 5850, "\u0120bench": 5851, "\u0120gap": 5852, "aire": 5853, "\u0120east": 5854, "\u0120recovery": 5855, "perial": 5856, "\u0120profit": 5857, "\u0120colon": 5858, "\u0120strongly": 5859, "style": 5860, "\u0120allegations": 5861, "han": 5862, "\u0120reporters": 5863, "jo": 5864, "rine": 5865, "arget": 5866, "andal": 5867, "\u0120flash": 5868, "trans": 5869, "\u0120strict": 5870, "\u0120parking": 5871, "\u0120li": 5872, "\u0120weird": 5873, "\u0120regions": 5874, "\u0120intellect": 5875, "oding": 5876, "ributes": 5877, "upid": 5878, "\u0120finger": 5879, "oria": 5880, "\u0120elev": 5881, "\u0120conclusion": 5882, "\u0120feelings": 5883, "\u0120extensive": 5884, "\u0120mixed": 5885, "\u0120neuro": 5886, "vy": 5887, "\u0120harass": 5888, "ouch": 5889, "\u0120territory": 5890, "\u0120successfully": 5891, "\u0120ingred": 5892, "\u0120overwhel": 5893, "\u0120layer": 5894, "\u0120allies": 5895, "illance": 5896, "\u0120bunch": 5897, "\u0120normally": 5898, "\u0120networks": 5899, "\u0120sacr": 5900, "bles": 5901, "\u0120chose": 5902, "\u0120opponents": 5903, "\u0120regardless": 5904, "\u0120franch": 5905, "\u0120pref": 5906, "\u0120bridge": 5907, "anna": 5908, "\u0120wage": 5909, "page": 5910, "rior": 5911, "\u0120radical": 5912, "\u0120manip": 5913, "\u0120secretary": 5914, "\u0120gang": 5915, "\u0120decent": 5916, "\u0120uncle": 5917, "\u0120investors": 5918, "\u0120walls": 5919, "\u0120publish": 5920, "\u0120generate": 5921, "issions": 5922, "car": 5923, "\u0120promote": 5924, "\u0120cutting": 5925, "\u0120chest": 5926, "\u0120drinking": 5927, "\u0120collected": 5928, "\u0120hoping": 5929, "\u0120embr": 5930, "gorith": 5931, "\u0120warned": 5932, "\u0120instructions": 5933, "\u0120gear": 5934, "\u0120criticism": 5935, "\u0120util": 5936, "anny": 5937, "\u0120counsel": 5938, "\u0120reduction": 5939, "pool": 5940, "\u0120teaching": 5941, "\u0120deeply": 5942, "iy": 5943, "\u0120estimates": 5944, "\u0120choices": 5945, "\u0120permanent": 5946, "inem": 5947, "kel": 5948, "\u0120fasc": 5949, "pse": 5950, "file": 5951, "\u0120tournament": 5952, "stal": 5953, "\u0120mel": 5954, "azi": 5955, "\u0120contained": 5956, "\u0120wake": 5957, "\u0120reveal": 5958, "\u0120processes": 5959, "\u0120blind": 5960, "\u0120steel": 5961, "\u0120carefully": 5962, "appy": 5963, "roit": 5964, "\u0120gaming": 5965, "\u0120houses": 5966, "\u0120truck": 5967, "erm": 5968, "\u0120scored": 5969, "\u0120occas": 5970, "return": 5971, "bound": 5972, "var": 5973, "\u0120sharp": 5974, "\u0120afraid": 5975, "amber": 5976, "cific": 5977, "\u0120scheme": 5978, "\u0120decline": 5979, "\u0120pushing": 5980, "\u0120possession": 5981, "\u0120privile": 5982, "\u0120teachers": 5983, "\u0120yield": 5984, "itled": 5985, "\u0120rig": 5986, "acon": 5987, "\u0120hide": 5988, "uten": 5989, "\u0120colleagues": 5990, "\u0120principles": 5991, "\u0120loud": 5992, "\u0120sin": 5993, "\u0120stone": 5994, "\u0120taught": 5995, "\u0120terrible": 5996, "\u0120stuck": 5997, "teen": 5998, "\u0120implementation": 5999, "\u0120wheel": 6000, "allas": 6001, "\u0120champions": 6002, "olars": 6003, "player": 6004, "\u0120repeatedly": 6005, "\u0120likes": 6006, "asty": 6007, "ester": 6008, "\u0120bath": 6009, "\u0120noise": 6010, "title": 6011, "\u0120northern": 6012, "\u0120magn": 6013, "\u0120fab": 6014, "\u0120displ": 6015, "\u0120ticket": 6016, "\u0120murd": 6017, "\u0120alongside": 6018, "\u0120river": 6019, "owing": 6020, "rep": 6021, "size": 6022, "\u0120tur": 6023, "iscal": 6024, "raction": 6025, "\u0120cable": 6026, "\u0120wins": 6027, "\u0120upcoming": 6028, "\u0120survive": 6029, "\u0120inspired": 6030, "\u0120statistics": 6031, "iami": 6032, "\u0120yellow": 6033, "\u0120urban": 6034, "\u0120ax": 6035, "essel": 6036, "\u0120quarterback": 6037, "\u0120register": 6038, "\u0120abilities": 6039, "\u0120variable": 6040, "\u0120contem": 6041, "\u0120thin": 6042, "data": 6043, "\u0120gotten": 6044, "\u0120constit": 6045, "\u0120asks": 6046, "\u0120tail": 6047, "\u0120exciting": 6048, "\u0120encourage": 6049, "inson": 6050, "\u0120commitment": 6051, "\u0120rally": 6052, "\u0120subsid": 6053, "\u0120spin": 6054, "\u0120captured": 6055, "\u0120innoc": 6056, "\u0120allegedly": 6057, "\u0120artists": 6058, "\u0120electronic": 6059, "\u0120regional": 6060, "apes": 6061, "\u0120wra": 6062, "\u0120myth": 6063, "prise": 6064, "bell": 6065, "\u0120directed": 6066, "\u0120extract": 6067, "\u0120sorry": 6068, "\u0120vice": 6069, "agger": 6070, "\u0120wonderful": 6071, "\u0120gra": 6072, "ione": 6073, "\u0120ships": 6074, "ikes": 6075, "itar": 6076, "\u0120activists": 6077, "true": 6078, "enth": 6079, "\u0120habit": 6080, "ernel": 6081, "\u0120inqu": 6082, "\u0120abortion": 6083, "\u0120void": 6084, "\u0120explicit": 6085, "\u0120engaged": 6086, "\u0120angry": 6087, "\u0120rating": 6088, "\u0120frag": 6089, "bro": 6090, "icking": 6091, "dev": 6092, "\u0120worried": 6093, "\u0120obser": 6094, "\u0120apartment": 6095, "\u0120estate": 6096, "emon": 6097, "\u0120county": 6098, "\u0120disag": 6099, "\u0120immigrants": 6100, "wind": 6101, "\u0120folks": 6102, "\u0120gall": 6103, "\u0120targeted": 6104, "\u0120stead": 6105, "\u0120informed": 6106, "chain": 6107, "idelines": 6108, "orough": 6109, "\u0120driven": 6110, "\u0120regularly": 6111, "\u0120basket": 6112, "\u0120principle": 6113, "ocument": 6114, "\u0120stun": 6115, "ibilities": 6116, "\u0120alert": 6117, "\u0120democracy": 6118, "\u0120represented": 6119, "cers": 6120, "parent": 6121, "pack": 6122, "\u0120diplom": 6123, "rets": 6124, "\u0120capture": 6125, "\u0120announcement": 6126, "\u0120hook": 6127, "\u0120purs": 6128, "\u0120refugees": 6129, "\u0120recognized": 6130, "lib": 6131, "\u0120hadn": 6132, "\u0120pilot": 6133, "ushing": 6134, "\u0120returning": 6135, "\u0120trail": 6136, "\u0120routine": 6137, "\u0120courts": 6138, "\u0120desper": 6139, "\u0120friendly": 6140, "\u0120pled": 6141, "\u0120breath": 6142, "\u0120studio": 6143, "\u0120impressive": 6144, "\u0120fing": 6145, "\u0120downt": 6146, "inking": 6147, "iary": 6148, "color": 6149, "sex": 6150, "aron": 6151, "\u0120fault": 6152, "isodes": 6153, "\u0120outcome": 6154, "err": 6155, "\u0120elsewhere": 6156, "\u0120retire": 6157, "\u0120pounds": 6158, "\u0120communications": 6159, "\u0120loan": 6160, "\u0120ratio": 6161, "\u0120gonna": 6162, "\u0120invent": 6163, "pat": 6164, "\u0120promised": 6165, "\u0120dinner": 6166, "\u0120creates": 6167, "\u0120operate": 6168, "verty": 6169, "etime": 6170, "\u0120sustain": 6171, "\u0120incredible": 6172, "ima": 6173, "\u0120warrant": 6174, "\u0120mm": 6175, "\u0120lawsuit": 6176, "\u0120reviews": 6177, "iture": 6178, "lights": 6179, "group": 6180, "store": 6181, "\u0120featured": 6182, "\u0120forever": 6183, "\u0120poverty": 6184, "azz": 6185, "abis": 6186, "aching": 6187, "\u0120laid": 6188, "\u0120filter": 6189, "ena": 6190, "\u0120creatures": 6191, "uction": 6192, "\u0120association": 6193, "lers": 6194, "there": 6195, "\u0120valuable": 6196, "\u0120liquid": 6197, "aga": 6198, "aka": 6199, "\u0120incredibly": 6200, "rance": 6201, "sk": 6202, "\u0120solutions": 6203, "\u0120atmosphere": 6204, "\u0120blame": 6205, "umes": 6206, "umps": 6207, "rical": 6208, "oric": 6209, "\u0120respectively": 6210, "wan": 6211, "\u0120fifth": 6212, "\u0120governor": 6213, "resident": 6214, "\u0120purchased": 6215, "\u0120hack": 6216, "\u0120intense": 6217, "obs": 6218, "\u0120origin": 6219, "\u0120define": 6220, "\u0120careful": 6221, "\u0120shoulder": 6222, "\u0120tied": 6223, "\u0120destruction": 6224, "oured": 6225, "\u0120nobody": 6226, "\u0120ho": 6227, "\u0120tip": 6228, "\u0120technique": 6229, "\u0120jur": 6230, "bow": 6231, "\u0120legend": 6232, "\u0120accord": 6233, "\u0120busy": 6234, "\u0120hang": 6235, "aki": 6236, "\u0120surgery": 6237, "\u0120reprodu": 6238, "\u0120uniform": 6239, "\u0120scenes": 6240, "code": 6241, "lisher": 6242, "phia": 6243, "\u0120crypt": 6244, "\u0120recon": 6245, "\u0120scream": 6246, "\u0120adopted": 6247, "\u0120scores": 6248, "including": 6249, "\u0120indicated": 6250, "\u0120entertain": 6251, "iel": 6252, "\u0120twenty": 6253, "\u0120engage": 6254, "offs": 6255, "\u0120smile": 6256, "\u0120personnel": 6257, "\u0120toler": 6258, "\u0120doors": 6259, "\u0120tone": 6260, "\u0120machines": 6261, "\u0120entering": 6262, "tenance": 6263, "\u0120forest": 6264, "\u0120horse": 6265, "\u0120complaint": 6266, "yo": 6267, "eding": 6268, "quarters": 6269, "ials": 6270, "cow": 6271, "\u0120academic": 6272, "\u0120fruit": 6273, "ogether": 6274, "\u0120wine": 6275, "\u0120pursu": 6276, "\u0120licens": 6277, "\u0120clothes": 6278, "rection": 6279, "\u0120squad": 6280, "\u0120stable": 6281, "\u0120raw": 6282, "zens": 6283, "uties": 6284, "ancer": 6285, "\u0120keys": 6286, "\u0120complicated": 6287, "iger": 6288, "\u0120absor": 6289, "\u0120funny": 6290, "\u0120relief": 6291, "\u0120chart": 6292, "\u0120drawing": 6293, "\u0120module": 6294, "\u0120salt": 6295, "ille": 6296, "\u0120resource": 6297, "away": 6298, "adelphia": 6299, "\u0120somebody": 6300, "\u0120participate": 6301, "\u0120rose": 6302, "wered": 6303, "\u0120muscle": 6304, "\u0120consent": 6305, "\u0120continuing": 6306, "regon": 6307, "\u0120rear": 6308, "\u0120provision": 6309, "\u0120liked": 6310, "rient": 6311, "\u0120bra": 6312, "\u0120meetings": 6313, "\u0120tox": 6314, "\u0120convent": 6315, "\u0120auto": 6316, "\u0120recording": 6317, "\u0120programming": 6318, "\u0120pic": 6319, "\u0120proved": 6320, "\u0120stab": 6321, "\u0120caption": 6322, "ulating": 6323, "\u0120newly": 6324, "fr": 6325, "\u0120discipl": 6326, "\u0120edition": 6327, "ifle": 6328, "acket": 6329, "\u0120passes": 6330, "\u0120guest": 6331, "\u0120acceler": 6332, "itals": 6333, "\u0120authent": 6334, "oval": 6335, "ta": 6336, "uine": 6337, "\u0120armor": 6338, "\u0120compat": 6339, "\u0120inches": 6340, "\u0120assign": 6341, "herent": 6342, "\u0120prepare": 6343, "ockey": 6344, "\u0120depends": 6345, "\u0120tracks": 6346, "watch": 6347, "\u0120lists": 6348, "\u0120alter": 6349, "rec": 6350, "\u0120condem": 6351, "\u0120everywhere": 6352, "\u0120affili": 6353, "\u0120fought": 6354, "\u0120mac": 6355, "itarian": 6356, "\u0120scope": 6357, "aws": 6358, "arms": 6359, "\u0120que": 6360, "\u0120enjoyed": 6361, "nesota": 6362, "\u0120aggressive": 6363, "\u0120recipe": 6364, "\u0120rarely": 6365, "value": 6366, "angel": 6367, "aying": 6368, "omething": 6369, "\u0120subsection": 6370, "\u0120southern": 6371, "\u0120frequency": 6372, "rete": 6373, "rolled": 6374, "ults": 6375, "\u0120behalf": 6376, "\u0120sequence": 6377, "abet": 6378, "\u0120controversial": 6379, "\u0120comprom": 6380, "\u0120worker": 6381, "\u0120mainly": 6382, "\u0120algorith": 6383, "orce": 6384, "gender": 6385, "\u0120organized": 6386, "\u0120fake": 6387, "\u0120concluded": 6388, "rage": 6389, "\u0120chances": 6390, "berry": 6391, "\u0120configuration": 6392, "\u0120withdraw": 6393, "\u0120fro": 6394, "udes": 6395, "\u0120tries": 6396, "\u0120samples": 6397, "\u0120bid": 6398, "\u0120photograph": 6399, "ifest": 6400, "\u0120contest": 6401, "\u0120signing": 6402, "px": 6403, "\u0120exit": 6404, "null": 6405, "month": 6406, "\u0120racial": 6407, "otted": 6408, "\u0120sword": 6409, "pson": 6410, "aed": 6411, "\u0120trib": 6412, "\u0120inner": 6413, "\u0120protocol": 6414, "everal": 6415, "press": 6416, "\u0120shipping": 6417, "connect": 6418, "iamond": 6419, "ses": 6420, "\u0120surveillance": 6421, "\u0120apolog": 6422, "owa": 6423, "\u0120fulf": 6424, "js": 6425, "\u0120luck": 6426, "usted": 6427, "ni": 6428, "\u0120anticip": 6429, "eman": 6430, "\u0120winner": 6431, "\u0120silver": 6432, "lla": 6433, "icity": 6434, "\u0120unusual": 6435, "\u0120crack": 6436, "\u0120ties": 6437, "ez": 6438, "\u0120practical": 6439, "\u0120province": 6440, "\u0120priority": 6441, "\u0120describes": 6442, "\u0120branch": 6443, "aska": 6444, "missions": 6445, "bi": 6446, "\u0120porn": 6447, "\u0120enthus": 6448, "\u0120fighters": 6449, "\u0120foundation": 6450, "avid": 6451, "\u0120judgment": 6452, "cling": 6453, "\u0120solve": 6454, "hesis": 6455, "after": 6456, "\u0120neutral": 6457, "\u0120advis": 6458, "yes": 6459, "olis": 6460, "\u0120reputation": 6461, "\u0120smell": 6462, "\u0120bread": 6463, "\u0120claiming": 6464, "\u0120genetic": 6465, "\u0120technologies": 6466, "\u0120upgrade": 6467, "rows": 6468, "\u0120developer": 6469, "erved": 6470, "ipal": 6471, "\u0120unex": 6472, "\u0120barely": 6473, "then": 6474, "\u0120illness": 6475, "etary": 6476, "\u0120patch": 6477, "\u0120butt": 6478, "\u0120stupid": 6479, "front": 6480, "iece": 6481, "\u0120protests": 6482, "\u0120chat": 6483, "oenix": 6484, "\u0120wing": 6485, "\u0120parliament": 6486, "osexual": 6487, "\u0120render": 6488, "ptions": 6489, "osa": 6490, "hop": 6491, "\u0120bitcoin": 6492, "\u0120recover": 6493, "\u0120incorpor": 6494, "orne": 6495, "\u0120preced": 6496, "\u0120threatened": 6497, "\u0120spiritual": 6498, "\u0120advertising": 6499, "\u0120improvements": 6500, "\u0120errors": 6501, "\u0120sensitive": 6502, "\u0120cream": 6503, "\u0120exclusive": 6504, "\u0120comprehens": 6505, "\u0120deleg": 6506, "\u0120conce": 6507, "\u0120remem": 6508, "\u0120structures": 6509, "\u0120stored": 6510, "woman": 6511, "sea": 6512, "\u0120temporary": 6513, "esters": 6514, "\u0120tickets": 6515, "\u0120possess": 6516, "inch": 6517, "oz": 6518, "\u0120la": 6519, "\u0120contracts": 6520, "\u0120unp": 6521, "\u0120cig": 6522, "ultural": 6523, "asm": 6524, "\u0120mountain": 6525, "making": 6526, "\u0120equally": 6527, "\u0120lands": 6528, "aters": 6529, "\u0120rejected": 6530, "era": 6531, "imm": 6532, "rix": 6533, "\u0120transaction": 6534, "gener": 6535, "lessly": 6536, "\u0120cos": 6537, "\u0120provisions": 6538, "\u0120gained": 6539, "\u0120directory": 6540, "\u0120raising": 6541, "olen": 6542, "onder": 6543, "\u0120console": 6544, "inst": 6545, "\u0120bom": 6546, "\u0120uncertain": 6547, "ocking": 6548, "\u0120measured": 6549, "\u0120plain": 6550, "\u0120seats": 6551, "\u0120dict": 6552, "afe": 6553, "\u0120estimate": 6554, "izon": 6555, "athered": 6556, "\u0120contributed": 6557, "\u0120episodes": 6558, "ommod": 6559, "viously": 6560, "rogen": 6561, "\u0120terrorism": 6562, "\u0120movements": 6563, "entle": 6564, "ounce": 6565, "\u0120prev": 6566, "acts": 6567, "riors": 6568, "tab": 6569, "\u0120suffer": 6570, "\u0120nerv": 6571, "\u0120mainstream": 6572, "\u0120franchise": 6573, "bat": 6574, "\u0120demands": 6575, "\u0120agenda": 6576, "\u0120dozen": 6577, "\u0120clinical": 6578, "izard": 6579, "td": 6580, "\u0120visited": 6581, "\u0120actor": 6582, "\u0120delic": 6583, "\u0120contribute": 6584, "\u0120inject": 6585, "acco": 6586, "\u0120listening": 6587, "\u0120congress": 6588, "ependent": 6589, "\u0120premium": 6590, "\u0120assigned": 6591, "\u0120worldwide": 6592, "\u0120narrative": 6593, "otype": 6594, "mont": 6595, "base": 6596, "\u0120relation": 6597, "\u0120covers": 6598, "\u0120certific": 6599, "\u0120grass": 6600, "piracy": 6601, "ira": 6602, "\u0120engineering": 6603, "\u0120unemploy": 6604, "stract": 6605, "\u0120ven": 6606, "\u0120steal": 6607, "\u0120replied": 6608, "\u0120ultimate": 6609, "\u0120titles": 6610, "dated": 6611, "\u0120joy": 6612, "aus": 6613, "\u0120hyper": 6614, "aku": 6615, "\u0120officially": 6616, "\u0120difficulty": 6617, "peror": 6618, "\u0120resulted": 6619, "ribed": 6620, "link": 6621, "who": 6622, "\u0120restrictions": 6623, "itionally": 6624, "\u0120beauty": 6625, "opt": 6626, "\u0120maps": 6627, "\u0120electricity": 6628, "\u0120org": 6629, "\u0120burd": 6630, "\u0120violation": 6631, "\u0120usage": 6632, "\u0120permit": 6633, "\u0120naturally": 6634, "\u0120thrown": 6635, "\u0120alien": 6636, "rike": 6637, "\u0120pace": 6638, "\u0120poison": 6639, "\u0120formal": 6640, "alysis": 6641, "\u0120genuine": 6642, "\u0120kil": 6643, "aver": 6644, "\u0120procedure": 6645, "intendo": 6646, "asant": 6647, "\u0120trained": 6648, "\u0120crucial": 6649, "\u0120lets": 6650, "\u0120champion": 6651, "\u0120writers": 6652, "\u0120connections": 6653, "\u0120okay": 6654, "irms": 6655, "\u0120encounter": 6656, "\u0120achieved": 6657, "\u0120checks": 6658, "iscons": 6659, "\u0120assistant": 6660, "\u0120whenever": 6661, "bin": 6662, "\u0120clock": 6663, "isp": 6664, "opher": 6665, "\u0120borrow": 6666, "\u0120mad": 6667, "\u0120personality": 6668, "only": 6669, "abama": 6670, "\u0120gains": 6671, "\u0120commonly": 6672, "\u0120terr": 6673, "\u0120hypot": 6674, "\u0120rely": 6675, "\u0120tiss": 6676, "isconsin": 6677, "\u0120ridic": 6678, "function": 6679, "\u0120uncom": 6680, "rating": 6681, "eland": 6682, "\u0120moon": 6683, "annon": 6684, "\u0120vulnerable": 6685, "utive": 6686, "\u0120western": 6687, "sect": 6688, "\u0120occurs": 6689, "\u0120vessel": 6690, "\u0120discrimination": 6691, "\u0120subsequent": 6692, "string": 6693, "\u0120fantasy": 6694, "\u0120testim": 6695, "iti": 6696, "ras": 6697, "\u0120boat": 6698, "\u0120marks": 6699, "\u0120ordinary": 6700, "\u0120ren": 6701, "\u0120representative": 6702, "\u0120petition": 6703, "\u0120adventure": 6704, "\u0120ignore": 6705, "\u0120factory": 6706, "\u0120tasks": 6707, "\u0120depression": 6708, "zed": 6709, "\u0120cogn": 6710, "\u0120eligible": 6711, "\u0120reducing": 6712, "via": 6713, "\u0120striking": 6714, "\u0120dollar": 6715, "ho": 6716, "\u0120instrument": 6717, "\u0120philosophy": 6718, "\u0120ruled": 6719, "\u0120scenario": 6720, "\u0120enorm": 6721, "\u0120debut": 6722, "\u0120tea": 6723, "\u0120absence": 6724, "\u0120ham": 6725, "leep": 6726, "\u0120tables": 6727, "requ": 6728, "map": 6729, "\u0120chairman": 6730, "\u0120pump": 6731, "\u0120rapidly": 6732, "vi": 6733, "\u0120substantial": 6734, "des": 6735, "chant": 6736, "ilipp": 6737, "riers": 6738, "anchester": 6739, "\u0120saving": 6740, "erning": 6741, "ounced": 6742, "\u0120recru": 6743, "\u0120assessment": 6744, "\u0120dynamic": 6745, "\u0120furn": 6746, "ulator": 6747, "\u0120propag": 6748, "high": 6749, "\u0120accommod": 6750, "\u0120stack": 6751, "writ": 6752, "\u0120reven": 6753, "abs": 6754, "\u0120brut": 6755, "\u0120perpet": 6756, "hot": 6757, "\u0120hardly": 6758, "\u0120sty": 6759, "\u0120transactions": 6760, "\u0120gate": 6761, "\u0120screens": 6762, "\u0120submitted": 6763, "\u0120languages": 6764, "ught": 6765, "emen": 6766, "\u0120falls": 6767, "\u0120coc": 6768, "\u0120strikes": 6769, "pa": 6770, "\u0120deliber": 6771, "\u0120relax": 6772, "annels": 6773, "\u0120extrem": 6774, "\u0120bell": 6775, "\u0120disorder": 6776, "cut": 6777, "\u0120locked": 6778, "\u0120emissions": 6779, "\u0120shortly": 6780, "\u0120rival": 6781, "\u0120dust": 6782, "\u0120reaching": 6783, "inois": 6784, "\u0120satell": 6785, "aret": 6786, "\u0120stations": 6787, "\u0120agric": 6788, "comes": 6789, "\u0120applies": 6790, "asted": 6791, "\u0120anger": 6792, "ailability": 6793, "\u0120compare": 6794, "\u0120aimed": 6795, "anguage": 6796, "\u0120regulation": 6797, "\u0120jury": 6798, "\u0120airport": 6799, "\u0120sections": 6800, "emed": 6801, "\u0120medicine": 6802, "\u0120hitting": 6803, "\u0120spark": 6804, "olves": 6805, "\u0120ads": 6806, "\u0120foods": 6807, "\u0120replacement": 6808, "\u0120chicken": 6809, "\u0120lowest": 6810, "\u0120minds": 6811, "\u0120involves": 6812, "ui": 6813, "\u0120arrang": 6814, "\u0120procedures": 6815, "iversary": 6816, "\u0120bills": 6817, "\u0120improvement": 6818, "\u0120inev": 6819, "\u0120expectations": 6820, "\u0120intellectual": 6821, "\u0120spaces": 6822, "\u0120mechanism": 6823, "break": 6824, "\u0120barrel": 6825, "\u0120static": 6826, "mann": 6827, "\u0120tips": 6828, "\u0120handling": 6829, "cus": 6830, "oded": 6831, "ilton": 6832, "iry": 6833, "\u0120journalists": 6834, "ourse": 6835, "\u0120comic": 6836, "\u0120nomine": 6837, "\u0120versus": 6838, "\u0120loop": 6839, "\u0120surf": 6840, "\u0120beliefs": 6841, "isan": 6842, "\u0120setup": 6843, "\u0120brew": 6844, "image": 6845, "\u0120computers": 6846, "fol": 6847, "\u0120taxp": 6848, "\u0120displayed": 6849, "\u0120grav": 6850, "\u0120fiscal": 6851, "\u0120cameras": 6852, "\u0120aver": 6853, "py": 6854, "\u0120requirement": 6855, "\u0120entitled": 6856, "ombie": 6857, "\u0120shadow": 6858, "agic": 6859, "\u0120elite": 6860, "\u0120divided": 6861, "\u0120heading": 6862, "\u0120copies": 6863, "\u0120losses": 6864, "\u0120vit": 6865, "ked": 6866, "\u0120ans": 6867, "\u0120reporter": 6868, "heim": 6869, "\u0120superior": 6870, "don": 6871, "erent": 6872, "\u0120therapy": 6873, "\u0120peak": 6874, "\u0120lying": 6875, "\u0120gam": 6876, "zer": 6877, "ritten": 6878, "\u0120responses": 6879, "\u0120consideration": 6880, "\u0120loyal": 6881, "\u0120instant": 6882, "\u0120pm": 6883, "\u0120extend": 6884, "\u0120convicted": 6885, "\u0120founder": 6886, "\u0120convin": 6887, "check": 6888, "\u0120scholars": 6889, "ped": 6890, "\u0120overse": 6891, "count": 6892, "md": 6893, "imental": 6894, "\u0120substance": 6895, "\u0120minority": 6896, "\u0120manufacturing": 6897, "ocolate": 6898, "\u0120attended": 6899, "rations": 6900, "\u0120appreciate": 6901, "omy": 6902, "idency": 6903, "\u0120guarantee": 6904, "position": 6905, "\u0120ocean": 6906, "clude": 6907, "\u0120headed": 6908, "\u0120tape": 6909, "\u0120loose": 6910, "\u0120logic": 6911, "\u0120proven": 6912, "\u0120spir": 6913, "\u0120admit": 6914, "isa": 6915, "\u0120investigate": 6916, "sylv": 6917, "cest": 6918, "\u0120requested": 6919, "\u0120windows": 6920, "\u0120behaviour": 6921, "\u0120reader": 6922, "\u0120hung": 6923, "\u0120roles": 6924, "\u0120implemented": 6925, "\u0120blank": 6926, "\u0120serves": 6927, "\u0120cited": 6928, "profit": 6929, "apon": 6930, "\u0120repair": 6931, "item": 6932, "arrass": 6933, "\u0120critics": 6934, "adi": 6935, "\u0120shout": 6936, "\u0120fool": 6937, "\u0120producing": 6938, "\u0120lib": 6939, "\u0120rounds": 6940, "\u0120circle": 6941, "\u0120prepar": 6942, "\u0120submit": 6943, "\u0120nic": 6944, "morrow": 6945, "\u0120vital": 6946, "atern": 6947, "\u0120password": 6948, "\u0120publication": 6949, "\u0120prominent": 6950, "\u0120speaks": 6951, "\u0120bars": 6952, "\u0120deeper": 6953, "ported": 6954, "\u0120wid": 6955, "\u0120butter": 6956, "\u0120smoking": 6957, "\u0120indicates": 6958, "ropri": 6959, "alling": 6960, "asting": 6961, "\u0120adj": 6962, "aval": 6963, "\u0120presum": 6964, "burgh": 6965, "onic": 6966, "\u0120fur": 6967, "\u0120polls": 6968, "ika": 6969, "\u0120secondary": 6970, "\u0120monster": 6971, "igs": 6972, "\u0120ownership": 6973, "endar": 6974, "\u0120arrive": 6975, "\u0120null": 6976, "\u0120thro": 6977, "\u0120kiss": 6978, "cat": 6979, "\u0120upset": 6980, "angle": 6981, "itches": 6982, "ector": 6983, "ologists": 6984, "\u0120corruption": 6985, "\u0120hint": 6986, "enter": 6987, "\u0120greatly": 6988, "\u0120begun": 6989, "esy": 6990, "\u0120soil": 6991, "\u0120maintenance": 6992, "\u0120dozens": 6993, "\u0120humanity": 6994, "\u0120rom": 6995, "worth": 6996, "aping": 6997, "sylvania": 6998, "lah": 6999, "\u0120gathered": 7000, "\u0120attacking": 7001, "found": 7002, "\u0120arbit": 7003, "ictions": 7004, "\u0120dance": 7005, "archy": 7006, "\u0120baseball": 7007, "\u0120contributions": 7008, "\u0120literature": 7009, "\u0120exha": 7010, "perty": 7011, "test": 7012, "\u0120bab": 7013, "\u0120container": 7014, "letter": 7015, "\u0120fallen": 7016, "\u0120websites": 7017, "\u0120bottle": 7018, "\u0120breast": 7019, "\u0120veteran": 7020, "\u0120interviews": 7021, "\u0120banned": 7022, "engers": 7023, "inth": 7024, "\u0120concerning": 7025, "\u0120expenses": 7026, "ds": 7027, "istance": 7028, "\u0120entity": 7029, "\u0120reliable": 7030, "\u0120paralle": 7031, "\u0120opinions": 7032, "\u0120indu": 7033, "low": 7034, "\u0120compete": 7035, "\u0120thorough": 7036, "\u0120employed": 7037, "\u0120establishment": 7038, "igen": 7039, "\u0120lawyers": 7040, "itary": 7041, "\u0120efficiency": 7042, "\u0120mask": 7043, "\u0120disaster": 7044, "\u0120ages": 7045, "esis": 7046, "\u0120casual": 7047, "bled": 7048, "\u0120enabled": 7049, "iper": 7050, "\u0120emerged": 7051, "isdom": 7052, "\u0120cabin": 7053, "\u0120registration": 7054, "\u0120fingers": 7055, "\u0120roster": 7056, "\u0120framework": 7057, "etts": 7058, "\u0120transportation": 7059, "\u0120awareness": 7060, "\u0120attempting": 7061, "\u0120defence": 7062, "\u0120scan": 7063, "\u0120fucking": 7064, "\u0120answered": 7065, "bn": 7066, "\u0120categories": 7067, "\u0120rational": 7068, "\u0120cust": 7069, "\u0120robot": 7070, "\u0120correctly": 7071, "\u0120gif": 7072, "\u0120graphics": 7073, "mic": 7074, "\u0120grounds": 7075, "iate": 7076, "\u0120distributed": 7077, "\u0120sanctions": 7078, "\u0120challenging": 7079, "uto": 7080, "\u0120ingredients": 7081, "\u0120invited": 7082, "\u0120founded": 7083, "ded": 7084, "\u0120bowl": 7085, "\u0120brothers": 7086, "\u0120wages": 7087, "imore": 7088, "ocial": 7089, "\u0120seed": 7090, "atively": 7091, "\u0120addresses": 7092, "abeth": 7093, "\u0120attitude": 7094, "isd": 7095, "child": 7096, "\u0120mole": 7097, "\u0120discovery": 7098, "yard": 7099, "\u0120supplies": 7100, "elling": 7101, "\u0120distingu": 7102, "\u0120recept": 7103, "\u0120vert": 7104, "\u0120swim": 7105, "bec": 7106, "door": 7107, "\u0120gal": 7108, "\u0120interact": 7109, "amps": 7110, "\u0120convinced": 7111, "\u0120objective": 7112, "\u0120dish": 7113, "lad": 7114, "\u0120downtown": 7115, "oil": 7116, "inction": 7117, "\u0120tomorrow": 7118, "\u0120survival": 7119, "shot": 7120, "\u0120settlement": 7121, "interest": 7122, "argo": 7123, "eness": 7124, "\u0120ethnic": 7125, "bered": 7126, "\u0120incent": 7127, "\u0120maintained": 7128, "\u0120breaks": 7129, "bridge": 7130, "atar": 7131, "agg": 7132, "unicip": 7133, "left": 7134, "\u0120recognition": 7135, "\u0120welf": 7136, "\u0120addressed": 7137, "\u0120virus": 7138, "\u0120whereas": 7139, "\u0120papers": 7140, "rams": 7141, "\u0120pleasure": 7142, "\u0120acquired": 7143, "\u0120duration": 7144, "jpg": 7145, "\u0120calm": 7146, "\u0120burning": 7147, "\u0120folder": 7148, "icked": 7149, "\u0120performing": 7150, "\u0120welfare": 7151, "jar": 7152, "\u0120lin": 7153, "\u0120enhance": 7154, "\u0120notion": 7155, "fare": 7156, "ypes": 7157, "\u0120cannabis": 7158, "fs": 7159, "comm": 7160, "inite": 7161, "\u0120covering": 7162, "elect": 7163, "zing": 7164, "\u0120citizen": 7165, "\u0120phones": 7166, "\u0120raid": 7167, "\u0120ignored": 7168, "\u0120upload": 7169, "card": 7170, "\u0120modified": 7171, "\u0120rooms": 7172, "iah": 7173, "range": 7174, "heast": 7175, "achus": 7176, "\u0120suggesting": 7177, "grade": 7178, "\u0120clothing": 7179, "\u0120rh": 7180, "unity": 7181, "encing": 7182, "secution": 7183, "tra": 7184, "dem": 7185, "\u0120heaven": 7186, "\u0120stages": 7187, "\u0120wedd": 7188, "plus": 7189, "ificial": 7190, "ieties": 7191, "\u0120phrase": 7192, "\u0120brill": 7193, "actory": 7194, "\u0120providers": 7195, "\u0120silence": 7196, "\u0120aer": 7197, "\u0120platforms": 7198, "\u0120demonstrated": 7199, "\u0120interf": 7200, "ington": 7201, "\u0120races": 7202, "\u0120grade": 7203, "ultane": 7204, "false": 7205, "\u0120bow": 7206, "\u0120flavor": 7207, "\u0120historic": 7208, "gov": 7209, "\u0120colour": 7210, "\u0120viewed": 7211, "elcome": 7212, "\u0120intervention": 7213, "\u0120diversity": 7214, "\u0120periods": 7215, "\u0120reverse": 7216, "\u0120quote": 7217, "through": 7218, "\u0120screw": 7219, "\u0120landing": 7220, "\u0120pill": 7221, "\u0120wet": 7222, "\u0120protesters": 7223, "\u0120repeat": 7224, "aved": 7225, "erk": 7226, "\u0120salary": 7227, "\u0120mayor": 7228, "\u0120kitchen": 7229, "\u0120featuring": 7230, "\u0120servers": 7231, "\u0120anybody": 7232, "img": 7233, "ixture": 7234, "theless": 7235, "\u0120finance": 7236, "\u0120closing": 7237, "iac": 7238, "abel": 7239, "orous": 7240, "\u0120firms": 7241, "screen": 7242, "una": 7243, "\u0120embarrass": 7244, "ulse": 7245, "\u0120letting": 7246, "\u0120threw": 7247, "iley": 7248, "\u0120channels": 7249, "lan": 7250, "\u0120sear": 7251, "\u0120fantastic": 7252, "arre": 7253, "uzzle": 7254, "\u0120swing": 7255, "\u0120sheet": 7256, "index": 7257, "cover": 7258, "ogan": 7259, "\u0120variables": 7260, "\u0120spoken": 7261, "achel": 7262, "\u0120loaded": 7263, "\u0120footage": 7264, "version": 7265, "\u0120unl": 7266, "\u0120throwing": 7267, "\u0120firing": 7268, "\u0120tracking": 7269, "\u0120width": 7270, "\u0120struggling": 7271, "rooms": 7272, "otion": 7273, "\u0120monthly": 7274, "\u0120eggs": 7275, "open": 7276, "\u0120hired": 7277, "\u0120stayed": 7278, "\u0120stro": 7279, "step": 7280, "\u0120fabric": 7281, "isting": 7282, "\u0120dates": 7283, "\u0120pron": 7284, "\u0120basketball": 7285, "\u0120lucky": 7286, "\u0120assumed": 7287, "esty": 7288, "\u0120affairs": 7289, "\u0120glad": 7290, "\u0120joining": 7291, "ifice": 7292, "pread": 7293, "irts": 7294, "\u0120populations": 7295, "aware": 7296, "\u0120nose": 7297, "\u0120complaints": 7298, "start": 7299, "\u0120scoring": 7300, "\u0120mining": 7301, "\u0120visitors": 7302, "\u0120damaged": 7303, "\u0120characteristics": 7304, "rates": 7305, "\u0120flags": 7306, "dog": 7307, "\u0120execution": 7308, "\u0120joke": 7309, "phones": 7310, "\u0120testimony": 7311, "\u0120obst": 7312, "\u0120studied": 7313, "icket": 7314, "\u0120lad": 7315, "\u0120kernel": 7316, "\u0120overwhelming": 7317, "\u0120aged": 7318, "\u0120applicable": 7319, "\u0120roads": 7320, "made": 7321, "odge": 7322, "\u0120commands": 7323, "\u0120offices": 7324, "veland": 7325, "\u0120tut": 7326, "\u0120receiver": 7327, "\u0120shopping": 7328, "\u0120entertainment": 7329, "orted": 7330, "\u0120reads": 7331, "grad": 7332, "ederation": 7333, "\u0120employer": 7334, "\u0120involvement": 7335, "\u0120anxiety": 7336, "alia": 7337, "\u0120roof": 7338, "\u0120stats": 7339, "\u0120constitutional": 7340, "\u0120referring": 7341, "itty": 7342, "\u0120tackle": 7343, "outube": 7344, "\u0120backed": 7345, "\u0120ele": 7346, "hour": 7347, "achusetts": 7348, "\u0120defeated": 7349, "esp": 7350, "\u0120seemingly": 7351, "was": 7352, "\u0120gene": 7353, "\u0120discount": 7354, "\u0120clubs": 7355, "\u0120sid": 7356, "\u0120pp": 7357, "idespread": 7358, "\u0120beings": 7359, "\u0120introduction": 7360, "adows": 7361, "ierce": 7362, "\u0120meal": 7363, "author": 7364, "lahoma": 7365, "\u0120ranks": 7366, "max": 7367, "\u0120collapse": 7368, "\u0120opens": 7369, "\u0120echo": 7370, "\u0120soph": 7371, "\u0120racist": 7372, "\u0120enormous": 7373, "\u0120waves": 7374, "\u0120tap": 7375, "\u0120comprehensive": 7376, "\u0120farmers": 7377, "aired": 7378, "rones": 7379, "\u0120proportion": 7380, "\u0120designs": 7381, "\u0120negotiations": 7382, "\u0120virtually": 7383, "\u0120warn": 7384, "\u0120legitimate": 7385, "mate": 7386, "\u0120convention": 7387, "netic": 7388, "\u0120consistently": 7389, "\u0120compensation": 7390, "\u0120punishment": 7391, "\u0120ye": 7392, "\u0120tie": 7393, "irlf": 7394, "\u0120knife": 7395, "\u0120memories": 7396, "\u0120angle": 7397, "\u0120rend": 7398, "\u0120counts": 7399, "sung": 7400, "\u0120educational": 7401, "\u0120accessible": 7402, "\u0120drew": 7403, "yer": 7404, "amine": 7405, "master": 7406, "\u0120trials": 7407, "ogy": 7408, "har": 7409, "\u0120preferred": 7410, "irlfriend": 7411, "\u0120bin": 7412, "\u0120cow": 7413, "\u0120signature": 7414, "\u0120retired": 7415, "\u0120bytes": 7416, "\u0120neighb": 7417, "\u0120devast": 7418, "\u0120suspected": 7419, "isons": 7420, "scale": 7421, "\u0120capabilities": 7422, "\u0120revel": 7423, "\u0120cheese": 7424, "dy": 7425, "igrant": 7426, "\u0120failing": 7427, "bits": 7428, "\u0120appointed": 7429, "uri": 7430, "\u0120institution": 7431, "\u0120expanded": 7432, "greg": 7433, "\u0120monitoring": 7434, "\u0120podcast": 7435, "\u0120coalition": 7436, "\u0120stolen": 7437, "\u0120stops": 7438, "\u0120holiday": 7439, "\u0120intr": 7440, "\u0120warming": 7441, "\u0120producer": 7442, "\u0120accuracy": 7443, "izabeth": 7444, "mony": 7445, "\u0120mini": 7446, "acles": 7447, "\u0120overt": 7448, "they": 7449, "\u0120membership": 7450, "\u0120exch": 7451, "\u0120removal": 7452, "mad": 7453, "\u0120adequ": 7454, "\u0120ec": 7455, "\u0120teeth": 7456, "\u0120emotion": 7457, "\u0120perm": 7458, "\u0120solely": 7459, "db": 7460, "\u0120extraord": 7461, "cal": 7462, "\u0120guidelines": 7463, "\u0120dying": 7464, "\u0120suspended": 7465, "elve": 7466, "\u0120dad": 7467, "\u0120abandoned": 7468, "\u0120march": 7469, "\u0120horror": 7470, "\u0120childhood": 7471, "\u0120campaigns": 7472, "\u0120lunch": 7473, "block": 7474, "ounding": 7475, "\u0120bone": 7476, "organ": 7477, "aders": 7478, "\u0120tonight": 7479, "\u0120wars": 7480, "\u0120formation": 7481, "const": 7482, "\u0120compe": 7483, "orious": 7484, "\u0120discussions": 7485, "\u0120criteria": 7486, "\u0120installation": 7487, "\u0120accomplish": 7488, "izza": 7489, "\u0120publisher": 7490, "\u0120rescue": 7491, "oret": 7492, "ths": 7493, "ordon": 7494, "\u0120pocket": 7495, "\u0120bene": 7496, "\u0120parameters": 7497, "\u0120concert": 7498, "\u0120shoes": 7499, "\u0120visiting": 7500, "\u0120recall": 7501, "\u0120bub": 7502, "\u0120rural": 7503, "\u0120concrete": 7504, "\u0120loans": 7505, "\u0120trem": 7506, "hemat": 7507, "kg": 7508, "isition": 7509, "\u0120fate": 7510, "\u0120tired": 7511, "\u0120principal": 7512, "hist": 7513, "iences": 7514, "athy": 7515, "\u0120sevent": 7516, "\u0120mood": 7517, "\u0120strategic": 7518, "\u0120diseases": 7519, "\u0120forum": 7520, "\u0120tempor": 7521, "\u0120headquarters": 7522, "ige": 7523, "flix": 7524, "\u0120guitar": 7525, "\u0120releases": 7526, "roph": 7527, "igate": 7528, "system": 7529, "\u0120disabled": 7530, "\u0120unexpected": 7531, "ithub": 7532, "\u0120unclear": 7533, "\u0120contrad": 7534, "\u0120strategies": 7535, "ventures": 7536, "\u0120passage": 7537, "\u0120improving": 7538, "\u0120reveals": 7539, "\u0120decrease": 7540, "ova": 7541, "\u0120annoy": 7542, "\u0120cyber": 7543, "nell": 7544, "\u0120photograp": 7545, "\u0120sed": 7546, "\u0120diverse": 7547, "\u0120encouraged": 7548, "\u0120conspiracy": 7549, "\u0120birds": 7550, "\u0120operator": 7551, "\u0120handful": 7552, "\u0120classified": 7553, "\u0120dramatic": 7554, "\u0120investigators": 7555, "ito": 7556, "\u0120widespread": 7557, "\u0120collective": 7558, "\u0120journalist": 7559, "\u0120temperatures": 7560, "ila": 7561, "\u0120guid": 7562, "\u0120inspect": 7563, "\u0120missile": 7564, "\u0120manual": 7565, "\u0120simultane": 7566, "\u0120ratings": 7567, "\u0120suck": 7568, "\u0120universal": 7569, "\u0120pharm": 7570, "\u0120disrupt": 7571, "iano": 7572, "\u0120ft": 7573, "\u0120statist": 7574, "olds": 7575, "php": 7576, "\u0120undert": 7577, "ishop": 7578, "ntil": 7579, "reshold": 7580, "\u0120deny": 7581, "\u0120provider": 7582, "\u0120surviv": 7583, "has": 7584, "\u0120mistakes": 7585, "charge": 7586, "pled": 7587, "rity": 7588, "\u0120node": 7589, "ools": 7590, "lication": 7591, "\u0120fails": 7592, "emale": 7593, "ori": 7594, "backs": 7595, "\u0120shirt": 7596, "\u0120waters": 7597, "elson": 7598, "\u0120ease": 7599, "\u0120scar": 7600, "\u0120contents": 7601, "mind": 7602, "\u0120contribution": 7603, "\u0120shr": 7604, "\u0120handed": 7605, "\u0120stability": 7606, "\u0120trave": 7607, "\u0120mirror": 7608, "\u0120weigh": 7609, "\u0120fiction": 7610, "ouver": 7611, "istant": 7612, "rition": 7613, "\u0120physically": 7614, "\u0120stake": 7615, "\u0120demonstrate": 7616, "\u0120profits": 7617, "vision": 7618, "omic": 7619, "olid": 7620, "\u0120battles": 7621, "\u0120drives": 7622, "\u0120eastern": 7623, "aration": 7624, "vard": 7625, "portation": 7626, "\u0120lawmakers": 7627, "\u0120protecting": 7628, "\u0120yeah": 7629, "\u0120shame": 7630, "olph": 7631, "even": 7632, "xit": 7633, "\u0120attach": 7634, "\u0120representing": 7635, "\u0120obs": 7636, "iffs": 7637, "\u0120incidents": 7638, "itage": 7639, "\u0120viewers": 7640, "cd": 7641, "\u0120mouse": 7642, "\u0120clar": 7643, "\u0120accordance": 7644, "\u0120bot": 7645, "cor": 7646, "held": 7647, "\u0120innocent": 7648, "\u0120initiative": 7649, "ols": 7650, "\u0120spots": 7651, "pace": 7652, "\u0120conventional": 7653, "\u0120corporations": 7654, "\u0120blocked": 7655, "attered": 7656, "\u0120refers": 7657, "\u0120buck": 7658, "\u0120topics": 7659, "brid": 7660, "reement": 7661, "\u0120underlying": 7662, "\u0120investigating": 7663, "\u0120pregnancy": 7664, "\u0120touchdown": 7665, "\u0120instances": 7666, "wa": 7667, "\u0120fears": 7668, "\u0120remarks": 7669, "atal": 7670, "\u0120mit": 7671, "\u0120experiments": 7672, "ipt": 7673, "indu": 7674, "ancouver": 7675, "\u0120judges": 7676, "\u0120stere": 7677, "umbn": 7678, "\u0120participation": 7679, "\u0120weekly": 7680, "\u0120conversations": 7681, "uz": 7682, "\u0120infection": 7683, "\u0120heroes": 7684, "\u0120settled": 7685, "\u0120strip": 7686, "\u0120hal": 7687, "\u0120dump": 7688, "\u0120les": 7689, "\u0120references": 7690, "\u0120wanting": 7691, "\u0120exclus": 7692, "mn": 7693, "\u0120gentle": 7694, "maker": 7695, "senal": 7696, "ouri": 7697, "\u0120lift": 7698, "ela": 7699, "\u0120ranked": 7700, "\u0120stadium": 7701, "\u0120deadly": 7702, "\u0120riding": 7703, "aria": 7704, "\u0120documentation": 7705, "reek": 7706, "\u0120lens": 7707, "\u0120gross": 7708, "agers": 7709, "\u0120arrival": 7710, "\u0120desert": 7711, "\u0120supplement": 7712, "\u0120knee": 7713, "\u0120margin": 7714, "font": 7715, "ogg": 7716, "ivals": 7717, "\u0120intake": 7718, "\u0120differently": 7719, "ugs": 7720, "\u0120bits": 7721, "cluded": 7722, "\u0120searching": 7723, "umble": 7724, "\u0120functional": 7725, "\u0120desired": 7726, "\u0120circuit": 7727, "repre": 7728, "alties": 7729, "\u0120minim": 7730, "\u0120drove": 7731, "\u0120hip": 7732, "\u0120pros": 7733, "\u0120utility": 7734, "opp": 7735, "rat": 7736, "formance": 7737, "\u0120concentration": 7738, "\u0120font": 7739, "\u0120amid": 7740, "\u0120revers": 7741, "\u0120interaction": 7742, "\u0120jurisd": 7743, "\u0120spells": 7744, "dep": 7745, "fil": 7746, "\u0120civilians": 7747, "utter": 7748, "\u0120entrance": 7749, "\u0120convert": 7750, "\u0120controversy": 7751, "owered": 7752, "\u0120contrary": 7753, "\u0120arc": 7754, "\u0120packages": 7755, "\u0120progressive": 7756, "width": 7757, "\u0120reserved": 7758, "vol": 7759, "\u0120printed": 7760, "\u0120centers": 7761, "\u0120introduce": 7762, "\u0120odds": 7763, "\u0120surely": 7764, "\u0120independence": 7765, "\u0120passengers": 7766, "reprene": 7767, "\u0120loves": 7768, "\u0120facilit": 7769, "\u0120identical": 7770, "\u0120doct": 7771, "\u0120partnership": 7772, "conf": 7773, "\u0120confused": 7774, "\u0120wrest": 7775, "\u0120holes": 7776, "\u0120pregnant": 7777, "hard": 7778, "\u0120signals": 7779, "\u0120pulling": 7780, "\u0120graduate": 7781, "\u0120nominee": 7782, "\u0120permitted": 7783, "\u0120authorized": 7784, "\u0120alarm": 7785, "van": 7786, "\u0120generations": 7787, "cular": 7788, "\u0120dragon": 7789, "\u0120controller": 7790, "gered": 7791, "\u0120approached": 7792, "\u0120cance": 7793, "\u0120formula": 7794, "\u0120weakness": 7795, "\u0120ramp": 7796, "itudes": 7797, "jud": 7798, "\u0120brilliant": 7799, "\u0120accus": 7800, "source": 7801, "\u0120homeless": 7802, "week": 7803, "iens": 7804, "rics": 7805, "\u0120organic": 7806, "\u0120presentation": 7807, "agh": 7808, "vation": 7809, "\u0120assembly": 7810, "orable": 7811, "holders": 7812, "\u0120tong": 7813, "\u0120beach": 7814, "\u0120rush": 7815, "oup": 7816, "\u0120calculated": 7817, "\u0120occasionally": 7818, "\u0120bullet": 7819, "gate": 7820, "\u0120hosp": 7821, "\u0120promises": 7822, "gage": 7823, "\u0120sne": 7824, "ibl": 7825, "\u0120accum": 7826, "such": 7827, "\u0120terrorists": 7828, "\u0120consciousness": 7829, "\u0120drama": 7830, "oola": 7831, "piration": 7832, "\u0120labour": 7833, "\u0120utter": 7834, "\u0120democratic": 7835, "\u0120assass": 7836, "ilation": 7837, "\u0120gest": 7838, "\u0120abroad": 7839, "\u0120metab": 7840, "\u0120sorts": 7841, "\u0120flav": 7842, "\u0120mg": 7843, "\u0120musical": 7844, "\u0120drops": 7845, "ocated": 7846, "ateral": 7847, "\u0120gre": 7848, "\u0120equality": 7849, "\u0120burden": 7850, "\u0120vig": 7851, "\u0120ceremony": 7852, "\u0120fighter": 7853, "\u0120actors": 7854, "aman": 7855, "\u0120align": 7856, "puter": 7857, "\u0120elder": 7858, "\u0120representation": 7859, "usalem": 7860, "\u0120harassment": 7861, "itzer": 7862, "\u0120symp": 7863, "\u0120boxes": 7864, "\u0120manifest": 7865, "atre": 7866, "\u0120dies": 7867, "leton": 7868, "\u0120missions": 7869, "ethe": 7870, "\u0120resolve": 7871, "\u0120followers": 7872, "\u0120asc": 7873, "\u0120km": 7874, "lord": 7875, "ammed": 7876, "\u0120silent": 7877, "\u0120timing": 7878, "\u0120prisoners": 7879, "\u0120tower": 7880, "\u0120approaches": 7881, "\u0120precisely": 7882, "\u0120bureau": 7883, "\u0120keyboard": 7884, "itual": 7885, "\u0120funded": 7886, "\u0120staying": 7887, "\u0120psychological": 7888, "\u0120mile": 7889, "will": 7890, "\u0120wider": 7891, "\u0120till": 7892, "rot": 7893, "\u0120accompan": 7894, "\u0120flour": 7895, "aco": 7896, "\u0120pleased": 7897, "party": 7898, "\u0120pointing": 7899, "\u0120inflation": 7900, "\u0120roy": 7901, "ainer": 7902, "\u0120wedding": 7903, "ormon": 7904, "\u0120requiring": 7905, "\u0120qualified": 7906, "\u0120segment": 7907, "\u0120sizes": 7908, "eals": 7909, "\u0120corrupt": 7910, "assador": 7911, "\u0120celeb": 7912, "\u0120dreams": 7913, "\u0120checking": 7914, "\u0120preparing": 7915, "\u0120actively": 7916, "\u0120lux": 7917, "acteria": 7918, "\u0120deputy": 7919, "\u0120transgender": 7920, "\u0120summary": 7921, "\u0120inher": 7922, "eries": 7923, "char": 7924, "\u0120knock": 7925, "\u0120lip": 7926, "roller": 7927, "\u0120impression": 7928, "\u0120celebrate": 7929, "\u0120slide": 7930, "\u0120guests": 7931, "\u0120clip": 7932, "\u0120savings": 7933, "\u0120captain": 7934, "\u0120legacy": 7935, "\u0120wounded": 7936, "taboola": 7937, "\u0120pursue": 7938, "\u0120oxy": 7939, "\u0120q": 7940, "\u0120semi": 7941, "\u0120obsc": 7942, "\u0120checked": 7943, "\u0120dual": 7944, "lem": 7945, "ulty": 7946, "\u0120centuries": 7947, "arded": 7948, "src": 7949, "\u0120evident": 7950, "ennis": 7951, "atin": 7952, "\u0120unemployment": 7953, "\u0120intim": 7954, "\u0120biological": 7955, "\u0120soldier": 7956, "\u0120math": 7957, "\u0120bias": 7958, "\u0120dating": 7959, "\u0120mice": 7960, "hire": 7961, "limited": 7962, "\u0120meters": 7963, "\u0120rocket": 7964, "essee": 7965, "\u0120certificate": 7966, "\u0120grid": 7967, "\u0120rolling": 7968, "commun": 7969, "bury": 7970, "\u0120tissue": 7971, "\u0120racism": 7972, "\u0120mystery": 7973, "\u0120examine": 7974, "\u0120stem": 7975, "\u0120sits": 7976, "\u0120hoped": 7977, "oting": 7978, "\u0120dialogue": 7979, "\u0120persu": 7980, "lay": 7981, "\u0120chronic": 7982, "market": 7983, "\u0120parallel": 7984, "\u0120scandal": 7985, "\u0120carries": 7986, "\u0120phenomenon": 7987, "human": 7988, "acker": 7989, "\u0120retirement": 7990, "tainment": 7991, "ovie": 7992, "\u0120duties": 7993, "\u0120dose": 7994, "\u0120scroll": 7995, "inf": 7996, "\u0120sauce": 7997, "\u0120landscape": 7998, "reddit": 7999, "alid": 8000, "\u0120coin": 8001, "\u0120overs": 8002, "\u0120posting": 8003, "about": 8004, "\u0120fel": 8005, "andy": 8006, "\u0120bold": 8007, "\u0120focusing": 8008, "effect": 8009, "\u0120deemed": 8010, "\u0120recommendations": 8011, "\u0120stepped": 8012, "\u0120voter": 8013, "\u0120moderate": 8014, "\u0120restricted": 8015, "\u0120tob": 8016, "\u0120cir": 8017, "\u0120collaps": 8018, "nc": 8019, "\u0120ought": 8020, "\u0120export": 8021, "\u0120drunk": 8022, "\u0120wise": 8023, "necess": 8024, "\u0120ancest": 8025, "\u0120frequent": 8026, "mir": 8027, "\u0120interpretation": 8028, "\u0120dependent": 8029, "\u0120coins": 8030, "\u0120fatal": 8031, "\u0120cooking": 8032, "\u0120confusion": 8033, "ipher": 8034, "\u0120custody": 8035, "omach": 8036, "\u0120restaurants": 8037, "eling": 8038, "\u0120acknowledged": 8039, "\u0120ther": 8040, "\u0120genes": 8041, "ching": 8042, "\u0120tactics": 8043, "\u0120vend": 8044, "\u0120hes": 8045, "quer": 8046, "\u0120noting": 8047, "\u0120targeting": 8048, "rock": 8049, "\u0120credits": 8050, "\u0120emotions": 8051, "\u0120representatives": 8052, "news": 8053, "\u0120legislative": 8054, "\u0120removing": 8055, "\u0120tweeted": 8056, "\u0120forcing": 8057, "\u0120speaker": 8058, "\u0120males": 8059, "lined": 8060, "\u0120concepts": 8061, "\u0120voices": 8062, "oir": 8063, "\u0120cul": 8064, "\u0120lady": 8065, "\u0120arts": 8066, "\u0120slot": 8067, "gly": 8068, "\u0120athletes": 8069, "\u0120presc": 8070, "\u0120tons": 8071, "\u0120golden": 8072, "\u0120punch": 8073, "iverpool": 8074, "\u0120enact": 8075, "\u0120lobby": 8076, "\u0120mos": 8077, "\u0120picking": 8078, "\u0120lifetime": 8079, "\u0120cognitive": 8080, "zo": 8081, "\u0120dub": 8082, "\u0120consists": 8083, "oln": 8084, "\u0120festival": 8085, "amous": 8086, "\u0120intellig": 8087, "words": 8088, "\u0120dele": 8089, "\u0120lapt": 8090, "\u0120magical": 8091, "bus": 8092, "urities": 8093, "ighth": 8094, "olving": 8095, "\u0120jun": 8096, "\u0120imposed": 8097, "\u0120astron": 8098, "\u0120correl": 8099, "burn": 8100, "\u0120immune": 8101, "ocus": 8102, "\u0120courses": 8103, "\u0120lean": 8104, "\u0120ghost": 8105, "\u0120outcomes": 8106, "\u0120expense": 8107, "\u0120everyday": 8108, "\u0120acceptable": 8109, "\u0120equipped": 8110, "\u0120orange": 8111, "what": 8112, "rend": 8113, "\u0120disappear": 8114, "\u0120spawn": 8115, "ois": 8116, "\u0120deserve": 8117, "\u0120minimal": 8118, "\u0120nervous": 8119, "\u0120rook": 8120, "\u0120resign": 8121, "shire": 8122, "\u0120affordable": 8123, "\u0120hanging": 8124, "\u0120implications": 8125, "\u0120maintaining": 8126, "\u0120guards": 8127, "\u0120derived": 8128, "\u0120executed": 8129, "\u0120theories": 8130, "\u0120quoted": 8131, "oga": 8132, "seless": 8133, "info": 8134, "\u0120tears": 8135, "\u0120birthday": 8136, "igious": 8137, "immer": 8138, "\u0120spectrum": 8139, "\u0120architecture": 8140, "\u0120recruit": 8141, "arma": 8142, "\u0120monsters": 8143, "\u0120destination": 8144, "\u0120attractive": 8145, "\u0120foss": 8146, "\u0120presents": 8147, "\u0120reply": 8148, "pton": 8149, "\u0120cum": 8150, "\u0120delight": 8151, "\u0120affects": 8152, "\u0120donations": 8153, "\u0120overcome": 8154, "itched": 8155, "bott": 8156, "\u0120investigations": 8157, "\u0120hunting": 8158, "di": 8159, "fund": 8160, "\u0120sessions": 8161, "estyle": 8162, "\u0120portray": 8163, "oids": 8164, "\u0120communicate": 8165, "\u0120comedy": 8166, "\u0120belt": 8167, "\u0120predicted": 8168, "\u0120importantly": 8169, "\u0120remarkable": 8170, "\u0120eliminate": 8171, "\u0120bind": 8172, "\u0120advocates": 8173, "imp": 8174, "\u0120charity": 8175, "vas": 8176, "math": 8177, "oker": 8178, "ndum": 8179, "\u0120caps": 8180, "ean": 8181, "\u0120fleet": 8182, "\u0120recre": 8183, "\u0120sleeping": 8184, "ijing": 8185, "kind": 8186, "\u0120designated": 8187, "\u0120animation": 8188, "kee": 8189, "\u0120delayed": 8190, "\u0120tremend": 8191, "\u0120curious": 8192, "\u0120lect": 8193, "dam": 8194, "\u0120innovation": 8195, "\u0120loading": 8196, "\u0120dispute": 8197, "ctic": 8198, "irds": 8199, "\u0120nurs": 8200, "\u0120template": 8201, "mers": 8202, "\u0120appearances": 8203, "\u0120translation": 8204, "\u0120sake": 8205, "\u0120beneath": 8206, "\u0120inhib": 8207, "\u0120euro": 8208, "abetes": 8209, "\u0120studying": 8210, "\u0120perceived": 8211, "\u0120examined": 8212, "\u0120eager": 8213, "\u0120coaches": 8214, "\u0120imper": 8215, "chi": 8216, "\u0120produces": 8217, "\u0120municip": 8218, "\u0120girlfriend": 8219, "\u0120hire": 8220, "\u0120suitable": 8221, "opy": 8222, "\u0120inequ": 8223, "fish": 8224, "first": 8225, "\u0120interior": 8226, "\u0120analys": 8227, "\u0120considerable": 8228, "\u0120forecast": 8229, "\u0120fert": 8230, "orship": 8231, "thur": 8232, "\u0120ballot": 8233, "\u0120instantly": 8234, "\u0120picks": 8235, "\u0120tent": 8236, "oli": 8237, "\u0120civilian": 8238, "bling": 8239, "ello": 8240, "bu": 8241, "\u0120inch": 8242, "\u0120logo": 8243, "\u0120cooperation": 8244, "\u0120walks": 8245, "\u0120investments": 8246, "\u0120imprison": 8247, "\u0120legally": 8248, "\u0120gri": 8249, "charg": 8250, "\u0120threatening": 8251, "duction": 8252, "flow": 8253, "\u0120dismissed": 8254, "ibraries": 8255, "cap": 8256, "ele": 8257, "png": 8258, "\u0120roots": 8259, "umbled": 8260, "plex": 8261, "\u0120discussing": 8262, "\u0120continu": 8263, "fit": 8264, "\u0120refuse": 8265, "\u0120managing": 8266, "\u0120synd": 8267, "ipedia": 8268, "walk": 8269, "\u0120professionals": 8270, "\u0120guidance": 8271, "\u0120universities": 8272, "\u0120assemb": 8273, "untu": 8274, "\u0120anniversary": 8275, "ihad": 8276, "product": 8277, "\u0120transit": 8278, "\u0120restore": 8279, "\u0120explaining": 8280, "\u0120asset": 8281, "\u0120transferred": 8282, "\u0120burst": 8283, "apolis": 8284, "gged": 8285, "bet": 8286, "ylum": 8287, "erves": 8288, "\u0120meets": 8289, "white": 8290, "\u0120corresponding": 8291, "\u0120insisted": 8292, "\u0120surrounded": 8293, "\u0120tens": 8294, "\u0120lane": 8295, "\u0120coinc": 8296, "home": 8297, "\u0120existed": 8298, "ected": 8299, "lamm": 8300, "\u0120skept": 8301, "exp": 8302, "\u0120perception": 8303, "iev": 8304, "oft": 8305, "\u0120adopt": 8306, "\u0120satellite": 8307, "\u0120infant": 8308, "description": 8309, "cm": 8310, "oca": 8311, "actor": 8312, "\u0120tobacco": 8313, "emption": 8314, "\u0120flesh": 8315, "\u0120je": 8316, "oop": 8317, "\u0120beating": 8318, "anim": 8319, "\u0120gathering": 8320, "\u0120cultiv": 8321, "abe": 8322, "\u0120badly": 8323, "prot": 8324, "\u0120choosing": 8325, "\u0120contacted": 8326, "\u0120quit": 8327, "\u0120distur": 8328, "\u0120stir": 8329, "\u0120token": 8330, "\u0120functionality": 8331, "some": 8332, "\u0120limitations": 8333, "\u0120meth": 8334, "build": 8335, "config": 8336, "rell": 8337, "blem": 8338, "\u0120veterans": 8339, "\u0120trends": 8340, "arer": 8341, "may": 8342, "\u0120wondering": 8343, "normal": 8344, "\u0120separated": 8345, "\u0120desp": 8346, "stic": 8347, "brew": 8348, "\u0120relating": 8349, "\u0120enthusi": 8350, "good": 8351, "deb": 8352, "\u0120activist": 8353, "\u0120mart": 8354, "\u0120explosion": 8355, "\u0120insight": 8356, "\u0120convenient": 8357, "\u0120counterpart": 8358, "support": 8359, "agen": 8360, "\u0120overseas": 8361, "\u0120pride": 8362, "note": 8363, "mg": 8364, "\u0120displays": 8365, "content": 8366, "\u0120traveling": 8367, "\u0120hospitals": 8368, "\u0120defendant": 8369, "\u0120streaming": 8370, "mble": 8371, "uki": 8372, "\u0120distribut": 8373, "\u0120antib": 8374, "\u0120chocolate": 8375, "\u0120interrupt": 8376, "\u0120conversion": 8377, "\u0120bugs": 8378, "liest": 8379, "common": 8380, "akh": 8381, "otton": 8382, "\u0120amendment": 8383, "\u0120gameplay": 8384, "oda": 8385, "\u0120highlights": 8386, "\u0120irre": 8387, "\u0120balls": 8388, "\u0120demanding": 8389, "stop": 8390, "onia": 8391, "zone": 8392, "izers": 8393, "\u0120awarded": 8394, "\u0120regulatory": 8395, "pling": 8396, "\u0120sour": 8397, "usive": 8398, "\u0120fet": 8399, "\u0120automatic": 8400, "\u0120fer": 8401, "vernment": 8402, "father": 8403, "\u0120extraordinary": 8404, "throp": 8405, "\u0120sexually": 8406, "\u0120desktop": 8407, "itivity": 8408, "\u0120orient": 8409, "\u0120ears": 8410, "obby": 8411, "ouses": 8412, "vertisements": 8413, "\u0120manufacturers": 8414, "icient": 8415, "minute": 8416, "\u0120conviction": 8417, "\u0120garden": 8418, "public": 8419, "\u0120satisfied": 8420, "fold": 8421, "\u0120inhab": 8422, "\u0120programme": 8423, "\u0120stomach": 8424, "\u0120coordin": 8425, "\u0120holy": 8426, "\u0120threshold": 8427, "\u0120rhet": 8428, "\u0120serial": 8429, "\u0120employers": 8430, "rah": 8431, "\u0120bother": 8432, "\u0120brands": 8433, "\u0120pink": 8434, "sa": 8435, "reck": 8436, "otte": 8437, "\u0120landed": 8438, "gets": 8439, "\u0120producers": 8440, "\u0120healthcare": 8441, "\u0120dominant": 8442, "\u0120destro": 8443, "\u0120amended": 8444, "chron": 8445, "\u0120fits": 8446, "\u0120fights": 8447, "\u0120toxic": 8448, "specific": 8449, "\u0120telephone": 8450, "\u0120mysterious": 8451, "aunch": 8452, "odox": 8453, "media": 8454, "\u0120witnesses": 8455, "agu": 8456, "\u0120questioned": 8457, "enez": 8458, "\u0120endorse": 8459, "iatric": 8460, "\u0120ridiculous": 8461, "\u0120prayer": 8462, "\u0120scientist": 8463, "\u0120underground": 8464, "mare": 8465, "wich": 8466, "\u0120subscrib": 8467, "\u0120hosts": 8468, "\u0120err": 8469, "\u0120grants": 8470, "antom": 8471, "\u0120summon": 8472, "early": 8473, "\u0120suspension": 8474, "\u0120guaranteed": 8475, "apper": 8476, "\u0120rice": 8477, "\u0120referendum": 8478, "\u0120fled": 8479, "rust": 8480, "tery": 8481, "\u0120shocked": 8482, "\u0120partly": 8483, "\u0120ignor": 8484, "\u0120transmission": 8485, "\u0120homosexual": 8486, "iversal": 8487, "\u0120hopefully": 8488, "\u0120lesson": 8489, "table": 8490, "appropri": 8491, "rett": 8492, "\u0120boards": 8493, "\u0120incorrect": 8494, "\u0120bacteria": 8495, "aru": 8496, "amac": 8497, "\u0120snap": 8498, "\u0120parad": 8499, "tem": 8500, "heart": 8501, "\u0120availability": 8502, "\u0120wisdom": 8503, "\u0120priest": 8504, "\u0120span": 8505, "\u0120parameter": 8506, "\u0120convince": 8507, "rac": 8508, "\u0120fo": 8509, "\u0120safely": 8510, "\u0120converted": 8511, "\u0120reserve": 8512, "\u0120healing": 8513, "\u0120inherent": 8514, "\u0120integrated": 8515, "\u0120pipeline": 8516, "\u0120applying": 8517, "\u0120embed": 8518, "\u0120cave": 8519, "\u0120consensus": 8520, "\u0120rewards": 8521, "\u0120popularity": 8522, "looking": 8523, "\u0120electron": 8524, "clusions": 8525, "\u0120integrity": 8526, "\u0120exclusively": 8527, "\u0120grace": 8528, "\u0120torture": 8529, "\u0120burned": 8530, "two": 8531, "\u0120entreprene": 8532, "raphics": 8533, "\u0120gym": 8534, "ricane": 8535, "\u0120administrative": 8536, "\u0120manufacturer": 8537, "\u0120vel": 8538, "\u0120isolated": 8539, "\u0120backup": 8540, "\u0120promoting": 8541, "\u0120commander": 8542, "\u0120flee": 8543, "\u0120forgotten": 8544, "\u0120residence": 8545, "mons": 8546, "\u0120resemb": 8547, "\u0120wand": 8548, "\u0120meaningful": 8549, "\u0120bol": 8550, "\u0120helic": 8551, "\u0120wealthy": 8552, "\u0120rifle": 8553, "strong": 8554, "rowing": 8555, "plan": 8556, "asury": 8557, "\u0120expanding": 8558, "\u0120receives": 8559, "eatures": 8560, "\u0120briefly": 8561, "rive": 8562, "\u0120stimul": 8563, "\u0120chip": 8564, "\u0120haz": 8565, "\u0120prize": 8566, "ulin": 8567, "dict": 8568, "oku": 8569, "\u0120associate": 8570, "ockets": 8571, "youtube": 8572, "ategory": 8573, "\u0120mild": 8574, "ailing": 8575, "orig": 8576, "\u0120propaganda": 8577, "\u0120anonymous": 8578, "\u0120struggled": 8579, "\u0120outrage": 8580, "rary": 8581, "\u0120leather": 8582, "\u0120worlds": 8583, "\u0120broader": 8584, "idal": 8585, "\u0120tear": 8586, "\u0120proposals": 8587, "\u0120iter": 8588, "\u0120volunt": 8589, "mi": 8590, "pin": 8591, "\u0120speakers": 8592, "\u0120borders": 8593, "\u0120figured": 8594, "\u0120simultaneously": 8595, "aeda": 8596, "\u0120charging": 8597, "\u0120urged": 8598, "\u0120conj": 8599, "merce": 8600, "\u0120documentary": 8601, "itol": 8602, "hatt": 8603, "aneous": 8604, "apore": 8605, "\u0120tanks": 8606, "\u0120lessons": 8607, "track": 8608, "\u0120outstanding": 8609, "\u0120volunteers": 8610, "\u0120spray": 8611, "\u0120managers": 8612, "large": 8613, "\u0120camps": 8614, "\u0120artificial": 8615, "\u0120bags": 8616, "thal": 8617, "\u0120compatible": 8618, "\u0120fed": 8619, "\u0120argues": 8620, "\u0120unfair": 8621, "\u0120corn": 8622, "\u0120offset": 8623, "\u0120directions": 8624, "\u0120disappointed": 8625, "\u0120viewing": 8626, "ocity": 8627, "\u0120towns": 8628, "\u0120layers": 8629, "\u0120rolled": 8630, "\u0120jumped": 8631, "\u0120attribute": 8632, "\u0120unnecess": 8633, "incoln": 8634, "\u0120suppose": 8635, "cha": 8636, "\u0120buried": 8637, "\u0120sixth": 8638, "ressing": 8639, "\u0120wound": 8640, "\u0120cycl": 8641, "\u0120mechanisms": 8642, "\u0120congressional": 8643, "\u0120agreements": 8644, "\u0120decor": 8645, "\u0120closest": 8646, "\u0120mixture": 8647, "\u0120fluid": 8648, "\u0120pist": 8649, "asket": 8650, "abling": 8651, "\u0120racing": 8652, "hero": 8653, "riel": 8654, "assy": 8655, "\u0120cheaper": 8656, "ben": 8657, "\u0120vertical": 8658, "amacare": 8659, "gments": 8660, "\u0120helicop": 8661, "\u0120sacrifice": 8662, "aya": 8663, "paren": 8664, "\u0120violations": 8665, "acer": 8666, "\u0120composition": 8667, "\u0120texture": 8668, "\u0120smartphone": 8669, "\u0120forb": 8670, "import": 8671, "\u0120defending": 8672, "ilst": 8673, "rer": 8674, "\u0120oh": 8675, "\u0120banking": 8676, "ceptions": 8677, "\u0120respective": 8678, "\u0120drinks": 8679, "\u0120bands": 8680, "\u0120grip": 8681, "\u0120openly": 8682, "\u0120reviewed": 8683, "pert": 8684, "\u0120verify": 8685, "\u0120unpre": 8686, "\u0120shelter": 8687, "\u0120gui": 8688, "\u0120suggestions": 8689, "\u0120explicitly": 8690, "\u0120slave": 8691, "\u0120blockchain": 8692, "\u0120competing": 8693, "\u0120promising": 8694, "\u0120soccer": 8695, "\u0120constitution": 8696, "\u0120distract": 8697, "esides": 8698, "\u0120accompanied": 8699, "sur": 8700, "alog": 8701, "\u0120identification": 8702, "\u0120invasion": 8703, "asma": 8704, "\u0120industries": 8705, "ppers": 8706, "\u0120subtle": 8707, "natural": 8708, "\u0120survived": 8709, "\u0120flaw": 8710, "\u0120deficit": 8711, "\u0120tutorial": 8712, "\u0120arguing": 8713, "\u0120contemporary": 8714, "\u0120integration": 8715, "forward": 8716, "\u0120tum": 8717, "itis": 8718, "\u0120hiding": 8719, "\u0120spokesperson": 8720, "\u0120emerging": 8721, "\u0120preparation": 8722, "\u0120prost": 8723, "\u0120suspects": 8724, "\u0120autonom": 8725, "\u0120dealt": 8726, "\u0120steady": 8727, "\u0120decreased": 8728, "\u0120sovere": 8729, "\u0120gradually": 8730, "orses": 8731, "hr": 8732, "\u0120dirty": 8733, "\u0120dil": 8734, "\u0120calendar": 8735, "\u0120compliance": 8736, "\u0120chamber": 8737, "bb": 8738, "\u0120passenger": 8739, "ateful": 8740, "\u0120darkness": 8741, "\u0120defect": 8742, "\u0120packed": 8743, "assion": 8744, "\u0120gods": 8745, "\u0120harsh": 8746, "leans": 8747, "\u0120algorithm": 8748, "\u0120oxygen": 8749, "\u0120visits": 8750, "\u0120blade": 8751, "\u0120kilomet": 8752, "\u0120killer": 8753, "enny": 8754, "\u0120divine": 8755, "\u0120nomination": 8756, "being": 8757, "\u0120engines": 8758, "\u0120cats": 8759, "\u0120buffer": 8760, "\u0120traff": 8761, "\u0120tongue": 8762, "\u0120radiation": 8763, "erer": 8764, "mem": 8765, "\u0120couples": 8766, "\u0120physics": 8767, "\u0120politically": 8768, "awks": 8769, "\u0120worship": 8770, "eger": 8771, "uter": 8772, "\u0120mathemat": 8773, "\u0120sentenced": 8774, "\u0120disk": 8775, "\u0120optional": 8776, "\u0120babies": 8777, "\u0120seeds": 8778, "\u0120thy": 8779, "ngth": 8780, "\u0120recovered": 8781, "inge": 8782, "\u0120powder": 8783, "\u0120lips": 8784, "\u0120designer": 8785, "\u0120disorders": 8786, "\u0120courage": 8787, "\u0120chaos": 8788, "\u0120carrier": 8789, "bably": 8790, "esity": 8791, "len": 8792, "\u0120routes": 8793, "uating": 8794, "wall": 8795, "sburgh": 8796, "\u0120engaging": 8797, "orer": 8798, "lihood": 8799, "\u0120unions": 8800, "\u0120completion": 8801, "\u0120privilege": 8802, "\u0120neur": 8803, "parency": 8804, "\u0120bones": 8805, "\u0120titled": 8806, "\u0120prosecutors": 8807, "\u0120engineer": 8808, "nie": 8809, "oard": 8810, "\u0120hearts": 8811, "ussion": 8812, "\u0120ministry": 8813, "\u0120penet": 8814, "instein": 8815, "\u0120bulk": 8816, "icism": 8817, "\u0120preval": 8818, "\u0120poster": 8819, "\u0120attending": 8820, "urable": 8821, "\u0120licensed": 8822, "etry": 8823, "\u0120blast": 8824, "elled": 8825, "die": 8826, "\u0120profound": 8827, "\u0120participating": 8828, "\u0120anime": 8829, "\u0120specify": 8830, "\u0120regarded": 8831, "\u0120sons": 8832, "owned": 8833, "\u0120merc": 8834, "\u0120experimental": 8835, "lando": 8836, "hs": 8837, "inos": 8838, "\u0120comply": 8839, "arth": 8840, "\u0120seized": 8841, "local": 8842, "udo": 8843, "oned": 8844, "\u0120constructed": 8845, "\u0120hosted": 8846, "\u0120scared": 8847, "actic": 8848, "\u0120bless": 8849, "\u0120blocking": 8850, "\u0120chips": 8851, "\u0120evac": 8852, "\u0120corporation": 8853, "\u0120ox": 8854, "\u0120lighting": 8855, "\u0120neighbors": 8856, "aro": 8857, "\u0120beef": 8858, "armed": 8859, "itate": 8860, "\u0120occupied": 8861, "\u0120aims": 8862, "\u0120dramatically": 8863, "\u0120heal": 8864, "\u0120painting": 8865, "\u0120engineers": 8866, "\u0120quantity": 8867, "\u0120earnings": 8868, "stra": 8869, "\u0120stance": 8870, "\u0120dropping": 8871, "script": 8872, "\u0120dressed": 8873, "\u0120justify": 8874, "\u0120prompted": 8875, "\u0120scrut": 8876, "\u0120speeds": 8877, "omer": 8878, "\u0120describing": 8879, "mented": 8880, "\u0120nowhere": 8881, "ocaly": 8882, "\u0120instruction": 8883, "fortable": 8884, "\u0120entities": 8885, "\u0120cm": 8886, "\u0120inquiry": 8887, "\u0120pressed": 8888, "izont": 8889, "forced": 8890, "\u0120raises": 8891, "\u0120outer": 8892, "\u0120amongst": 8893, "ims": 8894, "owski": 8895, "\u0120climb": 8896, "never": 8897, "\u0120combine": 8898, "ding": 8899, "\u0120compr": 8900, "\u0120significance": 8901, "\u0120remembered": 8902, "\u0120coup": 8903, "bas": 8904, "\u0120terminal": 8905, "\u0120tension": 8906, "\u0120wings": 8907, "valid": 8908, "vironments": 8909, "\u0120naked": 8910, "books": 8911, "\u0120density": 8912, "\u0120dimin": 8913, "\u0120desperate": 8914, "\u0120presidency": 8915, "hy": 8916, "\u0120unlock": 8917, "imens": 8918, "\u0120handled": 8919, "\u0120disappeared": 8920, "\u0120genre": 8921, "\u0120determination": 8922, "iko": 8923, "apters": 8924, "\u0120acknowledge": 8925, "\u0120capitalism": 8926, "\u0120painful": 8927, "\u0120curve": 8928, "\u0120bombs": 8929, "storm": 8930, "encer": 8931, "anches": 8932, "\u0120inspiration": 8933, "\u0120exhaust": 8934, "tains": 8935, "ashi": 8936, "\u0120descript": 8937, "\u0120ritual": 8938, "\u0120promotion": 8939, "iva": 8940, "\u0120toss": 8941, "allow": 8942, "\u0120happiness": 8943, "\u0120beta": 8944, "\u0120strengthen": 8945, "oa": 8946, "\u0120buttons": 8947, "\u0120kicked": 8948, "\u0120drone": 8949, "ulk": 8950, "\u0120cam": 8951, "\u0120preventing": 8952, "\u0120retro": 8953, "\u0120cruel": 8954, "\u0120float": 8955, "\u0120filing": 8956, "\u0120rib": 8957, "\u0120championship": 8958, "\u0120styles": 8959, "\u0120cake": 8960, "\u0120builds": 8961, "iox": 8962, "\u0120epic": 8963, "oyd": 8964, "ahu": 8965, "\u0120outs": 8966, "\u0120solo": 8967, "\u0120preserve": 8968, "\u0120tub": 8969, "roc": 8970, "\u0120bund": 8971, "\u0120traged": 8972, "\u0120occasional": 8973, "bian": 8974, "rons": 8975, "\u0120interactions": 8976, "formed": 8977, "sing": 8978, "\u0120owns": 8979, "\u0120hockey": 8980, "\u0120logical": 8981, "\u0120expend": 8982, "\u0120escal": 8983, "\u0120stopping": 8984, "\u0120excuse": 8985, "second": 8986, "\u0120operated": 8987, "\u0120reaches": 8988, "\u0120pollution": 8989, "\u0120delete": 8990, "\u0120hash": 8991, "aha": 8992, "\u0120shorter": 8993, "piece": 8994, "\u0120horm": 8995, "\u0120prohibited": 8996, "\u0120intensity": 8997, "\u0120liability": 8998, "anded": 8999, "\u0120neighbour": 9000, "\u0120fires": 9001, "\u0120revolutionary": 9002, "fly": 9003, "\u0120settle": 9004, "\u0120execute": 9005, "\u0120spokeswoman": 9006, "\u0120lifestyle": 9007, "\u0120clicking": 9008, "\u0120trailer": 9009, "\u0120mountains": 9010, "\u0120damn": 9011, "zes": 9012, "pes": 9013, "\u0120pressing": 9014, "\u0120bail": 9015, "\u0120pir": 9016, "\u0120thirty": 9017, "\u0120electrical": 9018, "\u0120demanded": 9019, "\u0120backing": 9020, "default": 9021, "speed": 9022, "\u0120mothers": 9023, "\u0120variation": 9024, "cedented": 9025, "powered": 9026, "leading": 9027, "\u0120grave": 9028, "\u0120interviewed": 9029, "\u0120rookie": 9030, "uu": 9031, "\u0120depos": 9032, "ixon": 9033, "\u0120ampl": 9034, "retion": 9035, "\u0120peaceful": 9036, "ieve": 9037, "\u0120diver": 9038, "\u0120mic": 9039, "pdf": 9040, "\u0120stating": 9041, "\u0120lung": 9042, "\u0120criticized": 9043, "\u0120vaccine": 9044, "urse": 9045, "\u0120detected": 9046, "\u0120adjusted": 9047, "\u0120senator": 9048, "\u0120opposing": 9049, "\u0120conflicts": 9050, "\u0120ow": 9051, "\u0120matching": 9052, "hh": 9053, "starter": 9054, "oder": 9055, "xxxx": 9056, "acre": 9057, "\u0120src": 9058, "\u0120engagement": 9059, "\u0120executives": 9060, "\u0120liberty": 9061, "java": 9062, "\u0120talented": 9063, "igenous": 9064, "\u0120consecut": 9065, "\u0120horrible": 9066, "\u0120surprisingly": 9067, "feed": 9068, "icating": 9069, "\u0120females": 9070, "eller": 9071, "\u0120mechanical": 9072, "iology": 9073, "\u0120robust": 9074, "ettings": 9075, "otta": 9076, "\u0120theoret": 9077, "\u0120retain": 9078, "kward": 9079, "\u0120da": 9080, "\u0120deployed": 9081, "del": 9082, "\u0120subscribe": 9083, "web": 9084, "\u0120na": 9085, "\u0120partially": 9086, "\u0120crown": 9087, "rator": 9088, "\u0120documented": 9089, "gi": 9090, "chell": 9091, "\u0120brutal": 9092, "stration": 9093, "\u0120theft": 9094, "\u0120tube": 9095, "\u0120query": 9096, "\u0120publishing": 9097, "\u0120wore": 9098, "orical": 9099, "\u0120ric": 9100, "\u0120notable": 9101, "\u0120subsequently": 9102, "nex": 9103, "\u0120observe": 9104, "\u0120codes": 9105, "main": 9106, "\u0120residential": 9107, "avan": 9108, "\u0120mas": 9109, "arest": 9110, "adeon": 9111, "\u0120sophistic": 9112, "ante": 9113, "\u0120cens": 9114, "\u0120mortality": 9115, "\u0120yours": 9116, "\u0120occasions": 9117, "\u0120recalled": 9118, "\u0120vocal": 9119, "\u0120bathroom": 9120, "\u0120shops": 9121, "\u0120collaboration": 9122, "\u0120tends": 9123, "\u0120torn": 9124, "\u0120economics": 9125, "avery": 9126, "\u0120shoulders": 9127, "\u0120expecting": 9128, "\u0120examination": 9129, "ename": 9130, "iability": 9131, "olas": 9132, "\u0120midfield": 9133, "\u0120layout": 9134, "\u0120floating": 9135, "fi": 9136, "itative": 9137, "\u0120tremendous": 9138, "\u0120abund": 9139, "\u0120similarly": 9140, "\u0120conservatives": 9141, "\u0120pray": 9142, "izarre": 9143, "\u0120tempt": 9144, "\u0120emphasis": 9145, "\u0120fishing": 9146, "\u0120marry": 9147, "neg": 9148, "\u0120reck": 9149, "\u0120dispos": 9150, "oning": 9151, "bsite": 9152, "\u0120suspic": 9153, "\u0120merch": 9154, "whe": 9155, "\u0120environments": 9156, "ooting": 9157, "eu": 9158, "\u0120reflects": 9159, "\u0120honey": 9160, "\u0120analyst": 9161, "\u0120gut": 9162, "dec": 9163, "\u0120households": 9164, "\u0120ster": 9165, "\u0120temple": 9166, "\u0120reforms": 9167, "\u0120favourite": 9168, "\u0120deadline": 9169, "\u0120nights": 9170, "elta": 9171, "\u0120invalid": 9172, "when": 9173, "income": 9174, "\u0120wireless": 9175, "scribe": 9176, "ista": 9177, "\u0120hostile": 9178, "\u0120ally": 9179, "\u0120gig": 9180, "\u0120outlets": 9181, "\u0120ash": 9182, "\u0120abstract": 9183, "\u0120adviser": 9184, "istle": 9185, "\u0120bases": 9186, "\u0120courtesy": 9187, "\u0120crossing": 9188, "\u0120cleared": 9189, "\u0120refugee": 9190, "cosystem": 9191, "\u0120throws": 9192, "fun": 9193, "bourne": 9194, "days": 9195, "\u0120disagree": 9196, "\u0120reflected": 9197, "\u0120embrace": 9198, "\u0120appointment": 9199, "itement": 9200, "\u0120placing": 9201, "\u0120bicy": 9202, "\u0120whis": 9203, "\u0120investigated": 9204, "\u0120photographs": 9205, "github": 9206, "ighed": 9207, "iar": 9208, "\u0120evolved": 9209, "erald": 9210, "\u0120dun": 9211, "\u0120hub": 9212, "\u0120encouraging": 9213, "\u0120prosecution": 9214, "\u0120pants": 9215, "azy": 9216, "live": 9217, "\u0120fossil": 9218, "\u0120rocks": 9219, "udge": 9220, "\u0120greet": 9221, "bie": 9222, "\u0120filling": 9223, "\u0120diabetes": 9224, "\u0120firearms": 9225, "uming": 9226, "enezuel": 9227, "\u0120accepting": 9228, "\u0120resort": 9229, "\u0120hunt": 9230, "rik": 9231, "ucker": 9232, "aments": 9233, "\u0120sustained": 9234, "\u0120crossed": 9235, "\u0120breakfast": 9236, "\u0120attributes": 9237, "lected": 9238, "atile": 9239, "\u0120vibr": 9240, "arson": 9241, "oples": 9242, "\u0120touched": 9243, "\u0120damages": 9244, "\u0120impressed": 9245, "rup": 9246, "\u0120anch": 9247, "\u0120mounted": 9248, "\u0120delicious": 9249, "span": 9250, "ella": 9251, "\u0120elabor": 9252, "amples": 9253, "\u0120defic": 9254, "\u0120constitu": 9255, "uates": 9256, "bes": 9257, "hill": 9258, "munition": 9259, "\u0120confirmation": 9260, "acent": 9261, "\u0120jet": 9262, "nan": 9263, "\u0120processor": 9264, "\u0120patri": 9265, "\u0120realistic": 9266, "\u0120appearing": 9267, "\u0120pipe": 9268, "omed": 9269, "\u0120fru": 9270, "\u0120awful": 9271, "\u0120evaluation": 9272, "\u0120intelligent": 9273, "\u0120fundra": 9274, "odium": 9275, "\u0120tweets": 9276, "\u0120worn": 9277, "pring": 9278, "\u0120kidn": 9279, "\u0120rebels": 9280, "\u0120acquisition": 9281, "ombies": 9282, "\u0120tradem": 9283, "\u0120adverse": 9284, "sign": 9285, "\u0120organisation": 9286, "enc": 9287, "apor": 9288, "\u0120scratch": 9289, "\u0120sensor": 9290, "\u0120adoption": 9291, "\u0120honestly": 9292, "\u0120yard": 9293, "\u0120patent": 9294, "\u0120bass": 9295, "\u0120quietly": 9296, "\u0120breathing": 9297, "\u0120pose": 9298, "iors": 9299, "static": 9300, "\u0120jew": 9301, "wcs": 9302, "\u0120preview": 9303, "ippi": 9304, "\u0120unfortunately": 9305, "okemon": 9306, "\u0120horn": 9307, "\u0120reass": 9308, "\u0120peer": 9309, "ocker": 9310, "\u0120unto": 9311, "\u0120cleaning": 9312, "\u0120attracted": 9313, "kill": 9314, "urches": 9315, "\u0120horr": 9316, "\u0120worthy": 9317, "\u0120flowers": 9318, "town": 9319, "dll": 9320, "\u0120reactions": 9321, "\u0120dece": 9322, "\u0120indicating": 9323, "\u0120preference": 9324, "essional": 9325, "gence": 9326, "\u0120misc": 9327, "\u0120freely": 9328, "\u0120muscles": 9329, "\u0120lineup": 9330, "\u0120impacts": 9331, "ousing": 9332, "omi": 9333, "acular": 9334, "\u0120controlling": 9335, "agine": 9336, "cery": 9337, "hell": 9338, "\u0120ranking": 9339, "\u0120highway": 9340, "\u0120incons": 9341, "\u0120binding": 9342, "\u0120struggles": 9343, "\u0120gray": 9344, "rin": 9345, "\u0120comics": 9346, "\u0120relatives": 9347, "\u0120fright": 9348, "\u0120probe": 9349, "\u0120voc": 9350, "\u0120tu": 9351, "\u0120possibilities": 9352, "\u0120qualify": 9353, "wcsstore": 9354, "\u0120libraries": 9355, "\u0120migrants": 9356, "\u0120entries": 9357, "\u0120consecutive": 9358, "vals": 9359, "\u0120hill": 9360, "\u0120inequality": 9361, "fox": 9362, "\u0120cort": 9363, "claimed": 9364, "\u0120traits": 9365, "\u0120pour": 9366, "\u0120missiles": 9367, "\u0120essence": 9368, "\u0120sends": 9369, "\u0120alliance": 9370, "\u0120wishes": 9371, "san": 9372, "urred": 9373, "lly": 9374, "\u0120advocate": 9375, "\u0120districts": 9376, "ridge": 9377, "boards": 9378, "\u0120influenced": 9379, "apy": 9380, "\u0120challenged": 9381, "\u0120barg": 9382, "\u0120faculty": 9383, "\u0120acquire": 9384, "\u0120insect": 9385, "\u0120instruments": 9386, "\u0120leaf": 9387, "thodox": 9388, "\u0120tale": 9389, "\u0120thereby": 9390, "\u0120trap": 9391, "\u0120strongest": 9392, "isible": 9393, "etheless": 9394, "\u0120flexible": 9395, "\u0120kills": 9396, "\u0120finishing": 9397, "\u0120reduces": 9398, "\u0120epid": 9399, "\u0120orientation": 9400, "full": 9401, "\u0120trace": 9402, "\u0120laser": 9403, "\u0120oppose": 9404, "\u0120editing": 9405, "\u0120momentum": 9406, "show": 9407, "\u0120murdered": 9408, "uther": 9409, "\u0120probability": 9410, "\u0120reluct": 9411, "\u0120adequate": 9412, "umph": 9413, "\u0120ok": 9414, "\u0120operators": 9415, "\u0120modes": 9416, "\u0120discipline": 9417, "\u0120oral": 9418, "email": 9419, "\u0120hence": 9420, "\u0120overl": 9421, "dig": 9422, "\u0120intimid": 9423, "\u0120ranging": 9424, "tha": 9425, "\u0120distant": 9426, "\u0120fib": 9427, "hattan": 9428, "rait": 9429, "\u0120wrapped": 9430, "\u0120chemicals": 9431, "\u0120frozen": 9432, "\u0120indirect": 9433, "\u0120uncomfortable": 9434, "onduct": 9435, "\u0120consequence": 9436, "\u0120bitter": 9437, "pop": 9438, "\u0120countless": 9439, "ffff": 9440, "\u0120departure": 9441, "\u0120refund": 9442, "iated": 9443, "\u0120seeks": 9444, "\u0120mechanics": 9445, "\u0120jurisdiction": 9446, "lynn": 9447, "\u0120alike": 9448, "athon": 9449, "\u0120resolved": 9450, "\u0120cache": 9451, "\u0120distinction": 9452, "direct": 9453, "\u0120encount": 9454, "oub": 9455, "beat": 9456, "search": 9457, "\u0120continuous": 9458, "\u0120modest": 9459, "thood": 9460, "\u0120criminals": 9461, "\u0120indication": 9462, "\u0120encountered": 9463, "last": 9464, "\u0120ideology": 9465, "security": 9466, "\u0120hiring": 9467, "\u0120pig": 9468, "aunt": 9469, "\u0120penalties": 9470, "\u0120capability": 9471, "\u0120py": 9472, "\u0120productive": 9473, "\u0120balanced": 9474, "click": 9475, "olitan": 9476, "ods": 9477, "\u0120afterwards": 9478, "\u0120playoffs": 9479, "\u0120backs": 9480, "pub": 9481, "tag": 9482, "\u0120absurd": 9483, "piring": 9484, "\u0120citing": 9485, "\u0120trillion": 9486, "\u0120obligation": 9487, "\u0120maxim": 9488, "ahoo": 9489, "cf": 9490, "umi": 9491, "\u0120pursuant": 9492, "initely": 9493, "\u0120fract": 9494, "entry": 9495, "bery": 9496, "\u0120awkward": 9497, "\u0120wallet": 9498, "arios": 9499, "\u0120releasing": 9500, "\u0120edited": 9501, "\u0120accomplished": 9502, "\u0120edges": 9503, "\u0120planes": 9504, "\u0120feeding": 9505, "\u0120disclosure": 9506, "\u0120grain": 9507, "airy": 9508, "oons": 9509, "ernand": 9510, "\u0120reasonably": 9511, "\u0120drum": 9512, "\u0120partial": 9513, "\u0120graphic": 9514, "\u0120unprecedented": 9515, "\u0120advised": 9516, "points": 9517, "scar": 9518, "ttes": 9519, "vo": 9520, "\u0120fixes": 9521, "\u0120caution": 9522, "\u0120strings": 9523, "\u0120panels": 9524, "\u0120leak": 9525, "\u0120pricing": 9526, "rowth": 9527, "fix": 9528, "\u0120observations": 9529, "\u0120suggestion": 9530, "\u0120barrier": 9531, "\u0120painted": 9532, "imir": 9533, "pot": 9534, "orneys": 9535, "\u0120compound": 9536, "\u0120bears": 9537, "\u0120luxury": 9538, "\u0120orbit": 9539, "\u0120exempt": 9540, "ocused": 9541, "uminum": 9542, "\u0120bust": 9543, "\u0120endless": 9544, "keys": 9545, "define": 9546, "lean": 9547, "\u0120commod": 9548, "\u0120revenues": 9549, "\u0120furniture": 9550, "\u0120casting": 9551, "\u0120diplomatic": 9552, "\u0120modify": 9553, "\u0120innovative": 9554, "nor": 9555, "\u0120bonds": 9556, "\u0120coaching": 9557, "\u0120modules": 9558, "\u0120enhanced": 9559, "\u0120proceedings": 9560, "\u0120teammates": 9561, "ardo": 9562, "\u0120compromise": 9563, "\u0120flew": 9564, "\u0120unnecessary": 9565, "\u0120doctrine": 9566, "report": 9567, "\u0120playoff": 9568, "friendly": 9569, "\u0120complain": 9570, "\u0120beaten": 9571, "\u0120golf": 9572, "\u0120placement": 9573, "\u0120newsletter": 9574, "visor": 9575, "rawl": 9576, "\u0120acted": 9577, "\u0120juice": 9578, "\u0120decks": 9579, "success": 9580, "\u0120deleted": 9581, "\u0120secrets": 9582, "\u0120asylum": 9583, "\u0120dys": 9584, "\u0120assuming": 9585, "\u0120mana": 9586, "\u0120subur": 9587, "ride": 9588, "cp": 9589, "\u0120difficulties": 9590, "\u0120collecting": 9591, "\u0120bankrupt": 9592, "non": 9593, "\u0120composed": 9594, "\u0120volt": 9595, "\u0120militants": 9596, "tor": 9597, "\u0120particles": 9598, "ryption": 9599, "\u0120admin": 9600, "\u0120squee": 9601, "\u0120creator": 9602, "iameter": 9603, "icular": 9604, "\u0120grabbed": 9605, "\u0120nodd": 9606, "\u0120rated": 9607, "\u0120rotation": 9608, "\u0120grasp": 9609, "\u0120excessive": 9610, "\u0120inventory": 9611, "aults": 9612, "\u0120ecosystem": 9613, "\u0120billions": 9614, "\u0120venture": 9615, "named": 9616, "\u0120defender": 9617, "oute": 9618, "irable": 9619, "\u0120assumption": 9620, "\u0120bite": 9621, "\u0120earthqu": 9622, "tail": 9623, "space": 9624, "\u0120gifts": 9625, "boys": 9626, "\u0120inevitable": 9627, "\u0120structural": 9628, "\u0120beneficial": 9629, "\u0120compelling": 9630, "hole": 9631, "ervation": 9632, "\u0120coat": 9633, "oj": 9634, "incarn": 9635, "\u0120determining": 9636, "\u0120rhetoric": 9637, "\u0120boundaries": 9638, "\u0120whites": 9639, "addy": 9640, "raham": 9641, "etermin": 9642, "\u0120harvest": 9643, "\u0120laptop": 9644, "\u0120enjoying": 9645, "cca": 9646, "ollar": 9647, "\u0120trips": 9648, "\u0120addiction": 9649, "\u0120powered": 9650, "\u0120cous": 9651, "iere": 9652, "\u0120retrie": 9653, "quality": 9654, "\u0120differ": 9655, "\u0120kingdom": 9656, "\u0120conclusions": 9657, "\u0120transparent": 9658, "\u0120infer": 9659, "\u0120intrig": 9660, "\u0120insane": 9661, "ophob": 9662, "isen": 9663, "qual": 9664, "\u0120museum": 9665, "\u0120reset": 9666, "rative": 9667, "five": 9668, "\u0120aggreg": 9669, "ittees": 9670, "ository": 9671, "\u0120carb": 9672, "\u0120decides": 9673, "\u0120exceptions": 9674, "uns": 9675, "\u0120legendary": 9676, "istence": 9677, "\u0120tunnel": 9678, "km": 9679, "\u0120insult": 9680, "\u0120troll": 9681, "\u0120shake": 9682, "\u0120detention": 9683, "ques": 9684, "\u0120subt": 9685, "\u0120prospects": 9686, "\u0120prol": 9687, "render": 9688, "proof": 9689, "\u0120performances": 9690, "\u0120href": 9691, "ername": 9692, "\u0120achievement": 9693, "\u0120fut": 9694, "google": 9695, "ampa": 9696, "\u0120projected": 9697, "\u0120colleg": 9698, "\u0120awards": 9699, "ifting": 9700, "\u0120pending": 9701, "\u0120instinct": 9702, "\u0120developments": 9703, "profile": 9704, "\u0120altogether": 9705, "oooo": 9706, "amped": 9707, "iph": 9708, "\u0120steam": 9709, "\u0120oldest": 9710, "\u0120detection": 9711, "ulpt": 9712, "fa": 9713, "\u0120circles": 9714, "\u0120donors": 9715, "appropriate": 9716, "jamin": 9717, "\u0120motivated": 9718, "\u0120purchases": 9719, "\u0120globe": 9720, "zip": 9721, "call": 9722, "\u0120departments": 9723, "\u0120sustainable": 9724, "ifiers": 9725, "\u0120prevented": 9726, "\u0120incomp": 9727, "\u0120dominated": 9728, "\u0120invested": 9729, "\u0120complexity": 9730, "\u0120incl": 9731, "\u0120ensuring": 9732, "\u0120realm": 9733, "ync": 9734, "rained": 9735, "\u0120athe": 9736, "\u0120speculation": 9737, "ocate": 9738, "tic": 9739, "\u0120plaint": 9740, "herry": 9741, "\u0120toy": 9742, "\u0120plates": 9743, "status": 9744, "\u0120devoted": 9745, "urrency": 9746, "\u0120slaves": 9747, "\u0120pepper": 9748, "\u0120quotes": 9749, "\u0120ceiling": 9750, "\u0120transformation": 9751, "\u0120fraction": 9752, "\u0120advantages": 9753, "\u0120toile": 9754, "\u0120stunning": 9755, "\u0120moist": 9756, "breaking": 9757, "si": 9758, "\u0120texts": 9759, "\u0120ugly": 9760, "\u0120bio": 9761, "\u0120trains": 9762, "adesh": 9763, "obi": 9764, "\u0120temporarily": 9765, "hu": 9766, "oser": 9767, "\u0120overnight": 9768, "\u0120mamm": 9769, "\u0120tar": 9770, "\u0120expects": 9771, "black": 9772, "orph": 9773, "\u0120acceptance": 9774, "\u0120radar": 9775, "sis": 9776, "\u0120junior": 9777, "\u0120frames": 9778, "\u0120observation": 9779, "acies": 9780, "ologically": 9781, "\u0120sentences": 9782, "\u0120analysts": 9783, "aughters": 9784, "forcement": 9785, "\u0120vague": 9786, "\u0120clause": 9787, "\u0120directors": 9788, "\u0120evaluate": 9789, "\u0120cabinet": 9790, "\u0120cler": 9791, "\u0120researcher": 9792, "\u0120poorly": 9793, "\u0120experiencing": 9794, "\u0120freed": 9795, "\u0120themes": 9796, "advant": 9797, "\u0120nin": 9798, "\u0120praise": 9799, "best": 9800, "\u0120trusted": 9801, "\u0120cease": 9802, "\u0120dign": 9803, "\u0120bombing": 9804, "\u0120migration": 9805, "\u0120municipal": 9806, "\u0120glory": 9807, "\u0120revealing": 9808, "\u0120arena": 9809, "\u0120uncertainty": 9810, "\u0120battlefield": 9811, "iao": 9812, "\u0120cinem": 9813, "rape": 9814, "elle": 9815, "apons": 9816, "\u0120listing": 9817, "\u0120waited": 9818, "\u0120spotted": 9819, "keley": 9820, "eor": 9821, "arding": 9822, "idding": 9823, "igma": 9824, "\u0120lone": 9825, "exe": 9826, "deg": 9827, "\u0120transf": 9828, "\u0120wash": 9829, "\u0120slavery": 9830, "\u0120exploring": 9831, "atson": 9832, "\u0120encl": 9833, "lies": 9834, "\u0120wooden": 9835, "ummy": 9836, "\u0120bureaucr": 9837, "\u0120blend": 9838, "arians": 9839, "\u0120supposedly": 9840, "\u0120winds": 9841, "\u0120gravity": 9842, "\u0120analyses": 9843, "\u0120dumb": 9844, "\u0120alternate": 9845, "gal": 9846, "\u0120consumed": 9847, "\u0120effectiveness": 9848, "\u0120paths": 9849, "onda": 9850, "\u0120enables": 9851, "\u0120escaped": 9852, "\u0120smiled": 9853, "\u0120tendency": 9854, "\u0120pars": 9855, "\u0120lake": 9856, "\u0120fitness": 9857, "\u0120hier": 9858, "\u0120impose": 9859, "mother": 9860, "\u0120pension": 9861, "icut": 9862, "borne": 9863, "iciary": 9864, "\u0120polar": 9865, "isy": 9866, "engu": 9867, "itialized": 9868, "write": 9869, "\u0120exercises": 9870, "otypes": 9871, "\u0120harmful": 9872, "onz": 9873, "\u0120printing": 9874, "story": 9875, "\u0120expertise": 9876, "\u0120tragedy": 9877, "\u0120divid": 9878, "ampire": 9879, "stock": 9880, "\u0120reign": 9881, "\u0120unve": 9882, "\u0120amend": 9883, "\u0120mutual": 9884, "\u0120replacing": 9885, "\u0120throat": 9886, "\u0120batteries": 9887, "\u0120toll": 9888, "\u0120addressing": 9889, "\u0120pupp": 9890, "olk": 9891, "\u0120equity": 9892, "mid": 9893, "\u0120exped": 9894, "\u0120demo": 9895, "ergus": 9896, "\u0120fiber": 9897, "\u0120divorce": 9898, "\u0120slower": 9899, "\u0120cub": 9900, "\u0120panic": 9901, "\u0120quarters": 9902, "\u0120rect": 9903, "\u0120treating": 9904, "\u0120rats": 9905, "oler": 9906, "\u0120sacred": 9907, "\u0120declare": 9908, "ulative": 9909, "eting": 9910, "\u0120delivering": 9911, "estone": 9912, "\u0120tel": 9913, "\u0120meta": 9914, "accept": 9915, "artz": 9916, "handed": 9917, "\u0120header": 9918, "\u0120trapped": 9919, "\u0120knocked": 9920, "\u0120survivors": 9921, "bot": 9922, "\u0120demonstration": 9923, "\u0120dirt": 9924, "\u0120assists": 9925, "ortunate": 9926, "folio": 9927, "pered": 9928, "usters": 9929, "gt": 9930, "\u0120judicial": 9931, "verted": 9932, "\u0120secured": 9933, "outing": 9934, "\u0120hosting": 9935, "\u0120lifted": 9936, "length": 9937, "\u0120jer": 9938, "\u0120wheels": 9939, "umbnails": 9940, "\u0120diagnosis": 9941, "tech": 9942, "\u0120nationwide": 9943, "\u0120dear": 9944, "\u0120obligations": 9945, "\u0120grows": 9946, "\u0120mandatory": 9947, "\u0120suspicious": 9948, "\u0120mortgage": 9949, "\u0120prosecutor": 9950, "\u0120editorial": 9951, "\u0120processed": 9952, "ungle": 9953, "\u0120flexibility": 9954, "\u0120focuses": 9955, "\u0120startup": 9956, "\u0120breach": 9957, "cycle": 9958, "rose": 9959, "\u0120bizarre": 9960, "\u0120vegetables": 9961, "\u0120retreat": 9962, "oshi": 9963, "uffer": 9964, "enna": 9965, "\u0120productivity": 9966, "control": 9967, "\u0120absent": 9968, "\u0120identifying": 9969, "\u0120regret": 9970, "\u0120promoted": 9971, "\u0120eru": 9972, "neath": 9973, "aughed": 9974, "omatic": 9975, "mega": 9976, "ocy": 9977, "\u0120inbox": 9978, "\u0120empire": 9979, "\u0120horizont": 9980, "\u0120branches": 9981, "\u0120metaph": 9982, "edi": 9983, "\u0120mods": 9984, "incial": 9985, "\u0120spirits": 9986, "\u0120earning": 9987, "\u0120riders": 9988, "\u0120sacrific": 9989, "\u0120occupation": 9990, "\u0120disg": 9991, "lict": 9992, "\u0120nit": 9993, "\u0120nodes": 9994, "eem": 9995, "\u0120hatred": 9996, "psy": 9997, "\u0120theater": 9998, "\u0120sophisticated": 9999, "\u0120defended": 10000, "\u0120besides": 10001, "\u0120thoroughly": 10002, "\u0120blamed": 10003, "arently": 10004, "\u0120crying": 10005, "priv": 10006, "\u0120singing": 10007, "\u0120cute": 10008, "oided": 10009, "olitical": 10010, "\u0120donation": 10011, "\u0120substantially": 10012, "\u0120grey": 10013, "\u0120keen": 10014, "\u0120conclude": 10015, "overs": 10016, "llers": 10017, "\u0120rou": 10018, "erto": 10019, "issa": 10020, "ivan": 10021, "\u0120seal": 10022, "display": 10023, "\u0120weaken": 10024, "uum": 10025, "\u0120cultures": 10026, "\u0120laughed": 10027, "\u0120slip": 10028, "\u0120treatments": 10029, "izable": 10030, "mart": 10031, "\u0120beast": 10032, "\u0120obesity": 10033, "iga": 10034, "holder": 10035, "\u0120elderly": 10036, "\u0120pays": 10037, "\u0120complained": 10038, "\u0120crop": 10039, "\u0120proc": 10040, "\u0120explosive": 10041, "eful": 10042, "\u0120meals": 10043, "idays": 10044, "\u0120imagination": 10045, "\u0120annually": 10046, "\u0120ms": 10047, "asures": 10048, "ikh": 10049, "matic": 10050, "\u0120boyfriend": 10051, "\u0120bump": 10052, "\u0120surge": 10053, "mediate": 10054, "\u0120scenarios": 10055, "\u0120competitors": 10056, "azed": 10057, "bage": 10058, "\u0120organis": 10059, "\u0120separately": 10060, "\u0120habits": 10061, "\u0120measurements": 10062, "\u0120accompany": 10063, "\u0120gly": 10064, "\u0120tang": 10065, "\u0120plugin": 10066, "\u0120convey": 10067, "oots": 10068, "jan": 10069, "\u0120curs": 10070, "keeper": 10071, "\u0120approaching": 10072, "ping": 10073, "\u0120arrangement": 10074, "arettes": 10075, "\u0120affecting": 10076, "\u0120permits": 10077, "because": 10078, "\u0120useless": 10079, "\u0120destroying": 10080, "\u0120fascinating": 10081, "\u0120electoral": 10082, "\u0120transparency": 10083, "\u0120volunteer": 10084, "\u0120statistical": 10085, "\u0120activated": 10086, "rox": 10087, "isive": 10088, "\u0120trash": 10089, "stick": 10090, "\u0120rings": 10091, "\u0120operational": 10092, "opes": 10093, "\u0120witnessed": 10094, "\u0120launching": 10095, "econom": 10096, "wear": 10097, "umm": 10098, "cules": 10099, "\u0120assured": 10100, "\u0120binary": 10101, "\u0120betray": 10102, "\u0120exploration": 10103, "\u0120admission": 10104, "itated": 10105, "\u0120avoided": 10106, "\u0120celebrated": 10107, "\u0120cluster": 10108, "itzerland": 10109, "health": 10110, "aton": 10111, "\u0120spare": 10112, "\u0120enterprise": 10113, "cludes": 10114, "\u0120flights": 10115, "\u0120regards": 10116, "half": 10117, "\u0120trucks": 10118, "\u0120contacts": 10119, "\u0120uncons": 10120, "\u0120immense": 10121, "occ": 10122, "ective": 10123, "\u0120embod": 10124, "\u0120patrol": 10125, "\u0120beside": 10126, "\u0120viable": 10127, "\u0120creep": 10128, "\u0120triggered": 10129, "verning": 10130, "\u0120comparable": 10131, "ql": 10132, "\u0120gaining": 10133, "asses": 10134, "sized": 10135, "\u0120prosper": 10136, "\u0120polling": 10137, "\u0120shar": 10138, "\u0120firearm": 10139, "orient": 10140, "\u0120fence": 10141, "\u0120variations": 10142, "giving": 10143, "ospel": 10144, "\u0120pledge": 10145, "\u0120cure": 10146, "\u0120spy": 10147, "\u0120violated": 10148, "\u0120rushed": 10149, "\u0120stroke": 10150, "sels": 10151, "\u0120pale": 10152, "terror": 10153, "\u0120tune": 10154, "\u0120laboratory": 10155, "\u0120nons": 10156, "tarian": 10157, "\u0120disability": 10158, "\u0120singer": 10159, "alg": 10160, "\u0120traded": 10161, "\u0120infring": 10162, "\u0120strain": 10163, "\u0120seventh": 10164, "\u0120syndrome": 10165, "\u0120wondered": 10166, "iden": 10167, "igo": 10168, "\u0120purple": 10169, "\u0120journalism": 10170, "\u0120rebel": 10171, "\u0120fu": 10172, "blog": 10173, "\u0120invite": 10174, "rencies": 10175, "\u0120cheer": 10176, "\u0120bedroom": 10177, "\u0120dwell": 10178, "lr": 10179, "\u0120operates": 10180, "\u0120motivation": 10181, "astered": 10182, "olo": 10183, "\u0120predec": 10184, "\u0120anarch": 10185, "bid": 10186, "\u0120grateful": 10187, "\u0120excitement": 10188, "\u0120treasure": 10189, "\u0120longest": 10190, "ctive": 10191, "\u0120deserves": 10192, "\u0120reserves": 10193, "\u0120cops": 10194, "anked": 10195, "\u0120artif": 10196, "\u0120hypothesis": 10197, "\u0120purchasing": 10198, "\u0120lovely": 10199, "\u0120divide": 10200, "\u0120strictly": 10201, "\u0120questioning": 10202, "\u0120taxpayers": 10203, "\u0120rolls": 10204, "\u0120ports": 10205, "\u0120magnetic": 10206, "\u0120inflamm": 10207, "\u0120brush": 10208, "tics": 10209, "\u0120bottles": 10210, "ppy": 10211, "\u0120padd": 10212, "million": 10213, "\u0120devastating": 10214, "\u0120compiled": 10215, "\u0120medication": 10216, "\u0120twelve": 10217, "imb": 10218, "your": 10219, "\u0120leaked": 10220, "\u0120unity": 10221, "\u0120infected": 10222, "\u0120traveled": 10223, "txt": 10224, "\u0120interven": 10225, "\u0120bearing": 10226, "\u0120zones": 10227, "izards": 10228, "unks": 10229, "llor": 10230, "\u0120wounds": 10231, "\u0120discretion": 10232, "\u0120succeeded": 10233, "iking": 10234, "\u0120iconic": 10235, "\u0120screening": 10236, "icts": 10237, "\u0120ministers": 10238, "\u0120separation": 10239, "\u0120bip": 10240, "\u0120beloved": 10241, "\u0120counting": 10242, "around": 10243, "inging": 10244, "\u0120tablet": 10245, "\u0120offence": 10246, "inance": 10247, "have": 10248, "\u0120protective": 10249, "\u0120ic": 10250, "\u0120fastest": 10251, "otos": 10252, "\u0120boom": 10253, "erguson": 10254, "\u0120clever": 10255, "\u0120enters": 10256, "mode": 10257, "terior": 10258, "\u0120linear": 10259, "\u0120comparing": 10260, "\u0120purely": 10261, "\u0120safer": 10262, "\u0120cups": 10263, "\u0120gluc": 10264, "\u0120attributed": 10265, "\u0120dupl": 10266, "\u0120precious": 10267, "\u0120pa": 10268, "ictionary": 10269, "olutions": 10270, "stan": 10271, "\u0120robots": 10272, "\u0120lobb": 10273, "\u0120statute": 10274, "\u0120prevention": 10275, "western": 10276, "hal": 10277, "ellar": 10278, "ango": 10279, "acious": 10280, "\u0120thou": 10281, "\u0120kg": 10282, "\u0120influential": 10283, "ainted": 10284, "\u0120forums": 10285, "\u0120starter": 10286, "\u0120citizenship": 10287, "onge": 10288, "otation": 10289, "osph": 10290, "utical": 10291, "pur": 10292, "eren": 10293, "\u0120accusations": 10294, "bitious": 10295, "abbit": 10296, "irk": 10297, "\u0120sensitivity": 10298, "iche": 10299, "\u0120summit": 10300, "\u0120pedest": 10301, "\u0120rubber": 10302, "\u0120agricultural": 10303, "\u0120cancel": 10304, "\u0120inaug": 10305, "\u0120contam": 10306, "\u0120firmly": 10307, "iw": 10308, "stage": 10309, "\u0120tier": 10310, "\u0120invention": 10311, "\u0120translated": 10312, "\u0120pizza": 10313, "\u0120debug": 10314, "vs": 10315, "\u0120horses": 10316, "big": 10317, "\u0120boring": 10318, "\u0120hood": 10319, "atched": 10320, "\u0120skip": 10321, "\u0120essay": 10322, "stat": 10323, "\u0120ammunition": 10324, "auc": 10325, "\u0120shooter": 10326, "\u0120unh": 10327, "\u0120supplied": 10328, "\u0120generic": 10329, "iban": 10330, "yrics": 10331, "\u0120climbing": 10332, "\u0120flip": 10333, "\u0120jumping": 10334, "\u0120frustration": 10335, "\u0120neighborhoods": 10336, "\u0120median": 10337, "bean": 10338, "\u0120brains": 10339, "\u0120shaped": 10340, "\u0120draws": 10341, "\u0120altered": 10342, "\u0120recipes": 10343, "\u0120skilled": 10344, "wealth": 10345, "achi": 10346, "election": 10347, "\u0120behaviors": 10348, "deals": 10349, "\u0120declaration": 10350, "marks": 10351, "celona": 10352, "\u0120reson": 10353, "\u0120bubble": 10354, "\u0120imperial": 10355, "\u0120feminist": 10356, "\u0120accounting": 10357, "\u0120connecting": 10358, "\u0120rehab": 10359, "sim": 10360, "\u0120meantime": 10361, "\u0120physician": 10362, "\u0120contributing": 10363, "\u0120interactive": 10364, "\u0120vag": 10365, "\u0120helmet": 10366, "four": 10367, "\u0120shipped": 10368, "\u0120completing": 10369, "\u0120spreading": 10370, "\u0120scary": 10371, "erving": 10372, "\u0120frank": 10373, "school": 10374, "\u0120romantic": 10375, "\u0120stabil": 10376, "\u0120accurately": 10377, "\u0120acute": 10378, "\u0120symbols": 10379, "\u0120civilization": 10380, "\u0120lightning": 10381, "\u0120considers": 10382, "\u0120venue": 10383, "\u0120oven": 10384, "his": 10385, "\u0120nu": 10386, "\u0120peoples": 10387, "\u0120std": 10388, "\u0120slee": 10389, "\u0120slic": 10390, "\u0120corners": 10391, "mentation": 10392, "olver": 10393, "\u0120laughing": 10394, "onde": 10395, "\u0120nuts": 10396, "plane": 10397, "\u0120liver": 10398, "\u0120agrees": 10399, "\u0120fundament": 10400, "\u0120auction": 10401, "\u0120threads": 10402, "glas": 10403, "\u0120lacking": 10404, "\u0120celebration": 10405, "ju": 10406, "\u0120silly": 10407, "\u0120tatt": 10408, "ighty": 10409, "controlled": 10410, "\u0120rage": 10411, "\u0120rhyth": 10412, "offic": 10413, "\u0120headlines": 10414, "\u0120responding": 10415, "\u0120vitamin": 10416, "\u0120boots": 10417, "alin": 10418, "pi": 10419,
[...]
