[PAD]
[UNK]
[CLS]
[SEP]
[MASK]
[NAME]
[PLACE]
[MISC]
!
'
.
?
a
b
c
d
e
f
g
h
i
j
k
l
m
n
o
p
q
r
s
t
u
v
w
x
y
z
the
of
and
in
to
was
he
is
as
for
on
with
that
it
his
by
at
from
her
##s
she
you
had
an
were
but
be
this
are
not
my
they
one
which
or
have
him
me
first
all
also
their
has
up
who
out
been
when
after
there
into
new
two
its
##a
time
would
no
what
about
said
we
over
then
other
so
more
##e
can
if
like
back
them
only
some
could
##i
where
just
##ing
during
before
##n
do
##o
made
school
through
than
now
years
most
world
may
between
down
well
three
##d
year
while
will
##ed
##r
##y
later
##t
city
under
around
did
such
being
used
state
people
part
know
against
your
many
second
both
##er
these
known
off
way
until
how
even
get
head
##ly
team
because
de
##l
born
film
since
still
long
work
south
us
became
any
high
again
day
family
see
right
man
eyes
house
war
states
took
life
north
same
each
called
name
much
place
go
four
group
another
found
won
area
here
going
away
left
home
music
best
make
hand
number
company
several
never
last
very
take
end
good
too
following
game
played
little
began
##m
old
want
those
side
held
own
early
use
##u
face
think
##es
##h
march
came
small
town
##on
line
something
##k
thought
looked
along
air
club
went
our
few
show
member
college
father
##us
come
men
five
set
station
church
##c
next
room
party
age
got
##g
system
let
love
though
every
look
song
water
without
body
black
night
great
women
single
building
large
river
named
band
white
started
##an
once
should
top
built
open
king
moved
times
children
book
why
door
need
president
order
road
although
died
village
third
knew
asked
turned
wanted
say
##p
together
main
son
different
##en
behind
himself
felt
power
football
voice
play
##in
near
park
having
##man
saw
mother
##al
army
point
front
help
street
art
late
hands
games
##ia
young
put
country
across
told
often
ever
french
center
six
red
led
days
light
find
tell
really
half
gave
office
making
enough
lost
full
opened
must
live
given
player
run
business
woman
cup
might
million
land
short
round
seen
class
story
always
become
sure
almost
la
##2
things
using
island
##z
car
##is
close
##1
better
free
control
field
students
married
##b
nothing
worked
others
record
big
inside
anything
give
##3
returned
feel
does
written
thing
feet
far
hard
already
##ra
human
##na
department
hall
heart
living
fire
##ers
##f
television
##4
working
act
case
present
radio
looking
least
keep
wife
program
brother
mind
special
##le
am
works
soon
##6
taken
##7
further
able
reached
upon
done
important
either
##ic
##x
appeared
position
ground
rock
dark
board
hair
course
arms
police
girl
instead
real
sound
##v
words
moment
##te
someone
##8
summer
project
less
wrote
past
followed
##5
blue
finally
taking
records
##ne
design
god
stop
toward
outside
track
today
playing
language
call
heard
low
miles
win
yet
green
##ie
trying
blood
##ton
maybe
everything
match
square
mouth
video
race
recorded
leave
above
##9
daughter
points
space
museum
change
middle
##0
move
tv
post
##ta
lake
seven
tried
closed
ten
##th
months
start
chief
return
person
sea
similar
brought
rest
hit
##la
floor
doing
care
killed
training
star
week
needed
turn
finished
rather
news
sent
ran
coming
yes
gold
stage
fact
dead
says
probably
pulled
friend
stood
money
running
word
songs
child
met
minutes
deep
kind
decided
usually
seemed
##ness
bed
table
indian
idea
books
eight
construction
press
mean
wall
friends
study
##ch
##um
oh
sometimes
possible
type
brown
forward
talk
food
seat
herself
else
lot
strong
hours
arm
##da
morning
sold
##ry
quickly
guitar
##w
list
##ma
smile
##rs
myself
towards
whole
boy
grand
##el
attack
##re
##os
cross
getting
alone
action
lower
wide
hospital
believe
changed
sister
##ar
hold
gone
sir
ship
##ka
shot
below
base
bad
kept
##ist
bank
especially
beginning
mark
magazine
plan
longer
##ian
sat
walked
hill
actually
energy
size
captain
##or
fight
bridge
fourth
officer
stone
hear
##ism
means
self
lips
lived
leaving
bit
passed
hot
kingdom
spent
fine
##ling
jack
fall
itself
stay
true
whose
market
parents
earth
##ity
cut
writing
bay
natural
higher
bill
##as
valley
stopped
onto
parts
queen
saying
allowed
master
earlier
phone
matter
try
happened
moving
##ley
breath
nearly
certain
girls
date
standing
fell
artist
##ted
shows
deal
mine
##ng
everyone
collection
library
##ville
older
heavy
makes
##able
attention
anyone
##ri
ended
fingers
skin
opening
okay
kill
sun
cover
job
chest
feeling
##ies
meet
reason
meeting
trade
buildings
##land
rose
guy
##ur
husband
weeks
mountain
takes
covered
key
cold
##ya
dance
clear
nine
van
prince
question
tracks
silver
sense
##ine
holding
twenty
hour
regular
places
whom
shook
movie
read
view
engine
ask
airport
ready
lady
month
##de
themselves
lines
##ki
navy
meant
##ts
runs
##ro
practice
glass
forest
starting
giving
test
couple
stand
caught
##less
eye
##ey
thinking
chair
quite
shoulder
hope
plays
whether
slowly
ice
direction
##ion
paper
mostly
lives
plant
##ha
helped
except
computer
figure
die
smiled
gun
ago
##am
bring
problem
distance
commercial
completely
drive
neck
surface
understand
wrong
hotel
comes
double
musical
castle
particular
walk
foot
talking
window
dropped
##ter
miss
baby
boys
break
stars
edge
remember
carried
train
bar
##ge
step
wing
reach
##ll
##se
##st
arrived
##ation
minute
##nt
sorry
beautiful
associated
chance
perhaps
metal
##son
##et
tree
prize
yeah
##ce
suddenly
waiting
recording
##to
happy
camp
pass
names
corner
watch
cause
watched
brothers
material
changes
fast
##ting
answer
stories
straight
winner
basketball
legs
guard
doctor
mm
cost
winter
##ble
problems
grew
pay
hurt
box
plans
##ke
##ni
pretty
spring
##j
matches
looks
mike
houses
fellow
##tion
beach
##ham
##ive
rules
oil
wait
##do
please
poor
wood
piece
##ca
touch
soldiers
##men
##ized
closer
fighting
##ous
filled
sitting
super
##va
store
tower
follow
separate
golden
horse
fifth
branch
##id
uses
secret
##co
baseball
exactly
##ck
choice
note
travel
truth
ball
color
kiss
wind
ring
numbers
##ns
rule
trees
##no
broke
goes
hundred
sleep
memory
windows
safe
whatever
realized
growing
##ga
spread
letter
showed
situation
watching
workers
##li
##ment
##ba
##ner
walls
piano
##ko
heat
##ate
join
grade
##io
sign
difficult
machine
##wood
stepped
iron
##led
serve
sky
speak
broken
charge
ships
simple
##ty
pushed
##ve
leaves
recently
soft
easy
##sa
share
wild
electric
reading
headed
yellow
throat
smaller
##by
cars
pop
##ier
acting
seeing
##ti
newspaper
beat
walking
vote
##field
needs
block
shirt
purpose
dutch
ahead
gas
twice
safety
serious
turning
amount
mixed
perfect
seconds
paid
save
kitchen
label
nice
teacher
shut
drums
seems
picked
build
picture
loved
racing
fish
garden
hockey
beside
##ford
drew
farm
tonight
magic
gray
screen
dog
##ja
bus
sides
none
polish
flying
lay
##ler
younger
ones
finish
page
pair
equipment
visit
evening
search
buried
bottom
gives
dream
spot
notes
ways
##ally
losing
split
price
questions
##ina
guess
##ization
whispered
engineer
##ful
##go
tears
card
draw
warm
supposed
##il
##at
mountains
seem
traffic
slow
taught
storm
planning
grabbed
protect
##hi
boat
##berg
pick
driver
##der
empty
shoulders
sort
thank
learning
steps
sweet
begin
easily
teeth
speaking
scale
##sh
##rd
pieces
animal
guest
##lin
huge
wants
rise
telling
path
sit
##lo
tells
pull
##ot
alive
##za
letters
wearing
happen
bought
holy
gets
ocean
coffee
##q
concert
sounds
brain
##me
painting
##ius
count
animals
##line
##den
##it
palace
fair
leg
laughed
lifted
pointed
connected
medicine
laid
tall
falls
##wa
calling
##ad
beneath
yard
##ite
silence
##que
thirty
moon
##ard
christmas
register
apart
parties
##les
##ff
quick
quiet
teaching
clothes
flat
theater
##tor
plants
kids
begins
##age
seats
worth
knows
thanks
quarter
reaching
carry
setting
railroad
possibly
wish
doors
##di
stomach
anyway
##ir
thick
dry
holds
strange
##mi
bell
turns
shape
write
learned
finger
##est
##ria
keeping
guys
damn
sport
sixth
stayed
##ze
twelve
dress
##well
##ated
noticed
tight
trouble
drink
missing
wave
##ee
pilot
bright
guns
crown
roof
clearly
tongue
circle
fox
yourself
##ah
brand
driving
trip
neither
trail
nose
afraid
calls
grey
sunday
extra
message
covers
surprise
##ji
shit
di
difference
##ov
shop
trains
opposite
##pa
##ish
barely
wine
conversation
ends
sets
eat
##ps
bag
surprised
cemetery
drop
finding
cricket
streets
ride
target
ear
rain
apartment
clean
learn
lose
bear
hills
rolled
fun
##tes
##lla
##way
##house
snow
##tic
orange
##ger
apparently
thousand
dinner
lights
send
bowl
plus
catch
##un
princess
shall
pictures
remembered
desk
starts
passenger
sharp
##ant
weather
falling
check
heads
##burg
##ura
cool
answered
besides
##town
mix
##ding
liked
##tte
counter
chain
lie
mobile
wonder
lying
crazy
sword
##ping
##ize
interested
wolf
##ay
threw
factory
tiny
soccer
visited
##ging
otherwise
rooms
worry
waited
bird
truck
##ol
carrying
laugh
##ss
showing
evil
##ent
pool
missed
web
planet
wings
invited
##tt
kissed
##be
ideas
worse
dangerous
gate
doubt
wooden
##ky
pulling
##ak
##ial
##han
singing
restaurant
tomorrow
da
stands
fresh
##per
kid
suit
angel
asking
frame
angry
selling
thin
finds
##nd
temperature
explain
narrow
flowers
promise
somewhere
fly
##ls
cape
##ai
##au
##ny
##ring
roll
landing
chose
anymore
##ut
fit
breaking
lands
##bury
hole
credit
roads
accident
wear
hey
stuff
cat
##kin
plane
##ron
map
camera
tank
listen
wet
fighter
grown
fixed
buy
##head
turkey
hits
pocket
papers
grow
unless
attached
journey
painted
hearing
bands
wondered
lap
ma
##ow
noise
##ium
shooting
bedroom
motor
homes
sounded
giant
##mer
hidden
bringing
afternoon
touched
wedding
knees
shaped
handle
cheek
##pe
beauty
##sen
birds
emergency
wrapped
drawing
notice
pink
##ong
somehow
wore
tied
##ised
teachers
forever
##bo
tennis
helping
sale
hip
neighborhood
dressed
##ds
hers
stairs
hung
clock
certainly
plate
putting
##ists
blues
##ries
##dy
crossing
##ana
string
quietly
##worth
asks
##ide
loud
worried
shadow
horses
dragon
sisters
engines
flag
row
wheel
session
biggest
wins
hate
drove
tunnel
stupid
softly
cabinet
##ea
##ms
push
spend
woods
protein
gently
chase
burning
wake
combination
mirror
indeed
covering
##nes
soldier
sell
changing
##don
inches
##ku
##gan
rolling
ha
forget
burned
locked
##mo
sick
pack
##pur
##ul
coal
brick
stores
hoping
cards
##si
raise
##rt
lucky
hide
rescue
faces
##ell
weekend
cash
fallen
##om
carefully
tries
costs
##he
shore
jump
friendly
realize
cry
hero
medium
##ure
##ara
##che
beer
gotten
eleven
worst
chin
fifteen
disappeared
##ney
##zed
lip
##chi
cave
coat
smell
feed
golf
favorite
knife
choose
confused
tired
stream
throw
passengers
measure
fan
sand
danger
salt
calm
##ik
rush
##ker
##ski
steam
closing
tie
##ini
mad
taste
shaking
faster
flew
##ran
##tone
obviously
pages
desert
cousin
dreams
ears
saved
##ica
##jo
riding
##ise
meanwhile
landed
grass
tea
sudden
##ung
glad
parking
##ning
belt
add
gift
fifty
##red
jumped
letting
##ux
##gh
testing
##hip
shoot
smoke
dancing
##gs
branches
smiling
decide
##dale
##bi
##one
##ons
fishing
##ary
mail
##ang
##ue
net
forty
cook
##cy
##ors
##ped
imagine
##ber
feels
favor
##and
##ore
hanging
hunt
movies
instruments
busy
sugar
balance
##ks
slipped
##im
zero
talked
bathroom
tail
clay
afterwards
##ded
##vi
##ino
swimming
forth
smooth
ghost
bush
rocks
signs
##tz
patient
sleeping
wanting
rice
definitely
##tan
boss
birthday
##lan
##mann
shell
##tus
plain
crash
moves
##zi
##out
bottle
lock
##ating
graham
##gi
robin
##gate
laughing
visiting
##sky
interesting
deck
##water
stuck
##her
ceiling
##nce
tools
fruit
##bs
marry
bone
abc
kick
sees
clothing
rough
hunting
##ek
bones
##tta
drinking
waste
tip
flash
enjoy
listening
##back
eighth
anywhere
##more
waves
odd
eating
expect
blocks
agree
dying
##ged
shoes
heaven
scared
marks
shopping
##tive
##izing
cheeks
##ola
##yn
fill
hat
battery
smart
funny
outer
loose
monster
##res
shake
dogs
plastic
easier
colors
pan
nervous
##idae
appointment
copy
cloud
##cing
forehead
##ens
totally
##ii
roots
seek
correct
hop
##des
welcome
##cs
sing
adventure
careful
cap
useful
knee
##shi
pushing
ca
##sis
##work
##ft
##nia
dear
apple
holiday
harder
##van
##lle
till
happening
statue
##ster
meat
boats
baker
worn
naked
sentence
bent
lunch
blow
cutting
##board
##up
ah
##zer
##gy
stick
spell
##ver
##ac
keys
jeans
##ious
upset
hiding
##bly
diamond
lift
##ied
##su
nobody
fault
breakfast
dollars
sang
##vin
##bridge
uniform
purple
nights
stones
twisted
##ld
blind
burn
forgotten
couch
tag
amazing
happens
bare
##port
##ram
##ities
expensive
electricity
##ving
ladies
shower
##je
button
bears
pants
dozen
kicked
##logy
##sm
creature
##tra
dust
##so
milk
##sy
sad
fur
##ora
##ten
dirty
seed
pole
stable
flower
devil
##istic
cotton
##ics
##ok
##ming
teach
knocked
excellent
##ett
na
##ily
climbed
##ita
##tors
suggest
##ct
staying
jacket
instrument
wondering
##ice
farmers
figured
ninth
comfortable
shouted
sharing
##lia
##em
fat
cried
pa
##isation
muscles
##ance
bet
##rin
terrible
perfectly
mall
##ye
##kar
##ened
##ae
asleep
machines
hardly
##ua
mistake
violin
##sk
spin
grab
op
leaning
thinks
luck
yours
sculpture
mess
eagle
##ano
stops
eggs
##vo
paint
##zing
##ach
##ev
##ology
##ud
##ata
##ick
spider
bite
##ho
recognize
mixing
##ese
bow
suppose
tiger
##ru
nurse
tape
##rum
##rn
##king
carrier
beast
##gar
##zo
bench
##ered
##lis
##dae
honey
##rian
hang
##po
boots
weird
throwing
mood
jet
##lli
##ci
dirt
buffalo
##era
thrown
colored
exercise
##gen
##tti
wonderful
##sed
crying
##ris
switch
drum
cream
delivery
##ves
##ans
bars
witch
##uk
##oy
scream
##hu
pat
tool
folded
lion
writes
##fa
ss
telephone
##ible
sixteen
##ich
pounds
checked
bigger
leaf
##yan
##tory
##ians
##ula
##ins
loop
absolutely
paying
bull
##ani
midnight
##sson
thirteen
lily
##lt
proud
##hill
##ova
climb
##ston
horn
##ao
ferry
root
sheet
helps
gentle
grandmother
##light
##ou
belong
bat
##net
lots
eyed
load
jail
##llo
##ved
##wick
cardinal
whenever
bath
breathe
whisper
screamed
lions
pine
wrist
##ned
##nan
##ane
touching
##off
everywhere
ballet
tables
##dra
tube
##ys
##ric
pen
ticket
spotted
##time
hitting
##hn
##ery
pointing
mask
worker
##tis
##hl
wire
knock
creatures
##pers
fed
swallowed
##ros
slide
##op
##side
walks
##ties
swing
##rie
##sha
garage
##mm
##ball
breast
##ren
furniture
##lus
balls
##cia
##ening
lightning
##ique
hood
##ei
porch
fourteen
package
##shire
##ock
sailed
doctors
treat
##ire
##gon
##wan
stopping
loves
belongs
##cher
##ical
opens
yesterday
##let
snake
screaming
farmer
hungry
grows
##cha
dropping
##fer
spots
##ken
##fish
connect
presents
pleased
slip
##ction
brings
aboard
##ika
##tar
plenty
talks
excited
ho
trick
belly
yelled
##med
##ette
conductor
hello
rocket
tigers
##mus
##ites
kissing
impressed
towers
##tin
##lu
hi
rings
trace
thumb
##ix
underneath
##ward
cliff
cuts
##dar
##nts
##yo
stretch
##py
##ched
##bach
tear
##down
##fully
parade
frozen
##mic
##od
sits
marble
##kov
quarters
##ivity
lined
helicopter
##sing
seal
##ters
sink
dining
eighteen
elevator
brushed
plates
##len
slept
curve
likes
ruler
wheels
listened
buses
breaks
##ified
##lon
beetle
soap
strings
shorter
tough
coins
directions
##oon
##mes
##over
##dan
##mar
bread
##ington
##ona
em
##ere
##cus
##ab
glasses
##lock
nowhere
carries
##ira
##hs
##vic
keeps
uh
##ala
##tre
properly
dollar
circles
edges
##ular
den
##ral
##rus
torn
##ias
##sey
meal
everybody
kinds
##fe
##wn
healthy
fool
chocolate
##ess
##ew
chicken
gross
cage
##dor
bike
##ering
mouse
##sley
##ig
pulls
crashed
##ability
drag
excuse
##lar
##burn
##rk
curious
bin
##my
##nie
##ser
clouds
quit
##heim
sliding
##ware
##ama
pitcher
hearts
seeds
fix
##ative
##pin
##hr
calendar
##all
basement
hook
dare
##ain
##ked
instructions
picking
practically
collect
##feld
tissue
lean
##ration
##ven
##our
##ments
rope
##har
twins
##ras
##ena
##ban
riders
##pi
holes
##mon
climbing
##ably
##bar
##nik
brush
joke
trunk
##low
##bed
woke
floating
##bus
egg
glory
##bert
awake
ski
##ress
somebody
##tha
shed
nursing
##ska
wiped
resting
pirates
sheep
rang
##ches
boxes
receiver
chairs
##point
lovely
##jan
eyebrows
##ella
cloth
##bin
cooking
freight
sixty
##art
##ada
deer
##ges
##ching
##ets
##ph
barrel
##ome
##sia
rode
##lay
##ari
##ag
mud
##ions
handsome
thunder
puts
##yl
##ates
feeding
##las
##ida
##tu
##ax
um
kisses
##non
poured
##we
hug
##ord
##bility
##use
##du
ignore
##bu
##maker
bother
crack
##ses
##view
##mate
##ec
##ill
punch
alarm
##stein
##rat
arrow
##ings
tender
bitter
##ides
spare
##ene
##und
pile
fence
bags
pond
spy
##og
##lands
##book
barn
jumping
##chen
##ologist
##con
pipe
ba
##bel
blew
##ack
hammer
tune
sheets
shade
##master
##nic
##iya
##din
upstairs
purse
pause
farther
##mp
##ert
##hon
##lie
##ify
##box
blanket
##eo
math
##ual
##san
uncomfortable
boom
cheese
sometime
treasure
bend
##osa
ate
eaten
log
##itz
invisible
##ator
##hal
fairy
cats
washed
##fi
##das
##00
jungle
counted
##ulated
rubber
##oe
##uous
flute
kit
buddy
##ith
##nda
##nk
##ugh
steal
robot
pot
packed
drinks
##nis
##aki
grain
patch
##ath
elbow
##bird
pet
##com
drops
##ien
fever
bits
##hood
##bad
##war
##ification
##dia
##via
pound
##xi
##els
motorcycle
##zar
bye
##mal
##ceae
##hed
##gue
##tal
blonde
parked
stepping
nest
chip
##nell
##zy
##cker
##ju
catching
enjoying
holder
butterfly
cherry
bowling
trailer
carriage
goodbye
toy
##kan
collar
bunch
shorts
##ovic
##wi
cottage
##sta
ripped
seventeen
##tv
brave
ugly
zoo
horrible
curved
##lly
monsters
##stone
pin
##ose
##urs
hurry
oval
##cies
flags
##del
##rated
##iel
dee
##zation
##tto
##tions
##tle
##cal
fork
drives
cab
##bank
##dal
##ule
tent
##oid
##works
trucks
##nation
##wing
##ap
##ws
##mas
##can
##sville
maker
buying
cleaning
closet
rat
##ez
##gle
##ising
flipped
checking
##sco
##ado
rolls
hint
wash
##illa
jam
##pp
diving
##ncy
er
spinning
costume
rid
##ridge
foods
whoever
##ray
##ale
duck
##ile
shame
##cc
forgot
bomber
cartoon
lonely
relax
candy
##rio
##uri
##away
sail
##ulation
##tie
##nna
##una
eyebrow
##dom
tore
scales
wagon
##oo
tin
triangle
darling
dried
joey
boot
##ima
##tein
steering
sunshine
huh
##ces
##oma
##wall
##mont
cracked
reads
awful
##lyn
imagination
##ade
##ship
##yne
circus
fog
##kes
##shan
##orn
##gal
##sburg
##brook
beds
##bling
##iro
shining
olive
gym
insects
ourselves
tickets
##pm
planes
##pan
bang
##zu
skirt
##berry
##horn
grabbing
##als
corn
incredible
##zhou
twist
##cio
choices
pretend
##une
##bc
##ids
##hus
##tel
dish
matching
cake
belle
measuring
##mie
##list
##phone
##ulate
swim
hawk
gorgeous
##ography
##ole
##hall
powder
##cho
lately
cigarette
##ree
##ensis
##inger
ai
ridiculous
##esh
##room
##ito
##iness
##logical
jealous
stack
pillow
##car
##min
silly
##kh
##bra
downstairs
flies
##ori
##long
bolt
##ois
##izes
nails
##stic
skating
ruin
##oc
##nne
##ological
##mia
bout
taxi
rainbow
##win
##nte
valentine
bells
everyday
##ence
##if
buck
carpet
##iers
rubbing
##yi
cute
##cht
beard
bicycle
wow
lawn
##woman
##val
##gne
##ui
##nus
hon
##tine
##mel
laying
frustrated
##eau
kicking
pump
##hen
##nen
##tas
##borough
wrap
##eon
##ode
snap
##ory
towel
##fl
##day
wishing
##bal
##die
cups
##lf
##fire
batteries
##lam
##born
##ees
##sar
##ex
alright
pockets
stole
counting
##bb
anybody
cock
##fs
##wski
sleeve
##af
##like
##dle
frightened
pour
pig
##fold
##pes
##aw
ch
##usa
fantastic
toes
remembering
##rah
daisy
helmet
##lic
##craft
##ute
##tsu
##zen
wicked
disappear
lamp
##gia
##oa
rabbit
digging
##cion
dishes
##oi
##ati
##fied
##iest
##aro
shapes
basically
##bing
smallest
##los
##ille
##illo
##end
berry
wheat
bee
##hurst
##yu
##dis
##row
##cast
roses
##yer
ladder
##hy
popped
##abad
ribbon
##lee
swallow
##ela
##ines
wanna
knocking
##ough
##eus
##cks
##hin
monkey
##ben
##ato
##rg
##ero
##lor
##ami
penny
##tch
ham
doll
##mark
dig
sip
fold
##dine
sofa
##hart
##nn
##ave
##oni
claws
##ations
ink
##tia
##cation
##logist
frog
##ace
pizza
##ios
##vy
drank
##var
mothers
##the
##igan
ambulance
##tian
elephant
crowded
##10
subway
lesson
##fication
basket
##ple
shoe
sec
##ller
remind
##awa
babies
##cu
dove
##rm
juice
##uch
snail
##table
vacation
##oli
##lessly
toys
kay
seventy
##ulating
##ison
yo
##hai
##az
danced
sings
easter
fruits
rip
hay
##uro
##aria
##cted
shells
louder
exciting
##sion
##iz
##lot
##ques
marching
##lled
curtain
shy
##pot
##eck
bottles
outfit
##sc
##ase
squeeze
##enberg
##eth
maple
##ht
hid
backwards
##oke
##aa
##load
##oria
suits
##hara
rotten
dot
##boy
##wind
##eh
##world
tap
##tones
cart
##eri
##try
##ural
##rch
shelf
##nberg
##nian
##ats
##kai
##weight
##ents
cow
##wald
##piece
##mba
driveway
wherever
picks
##air
##ean
roller
blowing
screw
dressing
##lings
##nu
##mine
##eur
flip
##gie
##ture
shout
##sel
##of
##zes
envelope
##ico
##fu
##cat
catches
##rily
ought
ghosts
fancy
##bie
##rick
bark
buttons
ashes
cement
pirate
##bee
crane
##ult
##ichi
##fc
wa
##rra
shirts
pie
soup
tornado
planets
stamp
happily
##bble
##vis
##met
spelling
##20
teddy
##ants
##nger
##sse
##iana
##gio
shark
slipping
neighbor
##av
rats
##oto
##mond
##iva
##kers
##power
alike
##gent
crow
##rine
##pped
bored
##lene
##ali
##nin
##hole
carnival
##ssa
##sin
nurses
noon
hopefully
polar
##eer
##sman
##ip
##card
##gin
dive
##gled
vegetables
sunny
babe
click
##nder
underwater
pepper
horns
##ort
##dorf
##zon
cord
##kie
##bia
##eria
bacon
##yama
##old
throws
##sch
##ulus
##oh
##bourne
##ox
##ient
##ann
vacuum
sandwich
##gated
##nas
##ars
wears
##ancy
##rate
transmitter
container
##och
cowboys
##tum
trash
pad
thread
##dian
##kel
##sberg
##chy
##rton
##ila
##bon
gown
sweep
##sie
##nsis
sentences
spells
##plane
##borg
toe
##wyn
cowboy
boring
chips
##hand
chasing
##hard
##ifying
##ced
kindergarten
##ern
##rina
##most
##nar
nasty
stuffed
##dge
swinging
##ash
bug
##pen
salmon
toilet
tray
tooth
##wara
##cting
gloves
lid
##nel
hurting
##pel
##rc
suck
sorts
##aka
##ency
##ista
##ops
##dt
ta
cane
dong
roar
bubble
##eda
##hir
scratch
##boat
nineteen
##lies
puzzle
mammals
sidewalk
##ried
##sal
sharks
wreck
waving
eighty
##fy
##nal
##zzo
##vas
mistakes
##hing
##ass
##enburg
##are
##atic
sting
heel
sweetheart
##tter
##ub
##aries
##makers
delicious
panties
##rst
pretending
##eim
marker
##rne
wool
##een
##nor
stamps
butter
##ils
##wo
##ont
##ured
##outs
##rr
##face
##rad
cleaned
##llen
##ote
##aya
##rl
##gu
watches
##yang
##arian
needle
##pus
##iah
teasing
##backs
tricks
knot
##shing
##uring
##vre
bats
stays
##ander
##rry
##uma
wrapping
##sworth
##tate
##ele
feathers
nuts
clever
##dos
rides
##nc
##mu
saddle
taller
##rov
##ovich
##flow
treating
##ib
##nse
##hot
mice
##gos
cousins
ache
spear
shine
biting
tighter
##gus
##oka
##onic
blink
##50
##ein
##nta
##own
##ther
##tric
##wich
##vey
##vable
crawled
##zio
pipes
##gel
alphabet
waking
##wen
##mc
scary
##ava
cubs
##itt
drain
awesome
beef
##onia
kidding
##ffer
melted
##ail
builder
spray
unhappy
##urg
##tation
##quin
##12
mister
clip
owe
shiny
##gation
##yr
##nate
lamb
practicing
##erly
##graphy
witches
sideways
prayers
##gging
##metric
tasted
buzz
##making
##gas
##bro
##lman
##zel
##hold
##matic
##quet
##osis
flashing
##dell
scare
sticks
##ude
##iko
##nch
##bes
##cut
##boro
##stan
picnic
washing
skiing
costumes
##hat
##umi
##lls
sweeping
##uck
##band
##gun
##lines
##40
##sive
folding
##beck
##ination
##its
brushing
telescope
volcano
##nica
winding
##rna
##front
##lio
dreaming
sack
freezing
##dium
##bbled
##bor
tire
##grave
merry
##sts
cries
##yle
##iv
tomatoes
lantern
##gic
##rley
##ots
##ete
##zia
dumb
##ef
##rf
bugs
##birds
##ield
crashing
##olo
sauce
##kal
##lers
##ister
drill
##ashi
##cated
##uted
##eta
dub
##vich
##lum
axe
##pal
##ante
eighteenth
snakes
##city
umbrella
cooked
##hia
##aj
bud
##cent
necklace
goose
grocery
##tting
##fort
##rand
##heads
hiking
##itive
garbage
##pies
pouring
ringing
##hausen
##foot
drawer
##play
##kawa
poster
##ises
##wr
##eed
##uer
##ury
##sp
##keeper
##lling
##gram
##tos
##cott
##nam
straw
##iate
##rich
##zong
##rol
whale
##eng
turtle
cone
yelling
##tro
spit
freeze
##cos
##sus
polite
##uta
balloon
##zz
camping
##lice
##roy
##ania
meadow
##rius
##cial
invite
yoga
ramp
##rose
tops
##rous
##inal
##ished
airplane
whistle
chased
##ctic
##vik
tires
tearing
##rta
hooked
tapes
##gger
##eva
##tree
##iga
mattress
##mbo
##elli
plug
##iff
barber
##oning
##ders
##yar
backpack
wipe
##oda
hurts
##court
sticking
##inus
beans
antenna
spilled
##gard
lil
##ously
##nova
##lets
##set
##ibility
##ret
##vie
##zan
##ste
##wal
snails
##garh
##lation
##hra
scrambled
##bles
##gt
mat
skeleton
crawl
##tc
candle
##nick
owl
whispering
goat
skip
stripes
##gren
ninety
beaver
##bre
sneak
##bic
##ams
dolphins
##lish
bucket
##leigh
##hler
##idge
##dr
##nde
##rda
nursery
##rade
##nto
##ement
##wl
##ool
##ience
##lk
elbows
##ep
##ution
##date
##page
##ographic
##itis
##kas
##ische
flour
##lm
##stown
bees
gasoline
##aux
##mere
dial
##eu
##link
##tina
nail
##ead
##lated
##wer
##hardt
blows
##lina
fireplace
##zzi
##late
##nga
##ake
##ido
##haus
barrels
##anda
someday
##lal
wax
##uan
flush
##gg
##type
##pt
##trom
##hman
##ght
##used
##elia
##eg
##alis
##ages
##uded
cartoons
##ppa
seals
##lton
pushes
##cock
##worthy
lazy
##fall
penguin
puppet
##yon
candles
jeep
##hine
hazel
dumped
sh
##vers
##igo
##ways
helpful
##some
##atory
##tered
##uda
bean
##rrell
wan
##ame
##bby
##fest
##ast
##ented
tissues
##ided
zip
bologna
peel
##fying
##star
##ost
##rod
##uru
##yard
##owing
##dd
##30
##ifies
##ying
##combe
##fly
##flower
spiders
##tail
tangled
##nese
##nz
##form
##uc
##hian
baba
##fies
rocked
bricks
##raj
##xton
##hm
##uki
colorful
##dley
##shu
underwear
##haw
##icus
##wise
float
##isa
##kis
##zie
##eld
##lp
##urn
##pu
cube
waterfall
nipple
##lov
dripping
yell
##uth
squares
##cle
##kins
##aid
sweater
##jon
##him
##rre
##nagar
##pling
##lier
##vier
##mouth
tub
##pf
lemon
##top
ant
##how
pal
##graph
halloween
##ssen
##bone
dolls
##dling
##ime
##lah
##park
spill
##bil
policeman
dresses
##sby
##bat
##rial
##cian
curls
##hoe
coke
##usion
##mir
##uation
##lby
##oll
rack
##rman
##ott
recorder
jumps
##11
##holder
decorations
##lake
laundry
##rp
##sl
##rer
##ema
##ively
rub
##vor
chick
potato
##culture
##tead
bushes
closes
##oth
ginger
##ttes
##hof
harp
##oro
##tics
wiping
##rid
##iard
##tera
##sies
##tly
##aan
ours
##jin
##iss
##ear
##dock
##haven
##tical
##ook
##rata
##uit
wires
##rama
##bilities
##hua
##cci
curtains
pigs
##dad
sore
##sted
##qi
slice
##nted
stool
##ija
##liga
##croft
grape
##ede
##kovic
##rica
##aire
##shed
fry
pencil
smells
##pie
##stock
##mma
##vil
##ncies
sour
##eous
##rion
##graphic
##elle
##inate
##rit
##tled
##xia
##ttered
##dic
slides
##eum
##force
socks
##key
##hey
dizzy
##yam
##pping
##hol
##chan
##berger
##nier
ducks
##fo
##lson
##cture
flavor
##baum
melt
##ures
soda
##mb
##nium
hum
##law
pardon
rocking
##hd
##has
noises
##bol
upside
##iving
##ddy
##far
##lav
headache
dots
thee
##rai
##lip
goodness
##ically
##hos
##tech
##erty
blankets
butterflies
##pc
scratched
##pole
##base
##rist
##path
##iated
##tling
razor
##vs
##oss
##owed
##nton
sleeves
##rail
smash
##18
##eter
##fan
##sdale
##ility
##lda
##mans
##fields
##avia
##take
##rating
toast
##rb
##pass
##itated
##rey
##lian
banana
##uchi
bowls
##thi
##inas
tying
##hale
##girl
##owski
##kha
flashlight
ada
supper
##rth
##encies
##boards
##nah
crooked
##ctive
##tile
##nco
shaky
##tron
##moto
##pace
squeezing
##vent
##bbling
pills
##ello
##tty
##nett
##witz
##iating
##rz
##ffin
lick
##ffed
curl
##ache
##asia
##iting
muddy
vegetable
##mates
##quent
##ond
bites
##cular
##ouse
##tai
##kowski
lizard
##pad
##ipe
##cin
##nos
##tam
##nge
##lc
##tton
##ndo
worm
##nstein
##bound
##aking
##burgh
##bbed
##quest
eh
greens
##life
##lius
nickel
##mos
##run
##lous
reminds
##ingen
microphone
##qui
feather
##nson
##wed
##eet
##rik
##gged
##ows
##cup
##nies
ole
##atus
##ais
##bian
##rew
pony
##sters
##orted
##glass
yep
##forth
skinny
##mis
##ride
##physics
spoon
##frame
##iidae
dump
##itor
logs
##houses
##iano
ale
##cas
##nding
##strom
##hes
propeller
coats
##antly
##ogy
neat
##kos
##kka
##acy
##chel
jar
##plate
##aru
cracking
##lights
##iri
##uka
##ntal
##jet
##written
cha
##gers
##rity
##ente
##sca
##ingly
##hana
##oft
dinosaur
tow
##ues
##mmer
rains
##sai
rosie
##inian
##inated
##uke
##bos
woo
##pton
##uli
##night
##chemical
##kill
sticky
##eb
##eal
wallet
fixing
fiddle
hairy
mechanic
##tag
##vsky
##bay
##lit
clown
glove
##ug
##yk
crawling
##ril
##ech
suitcase
##right
##sfield
##rky
##zone
##udge
##vel
##lain
##jk
##writer
##hel
hulk
boiling
##ffe
##vn
##onal
coconut
gum
##sto
##turing
##hawks
##code
##16
##wu
##bahn
##ovo
##hic
##15
##mura
##verse
##anza
##bag
##jar
##60
##ndi
##uf
##aga
##had
##azi
##nko
ants
##olved
##nr
##ressed
backyard
stir
##lent
fits
##19
##sd
##uto
##dog
##sten
##chev
##cope
##tted
##chus
strap
##dre
##ulous
##gn
##nath
##qua
##bler
th
##0s
##rell
##tated
leopard
stove
##rier
worms
##duction
##hc
##rator
##np
##evich
##wig
##cate
##iling
##uel
##coe
bunny
##fin
pins
##care
##yas
##grad
##ules
##bit
cookies
##ffy
##abe
##rift
##imo
##pop
cutter
##tr
##orf
tick
tractor
bouncing
##yre
##ground
##oko
##hor
##hima
rainy
##uga
##mity
markers
##tium
##iver
##dc
##inae
##rea
##dh
##ob
##ingham
##uts
##tern
##uated
##dent
##cross
##dicate
turtles
jaguar
##lder
##oat
##genic
##oor
dip
##eno
##itating
salad
##gr
##wc
##gins
##etic
##coat
##wave
##etta
##print
##rak
##bl
##mons
##nard
##kara
##cine
##rel
grapes
##17
##hit
##ony
##aging
##wang
##ores
##amp
##dating
dresser
##sti
joking
##cts
##game
##rae
cents
##ngo
##cca
##rable
##unt
cafeteria
warmer
##static
##wear
##nov
##lana
banjo
##ense
##32
##eman
##fm
fridge
hats
##rana
##zal
##nay
##cre
##zers
##eration
##ctor
##bine
choke
##tist
wee
##oured
##nti
nope
##piration
##asa
##nza
##ption
skipped
confusing
##yana
##unk
##rek
elephants
chalk
##ucci
##ario
##sat
##erated
swam
magnet
knob
##mers
##suke
##pool
##vd
##vert
strawberry
##cellular
##nant
##ologists
##hore
##xie
##rock
bump
##ners
##stad
##guchi
##thy
##lem
##14
##omy
pops
##vate
tastes
##gating
##jee
##media
##idal
##hora
elves
##gna
##lining
##rgan
supermarket
##ark
hmm
boiled
puppy
##bius
licking
##gong
##uz
weigh
##sian
##not
sleepy
##group
monkeys
##bid
##sos
bothering
##iger
sunglasses
##rdi
##vision
##oids
##dden
##sz
##cer
##walk
##gles
##dam
##13
##ood
##ske
##hun
##eiro
##outh
##zin
tee
##ono
cows
##adi
##aneous
##bers
##oot
heavens
##bbs
##chin
##yuan
##nya
##yev
##yte
##gies
bubbles
##vid
skate
##zzled
##yx
##rington
##arium
##ota
##iser
##ibly
##lau
##pd
##ieu
##iary
##llar
##athy
##sea
##was
chimney
##iche
##ager
##bell
##ike
##ntes
##aurus
##core
##jack
##osh
##uddin
##erie
##jas
cookie
##tee
##tock
##cky
##isi
##gler
##sum
##shin
oven
##ailed
##ivating
vest
tails
##nae
##tism
##unce
##rdy
drying
##21
##loaded
##books
##iki
##vale
##geny
nut
chewing
wakes
##cratic
##dha
bounce
beads
##emann
curly
##yah
##athlon
giggle
##itate
##ited
bathing
##emia
##tier
##eis
frogs
##rong
##pate
##atics
##rove
##rice
##gre
##dus
##moor
splash
##rite
##izer
##ope
##gra
##zzle
##oom
cooperate
##sford
##dham
hugging
vitamin
##sper
##ndra
##dong
##tani
##rix
##eye
##oping
##cap
##polis
##gis
kinda
##bir
##tad
moose
##rted
##evic
##rita
##sque
##mobile
heck
##rson
##sity
jackets
rag
baked
borrow
##25
##von
##oney
##holders
patty
##oned
dolphin
##lag
##puram
##rds
##rino
##eding
##por
##rma
##cite
##max
##uss
pillows
##enko
##icated
##hrer
##fare
##rant
##hoff
##ume
##taking
##gence
##yman
##80
##hya
##lde
##iu
##phic
##ares
##ested
##vina
##cake
##lim
##cards
whales
##cene
goats
##shaw
striped
##agh
##tering
##ych
##hawk
fuzzy
##hang
##cki
junk
##lund
tuck
##ffen
##xy
##weed
##rane
spilling
##nock
##ulata
dessert
##sbury
##chs
##vian
##psy
##morphic
crab
peck
##ull
##ifier
refrigerator
##pr
##uca
bikes
apples
bakery
##cliffe
##sser
##ards
##yde
penguins
##pis
##48
##cked
##ffle
##ryn
dinosaurs
blouse
##get
##oz
##pol
scrub
##using
##ums
##oga
##aine
##screen
##wes
##lined
##gc
squirrel
##text
##tary
##anga
##hell
##oya
hee
peach
##rden
##tain
##cating
##onne
aquarium
##gb
##tase
##comb
##ddin
##neck
##yna
##itic
cradle
##truct
microwave
tumbled
messy
##jak
##etti
##keeping
##rland
##quist
##hiro
##lich
##aceae
##elo
##word
##edes
##nac
messed
##wart
##gee
##nds
##igh
##cise
##case
##bot
stirring
##dies
pinch
##lik
##ital
kitten
##guard
##psis
##iba
##lift
##xt
##dah
##wy
##iful
##rized
##unda
##hari
##cious
##name
##int
##iled
treats
##hop
##bis
##gling
cans
##ection
##tley
##kumar
##iman
##gible
##balls
##ific
##rative
##iq
##uity
##tem
##ught
##ending
bumps
pets
##mbe
##itation
##writing
mushroom
##kur
##loading
##rgo
##sonic
##oop
##eni
##chal
##llah
##mler
##lity
##osing
##100
##erson
##pper
##ili
##brush
##acle
##ady
##zaki
##ulin
##bolic
grill
##aged
##grapher
##vial
##hwa
##ades
##nous
##itude
##icz
##xa
##ider
##erman
##kell
##uled
##eve
##eres
##rner
##tok
##color
##dly
##ssi
##ometer
##lington
##tility
##adt
##logists
dice
##ight
parlor
##rri
swings
##phs
##riation
##rish
##put
vase
fabulous
##tow
troll
squash
##uce
##rium
##jana
##rring
##tadt
##elin
##kova
##kind
##heimer
##24
##gaard
##oran
##ulo
##olin
##ype
ponytail
##watch
##ylus
##jah
##mmy
climbs
##holm
##tner
##tri
##avi
##irs
##mat
##jit
##eto
##proof
##act
##ories
pots
##bow
##fted
##uration
##ators
##dp
peacock
##rro
##coming
scotch
##mot
##db
##fen
##vant
##cles
##iation
##lion
##ssing
##ulates
##dina
##grant
##rop
scarf
##rca
##iom
nap
##leader
##iae
##esis
##rsten
##sb
##cens
##eka
bumped
##llan
##shot
##uman
peek
##cic
##ald
##qa
##xed
##eded
penis
##any
##phones
##uo
##kle
##nine
##dhi
##estinal
camel
calf
##oso
##rno
##uche
##lma
##rva
##sable
##vocation
##posed
##cturing
##tres
##rce
##num
##bey
##inating
##ih
##yoshi
##imeter
##bei
##shore
##iable
##leaf
##lace
##oud
##gned
##swell
##sms
##uil
##osition
##ckle
##itzer
##leton
##pine
##minate
##tland
##tore
##bt
##eca
##nched
##borne
##won
##ional
##ads
##entation
##sible
##pia
##imus
##22
##att
##ndon
##child
cough
##lica
outdoors
paste
##cera
##selle
##par
barking
taped
rum
##plex
##tooth
##gny
##rlin
##cured
##jima
##rter
##oic
##dl
disgusting
##olate
##iously
##escu
##zhi
##dron
##beat
##bana
homework
##sol
olds
##cape
##hil
##boats
##bbe
##olar
##35
##xide
##uni
##pac
##ease
##omo
##vet
awhile
##aud
##iques
##dded
windshield
##endra
##hala
##morphism
siren
##cier
##yra
##iso
##ttering
##sic
##ored
##urt
##cats
##sher
##xing
##active
##aca
##pala
##tl
##kon
##west
##kk
##mble
##yuki
##cko
##ln
puzzles
##grass
bracelet
##gua
##fr
##pas
##zawa
##vr
##storm
##vu
##sun
##rte
##aba
##lea
##hammer
cardboard
astronaut
##neer
##uba
##see
##cken
##henko
##lai
smelling
##now
snack
##qing
##gill
##jun
##cd
##ioned
##cote
##hips
##pressed
##cology
##enia
##erry
##nat
##islav
##ink
##70
##wei
##odes
##rar
##rked
##lein
##kled
##vos
##mith
##cke
##thus
##cula
##inski
##br
##post
##ask
forks
##uter
##yya
##mbre
##ntial
##mill
##amine
##while
##jos
##ldon
##chman
##isch
bolts
nicely
dolly
##45
##ust
##ml
##ision
##lord
##ishly
##rks
##holes
##hong
##wife
bless
##jer
##glia
##uin
##rim
##fighter
##gonal
##orescence
##wari
##due
##elt
##dled
##mount
##osi
##lat
snaps
##mme
##akes
##etto
##hetic
##urus
popping
##atter
##station
##sef
##press
##acious
balancing
##icient
cleaner
tanker
##mur
##gil
##anne
##xes
##llus
doo
##pathy
##hue
##eit
##bate
##lore
##itch
##hea
##phobic
##vati
##sport
##dation
##eyer
##otic
##udy
##kari
##sier
##sei
##gor
##isman
##kling
hush
##ego
##utz
##chule
gee
##nesian
##iol
##market
hm
scratching
##xin
##egan
##chet
eats
donkey
##user
##ddle
##illon
##xx
##finger
##ulator
naughty
##wire
##mour
##atin
##chrome
##ester
##rates
apron
##yria
##llation
##tom
##ulu
##uze
rabbits
##raz
##ako
##lev
yer
##gau
##bourg
##lles
##rya
##nius
##fight
rug
##hak
##cl
##nham
##iac
##lab
##rber
##sner
smoked
##isto
##aran
##mt
##tana
kite
##acies
##atz
##gement
##thest
##ej
##fusion
##orum
##stra
##rred
##vine
##hini
##bies
garlic
##eering
##hui
##kee
##nl
##aus
##dition
##notes
##iology
##mology
##isk
##zione
##illy
bulb
##naire
##sler
##arts
##imated
##uate
##wley
##ject
##dio
napkin
##ods
rhyme
##ricted
##eti
##ntly
##lane
chicks
##ggio
##torm
##oting
##liner
##ush
##ooped
favorites
##lage
##rdo
##yen
##zak
##pose
##tur
##enity
##gat
##bara
##zza
stew
##kaya
##raphic
##zam
##ogical
##phine
##fide
##thing
##cars
##ptic
##ibe
##chu
##sio
##aly
##rano
##tious
weeds
##oman
##pire
##dable
##aq
##dder
##ologies
##rone
##mani
##rge
##eli
##uting
##cao
noisy
##agawa
trolley
##yed
##lard
##under
##zzling
##86
##lena
##llum
##phon
##anus
##lb
##yler
tomato
##eux
pentagon
##olis
##astic
##gina
##chia
paddle
##obe
##insky
##lett
##lean
##lves
##therapy
##tery
##hire
##nca
##nical
##bet
flap
jelly
##icles
##ulia
##mian
##tial
##rle
bu
##erence
##omi
##fulness
##sas
##rwood
##liness
cereal
onion
##df
##42
##xley
##ysis
##ffa
##berries
##athic
##lr
nah
snowy
##ivo
##erton
##founded
##ulf
##sham
##tries
##tania
##uron
##nology
##mata
##hee
##fle
##udi
##cheng
##achi
##ental
##aves
##90
##twined
##cino
##64
##yal
##bial
##ucible
##ples
##bina
##rned
##auer
##kia
tripped
##ogan
##pled
##kim
##lani
knocks
##ael
##elled
##onate
##feit
##aur
vanilla
##cter
##tour
##oir
##rain
##cable
##boarding
##tment
ut
##eville
##gawa
##dry
##rly
##log
##berto
##llin
##breaker
##issa
##rts
##ssel
##dler
##oration
##cule
##ulously
##pura
cinnamon
##gens
##rricular
##oris
fingernails
tighten
##tm
##ytic
##iere
##zine
##ication
##mins
##gold
chew
##uid
##lid
elastic
##aby
##ined
##phy
##uld
hose
##liest
##owa
##lom
##eira
##titled
##ggs
thump
##otti
##roud
##iza
##bron
##sr
##diment
toad
##dai
##stick
##wicz
##acio
##asi
##eme
pee
##mail
##working
##smith
##cco
##enbach
##icular
##eson
##stream
##tya
feeder
##uber
peanut
pouch
##factory
coughing
##cea
##bard
##ahu
##ivate
##hesion
##46
steak
##rangle
##dridge
##31
##tral
##imate
##dington
##folding
##nesia
##oof
##ppe
##stand
bumper
baking
##grove
##manship
##rup
##stituting
##carriage
##lston
##stadt
##wai
##zier
##bria
##plication
##nged
##sam
##belt
##eem
##made
##pro
##nent
##rani
##hesive
##sko
##lts
##lidae
##vation
##gp
##than
##erus
##logies
##36
##rance
##anto
##kr
##vary
##iter
##pired
kangaroo
##avian
##vili
##vir
##eral
##sett
##aling
##biology
##gm
##orus
##bella
##rot
##folia
##llis
##rom
##ount
##wd
##rocity
##acion
##urne
##sor
##icide
##sty
##ilised
##org
##wana
##ghton
##rcle
##mona
##mber
##jiang
##vance
briefcase
##rogate
##dman
##tenberg
##ffs
##ishment
##ddling
##kor
##lium
##ove
##enstein
##inen
##ones
##uti
##vington
unicorn
##rella
##ishing
##ossa
crocodile
##chers
##tung
##phi
hike
coop
##tidae
hen
chickens
##cade
##drum
##riz
##hul
##pha
##bino
##resh
##cp
##wine
##23
##vah
##lter
##riding
##ieri
##oku
##ended
##hampton
##jong
##marine
##ivated
##ovsky
cub
fishes
##aea
##ivist
##verance
##brate
##ctions
##usions
boo
##34
##38
##omic
ding
##rling
##ange
##horpe
##inations
##roving
##eptive
##moral
##tale
##apa
##pio
##note
##tails
zipper
##bas
##nea
##ply
##udes
plum
##pile
aw
sandwiches
##words
##roup
##dm
##cede
##mora
##yt
##rut
##erate
##lva
##ulton
##lini
##rrie
##fighting
balloons
##icum
##dim
##llon
##ulla
paw
##dro
##quel
##test
fries
##51
##hiko
##aver
##ghan
##oms
##sho
##saurus
##lating
##wny
##ind
banging
ax
##gall
##ups
##hp
##nall
##kra
slippery
##53
coloring
##rgos
##tose
##km
##turn
##chang
messing
##mina
##athing
##kley
##izations
mermaid
##aint
##pet
##hers
##kus
##sant
##hend
##mart
##eley
lipstick
##ilo
##edd
##ucher
##nging
##heart
##rka
##rsa
##weiler
owls
##unced
##33
##aring
##thorpe
##rave
##28
##bered
##bba
pussy
##eric
kettle
##arth
##kko
##bush
##aton
##hma
##esa
##centric
##kti
##aith
##ect
attach
##script
##ivism
##erland
##rou
drawers
##lco
##xon
ripe
##oes
erase
##ever
##bery
##khar
##tet
##stle
##wide
##ogist
parrot
##tham
##fp
##taff
##isms
brushes
##yp
##rse
##nikov
##js
##uaries
##frey
##amo
##llet
##opsis
##ctric
##47
##rini
##rified
cakes
##charged
##aker
##iform
##rgy
##tius
##nburg
##rac
##bha
##hering
##tures
##eber
##zow
##ctus
berries
##aco
ribbons
##lander
##chfield
##forms
##icides
##lence
##tica
##chment
##lization
##aja
##ganj
##sari
##church
sewing
##sf
##fia
##ncia
##ition
##nity
##worm
##ggy
##voking
##lite
##grate
##nets
##alia
##rent
##nitz
##pts
##pta
##bolt
glued
##pheus
##onale
##meter
##placed
##imating
##sche
##ogo
##mony
##gum
##real
buckle
##eers
comb
##gam
##elles
sweetie
##vat
##trick
##uge
##hta
wah
##jn
##race
##27
##slin
##uve
##mac
##ays
##oja
##wheel
##laya
##mics
##pods
##lberg
##ennial
##mit
##44
##rigues
##zquez
cocoa
##tman
##roid
##relli
##ours
##hdi
##nable
##gues
##zuka
##gley
##agi
##mx
##cis
##rogen
##vot
##ulsive
##krishna
##horse
mic
##gga
##economic
##mun
##eves
##thic
##uj
##otto
mane
##utable
##lei
##space
##aris
##vern
##mento
##alo
##skaya
##eses
##kyu
##lance
##oslav
##urable
##tagram
##aman
##cloth
##tite
##jou
##linger
##tze
##hism
##inn
rattle
##leg
##tek
dough
##uttered
##igraphy
##istan
##firmed
##rien
##yes
##nington
##eran
##cking
##inging
##crat
##typic
mustard
##dit
##runner
##tower
##bbing
##inator
##lford
##oki
##zoo
##lto
mixer
##sov
##cript
##codes
##emi
##ungen
##bled
##giri
##ciation
##ropolis
paints
##ales
##pid
##pit
##yse
##aha
whoa
##erin
##gl
##paper
##free
##physical
##inia
##lce
##ulsion
##ryl
##drich
##kot
##mple
##sons
scoop
##virus
##75
syrup
##tized
##mind
##iaceae
##uet
##thermal
##lbert
##oese
##ssler
##hom
##tangle
##lmer
##cie
##holding
##hoot
##redo
##mite
##ango
##crats
##wice
##ntation
rash
##reus
##lak
##fine
##oked
##block
##tology
##vyn
##cycle
##isse
##inge
##39
##nni
##ault
##fell
##farlane
##olic
##ices
beak
gorilla
broom
##rians
##brand
##sume
##arns
##icing
##oche
##eving
##oise
##tell
##hani
##mada
##ctable
##enham
peppers
##chio
##neo
salty
##dak
sesame
##ept
##kit
##kir
##41
##clusive
dumping
##hh
##romatic
##clave
##train
preschool
##essed
##castle
##drive
##ifice
##film
##buro
##ratic
##dote
##body
##ago
##finder
##llie
##bh
##oun
##sul
##ality
##bri
##genesis
##mist
##lou
##wives
##zyn
dat
##bation
##ign
pow
##43
##rika
##ifer
##ading
##iec
##region
##kker
##giving
##schen
##rase
batter
##cano
##apple
##gai
##git
##nst
##stor
##thed
##sau
cones
mushrooms
##kovsky
##elman
##26
##door
##sell
##orne
lego
##nated
##lz
##cend
##arty
##sphere
##wala
##oge
##cure
##break
##ilde
puff
##haling
lizards
##fixed
##unas
##ocation
##lkirk
##elling
##ogen
##iferous
##mbled
##hita
##inda
##zee
##eke
##yla
##pack
##powering
##skie
nt
wand
##berman
##utus
##ining
##tlement
##nish
##zuki
##flies
tricky
##isha
##eller
##nary
airplanes
##nee
raining
##gist
##ape
##dick
##rera
##nut
##pment
##anu
##isson
##amy
##ckman
##zell
##55
##mable
##thal
##drick
##vira
zoom
##01
##rting
##unciation
##kki
##icia
##lusion
##usia
##hesis
##pressing
##leen
##uating
##sso
##thes
##eras
##gol
##kow
##asian
##good
##zano
##iculate
##his
##oco
##alle
sausage
##stered
##tters
##grade
##oped
##rza
##ellant
##hay
wo
##kken
bottoms
##lide
##bbly
##buck
##bah
towels
##dust
##lova
chilly
##edge
##erine
##lty
##chemist
##connected
##ump
##main
##istle
##aster
##uming
##ential
##logue
##ogenic
##sities
##wat
##mide
##orra
##bola
##dget
##rith
##wark
##iny
##tracted
##overs
##oshi
spitting
##cot
##layer
##fk
##itas
octopus
##say
##foil
##metry
##pic
##fast
##ym
##enne
##zman
##raph
##patient
##meyer
##river
##eil
##nting
##cona
##crow
##mare
##feng
##uary
dentist
##rang
##torium
paws
##laid
##ergy
##fers
##enna
wig
##achal
##creen
##ilis
##lins
##rence
##with
##ception
##furt
##minster
##37
##llary
onions
##landa
##rage
##ener
##jected
##trum
##bill
##lta
hugs
##dek
rhymes
##laze
vigor
##tf
##ischen
##around
chop
##kat
##zek
##ffey
crunch
##vara
##tute
##mmon
##lese
##uding
##helm
##pipe
##enary
##phate
##chon
##dora
##hur
##lding
hamburger
##corp
##elial
##dened
popcorn
##29
shovel
##bek
##dice
##dez
##ivision
##mori
##dier
sandals
##naut
##utnant
foxes
##ardo
##havan
##ives
##aldi
##lth
##ehan
##puri
##poulos
##poo
##trust
##opus
##ggle
##vao
##icate
##bn
##jm
##rill
##sius
##litz
##loh
##teacher
##ege
##oca
##pl
##keepers
##osed
##rys
##iring
##shima
##oum
##tish
##vres
##joy
##ignon
##mg
tuna
##urai
##mana
##ctors
##ulio
##tou
##iens
##ignment
##dev
##arte
##gul
##held
pasta
##grin
##kou
##phile
##gara
##quisite
##vity
##jord
##valent
chopped
##koto
##vac
##onus
##cum
##scopic
##trip
thirsty
##standing
##lessness
##dran
##logram
##boys
##kushima
##vious
##phobia
##chai
##gang
##ater
##lassified
##pati
outta
someplace
##ginal
##vish
##ptive
##dur
##antes
##rral
##ggles
##omba
##ament
##uen
##rrick
##lase
##jic
##tonic
##promising
##cala
##sle
##lang
##dication
##fed
##rh
##oza
roast
##woods
##linson
##mming
##ouin
##bala
##dda
##eased
##oides
##rdial
##rke
##thesis
puddle
##nob
##tically
##mined
##iti
##tler
##iente
##ulum
##tip
##lley
##iam
##dson
##ower
##anger
##laise
sleeps
##bour
##icle
##urity
##lux
##yad
##bang
##claim
##erving
##uing
##amps
##sund
##xious
soy
##tops
##icative
##iot
##dberg
frustrating
##nified
##adia
ee
##vite
##yme
##lino
##hosis
##lick
##ophone
##arable
glue
##jure
##esian
##phus
##brates
bunk
##ritan
##erative
##zai
##hae
##imov
##mini
##rso
timer
##taken
##nh
##crest
##ntino
##chester
##optera
##dara
cupboard
##esthesia
##ior
##basket
##umatic
windmill
##cek
##mps
##orous
##omp
##ports
##tream
##deh
##ocks
##yson
##nad
##cius
##gli
##rook
##anov
##acker
##lika
##alla
##som
##national
##umb
##agne
##nessy
##iani
##osphere
##champ
##itan
##athi
##hab
##kong
panda
##oia
##nail
##vc
##dity
##riated
##mission
spicy
##tort
##caster
##gman
##khov
##tively
##vio
##eak
##kt
##dance
spaceship
##nig
##bham
##ference
##omics
##bm
##tropical
##meric
##raction
##ige
##shida
##rde
##glers
##ssar
##riam
##aceous
##rard
##nsk
##cta
##mund
##quay
wrestle
##uses
##ieving
##oven
##ignant
##peed
##sack
##fus
##shah
##hg
##sboro
##hunter
##dhar
pens
##ctuated
##eaux
##gly
##brick
##stead
##nzo
##nsky
##tson
carrot
##9th
##movable
##mad
##rao
undo
##yeh
##islaus
##shaft
##tyn
##mah
##yd
##eland
##tino
##itarian
##gui
##ausen
##gf
##rize
##drop
##ross
pumpkin
##bry
##ezer
sponge
##52
##gpur
##ivation
##belle
##osaurus
##col
##lving
##oint
##jal
##anna
##ocene
##orestation
##hiff
##nka
scissors
##sight
##tens
##cey
##yin
watering
##llas
##building
##arney
##nem
##dya
##lellan
##nded
##routed
##hog
##smo
##tp
##rger
##oton
##urance
##ayan
##chenko
##arat
##dern
##lete
##rgen
##vered
##analysis
##awan
##khand
##vard
##nden
##dana
##oper
##chee
##vies
##resses
##pathic
##erved
baskets
##osity
##tosis
##cchi
##raus
##lham
##fect
##tten
##uw
##buch
##bari
##6th
##ngen
##ece
##ely
rake
##edo
almond
##irus
##wad
##kato
##dicated
##pon
nighttime
##anian
pea
##hei
##dini
##erina
##partisan
##itha
##vius
##channel
##vera
##tila
##tang
##bai
peas
crabs
##phila
patting
##kla
##lland
##nche
##dee
##hide
puppets
##haya
##itical
##utation
##ropriation
##koff
##scope
##vez
##ructured
##yat
##tight
##ographer
##quil
##nare
##zard
##odle
##naud
##fting
##dome
##otted
##65
##carbon
bananas
##estra
##chua
poke
##edly
##sur
##sma
##acing
##49
##hair
##raphy
##lver
##uy
##ounded
##cit
##meo
##oire
##roved
##lative
##class
##yles
##bio
##cola
##wk
##orno
groceries
##chase
##tua
##otype
##tructing
##eger
##etz
##ttle
##fires
##adan
##ciful
##fb
##slow
##ials
##tford
##tick
bum
##onga
##heard
##khan
##rdes
##write
##bians
##hri
##ndt
##monium
##orough
##games
##lysis
hopping
##beau
##dalen
##hila
##nai
##qual
##rford
##mei
##rnik
##hedron
##hope
##ags
##iner
##raine
##wright
##copic
##ador
##camp
##enas
##vating
##ears
##vb
##zd
##hein
##chuk
##gami
##lka
##points
##tov
##aar
##schaft
##vino
##eron
##iography
jug
##jia
##suka
##deck
##vill
##rug
##tec
##dorff
##hear
##rogated
##pani
##rissa
##rnet
##eki
##kson
##lewood
##rval
##gata
##biotic
##ettes
##otide
##runa
##umble
##roller
##bright
##uance
##planes
##esses
##ductive
##unes
##cans
##hosh
##lifting
##sation
##christ
##llins
##ibar
##balance
##uso
##emy
spaghetti
##felt
##wt
##blood
##aghan
##verted
##ythe
##pore
##roi
##unds
##tage
##venting
##vances
##gical
##4th
##mism
stale
##ntine
##neas
##eles
##eurs
##gno
##mute
##ances
snort
##sw
##rank
##rder
##missible
##cr
pup
##jevic
##lates
##pina
##rona
##gative
##mpton
##dou
##rries
##anta
##venor
##nx
##bags
##tsky
##nally
##ths
##lved
leash
##hmi
sweets
##loe
rosy
squid
##mage
##sily
##cute
##md
##strel
##utter
##ractive
##rkin
##coll
##lun
##tance
##mental
##kala
##rization
##open
##ruff
cozy
##entes
##emon
##nist
##mack
##jured
##parts
##enting
##pg
stepmother
##walker
##going
##minated
##56
##gnon
##igny
##growth
##ywood
##ffi
##rdan
##kney
##position
##dlow
##54
##mania
##bots
##evsky
##uis
##americana
##dding
##inton
##nage
##rret
##bread
fluffy
##rrier
##kam
##tea
##ditional
##het
##udged
##lash
##alic
##gaon
##cide
##cini
##typical
##viere
##logie
##itte
##lass
##lists
clapping
##cor
##nosis
##tsa
##icio
##rney
##tara
##dates
noodles
##aia
stink
##mum
##oys
##wehr
yarn
##lind
##lone
##rgh
##oons
##urgent
##logic
##dial
triangles
##hered
##usly
##cous
##egorical
##weig
##scia
dime
##uh
##efe
##isches
##asse
##earing
goofy
##amen
##bund
##lad
##powered
##yst
##ctum
##music
##neil
##washed
##itors
##opped
##arm
##plicity
##onis
drip
##hedral
##vana
##aldo
##cytes
##hopper
##izan
##graphs
##opers
##uven
##listic
##rwin
##erik
##tify
##bson
##eros
##rained
##rath
##dot
##rbin
windy
##marks
##gart
##kota
##oder
##phonic
##gur
##odies
allergic
##tness
##ety
##hone
##liche
##nator
##nery
##orio
##umen
##cb
##oted
##titles
##tura
##frid
##grants
##tative
##cave
##oses
##sions
##ople
##rsk
##offs
##ammed
##ocating
##pressive
##cm
##kshi
##bold
##vus
##rled
##7th
##hid
##rmin
noses
##cen
##raf
biscuits
##85
##anial
##abas
##bane
shave
splinter
terrific
##arion
##erian
##ired
quilt
pigeons
goo
##sil
##akh
##person
##pants
##cliff
##ulent
##dun
##inium
##zic
ow
##urer
##imi
##lita
##agger
##lynn
##rigue
peanuts
##eborg
##uram
pajamas
##breakers
##udeau
##hony
##ccus
##mounted
##pod
##eche
##claiming
##osomal
##amina
##scent
##fleet
##ppy
##lowe
##nio
rooster
##bbon
##jian
##jean
##hearted
##spar
##nb
##uria
##vinsky
##fera
##loid
##mous
##a1
##mpt
##swick
##enay
##nsed
##hly
##wyl
##encia
##hyllum
##masters
##fat
##pour
##mium
##vani
##hli
##wg
##bau
##version
##hort
##chison
##hiti
##nnis
##iensis
##58
##atal
##uno
##iji
##dles
##terol
##rasia
##riety
##fra
##thor
##heater
##mering
##ilia
##aer
##anor
##iste
##may
##oue
##jad
##missive
##ppel
##gnant
hammering
##lga
##atable
##idad
##ols
##ouring
##tangled
##very
##lette
##sden
##olt
##pins
##gut
##pher
##zh
##rok
##boot
##liffe
##minating
##rrado
lobster
##fur
##arina
##herton
##anal
##eia
##lub
snacks
##bilis
##cz
##ouk
##aina
##firm
##anum
##bbies
##tyle
blah
crank
##nction
##dner
##edging
##hane
##iy
##talk
##nais
##olf
##reen
##sit
##arded
##aday
##onte
##tained
##lez
##lho
##anies
##bib
##falls
##harat
##week
##eries
##uously
##ahl
##pee
##ddled
##holz
##iction
##cheon
##oit
##neuve
##ipes
##recht
##nism
##zumi
##riders
##ados
##mament
##mut
##rud
##laus
sneakers
##ksha
##imeters
##isance
##pre
##ronia
##lke
##tablished
##scoe
##59
##taro
##cuit
##idi
##rdon
##grating
##inates
##asco
##ecin
##kovich
##ently
##nostic
##ttal
##idon
##gnan
##ikh
##dant
##rons
##lary
peeking
##mara
##iciencies
##rti
##inatory
##ssion
##inga
##lism
##ately
peeling
##rgeon
##ains
##plify
##tub
pear
##chner
##sibility
##kura
##oulos
##8th
##tched
##lateral
##pps
##tama
tractors
##ifiers
##plin
##quitable
##beam
##sitor
##57
##cton
##tees
##rran
##asurable
##fles
##200
##iance
##efined
##till
##duk
##nished
##hre
##wled
##arians
##zos
##yck
tumble
##gingly
##urse
##wee
##mies
##pw
##roll
##vita
##urized
sock
##taka
##rito
##ij
##uls
##zily
##hema
##tique
pancakes
##avio
##cision
##tray
##lden
##maid
##oxide
##rba
##rnier
##ually
bangs
floppy
##otte
eater
##hett
##omorphic
##zog
##bula
##lithic
##rada
##abi
geese
##bla
##icon
##lvis
##rest
##rzy
cabbage
##kian
##utive
##rmi
##rued
##enes
fuss
##tao
##wash
##inkles
##kiewicz
straighten
##ando
##rem
##ffled
##uising
##guide
flop
##vron
##imum
##rrow
##hum
##orth
##kali
##veda
##yala
clap
##cana
##sure
##gree
##eza
##mation
##vitt
##clops
##gizing
digger
furry
##iad
##filtration
##merie
##dgets
##ceptive
##para
##lars
##osta
##oux
##culus
##lais
##qvist
##rrigan
##odon
##lastic
##cam
##erted
##drik
##igate
##mise
##zbek
##istles
##ivar
##orin
##idium
##sg
##cina
##etano
##zzy
##66
##bedo
##oin
##ici
mustache
##endez
##ocytes
##sop
##actic
##baldi
##bular
##ensburg
##itung
##scu
##ound
##personal
##meister
##nberger
##ricting
##dilly
alligator
##genase
##erre
marvelous
##ayo
##lizer
##ajan
##kulam
##ieg
##lge
##mbit
##suit
##miento
##rites
##sling
##ghi
##rations
##tarian
juicy
##duced
##ragan
##dna
##rga
##tlan
##lized
##qu
##vere
##jali
##weather
##grounds
##iii
##nbc
##escence
##flight
##cased
##tula
##fahan
dwarfs
##bruck
##dents
##nami
##hner
##meral
##isen
##ometric
##pres
##jhl
##zko
##lten
##rcus
cuckoo
##section
##rooms
##formed
pau
##lok
##stellar
##mmel
twinkle
##abia
##apes
##chaft
##dav
##ooping
##tension
##itia
##ffie
##tsk
##onda
##tiv
##rvis
##gni
##mberg
##urian
##wani
##3d
##app
##oed
##year
##ega
##cel
##enter
##oles
##oteric
##hem
##kata
##ciency
##arus
##mussen
##nidae
##rzburg
##ingdon
##tituted
zebra
##lices
##oj
##bain
##ecure
##arding
##andra
##broken
##cuting
##iface
##ror
##rosis
##drome
##ioms
##oric
##rag
##ckey
##trix
##stems
##uder
##nivorous
##isan
##dict
##igen
##vna
##zziness
##eft
##mbs
##scribe
tuba
##aks
##ifolia
##athan
##zle
##pse
##mbling
jingle
##urrent
##izzly
weasel
##for
##elis
##folk
##lwyn
##otho
##saka
##bf
##itative
##yce
##flict
##miya
##reate
##ruck
##tucket
##ayton
##cence
##ife
##bber
##skin
##tat
##you
##nir
##idia
##inho
##500
##rise
##lovic
##lch
##urities
##dermott
##inking
##scan
##ostal
squirrels
##owe
##bner
##rchy
##systems
##trics
##gration
##olio
##urst
##nty
##cultural
##quette
##ssed
##tma
##zcz
scares
##itaire
##stones
##udence
##just
##nsen
##umber
##upt
##rip
##bution
##gano
##onzo
##orro
decorate
##puted
##tori
##stis
##stov
loosen
##opa
##glio
##sir
##peration
##uez
##kic
reindeer
polka
##kei
##ducted
##pone
##roids
##jing
##ppet
##lib
##ssee
##pkins
##400
##bley
##raya
##rmed
##ailing
##ilation
##tzer
##uppe
##werk
squeak
##avs
##ands
##rco
##dion
##etched
##lster
##nsor
##toy
##ticus
pudding
##urbed
##hyl
##rrard
##waite
##wil
##bant
##edance
##!
##"
###
##$
##%
##&
##'
##(
##)
##*
##+
##,
##-
##.
##/
##:
##;
##<
##=
##>
##?
##@
##[
##\
##]
##^
##_
##`
##{
##|
##}
##~