guh
##lles
worm
organization
bergen
stealing
linguist
wishes
##coll
clinging
##â€¿
Dean
preschool
,
denomination
buffet
why
iris
semitic
being
##zone
promise
buzzing
making
crumpled
fitzroy
fugitive
colleen
replacement
##æœ‰
grumbled
engaging
constrained
skipper
neighbours
winked
browning
voluntarily
à¦š
dominating
gordon
store
ir
kathryn
judge
maintained
kickoff
370
yo
lancashire
cousin
laughing
notoriety
##lore
yves
malice
fully
labs
murmur
##dan
##gano
bleak
intent
pursuant
à½‘
##enburg
##off
texture
combines
[unused438]
â´
##bach
reside
interpret
goodnight
[unused976]
balanced
##yar
texas
ripped
##rix
sustaining
young
moravian
##ord
lynn
Õ¡
##sd
##kra
oversees
constellation
signaling
cab
[unused496]
##hai
burma
##ou
gambling
##dong
newtown
â‚š
conducting
crossover
disagreed
domestically
sri
homework
gotten
bully
debris
##selle
markedly
interviewing
[unused737]
hodges
##vine
targets
##á„€
travelling
marseille
wellington
paige
disabled
continental
mahmoud
É•
relativity
##max
selects
sum
pocketbook
##Ñ‡
hen
easy
éˆ´
prima
medical
strewn
washington
1965
briefly
##rain
ultimatum
prohibition
##ica
inhuman
strongest
rocco
disappearance
##tle
inhibitor
wrestle
##lto
##mined
facilities
1670
locker
ec
rain
##overs
ordeal
punishment
eastenders
##lyn
##personal
residents
Â°
fit
rafael
encompass
garments
specialized
strikers
sr
postwar
rattle
reservoirs
[unused314]
â€”
bangs
astros
honorable
developed
curb
hit
obituary
investigation
luxury
pretzel
leo
genetically
##tao
arguing
fiery
aus
attested
dawn
austria
##chrome
ja
##pati
##pped
hatred
##iss
parcels
##iri
##sett
##rling
room
socio
composer
##ais
pianos
interceptor
##lls
arrange
1952
zinc
immature
eight
##âº
maguire
incredibly
tempted
mr
offices
##sso
traverse
##actic
##ikh
mae
university
mrs
concerto
eden
grille
mega
bout
nad
carbon
matt
á€™
just
_
journals
velocity
congress
patricia
war
specification
kade
uniform
00
##uria
hierarchical
mt
commits
áµ—
leaning
berkeley
assurance
[unused793]
haley
tt
×
betrayed
##á„ƒ
dread
only
inception
##oft
pulsing
documentation
sticking
groaned
##broken
parrot
licence
periodical
influenced
[unused62]
##gned
demanded
louisa
wills
##wine
sanity
arabia
coordination
assessments
relocation
doubts
gracious
å¹³
endless
monde
submarines
dare
onions
##bate
casual
bray
[unused736]
flanks
mont
massacre
cb
##hic
boyle
blackness
sweater
##ino
pigs
everest
depends
estimates
therapeutic
bribe
##mous
bind
addressing
é•·
dakota
frontier
ceasefire
##lization
##ch
supplying
##oia
##flict
choreographer
ã‚†
geographic
247
##hausen
damien
serials
crisp
##henko
iv
patches
johnston
averaging
[unused569]
karachi
keeping
brant
producing
expects
mcleod
##rrard
##brush
steals
ducky
##ya
carlos
à¸
uneven
1938
genetic
á…¥
##pping
##ently
victor
general
##uted
physically
##aga
tiberius
detonated
sweaty
##tage
midnight
104
petroleum
##â†‘
##cher
best
##lc
forming
marching
##mate
##tort
justified
abc
chandler
[unused622]
##bund
[unused5]
260
legion
mayo
##krishna
intelligent
catalina
smelling
rotterdam
##jing
tournaments
requirement
##yl
surgery
oriented
bowled
frankly
##listic
branched
los
challenges
shoots
endelle
pas
homme
1986
attract
archibald
grasping
glamour
##zio
distressed
huddled
##itative
mma
checkpoint
seems
voivodeship
bridgeport
defaulted
dane
##hg
ä¿
viceroy
possessed
32
hills
client
shannon
224
accidentally
habitat
sultan
jill
qualify
##zz
tech
##hian
apron
greenwood
tower
aging
latino
##zier
europa
##56
lois
regulars
myles
notebook
##amps
bulbs
runny
thai
captive
[unused103]
outstanding
vincent
goodness
piracy
distinctions
leach
##ten
plotting
##à¦œ
grenades
table
batavia
j
blub
##uth
elongated
##bl
ollie
electrons
##dition
mildly
##ura
lb
##ãƒ¼
aspect
silhouette
bakery
##onal
##ãƒ
cornish
M
sabotage
wince
toilets
lore
elastic
patrons
adjutant
##æ”¿
congresses
jun
commentaries
outspoken
##çš„
sobbing
depths
##rous
theresa
vfl
monsieur
mirror
settled
bunk
axis
preparations
##ants
[unused252]
##sel
routine
##gg
Ð³
transaction
elemental
outdated
weren
ms
ireland
à¤
taxa
##eth
myra
##rber
wood
intercontinental
tertiary
21st
closing
hardy
bubbles
fredrik
provisions
##ra
disappearing
shelter
casa
uss
lindsey
newark
stacy
taluka
##æœ
##ians
##foil
ç¤º
##dust
grouping
##ards
##uru
khmer
blanca
hidden
##hawks
heavyweight
play+room
##ãª
weathered
teaches
propped
aa
scrub
##sit
benefit
larkin
##ally
Ö„
ÑŠ
consider
outgoing
wayne
[unused796]
china
lyndon
wrought
digger
@
##é™½
darting
create
[unused310]
complexion
buckinghamshire
southern
[unused696]
##ouin
##ms
headlights
##ticus
monthly
halls
##rita
homo
rivalry
stripping
dorothea
ready
adulthood
cache
electronically
artwork
hoffman
internationally
leicester
caesar
pursuit
affirmative
overs
poisoning
tko
clancy
renew
æ­Œ
cardinal
conceptual
sheng
refurbishment
cayman
##plify
cutie
domination
hog
podcast
ceylon
thus
coca
bounced
builder
specify
smarter
emi
sexually
dya
jake
admissions
##nin
xv
##fen
blond
drinks
crested
##bla
hauling
plunged
feng
pitted
##hetic
##å·¿
unwanted
lehigh
mongols
scar
##uity
conversions
known
modernism
connections
##eni
##helm
macedonia
##cent
##pore
veteran
1604
calvert
##ovic
60s
##iae
cape
penultimate
wax
columbus
##Ø³
pleasures
monkey
demographics
harvesting
furnace
##à¶š
380
##chester
americana
attacking
##grants
comparative
cairo
H
event
liechtenstein
##ates
reggae
114
##laise
looted
of
fitted
parties
fin
##orous
deemed
accounts
trends
##ror
ãƒª
##ï¼Ÿ
damn
##cies
disciplines
brat
martha
projective
citrus
anxious
inaccurate
##dara
tadah
chronology
96
negative
##â‹…
##nden
processor
nipples
inspector
##ã‚¹
460
internet
##tated
ã€
coding
released
linguistics
ÙŠ
had
à¤µ
eastwood
cringed
cycling
malaysian
attention
19
##rangle
rods
216
acknowledging
##idon
whistle
battlefield
sy
##kic
sg
laid
loan
bobby
fireplace
1945
braun
livestock
tractor
1835
susannah
crawford
destroyed
[unused147]
felicia
cough
imagining
wound
constitutes
scraped
traders
fuel
browne
710
canton
compton
silk
##acy
competence
##ip
barred
wealthiest
panties
endured
##10
##abas
lightly
##å¥ˆ
retains
pinkie
barrio
yucatan
goldberg
##Ê³
disneyland
##rge
offered
shortage
hana
packaging
clarence
imagine
à¤—
loyalists
##etic
roared
å·¿
management
##train
eireann
celebrates
grant
137
##rzy
##out
##ike
à¥¥
practically
ctv
understanding
[unused386]
wakes
thumped
geographically
roger
harbour
pointe
innovations
lemonade
pump
mar
revolutionaries
##à¤¿
sandals
author
unity
stare
ferrer
forcibly
scrape
doubted
living+room
faced
##ffle
shri
erosion
mari
##rys
##ãŸ
1981
mitchell
designation
å¹¿
##fort
endorsed
acting
anchored
olivia
##las
##sily
##ulum
aims
skier
addition
emphasis
##houses
##agi
##uss
[unused111]
baron
manufactured
agony
francisco
tip
predicting
matters
koala
thirteenth
##ually
[unused978]
##holding
wing
terraces
##â‡„
bulldog
##ã‚±
primate
disrupted
curiously
firth
##á…ª
52
weave
mystery
##raÃŸe
simpler
åŠ›
cared
breaststroke
Â«
##phy
advancement
freeing
willem
regardless
reminded
reef
booth
bourne
partridge
cultivated
cmll
belief
à¦–
##iface
##rro
##ul
##Î»
faerie
military
nuuw
makes
shelton
1726
visiting
slaughter
baskets
750
distal
highlighting
olympia
gills
flock
##rsk
talent
spite
##ing
ssr
sacramento
##bil
appeal
amy
privy
##wig
4a
[unused667]
chloe
ps
875
provides
accurately
chairperson
school
socialists
jana
payne
##ã‚¢
16
##fr
times
oilers
platforms
drive
##nay
##reate
[unused594]
claudius
idiot
rang
withstand
bernhard
tata
##avio
pressured
allocated
autobiography
capacities
ops
funeral
header
Î¼
acoustic
1795
motivation
[unused209]
genres
conspiracy
##bau
##nz
rory
reptiles
robinson
weeds
##inas
##rion
based
[unused670]
elbows
price
virtue
moors
cass
bangkok
batting
constitute
whoever
##à½“
traditional
counted
tori
##rise
streets
nirvana
pulsed
substitution
á†¨
##champ
showed
olga
##áµ£
memorandum
teachers
predict
niche
nocturnal
compelled
freedoms
well
hindus
ï¼
swam
garrett
doubles
turk
simulated
everett
##ropriation
[unused168]
presents
##saurus
wired
##cking
partially
grasp
persecuted
'em
[unused200]
mere
[unused759]
biblical
##hh
allmusic
lowered
##dis
pointer
##maid
iraqi
finn
clothing
##ucci
à¦°
claw
978
##owing
1697
stiff
are
slaughtered
megan
sophie
volcanoes
speculation
captains
oatmeal
flicking
competes
shimmering
267
went
##zer
vols
##lick
grains
sugarcane
weed
##egorical
cal
campaign
alleged
forbidden
##sons
æ˜Ÿ
minimal
seton
identity
encouraging
cho
hayes
pound
monterey
indicating
scripture
livelihood
slater
cylinders
##stic
cheated
islamabad
##zic
reactive
##01
matrix
personal
##aj
circuit
brown
##nine
flour
jello
husband
##sg
ensign
comfy
somerville
allow
walked
illuminated
pronouns
moran
bequeathed
##titled
credibility
poke
flawless
inauguration
[unused294]
...
ambiguity
manual
fluttering
sloop
Ð»
[unused533]
##rasia
##u
nas
##ayo
mcc
nils
##sions
wryly
rearview
menu
horned
decide
commemorative
[unused121]
pharmaceuticals
##n
rome
protein
##à®ª
convenient
convex
formulation
episcopal
mobile
à¦§
narrowed
discount
##far
lillian
##rina
bah
test
##Ã°
##bain
reese
##brook
tobin
directly
tb
secretly
laude
åš
farmers
##oid
tickles
[unused754]
preceded
nationwide
these
dude
upstairs
championship
capitalism
[unused703]
junta
infrared
á„Œ
2012
design
periodic
res
##ilo
canteen
serb
##sling
##rin
skiing
##sbury
##itt
maxim
halle
que
ecosystem
lucius
manuscript
##uttered
[unused655]
prevailed
hopes
scientists
sanders
grew
bono
dorothy
powell
##aid
heavier
recognizes
economics
##oni
sven
stemmed
penang
yoo
bach
##all
bromwich
issues
unanimously
seventeen
deutsche
221
doctors
cop
objected
derby
snail
stepmother
188
louis
coefficient
passports
ego
##furt
expertise
straining
scheduled
cree
aggravated
×ž
utc
discovers
lecturer
sorcerer
é¦™
sidewalk
division
tackle
photographer
##vating
spent
##inium
adapted
japanese
peruvian
##g
qualified
blizzard
laurel
landscape
##urbed
replies
admission
historian
gripping
reversal
producers
traitor
pontifical
corpses
headlined
poll
millennium
##rial
flooded
##á„’
refugee
paving
ceremonial
piazza
klan
anthropology
##zuki
meteor
glaring
##sin
inhibition
ever
cortes
horseshoe
hardly
daddy
##ically
compass
##kong
touch
[unused847]
##fc
roanoke
commander
gritted
differed
luz
darmstadt
[unused154]
æ”¿
defend
tempered
leger
louder
assumptions
accommodations
06
##kawa
##ingham
unzip
depiction
harmless
[unused595]
bath+room
323
unison
naples
christ
dim
nets
electoral
edit
generator
##ca
##à¤¬
calculating
pencils
1665
##chman
##rkin
crystal
whatsoever
methodology
carry
iconic
commissioners
flores
rollins
feb
secondary
writing
crow
prematurely
battista
62
engine
seated
##thing
compartment
suburb
reflection
jalan
ã‚£
unmarried
occurring
contained
##æˆ¸
crocodile
shock
restraints
chesapeake
loco
emerging
##rs
limb
width
talon
sprinter
as
##×ž
ãƒŸ
argued
##oud
á„Š
heats
à¤†
purposes
##å›½
bunny+rabbit
##_
brigades
occasions
wrestled
clearing
formations
mid
ian
ladder
bacterial
diapers
##agawa
skyline
ain
hesitation
stanford
requesting
meetings
working
founded
subcontinent
time+out
à¤¸
Ñ„
boo
[unused714]
nail
announcement
hurled
commissioned
undergraduate
sway
franchise
##tto
mindanao
chopped
bulge
archaeology
conferences
crossed
##dles
peeled
tempo
true
##å…ƒ
buick
alla
villas
electrode
regression
##Ê»
undoubtedly
bell
alfonso
shay
embarked
audio
subjective
unconstitutional
cavendish
##Ä§
nay
boiling
swim
reassured
brow
divine
feasibility
##wide
masculine
performance
##liga
intended
friends
mankind
baritone
##kushima
funded
transitions
appealing
##ente
decca
cunningham
niall
Ñ†
ou
therefore
reprised
adopting
forgive
homosexuality
2500
##enity
seahawks
##itor
##É¹
##rri
##cano
hates
##Î¶
[unused521]
##low
##ati
eased
share
dazed
peaks
##ett
##lt
inspirational
aged
##jic
handgun
verbs
##sts
1756
hayden
##chaft
##boy
geek
cleaner
asher
nikki
bob
tha
[unused503]
exceptionally
##Ë¤
crook
##ã‘
prohibits
[unused421]
achievement
discussing
kinda
##Ê°
3a
354
staging
hickory
Dakota
tandem
soyuz
Î·
lambda
coordinate
entertained
biographies
blues
skill
construction
tissues
technician
through
1898
atp
##ologist
psycho
het
inflammatory
dragon
##uts
##ä¸€
powered
marquez
##iation
##lean
##f
##tic
alexandre
pavilion
Â£5
grind
cheek
organism
##à¦¦
flicker
thor
cougars
emanuel
alternatives
gables
##gawa
passion
repression
sleeps
strains
nike
nmi
##bc
231
blades
melanie
schwarz
inhabited
##isms
said
newcomer
##gation
revelations
collecting
eyre
worth
evaluation
fragmented
fatalities
governmental
fluorescent
1776
blitz
wb
##nae
treasury
theory
##á…³
hanover
dizzy
curtiss
kam
attends
##ogy
##enbach
##36
1764
polynomial
##riation
farmland
escapes
[unused707]
##z
readings
venues
demand
muriel
wheeled
requires
sharing
fragile
##tish
##çš‡
dilemma
ã‚’
##amp
infected
##hering
cheng
woof
economical
robotic
[unused903]
playfully
staged
crouched
ratings
1837
##sor
nord
##tray
predecessor
[unused60]
harris
##ffin
majority
abilities
swansea
169
ice
theorem
astro
removing
enrique
palestine
##rad
cores
##han
##ning
gypsy
oman
invest
##à¦Ÿ
bangor
inexperienced
far
ballot
indie
spy
smiles
nosed
rhinoceros
hoped
##jun
shelley
[unused553]
##force
wetland
##nya
##eo
##osition
gems
informal
alongside
cord
rim
contributions
sucks
43
needed
missionary
geographical
piers
lacking
fled
account
seduction
specialization
##ingen
á…ª
fi
fronts
##cation
fatally
beyonce
coptic
proven
oxford
##Õ«
inputs
santiago
grin
popularly
fictional
clarkson
dissolve
ivan
abrupt
destroyers
##dent
adjective
m2
cameo
southwest
hydraulic
though
iihf
##his
ç¤¾
toe
##mia
bullying
##ã‚£
prayed
ares
##e
penetrating
##dation
alarmed
attractive
sainte
##Â«
##rove
##insky
refuse
##rug
rainfall
lovers
[unused417]
reactors
age
marco
dressing
nino
sweetly
##valent
potentially
raymond
snaps
idle
neatly
jimmie
hu
selection
orderly
vic
newfoundland
à¤…
wilhelm
nico
tightened
dislike
broadcaster
builders
domino
[unused480]
tiffany
product
sentimental
##rda
rainy
boon
awkwardly
##hita
##dron
namibia
outfit
ritual
inviting
tsunami
##ckey
offs
tastes
shuffle
strap
##jo
æŽ
peg
tar
randomly
##ami
rf
ã€‚
##thy
goddess
##0s
dry
zee
##oto
scares
##è¡Œ
fascinated
squares
surprisingly
zulu
tushie
amendments
jakarta
jordan
kind
penal
wooden
mona
##à¤
sooner
â€¦
##pts
kevin
##va
nation
blinding
declines
satellite
wii
titanium
##yr
allegheny
flipped
rules
mwuh
marmalade
converts
wed
##hp
stoke
##ook
##ets
continuing
passport
skies
##shaft
grasslands
africa
[unused441]
##ster
concluded
string
[unused837]
agent
porter
cumberland
guest
##å—
çš„
nobody
[unused189]
##rte
paso
cement
ï¼ˆ
[unused67]
vector
mam
##vo
##ega
â‚“
zhang
afterward
acquisition
weiss
moomilk
toronto
##%
climatic
initiate
bombay
blankie
reelection
orphans
galveston
vaulted
caressed
mechanically
ask
reasons
fades
carolyn
externally
approach
##pass
[unused181]
##osphere
barrow
dominate
arrangement
morley
karim
##à¸‡
whisper
##dome
##tma
peking
[unused370]
may
##vich
teller
deteriorating
oopsie
corrugated
yet
##leaf
##oney
roberta
[unused303]
bartholomew
ã‚±
westward
theoretical
announce
acronym
excerpt
metropolis
mlb
##io
stairway
peoples
simplified
varieties
huh
##pathic
jeez
boxing
ramsay
duration
##deh
##itz
lo
É¡
valiant
windows
bernie
580
diving
gardening
bose
sean
learnt
relevant
sarcastic
##els
mas
becca
##â†’
took
reported
pro
planner
1777
courses
illicit
##illa
catalytic
closeness
##elled
destined
tang
hoo
tool
saudi
detection
ponder
[unused31]
empire
##sing
##rbin
â¹
[unused201]
nightstand
finalized
flinders
áƒ’
##ters
portraying
zip
short
docked
watches
##base
habit
##à¤²
capcom
##written
colonies
displeasure
chefs
##aurus
finalist
##sco
hamilton
050
pieces
cochin
equestrian
##neck
prelude
bumble
ineligible
##hog
pilasters
##chison
##ament
viral
giuseppe
finale
selecting
disconnected
nippon
##à¶½
zub
chennai
hearts
lasers
recapture
##sat
##æ²¢
1652
##rator
deals
croft
fought
[unused706]
##ek
auditorium
##kam
##yev
hoc
catastrophic
##enas
nutrient
gill
situ
commission
Cookie
cary
term
1500
##a1
##{
å›½
indigo
ringing
frances
handles
352
insist
grimaced
##mm
strategies
throat
affectionately
convinces
shia
1789
richards
typed
#
surveillance
##æ°µ
ahl
movements
arithmetic
outright
[unused180]
burger
##æ²³
arc
consulate
requests
##bley
detectives
signature
runaway
##titles
battled
##t
republicans
morning
##tar
##drick
functions
glover
europeans
dealers
searing
contracting
smallest
##iology
peyton
å¥ˆ
mirza
bang
spill
copy
lodged
##un
rail
msc
clements
earl
tudor
endowed
ambition
##cious
microphones
##iki
hunched
gore
acacia
liquid
amount
drawing
cottage
stephane
##lled
soprano
qualifiers
declared
oriental
audrey
willing
##uez
##lev
karin
[unused25]
##hul
##ÐµÐ²Ð¸Ñ‡
flags
ahmad
scarf
committee
rescued
syndication
cocoa
##å´Ž
nearer
taped
##rgos
lifeless
irrelevant
jane
##á†«
é¾¸
jerry
vance
##bham
valley
logs
decades
##rift
watkins
senators
females
profoundly
melancholy
constantly
easiest
palestinian
##|
wake
middleweight
parishes
##vera
circular
##mbled
humiliating
unnoticed
augusto
undefeated
csi
##firm
##Õ¬
##ping
##sse
demons
compensate
dying
interpretation
recalled
adverse
[unused756]
diary
Little
woman
undergone
darts
##grove
serves
sadly
kinetic
scowled
inquiries
##onale
decent
abduction
resulting
transmit
diaper
except
affect
880
grading
##bow
nedra
[unused643]
à¯ˆ
##drome
reece
signatures
219
trump
å­¦
jail
shuddering
attorneys
##verted
##rled
avocado
pcs
stationary
justification
vitamins
[unused299]
plea
con
pioneer
amir
550
weekend
##tou
##za
middletown
##chang
1769
carrier
##×›
##lem
littered
holt
inform
ry
compilations
march
supplement
casey
##hl
##Ñˆ
coven
##kley
earth
poisonous
##iously
##dermott
mediation
lawson
173
##glio
race
katherine
##oga
baker
cruisers
##ask
lukas
semester
criminal
bobo
eritrea
remotely
stryker
buzz
##rave
##yson
pi
liquidation
levy
gate
patient
leung
##Ù
temporal
dumping
##ums
leningrad
malabar
dew
##ardo
zhou
##ax
##uit
##Êƒ
candidacy
thunder
party
##eft
×™
heaven
##ç«‹
gujarati
1990
sabrina
hee_haw
hemingway
excess
##ricted
prevent
constraints
[unused841]
philosophers
##duk
recipients
different
is
nickel
paddle
##lag
siblings
285
brave
nathaniel
ambient
tribunal
##~
gabe
astronomy
1711
twenty20
occupants
á„€
clunk
kia
favour
##lateral
softer
clad
228
281
bladed
roommate
ã›
allergic
listens
##cus
sales
sustainability
labyrinth
pledged
combined
parameter
divided
roofed
##ides
[unused723]
ascent
gregg
diaries
bombs
##á…§
cheung
romeo
darn
neighbour
restore
lara
##int
resulted
roosters
[unused948]
customer
ravi
sequences
vegetables
spitting
ol
leading
referees
approve
##iga
anatomical
breuning
jericho
motorsport
uncredited
mass
ruben
[unused415]
07
turkeys
wept
##rist
studied
blown
##glass
##tch
##piration
slice
[unused738]
carpet
libyan
##ification
myspace
defenders
kern
##gol
examining
cocked
##ano
fingertips
publicity
recorder
1845
complete
methods
tides
confluence
una
jon
prosperous
bet
277
prequel
bun
##beam
aliens
422
à¼
##ises
away
did
worms
##ia
##chua
arrangements
hopeless
ohio
exile
slot
accountant
[unused360]
recital
hua
##âˆˆ
oro
like
davenport
leiden
boiler
æ°¸
penetrate
bows
2000s
escorts
##äº•
##minate
unsure
oral
é¾
municipal
duval
ti
petitions
postal
garlic
advertising
ratified
supports
##ã‚Š
call
alonso
synonym
adjacent
bulgarian
piper
caracas
paradigm
â€º
bunny
##Â©
duluth
outlets
sava
reluctantly
markus
1649
##ã‚€
courtroom
hm
##ayton
newsletter
buddhism
bleep
[unused797]
##nti
lesson
baby
##lon
astoria
companion
sail
character
armadillo
authorized
cipher
sud
reid
coordinating
establishment
distracted
##acious
[unused742]
kai
characterized
joe
hers
atlas
sep
comes
distributors
nailed
##bala
bars
und
æœ‰
intervene
range
objection
accomplishments
entrepreneurs
tattooed
scooped
awoh
bram
abdullah
harvest
alligator
chrysler
executing
educational
architecture
##cko
##zek
[unused823]
clickety+clack
spices
37
reveal
saskatoon
##49
77
mina
geologic
recipient
bradshaw
##ç€¬
booster
diagnostic
[unused68]
anderson
##star
tuba
waters
##nction
##nir
ancestry
yoink
##Ú©
relic
miraculous
[unused887]
canucks
tay
shaft
mueller
return
1876
fatigue
à¤§
approx
qin
standalone
octopus
##boarding
duchy
tamara
cornerstone
Â§
##ji
coward
forwards
É‘
screw+driver
1867
ruling
saigon
ching
##ywood
[unused772]
demonstrating
orb
##kir
rammed
furrowed
##bius
herr
cox
isotope
mushroom
cupped
climates
bitterness
speaking
##koff
bassett
bengali
[unused504]
ducked
##oco
boasts
batteries
defeat
skylar
blogger
[unused315]
mentioning
commendation
cramer
##liner
northwestern
##rites
Ñ€
welcome
buildings
##âˆ˜
shootout
impairment
filters
angelo
##ain
uc
mole
demon
aimed
1985
##not
specifications
lisbon
yates
yank
afro
##rting
oxygen
sect
nestled
nova
blackwell
conceived
mock
daze
mostly
1921
enable
eyes
arrives
##nch
stamped
llama
wrexham
luisa
tre
ã‚„
michel
modular
rituals
1885
æµ·
holder
##no
stafford
batman
##ress
##hide
linda
##iard
##cle
friday
funding
expression
magical
[unused520]
rubin
analytical
##hesion
##mic
despised
##sity
##wley
[unused465]
##rred
â‚Š
till
investigates
##ies
disciple
controversies
##erre
holding
unofficial
commune
inferior
[unused642]
chu
mac
redesignated
##vi
smiling
creating
##Ã—
naming
arts
##rud
contenders
tapioca
168
henrik
É´
window
scientology
94
dissertation
walls
seismic
nowadays
vents
deutschland
constant
motive
colder
rubbed
levine
smacked
survival
spatial
barn
ensured
##lbert
cart
strongly
##poulos
fly
##smo
roots
186
totaling
##unes
maris
titan
volatile
protected
topical
##powered
paramount
ignited
arrive
44
reorganisation
frogs
seizures
disturbing
feather
decker
bmg
augustine
although
byron
novels
yeast
##taking
mccain
sparta
hamas
equal
##tose
katharine
economies
gottfried
waiting
##loh
narrative
compares
bookcase
mozambique
baltimore
nicholson
##mani
arriving
productivity
christopher
vivo
amp
##dents
duchess
##mussen
desmond
##hum
pajamas
##iction
[unused572]
##4th
170
releasing
prized
basin
tomb
elf
traced
liza
##wa
carlisle
##rius
chromosomes
lure
backyard
traffic
franks
tate
boston
histories
clinic
##eter
ghent
orbiting
proceedings
##wright
##Õ©
1840
##dating
gillian
á…§
trench
dollars
nickelodeon
wen
incorporate
##folia
##nity
temples
comparison
rinse
pretzels
Krystal
##cene
[unused224]
[unused600]
##bility
procedural
liang
##jian
relocating
my
swallow
possible
1787
fading
wins
##ifies
ceilings
qur
##rates
æˆ¸
##miya
mor
[unused604]
Earth
dl
defines
major
wal
must
â†
newborn
cheap
robbie
noctuidae
##udged
parental
observes
preferences
earnings
generic
##à²¨
cabinets
asturias
rehearsal
[unused493]
##oms
tutor
##nca
psi
cory
à¦¶
á´º
portrayal
[unused785]
[unused85]
also
##mple
##Ã¾
reflex
confederate
raccoon
2a
chattanooga
malvern
uniformly
brink
aristocracy
##Ë¢
æ¥Š
##pia
June
##lassified
zebras
thoroughbred
morales
drowned
surveyor
##bruck
easton
xp
[unused914]
cyprus
countered
saga
feminist
aston
raising
territories
skirts
closes
##ander
[unused50]
decrees
##ory
pluto
arroyo
ep
##imate
concealed
1890s
uta
##zzi
[unused157]
overlooking
qualities
##beck
fibers
qc
[unused612]
convoys
dvd
foothills
##é¾
O
bore
rotary
margot
minorities
cook
##é“
testosterone
##bine
##fu
denote
nasa
##â‚…
ÃŸ
from
pegasus
am
heritage
paradox
project
trembled
dub
rats
benefits
##uded
##à¸²
[unused489]
aka
cap
1966
##ever
mÂ²
jessie
imaginary
tung
smiley
macau
##hey
rom
property
landfill
hasn
##ark
authenticity
##à¦·
soil
##à¯ˆ
recruits
##eim
1747
ruse
##bial
several
monitor
registers
turns
rutherford
##â„
voting
complexity
competitor
kirby
counties
apes
sufficiently
slab
[unused962]
gratitude
ooh
gabled
czechoslovak
##aba
jc
hostage
[unused326]
denounced
##fleet
kanye
â€‘
##zquez
nebula
Mars
##eed
ran
costello
iaaf
whew
couldn
chanting
mahal
monastic
peasant
berber
##æ°¸
##gpur
prc
##olt
å‰
infant
flakes
acclaim
laptop
peanuts
##roi
ding
signals
1667
2013
currency
imported
##lines
scattered
haunted
replay
stinky
citing
tanned
maturity
##å¤ª
##rued
##lers
gee
raise
eighteenth
tributaries
percival
1943
cbs
durban
foley
knows
33
guests
ferns
sherwood
baseball
##ental
mayfield
gaul
##ãƒ¬
acquitted
antics
unseen
jaenelle
assignment
aspects
decomposition
scowl
âµ
[unused803]
july
hummus
##hood
simpson
darkening
schuster
cords
[unused677]
##hammer
åˆ
extensive
auckland
engineered
ideally
cantata
##áµ¥
sums
problem
convicted
rocking
##eman
sinai
##nified
goethe
pains
×“
wolverine
incumbent
aviator
staffed
giles
chamberlain
victim
tailed
bust
reader
notion
alike
##channel
circumstance
jan
##sted
vessel
conception
##fted
##Ð¿
Â¹â„â‚‚
fungal
responses
equivalence
who
erin
assumed
delgado
##ad
listened
weaken
##rified
##sser
##ndi
difficulty
ie
é•‡
carnival
mars
112
foster
leap
bb
wanted
cock
railing
##sible
rodrigo
meadows
fumbled
##top
##zhou
coloring
59
padded
pancakes
##80
##urized
1645
whoopsie
fresco
altitudes
##Ñ˜
##aged
resorts
centre
dedication
ashamed
catfish
coined
usher
voluntary
iranian
hear
##wc
##ä½
limits
segment
[unused967]
water
##phi
resistance
gains
pleaded
executed
âˆš
lloyd
extinguished
guarding
vein
cordoba
##crat
1844
[unused132]
tremendous
04
ç«
kappa
hungary
joshi
fashionable
generation
partners
mechanisms
patsy
decatur
toxin
áƒ
corporations
original
mornings
##Ú¯
snap
disturbed
1919
tombstone
wesley
##rot
##ence
lies
##Â¥
carnegie
##æ¸…
##uso
appellate
relationships
statue
##beau
bottom
blocking
neville
ãƒ£
drunk
might
learns
tide
shell
[unused270]
à¸‡
##lars
drops
thank
animation
Ú¾
á…¡
asshole
##grant
##ope
[unused606]
1718
delivered
rested
gunners
walsh
restrict
##vary
mauritius
certification
fairfield
member
chiefs
max
hem
songwriting
strictly
din
##gle
harding
cinematography
essendon
emperors
â‚
flyers
##fera
ml
mig
[unused42]
bu
repeatedly
lakeside
principal
noodles
##tis
coffee
shops
headline
figuring
##llation
##jar
staple
162
ah
##lson
gilbert
[unused300]
bloomberg
prism
kin
##feng
fide
##au
bogota
[unused353]
travers
93
##val
quarterback
##kov
lp
schemes
respectively
comeback
commonplace
ticklish
lucinda
variable
radha
suns
bulk
immigrant
##tern
blood
##21
drastic
crafted
tracked
105
wry
rodriguez
ardent
##wd
eddy
[unused385]
reagan
820
refers
instability
kate
[unused733]
wants
portions
Ù‰
áµ¢
syllable
formation
##rella
increase
##nted
##rook
##âº©
wore
##mon
escalated
exchequer
leave
cherries
viewpoint
##sma
total
spokesman
[unused109]
##Âµ
armenia
stark
norman
Æ’
chapel
updated
cassidy
verdi
definitive
pole
##kha
sword
blueberries
bonnie
##Ê‚
coincide
bracing
hostilities
melodic
translate
cassette
withdrawn
kitten
affection
1788
dialogue
à½˜
ï¼‰
critic
nowhere
pricing
persecution
vinyl
##pa
wee
wan
bowl
vigor
reliable
realized
powerhouse
loneliness
[unused190]
perkins
haifa
proves
hymns
##é‡Œ
heat
spawning
##à¤­
fingernail
##æˆ
nero
shiva
appalled
baja
county
fresno
handheld
magdalene
pregnancy
##å‰
##æ„›
harry
acre
pitch
revenue
é’
##walk
##gic
##rke
fancy
feedback
transgender
wicked
varies
procedure
bloody
shutter
macdonald
devin
bollywood
[unused21]
yay
1751
ã²
publicized
ripley
bag
activated
stadium
photo
##pus
potato
moniker
jen
catalog
groningen
marianne
slavery
dune
nouns
127
reeve
ahmed
##tling
##Ïƒ
titular
commanders
[unused985]
hitler
boppie
##ede
etienne
imperial
proving
efficient
fangs
##nium
aiden
freight
consecutive
pol
à¶»
[unused955]
collaborated
departing
sarawak
##ead
##therapy
cafeteria
invites
distributed
continuously
countess
hurling
##æ³•
which
transformed
tufts
##vinsky
administering
migratory
mantle
##Ø±
differentiate
cotton
gentlemen
sylvia
extending
mccoy
govt
crept
##rano
marcia
ty
daggers
authoritative
cherry
toward
jackson
amor
1603
##4
cellular
guard
ernst
dominican
mtv
##sburg
mavericks
rage
##ors
##âˆ†
vince
[unused99]
cowboy
ã—
##xin
wool
kari
merton
johannesburg
hurray
cecilia
marius
flaming
[unused179]
##uary
timed
##rew
falling
wrestling
absorb
policemen
montgomery
condom
å¤ª
cranky
simi
##oche
##khan
progress
##ogist
cars
detecting
[unused591]
fiction
swing
220
foul
korea
##udes
obey
waterfalls
feels
Bobbie
cattle
##ssion
adriatic
defended
saunders
unspecified
hair+cut
shuttle
literally
##hema
festival
nevada
tablecloth
##hyl
snowflakes
arrays
prove
trucks
shriek
usage
bigger
holly
exiting
wetlands
Soopers
fiscal
contacted
taboo
rotating
indoor
regained
luminous
##bered
##station
leverage
draws
35th
protective
[unused323]
viva
##åœ‹
##gingly
poo+poo
attitude
223
saturated
busted
##il
sled
configurations
murdering
chicken
ventral
bordeaux
##ucher
mood
watermelon
crewe
inactivated
##strom
year
respective
harpsichord
##ller
##uto
seed
##rea
à¹€
translated
2017
ric
creators
##lea
flynn
##isa
greens
##8
[unused731]
bladder
forged
distillery
shrub
purple
1738
hotel
â€ž
##vier
dir
conform
yep
lombardy
cues
successes
burt
soils
##pper
defiant
belgium
realms
##urgent
301
matches
[unused133]
Ø¸
ara
slipping
badminton
roles
accommodate
proton
uncertainty
diocesan
mailbox
smackdown
parameters
tyne
##ital
optic
hercules
moritz
dayton
christy
##ira
prosecutor
knight
chunk
stores
repulsed
socialist
safety
flamingo
quarter
[unused269]
##lster
##let
##ack
##scoe
confuse
sun
issued
marry
flashed
basic
##nivorous
nathan
[unused126]
##æ˜¥
åœ‹
core
geoffrey
books
futuristic
##rde
T
yearly
##onis
lights
##nai
coastal
##lance
mutter
300
q
1909
[unused457]
bowed
knocked
specialist
june
truck
trunk
haute
[unused125]
conditioned
78
##cule
nappie
werewolves
lotion
publisher
latitude
tilted
[unused560]
##ulo
cakes
offence
berwick
cursing
dundee
adapting
strait
##ares
framed
odyssey
ot
software
fourier
cranes
##lene
[unused878]
suez
trademark
horn
##take
lithium
##hill
commands
##dl
exodus
##eme
âŠ•
à¤¬
##thi
clicks
##ef
remy
leopold
tossing
medal
attacker
pursue
siren
dyed
forested
experimenting
concourse
[unused763]
brenda
contemplated
hines
boring
bad
craig
webs
volga
enthusiastically
196
mount
murdered
##cter
jimenez
tickly
[unused554]
conrad
identifying
blade
äºŒ
##ryn
turning
##sar
##ife
neared
flaw
cut
hydrogen
commanding
remarkably
##gu
reyes
nash
pajama
timber
##wave
openly
interview
pattern
rosenberg
hi
hoarse
initials
##ossa
mer
)
##nator
[unused840]
detachments
[unused603]
1801
somewhere
soldier
confined
weights
darryl
[unused545]
à·€
1957
pollock
##hes
andrea
bridge
##athi
16th
##tify
##å¸
##hand
##eno
remix
[unused528]
designated
runway
yorkshire
suspicion
##over
pv
[unused55]
continuity
##á…¢
èªž
expressive
melting
margarita
warwick
bt
##37
sell
inorganic
primera
castro
sabbath
vascular
[unused281]
weather
hunters
preface
barangay
##Â£
gang
constable
reflecting
##ãƒ„
cameras
garfield
##khov
beer
sucking
depict
snowing
giant
parked
specials
##eson
##su
##è‰¯
synthesis
gazing
colossal
annoyance
tighten
parents
surveys
##tees
##x
accommodated
muse
currently
##ette
geared
jet
twitter
à²°
opponent
educators
ritchie
##st
derives
wagner
bryce
amore
mailman
[unused381]
buffy
swamp
pollard
##gis
seasons
interval
##going
##yam
##ously
sexes
patriots
criticised
correct
divorced
del
[unused830]
ones
##uven
skeptical
seminary
packers
martina
##ivation
doorbell
founding
##éƒ¡
concludes
romero
rippled
pads
inheritance
yankee
knowles
karen
lynch
##12
##rod
##lka
copied
slope
##le
56
deadline
##kia
##bino
F
##media
##pal
minerva
##dock
nave
ruiz
lou
pornography
prisoner
eduardo
hide
interdisciplinary
dashed
fame
cypriot
figures
applicable
dropping
forthcoming
discourse
planners
reacting
nana
guided
rumors
practitioner
consolidate
pomeranian
belly
trolls
deadly
disappeared
##rada
laundry
bred
kemp
commemorates
##shed
##go
gma
intro
instinctively
fairs
##icides
alf
terminating
dignitaries
##å·
##cend
system
##wl
joshua
taxpayer
alec
##tric
vincenzo
##urity
ivo
irina
##Ù‚
##shire
##à½‘
requiem
##just
##puri
##irus
crossroads
manufacturing
inhibit
gillespie
[unused45]
suppose
##ver
yu
pu
magma
touchdowns
marsh
##shan
representative
dismay
jasper
weir
69
knack
punjabi
motionless
pause
bled
##bert
regional
bare
##fication
##tlan
quantitative
rye
clerks
quarterfinals
cites
##vill
browns
siding
nuremberg
ely
located
glider
incoming
subterranean
afar
##dote
sweat
apple
xiao
lengthy
stables
1992
unfortunate
francais
outfielder
amanda
coping
##culture
marquette
##werk
antiquities
after
draining
rational
##emann
handler
undergoing
mysteries
laguna
licked
slaves
recruit
denoted
##space
supplements
moon
##chule
volleyball
adapt
##pen
homer
shifts
watery
lille
preacher
traumatic
à§‡
##Û’
kung
##uz
art
limit
##erine
beads
patents
huge
glance
teacher
receives
catholics
handle
sometime
emotions
##30
curry
breakup
comte
performer
professorship
##ius
##nce
Ø¨
threw
thump
peers
##Õ¡
vacancy
sabine
73
conclude
andres
single
reasoned
danish
##rwood
##light
1944
prototypes
##es
##sms
puget
magnet
zeke
areas
rejection
corvette
limbs
obstacle
tau
colonial
ecclesiastical
99
finite
librarian
racks
##ture
##60
threatens
kruger
[unused952]
stealth
kingdom
[unused461]
jay
guernsey
pomerania
bald
1685
computer
irving
##ãµ
##rdi
variations
emotion
##oja
##ias
thesis
##iance
Ê²
áµ£
1653
educated
áµ˜
reactivated
##bo
##53
ãƒ³
muah
1868
ibn
speculative
moment
footprint
Õ´
[unused15]
##una
repertoire
facebook
consonants
##fires
obligatory
##onda
bari
##oked
baronet
precursor
sentence
society
claimed
hanoi
colony
implying
##eased
pictorial
##oc
##ep
##tra
stats
Happy
patiently
protagonist
4th
handicap
pandora
##dro
artifact
dorsey
era
[unused130]
1618
seeds
dominated
cuisine
warner
##à¤¦
##river
kyiv
forced
##ntino
ns
periphery
armies
##Ï‰
pablo
growls
mutants
rt
##tila
rags
pradesh
grabbed
sweeping
##tower
##×
economically
colon
corpse
dad
##ale
townsville
brandt
sous
ellie
popping
##sh
endeavour
hierarchy
stocks
towers
narayan
lens
lease
â€˜
##wich
620
enacted
##rh
##mming
authentic
harrow
##ils
millionaire
onwards
harbor
exhausted
detective
##iche
chihuahua
pig
gonna
didldow
messina
stratford
retreating
reflective
schizophrenia
therapy
orioles
too
##d
st
viking
pacing
pixel
assessment
Park
##ned
cuts
[unused982]
improvement
jonas
##lth
[unused881]
oscar
worries
bing
[unused790]
##rley
ripe
melissa
##dened
maj
repeats
##gonal
##fles
bon
cake
devastation
##lli
aha
##00
laurence
broadly
##dhar
whitehall
[unused929]
characterization
firefighter
html
rise
crippled
reservation
seller
##using
vulcan
worthy
ad
chronic
buggy
churning
presentation
$
implement
##anor
riff
##por
##uid
rhys
248
exercise
##ako
blocks
electors
ngc
arguments
redding
civilization
annexed
sports
##eil
climate
Legos
hideous
hottest
charlemagne
hometown
occurred
becker
##odies
winthrop
beatrice
proceeding
northward
industries
##bird
outlaws
stethoscope
[unused685]
agricultural
castile
dani
[unused680]
drills
publishers
woodlands
eat
preview
alps
bikini
[unused82]
metallic
dipping
proponent
felt
##mates
differently
##dlow
regulations
kilometre
italics
##rcle
##tin
roar
submissions
[unused630]
##kota
sim
[unused832]
##la
sq
cabinet
1610
##eller
andrey
##her
bourbon
enjoyable
##58
piano
simultaneously
##ls
##heim
favors
##carbon
1775
##atics
##cek
299
mabel
sigh
energetic
suspicious
immaculate
##áƒ“
##sight
towns
compete
upstate
palms
â™£
last
muttering
hk
caught
##xide
navarre
##tov
expeditionary
asset
bodo
ketchup
penalties
answering
frightened
sins
investing
straighten
labourers
valkyrie
mccarthy
dunbar
dioxide
mischief
foxes
[unused568]
barge
##oper
[unused515]
##×•
avenue
##è¯
##à·
##à¤¹
wonder
td
abs
kraft
329
exemplified
flag
obscured
##dur
luther
##sibility
frying
amazed
##itaire
daisy
immigrated
adolescents
respecting
##edging
deserve
[unused822]
chew
Doggie_Woggie
pregnant
lebanon
ãˆ
crooked
opus
groceries
lesser
113
grim
##meister
anticipating
mixes
é‡‘
response
easter
latin
seriously
knit
##do
illnesses
##ater
hurricane
##à¯
leith
diffusion
##ãƒ£
##raphic
loyalist
##tucket
hurried
##sai
consistent
careful
##oman
pp
##belt
prom
##zione
##trum
##thal
widespread
1929
##oot
hendricks
professional
discussed
orbital
peaking
guo
ãƒ›
dollies
city
standardization
ar
pg
##bane
piloted
handling
motion
branch
insignia
reputed
vision
##christ
abdul
##tadt
##hot
islamist
aircraft
spearheaded
quentin
multi
##ay
knives
##opa
joined
##Ð²
frenchman
inflammation
pittsburgh
[unused899]
tehsil
sikh
##hat
sailing
entertainment
wcw
nobel
##ar
believer
##market
storm
312
stakeholders
×–
##chin
##zaki
inhabit
##ign
communal
enclave
cher
inverness
##scopic
[unused831]
bosnian
##onate
guerrilla
##hoff
##ãƒ¢
towed
##ses
pod
significantly
scully
innocence
hospital
ignorance
æ©‹
violin
oklahoma
nude
sachs
constabulary
glittering
masterpiece
talbot
camilla
##áƒ¢
##bang
barron
##asia
urbana
measurement
rematch
reissue
correspondent
rush
webster
weakening
gestapo
counselor
illness
alain
ï¬
##tl
gesturing
5
waterloo
[unused979]
[unused484]
pensacola
havana
they
##riding
##ggio
wiping
analyze
envy
graduated
butch
nautical
##olf
implementation
hah
densely
[unused668]
wien
sul
##ese
continuation
tiled
##idae
25th
implication
##dling
radar
dissolution
##work
tits
suspect
##â™¯
knee
extraordinary
briefing
axe
##iman
promptly
advisers
continents
comprised
1853
plush
grain
necessarily
confederates
coinage
##escu
clerical
jens
raged
comedic
illuminating
we
malayalam
emirates
protections
##borne
##æ¨¹
rai
twins
âˆ…
rotated
connor
protege
[unused958]
infinitely
peninsula
##ough
dining
enthusiasm
##Âª
concentration
shoving
##å’Œ
preached
##balls
approved
unstable
rasped
songwriters
curiosity
resurgence
communicated
reintroduced
ap
##trom
valentines
thinks
trenton
brutal
sl
writers
holstein
##á´°
communion
collapsing
wwe
urgently
##Ø§Ù†
centimeters
uncomfortable
shame
swallowing
É¹
##âˆ’1
farmer
revoked
##wy
hyper
[unused946]
reggie
æ¯”
dawson
##bib
##uge
##ischen
cai
kitchens
squished
[unused659]
medley
vegetarian
century
ze
marina
sw
inward
cremated
temperance
poisoned
lark
##nage
spinning
aiding
toxic
engraving
##gan
digital
concurrent
âˆ†
##ible
##talk
seriousness
cutter
1707
craftsmen
##connected
deposition
##mour
forbid
##hd
rubs
##cola
serra
pumped
newmarket
host
conditions
[unused812]
fatima
pune
robust
[unused212]
yawning
dso
bas
##cum
##ored
accord
##turing
landfall
##æ­£
[unused633]
tripod
[unused681]
##lian
torches
[unused834]
##à¦°
corinne
sadness
thereafter
conversion
1811
gretchen
sevens
influencing
annette
malacca
prominently
scratchy
figurative
##rika
##yi
baha
susquehanna
gdansk
breadth
consecration
allocation
##"
##å®¿
alone
fishermen
committees
[unused279]
frame
ballistic
starfish
[unused264]
pines
hirsch
chinese
aurora
leon
olivier
crowned
montenegrin
surged
erected
complex
necessity
dh
293
futile
compliment
landed
watts
ã‚§
indefinite
ballard
coming
relaxation
vilnius
moth
161
beatles
##oka
prototype
encompassing
##landa
1774
southampton
shrinking
sheen
hugging
audible
recipes
pinning
league
proof
Â¦
â…”
##?
##dp
candidate
auditions
##wall
##lom
armstrong
albums
sculptures
representatives
scream
##ant
exposed
bran
dismissal
damage
jaime
jin
brownish
directed
reworked
##rno
##áƒ£
lately
legendary
##rricular
sting
don
##iable
sony
nilsson
consolidated
miller
locomotives
dump
ozone
amplifier
##å³¶
trapping
##à¸¢
[unused518]
##omic
associates
1744
taipei
##anus
##aldo
kata
##å¤–
vroom
##genesis
extended
E
##uously
windsor
560
installment
informant
broadband
plants
satire
##ization
operas
##igan
jakob
durable
Ê·
æ¼¢
guangdong
mandate
hanging
##dy
kosovo
estonia
pip
[unused398]
sick
poles
##oe
lifeboat
submitted
competition
parcel
junction
##yed
mccann
gah
explicitly
advance
locus
##hui
[unused33]
##ind
bath+tub
singers
turbines
incomes
debating
pei
responding
muslim
##áƒ—
bra
##thermal
áƒ™
duct
assassination
interpreting
barony
hesse
alcoholic
éƒ½
##kai
stakes
##tok
[unused247]
##uron
nineteenth
recognize
##anga
kazakh
jai
sutherland
huron
##haling
##esian
[unused167]
sediments
ind
##ald
todd
##trip
fury
gibson
dwarf
gospels
236
nrl
possessions
regatta
crumb
commemoration
vanuatu
##ew
10th
choirs
wi
Â®
guerra
horst
documented
thierry
compose
##kled
federico
study
jaguar
##mare
1745
refused
##tsky
[unused749]
leroy
understands
1638
tonga
dance
burgundy
grimm
provider
cycle
elements
leaking
tommy
doug
##eum
88
strauss
##Ã¸y
##dance
wuh
laura
raspberries
recover
##Ï
mage
limitations
##hler
alexia
underwater
insignificant
stefano
mmm
lucian
[unused419]
islander
racehorse
crusader
magnets
bahia
[unused361]
â±
scratches
developer
annapolis
nancy
phased
skull
sprung
kitties
bibliography
jack+in+the+box
pierce
intensity
myth
##hawk
sentiment
deficiency
##uman
readiness
economy
##chan
dire
resolving
1911
##xa
##Î¿Ï…
pictured
ashland
G
##nidae
dimension
staircase
continuous
panther
vc
presenter
waltz
middlesbrough
##uk
exhibiting
trey
##ag
davies
y
later
201
loft
intention
dutton
cobra
##rmin
low
plans
[unused127]
obsidian
jason
gamble
[unused8]
whose
shrimp
cutting
title
brightest
indonesian
owning
fein
spain
repaired
punishments
ace
##gus
##pole
chiefly
49ers
adult
peering
superseded
##Î¿Ï‚
jackets
tasting
extremes
kill
ã‚¢
're
frustration
affordable
tightly
hurting
##koto
cromwell
romanian
vedic
crackers
renewable
mortimer
cong
cried
obeyed
fulham
subdivided
pepper
much
religion
fuzzy
lucien
syriac
dracula
satisfying
slides
diaz
sideways
##qua
rita
posthumously
marches
shouldered
##que
harriet
geography
part
outdoors
##trust
##oured
anaheim
wight
sundance
bewildered
engagement
ninth
consideration
abel
##ow
employment
ãƒŽ
magna
maternity
payments
top
1848
liberalism
giraffes
chancel
calder
twin
[unused950]
col
suspended
eastward
merchants
remixes
americans
spin
â‚ƒ
60
##mics
##stems
åŠ
percent
##×œ
hannibal
characters
##15
synagogue
##cured
gain
injection
urban
villains
liability
agrarian
##ï¬
##áƒ
accelerator
ndp
ashby
##Ù†
graves
herrera
##sis
eagerly
introduced
surfing
palace
adler
##ldon
endowment
dietrich
draped
integrity
transverse
subsequently
##à¦•
å®—
puzzled
296
chants
à®®
une
åˆ†
chopra
crucial
dealt
##ren
æ¸…
axes
##inga
choices
â‚—
nicolas
jokes
##â‚Š
hugged
halted
â‚¹
extensively
medallion
jody
morocco
switching
makeup
royalties
##chu
##quitable
##å®‰
kawasaki
drives
confusion
garion
agreements
toulouse
rumbling
pet
##bread
Ð²
##typic
[unused100]
unauthorized
chilling
allen
henrietta
##twined
duly
eminent
bravery
##eger
weigh
##lit
gallery
tending
prix
miniature
agencies
saxe
developments
aba
kaufman
ghosts
##eet
ella
46
121
martyrs
vocational
oxidation
wendell
huntington
282
aggregate
disgusted
resembled
##fighter
nationalist
##rts
mandir
##bant
adele
chartered
helps
##Ã·
deluxe
[unused558]
##op
propagation
glenn
afrikaans
sanskrit
distance
plight
shane
##erly
emmanuel
purdue
beggars
Caillou
colourful
hadley
bautista
[unused964]
5000
Âµ
cds
##unds
illustrations
##ffey
ãµ
##ill
joining
paddy
debbie
port
##scribe
æ­£
schubert
quivering
##ast
##americana
shattering
kinds
tribal
sergio
elites
subdistrict
##ans
##ige
##yne
##bbs
concession
1806
regrets
1648
bae
##raction
centers
reconcile
documentary
â€¡
##gizing
confesses
sandwich
slots
economic
disasters
vita
kun
wits
[unused296]
contradictory
inscription
wrapped
[unused160]
solutions
##ecin
[unused30]
##kor
surgeons
pioneered
secondly
dickens
purcell
[unused657]
recognise
invincible
##athic
brings
mm
##wi
atlantic
theodore
tripoli
##ã•
sonora
token
##ida
sheer
lived
##mons
wiggles
kittens
scare
##Â¶
stupid
Bandors
marilyn
##lica
another
psychologist
##çœ
whispered
syrian
pose
##avs
##av
[unused764]
alligators
props
monarch
spartans
refinery
##ulsion
newer
neumann
trondheim
shooter
chains
administer
##iba
bunch
wrapping
distraction
exaggerated
stuart
##att
lamps
##unced
ist
##id
174
â‚„
forrest
garage
dwarves
siegel
premise
dances
gum
gauge
evening
heath
evangelist
##yas
massimo
crest
nagar
##Ù„
sleeves
snacks
##Ê¸
health
bananas
serviced
##ttal
cartoonist
forest
pairs
critique
interpreter
dudley
jacksonville
##wice
183
binds
##ute
182
smack
trimmed
##gating
1960s
##ã‚¦
hammering
×
gingerbread
condemned
manners
doesn
revenues
hardcover
nicky
goose
morphological
gloucestershire
round
tape+recorder
##ched
pennys
è²´
ste
##cino
networks
glacier
suv
judaism
disadvantaged
##rl
hissing
fae
evil
dinosaur
770
##cup
trails
cushion
white
failing
believes
wu
[unused563]
bey
##raph
mutant
commanded
invasive
pan
sentinel
swell
rama
romney
##man
hague
relinquished
convert
##olo
consist
coordinates
/
smoothie
clockwise
vet
regiments
producer
francs
##otti
1666
##å²
##lva
spoon
cubic
[unused913]
transplant
bearing
pioneering
playback
uploaded
rite
mistakenly
235
reclamation
prolific
contests
cavity
twerp
[unused661]
welch
alerted
shirley
##lova
Å“
budgets
kangaroo
slippers
bali
##vas
##sund
1793
shillings
trusts
áƒ›
mined
##anu
denominations
[unused735]
secured
##â™­
signing
mirrored
incorporating
hammer
happiness
migrated
solidarity
[unused146]
optics
##asurable
##yla
downloaded
metaphysical
tolerance
inner
gentleman
##wg
fujian
supper
meg
judo
spectator
##à²¾
1980s
shuddered
401
oneself
hellenic
gmbh
he
reorganized
anterior
[unused853]
flourish
[unused766]
[unused138]
psychedelic
been
sensitive
tricycle
alto
changes
##kins
resignation
serie
herbs
companions
subordinate
saxophonist
compilation
corey
explorer
##quist
meath
hornet
##dled
alphabet
##×‘
rosenthal
boarding
adventist
##quette
belmont
component
tanya
successfully
artificial
iceland
[unused169]
satin
pastry
[unused491]
possibilities
battleship
##rp
##ined
ski
dadadada
u
honest
##urable
pulses
##cera
spiral
##eis
##iens
miles
[unused236]
##à¤•
##Õ£
reconciliation
kaladin
1832
heaved
bong
striking
clicked
sweetie
steady
eighth
bite
biological
welcoming
##rong
tragedy
##thus
Â£
##rland
calf
##ical
dandelion
automation
elliot
claude
suppress
olives
[unused596]
facilitating
##iensis
beige
[unused991]
bathrooms
stevenson
washcloth
neighborhoods
shouldn
unincorporated
bandaids
lower
dukes
42nd
##ÙŠ
confirmed
tease
##rth
predecessors
grandparents
dem
repeating
tourists
orchid
##print
birds
australians
stadiums
##enary
zombie
##äº‹
##ima
##sol
##cision
roe
lankan
invisible
damian
outs
motorsports
purpose
##áƒ›
##thor
##ited
sentiments
##à¤†
past
accepted
doodle
rivers
sf
block
##fect
shared
approximation
marvelous
honeymoon
##ding
disappears
lizzie
chocolate
[unused193]
291
##deck
[unused232]
animals
genie
scoot
printed
ky
=
##key
##alla
engraved
entourage
[unused263]
loader
##Ñš
guards
allan
dealings
mimi
coats
cooke
91
kingsley
##à½–
harsh
possessing
##oo
moths
discontinued
##'
1621
##mounted
ax
accounted
boycott
##zuka
remind
##centric
tendency
doctrine
lectures
##outs
steam
transmitting
destiny
rotting
canterbury
kunst
encouragement
eclipse
É’
##iled
##ipes
1634
smily
hastily
grove
kilometers
fences
peat
blew
northeastern
breasts
cochrane
site
combing
ghana
decay
sequels
[unused324]
spiked
supremacy
scaling
##Õ¸
##quin
interlude
cf
##bold
melee
lumpur
knowing
[unused274]
mused
phelps
scranton
pursed
heraldic
[unused355]
insulation
synthesizers
inuit
prussia
[unused115]
tel
ãƒˆ
##iva
##tock
##ä»‹
1782
outfits
applicant
jammed
sing
##ã‚
##orin
benny
michigan
inhaled
remembered
grades
aarhus
qb
becomes
fellow
baptised
distorted
receptor
feasible
441
45
reducing
failures
pakistan
constituencies
solo
swedish
policing
pisa
strikeouts
airbus
rents
breeders
84
leigh
resumed
##ulu
glimpse
speaks
weakly
palaces
rebound
fraser
##ny
rays
tracts
ear
##ropolis
ã‚³
##piece
##oys
prior
branching
##nosis
fee
1748
graduation
equity
unveiled
##mini
1912
##meter
jointly
polk
interim
##cted
1956
haryana
determined
instincts
bug
commercially
aleppo
ipa
segunda
sticker
##min
recycled
##åˆ
asahi
##dal
bomb
stabilize
##tree
auf
##aly
exterior
conductors
adventures
questioned
manuel
##script
comedians
bound
growl
##itzer
spirituality
##morphism
pirate
kettle
##ending
conspicuous
Ø¬
insert
yan
##ece
cracking
indicate
pillars
sandstone
summers
bison
aromatic
checked
reproduced
##tori
##idi
verve
##Ð»
atom
burn
form
maryland
172
##elia
provisional
imports
vhs
guangzhou
vicki
##à®¯
seaman
##ified
bailey
aachen
liszt
interfere
barak
scents
hon
thorn
Kamut
bowler
expenses
keys
conviction
guerrillas
presented
environmental
removes
felicity
hug
vaguely
kindergarten
##à¼
mundane
annie
##etto
discarded
floods
fire+truck
[unused650]
alsace
antoinette
à¤¨
darby
##oat
mushy
cork
##ung
peacock
##ã¤
articles
claremont
mail
brewer
namesake
229
[unused448]
overboard
##chon
manage
adobe
survive
histoire
circulated
relying
##alia
enlarged
boulder
placed
swami
toolbox
153
combinations
cognition
marc
249
twinned
designate
witchcraft
freighter
tired
[unused505]
freely
##cast
outcomes
indices
symbolic
##ile
sultanate
drop
##imeter
records
its
[unused874]
##bes
diagonal
faux
ceremony
[unused945]
enclosure
vera
##gement
variation
beetles
kenyan
##inen
security
keating
decision
naturalist
fortunate
[unused6]
sirens
impressed
##dom
suppliers
locomotive
preach
nurse
trailers
ironic
ponds
harcourt
martini
à®µ
musee
colbert
sacrifices
##te
unusual
ox
1802
sailed
infinite
tao
##bee
torres
everyday
##vres
sh
##ring
hiking
malley
##gar
09
ashok
finds
reappeared
[unused531]
ridley
scan
â˜‰
wheels
protocols
resentment
misconduct
sock
assisted
henan
##rna
winding
1879
harmony
malibu
valleys
vamps
[unused197]
ineffective
~
dead
doses
inning
leaped
c2
magnus
##hala
onslaught
[unused717]
tehran
chain
â‚€
bandit
##col
feminism
V
almost
period
motifs
married
410
fundraising
elliptical
recommend
##static
ballerina
##hard
##vie
desperately
cable
baxter
##eses
radical
georgia
##Ð¾
tyrol
tread
blogs
##mut
##isha
##elis
markham
end
##rant
##47
##erina
handled
##book
eileen
langdon
antennas
long
bhutan
mission
statute
alloys
##à¦²
milton
burnham
##à¦£
[unused904]
mounds
[unused148]
bowman
##ova
watched
friendships
ideal
##×£
jewel
emphasizes
engineering
troubles
accountability
sharpe
##cula
##áƒ
##hurst
å®€
visit
baptist
##entation
macarthur
wondering
raj
##ç³¹
crazed
traps
##Ï†
grandson
parana
airs
deer
##nic
disliked
perrin
carts
[unused755]
looks
whitish
##eries
relies
ka
musicians
como
outlined
ã
analogue
academie
##mer
[unused223]
saline
hampered
williamsburg
ã€œ
â˜…
creation
nuclear
increased
suspected
tentatively
wrists
snout
yorker
pena
court
broadcasters
free
legislatures
##uld
curran
##andra
overnight
council
å²
burkina
pasta
##placed
friend
possibility
thee
##rian
physicians
ruthless
delivers
fool
67
##cycle
##yuan
pits
entitled
##mat
mercenaries
pali
Ê€
antarctica
##spar
measures
scotch
##ving
forces
##cb
galway
npr
rally
[unused351]
frankenstein
prowess
seeks
bolt
##phs
convictions
mellon
[unused842]
kramer
artifacts
thwarted
bombardier
[unused578]
425
owl
timbers
enjoyed
trophies
[unused535]
yuri
##class
##bria
[unused620]
cockpit
integration
##roup
tam
austen
realises
##brand
##tique
ã‚·
alberto
reused
neighbor
##vial
subject
disguised
shaky
sacks
1716
moves
coronation
222
sugar
##most
[unused705]
assume
shining
whimper
##works
[unused867]
discharged
stress
additionally
agustin
kenji
##ttes
fingered
[unused888]
bonus
[
[unused957]
garner
adolescent
brooks
fraudulent
syracuse
secession
åŸŽ
tobacco
detainees
exit
obligations
barrier
##nel
bird
loads
dream
Å‹
roberts
evolutionary
##gence
lear
campo
interactions
tamil
africans
demoted
×¨
[unused551]
calcium
##bags
##oris
electro
carrying
at
crowley
bengal
##cased
##tology
gleamed
somber
habits
sells
##fully
foraging
focused
##ppel
shelly
upbringing
raju
nationally
patronage
1b
##los
leland
jj
##Â´
venerable
socks
together
gazette
obesity
##heart
hunan
rat
journal
chestnut
[unused276]
su
analytics
decrease
handbook
depicted
simulate
[unused340]
conde
formulas
##illo
hostility
[unused92]
1969
obviously
mcbride
slabs
cradled
fertility
priorities
nw
anita
hendrix
happen
sawyer
our
fairness
trades
##sby
dividing
##weig
simulator
indicates
##ã‚’
miriam
##à¦¡
arrogant
info
ohp
offensive
stirling
Christmas
##rao
##cturing
upgrading
[unused144]
paved
unemployment
chemotherapy
ramos
emerald
smoothed
havilland
##ove
[unused383]
ortega
awesome
harm
1913
glancing
replaced
benevolent
courtney
automated
##Õ¶
chalmers
scenery
stroller
alyssa
wiggling
shrill
reconciled
pounded
gallons
dj
e
overseas
keyboards
described
##34
##meyer
lethal
marketing
duties
[unused213]
raiding
composition
sharp
futsal
seminole
keeps
switch
aragon
##bour
suzy
crashing
motives
myers
##uo
saxon
vijay
logistics
chong
advising
cured
##ena
shipped
##balance
embracing
hilary
servants
work
graders
Ð¾
scaled
trojan
[unused418]
assam
inter
lucknow
levant
##rk
##iso
jade
tree
Ñƒ
warming
##rgeon
skilled
commodities
pottery
borrowing
peak
ulrich
cultivation
ridge
Name
[unused498]
##jected
##ori
##fast
shortly
##ig
transportation
crimea
##ana
nobility
##kala
##eber
[unused726]
##tled
##iest
freddie
[unused727]
chester
1908
expensive
relations
dust
roster
jihad
neighboring
dax
kowalski
module
status
bus
remade
Smurf
à¥‹
nose
hampton
builds
28
lone
1765
##pressing
É£
cerambycidae
phenomenon
##sei
equation
baronetcy
grapes
aggressively
plead
##fo
milestone
portraits
treat
competitors
nakamura
willie
Ä§
murderous
pseudonym
ambassador
smirk
greece
republics
write
christmas
##amo
birdie
ruth
interpreted
found
airlines
murders
d
insists
##ructured
upscale
eruption
heavy
killed
##inn
dates
gasps
descriptions
##wyl
12
leadership
exhibit
matthew
remarked
tricks
##ways
libertadores
envisioned
night+night
foreman
##ãƒƒ
honda
prasad
litter
sterling
haze
officially
1840s
premiership
tampa
hilbert
cracked
monasteries
##vances
scans
ominous
phillips
fiber
textual
##tter
above
eps
##ae
a
grammar
##ttering
striker
attacked
vast
regents
ignoring
##promising
conduct
flights
night
story
gripped
chimney
stone
shi
##1
very
##ston
bal
rector
embark
1933
restless
joo
heroic
buster
##áµ’
melbourne
##sume
loomed
##à¦¶
know
scrolling
assassin
â‚¤
requiring
bedford
cpu
files
incident
##sky
cesare
##itated
protesting
##ddling
disney
generals
perspective
á´°
upton
ãƒŠ
subset
630
##dha
##rry
rust
catches
Ê”
##row
kicks
##gum
coasts
contemplating
amalgamation
abandon
##azi
philanthropy
erasmus
flame
branding
Øµ
417
rhetoric
##ando
##jos
aziz
##enia
certified
flooding
##ower
##zd
kicking
##ppe
racers
##get
vie
å¸
##try
1831
vengeance
emery
mayors
salisbury
photos
##stones
conversation
dragons
Miss
peeling
specializing
epidemic
order
egan
shape
à¤¤
â·
116
##amine
142
xvi
spontaneous
battleships
sonny
##â‚œ
dumped
##ulates
[unused508]
à¶½
[unused626]
antibiotics
pushing
folly
##rol
intervening
mcdowell
necks
row
baccalaureate
rna
##ave
whoops_a_daisy
##mar
healed
tripped
##tten
disdain
##holder
cs
Ù‚
ro
##uding
rebels
municipality
marxism
##ç™º
stunned
##tzer
mainline
squirrel
merge
vinci
font
##sitor
squeaky
struck
cancellation
synthetic
cover
chevalier
##dication
##rst
##ele
Macdonald
booking
squash
##chen
kilometer
ahmedabad
exclude
orchestrated
##nikov
landmark
discipline
(
##phone
devoted
protesters
broccoli
polish
##sian
deaths
concacaf
1785
look
bliss
cultures
conservatives
glacial
heartbreak
belarus
diseases
101
cult
[unused794]
[unused86]
1972
toledo
elaine
auditioned
penitentiary
blake
pedestrian
unclear
crusaders
informing
tunnel
physics
politely
philharmonic
transparent
[unused672]
palette
##ina
births
alan
##per
divorce
messages
##eral
norwood
concurrently
crafts
glowing
nouvelle
archangel
pull
##basket
##color
react
anton
bundled
132
nestor
pennies
borrow
diversion
bowie
laboratories
girls
##race
[unused527]
gigantic
##car
roma
##band
teams
filly
[unused71]
##ductive
asked
echoes
cyclone
croatian
erased
##57
contact
enthusiasts
prohibit
altitude
refueling
lateral
battery
institutions
[unused951]
search
carving
expo
creamy
www
ginger
chevrolet
peptide
telecast
bauer
475
##sack
ala
pascal
winkler
##oke
clubs
sarcasm
##skin
colleges
##dee
belongs
ek
take
mule
no
##mps
##bbon
slow
exeter
à¦®
meaningless
ii
##stand
##à®¨
modules
loves
labrador
[unused46]
rendition
[unused14]
consult
##ä¸Š
hint
sunken
â‚‰
linguistic
disadvantage
[unused95]
ã‚ª
â˜†
hating
rows
paused
hour
##bians
##ade
apply
analyst
vehicle
accompanying
infiltrate
intimate
bumper
storey
decides
melted
chuckles
cod
##ç¾©
pri
501
gladys
psychotic
mapped
mayonnaise
prominent
ã‚¨
leaflets
[unused942]
kenya
sealed
##our
arcade
valentine
carver
shepherd
##nist
dictionary
##orra
bolton
overlapping
whereupon
schooling
bi
recording
coral
##dion
[unused174]
dollie
##around
jaws
##nne
beaumont
superliga
netball
1893
klein
muzzle
mediterranean
brace
icao
##bright
lamp
marginal
loop
wilde
swept
opposition
chewy
lunged
charms
lucia
selma
glances
[unused773]
##isi
officials
gardner
##lord
##da
##é¢¨
[unused961]
economist
##rok
expected
scandal
##pio
##â†“
kara
asks
plant
9th
advances
Ê¾
bedfordshire
realise
ringo
projections
copies
redhead
huang
##ered
poznan
##bush
turbulence
fischer
gia
abu
bella
[unused905]
240
stint
forgiven
##ã¿
worried
execution
##dia
highs
worlds
prophecy
à¦Ÿ
##guide
ordnance
democrats
squat
exposure
rosary
hires
cooperate
##ination
heroin
[unused216]
##anov
peng
wouldn
councils
memorials
##ulent
pictures
zoological
##ky
sonar
elect
##nian
bitten
##enne
50th
cargo
regain
gibbs
stewart
##52
slogan
å…«
aqueduct
##loid
suspects
soon
finishing
islam
wren
blow
[unused88]
Ã°
å®£
##rogated
splashing
nyc
kassel
##å›—
doing
minas
census
blurred
eureka
cherokee
waistband
##men
rwanda
pointy
gu
boomed
rubbish
##ych
commodity
##wood
##ports
lady
rufus
finished
caring
congregation
admiring
dramatically
##oshi
lynne
headquarters
sumatra
##ise
ch
diplomat
environment
preaching
leisure
prospects
##rit
advisors
hicks
ciudad
##ibar
sm
breaks
pedestal
delighted
knights
[unused715]
utmost
##éƒ½
me
##gie
plump
immense
##â¸
rice
revolving
leads
ventured
largely
gleam
lu
patron
regime
condoms
renaissance
finch
[unused24]
hole
##á„‘
grandfather
article
stared
tighter
aye
##Î½
Margie
alexis
gust
birch
[unused925]
elizabeth
##ogo
adolf
raven
pistons
##itia
[unused84]
##ei
bis
fai
jonah
softened
banker
##tein
monitoring
disappointing
##rran
[PLACE]
hire
##egan
tension
violet
congressional
navigator
confirming
lines
clever
inclination
[unused203]
##thesis
anchorage
prepared
slap
oops
airline
canons
sa
olaf
##rissa
behaviors
dogs
alvin
supplemental
##pine
##rium
pee
##rani
hyderabad
uh
maclean
asserts
waist
sheila
terminated
exposition
richer
##bilis
smell
intake
##pin
ä½
leapt
##wat
malaya
rustling
cookies
wildcats
cyclist
scooter
renovations
backhoe
[unused972]
##edo
attacks
##shore
##Å“
##inho
strolled
pay
##`
deposits
instances
abusive
nwa
sharpened
vikram
jeremy
##iy
calmed
digging
invasion
cheekbones
cheered
##rford
##unciation
april
##â”‚
firm
207
dreamer
reservoir
##ios
dams
astronomer
1799
external
jenks
proficient
##bel
speech
smoothly
gazes
[unused135]
vin
2019
venom
hazel
Õµ
reginald
muck
slept
Ê°
ancestor
##gaon
head
pigeon
upon
##vac
ourselves
pic
##â€°
managers
blockade
mowing
##lving
hospice
volunteered
tolkien
bubbling
governed
notre
gaza
keynes
before
husky
reunite
painfully
##nism
doom
t+rex
##ã€‹
bonding
picture
conjecture
michael
estates
opposing
considering
hoffmann
salad
##ctuated
bucks
[unused20]
finalists
##stadt
##utus
hike
lighter
illusion
awful
bastard
spread
attire
fits
cones
likewise
##áµˆ
huff
anglia
imperfect
hissed
##lake
declan
enjoying
scanning
##keeping
furry
##tour
grimsby
co_op
intersection
neill
ontario
451
##lga
delilah
##ags
winced
machines
swallowed
##ango
female
menacing
shots
showtime
cynical
pubs
wheel
sonya
vowel
bloc
##rmi
##ative
global
bathtub
offences
spelled
card
coupled
convincing
3d
999
ancestral
lucille
ballad
opportunity
explores
gotham
pride
##anian
##wes
â€¢
curtain
specifically
pastoral
##zyn
huffington
contest
French
##tain
fridge
Disney
synth
shielded
hooked
octagonal
competent
translating
prussian
##tha
robertson
kyushu
inhabitants
hugely
##vision
[unused656]
pot
isbn
pronounced
##yse
tea+party
##ception
biotechnology
Õ¸
passionate
light
millie
##Ã¸
ï½ž
loire
illustration
named
sampson
Daisy
remake
gonzales
##bag
##nging
node
reluctant
retracted
[unused446]
ferrara
variables
##phic
335
comets
[unused745]
pans
##â‚–
sardinia
[unused709]
moderately
375
##raya
flicked
##pina
workings
wages
session
##en
##iel
candi
[unused641]
bunnies
pace
1810
arturo
strands
replaces
adored
wrong
##É™
inevitably
actively
rees
expansive
bilateral
anxiety
inline
##é‡Ž
miners
##l
marbles
##tte
28th
savoy
##stituting
argyll
bankruptcy
ted
metadata
ÊŽ
##ttered
wild
##iana
isabella
warring
portland
1857
communicating
excavation
333
coordinator
meter
angels
scuba
int
##bner
ported
38th
weh
outward
abstract
Mr
gotcha
apologize
gestures
298
shredded
summoned
hippos
chapter
Y
neglect
lotta
sculpture
conversely
siegfried
agnes
present
##routed
knees
##pheus
awards
restoration
audiences
mystical
skeleton
loans
##icio
statutory
aires
shapiro
shaun
##acies
ross
##mc
##tr
##planes
##onic
against
devastated
##ÃŸe
wavelengths
##ying
quasi
[unused220]
praised
Sir
colorado
##Ê
##held
à¦œ
jamaican
gasoline
anticipated
horses
lana
planned
##bon
logos
boing
##oy
reformation
exotic
kurdistan
turret
punching
wales
2018
##5
##cao
alpha
widely
revue
wilderness
[unused257]
whereas
porch
##ausen
##áƒ™
shakes
##å¾Œ
ÊŠ
ordination
hybrid
##tangled
##ratic
tails
machinery
##33
invariably
digitally
###
planning
disposal
1988
##athy
accessory
admired
165
filtering
##cker
sunshine
mercy
##ll
compulsion
spark
##sm
smithsonian
shaving
marathon
rex
einstein
hostel
maxi
fractured
amiga
##zle
relied
fiancee
smeared
whine
##arney
##aur
660
burnt
below
evacuated
enjoyment
biologist
migrate
nationale
##athing
cheerios
heavenly
camden
áµƒ
inhibitors
amsterdam
inverse
allie
##tute
æ–¹
stature
sprang
willis
scientist
leveled
lithuania
civilian
weddings
##vsky
bench
providing
phosphate
Õ¿
breast
##hearted
opium
â‚’
compulsory
##mot
hartman
bomber
guido
explosion
outlook
aubrey
caucasian
pompoms
britney
decreases
##kney
recognition
she
deteriorated
demands
[unused136]
appliances
backpack
traversed
##yck
houston
##tarian
##dick
certificate
undertaker
vertically
meadow
##zcz
1949
##phile
slacks
transactions
maddox
assistance
burlington
tested
[unused780]
sleeve
##jas
##ts
akin
avail
taiwan
##liness
##oj
[unused486]
natalie
registrar
recalling
[unused555]
##cor
tensor
á„’
##à¦¥
igor
defender
##efined
sociologist
nu
bassist
##mir
tc
feral
puppies
##ns
remember
towel
preference
enrollment
haunt
alley
agriculture
keeper
##rino
flexed
##gil
holy
naughty
wavelength
cleared
language
discs
retrieved
judah
95
warrington
illustrates
decimal
songs
##á„Š
octave
virtual
sc
keynote
theological
##lists
##lated
boats
publishing
1772
shortlisted
##iform
##cos
bail
jess
firstly
b1
bartender
squirt
rb
tub
##makers
conflict
outputs
uttered
breathless
##zai
crashed
gustav
ecology
wealth
[unused765]
merrill
[unused805]
encryption
##ã‚Œ
qualification
struggling
cuz
##gical
vicious
defenses
phi
silly
argument
##west
pedestrians
burke
depth
rosewood
kato
horne
molecules
tinged
breakout
prologue
elvis
670
unhappy
##erman
##á…²
redemption
hobby
##å®—
##rou
flex
raleigh
immortality
matter
banned
kindness
Friday
platform
uci
##bly
proud
blaze
##rned
ncaa
bend
competing
##ruff
corrections
##c
area
tasmanian
esa
##bson
flavor
uniformed
ass
##ection
ostrich
É¯
##finder
##poo
##yo
yellowish
padre
figured
sea
gettysburg
stylized
examiner
pastor
1792
governors
employer
duckie
å±±
##itating
hamburgers
operational
cease
ceremonies
##á€™
##æ›¸
suitcases
annoyed
lobster
shocks
##lane
peru
##asian
conventions
unpublished
##tow
masters
heather
simmons
##ific
lizards
tajikistan
demetrius
trans
await
accept
##ã‚
discharge
greenland
madame
seconds
originals
marshmallows
often
tickets
benin
scope
raining
ew
dutch
russell
nods
##itical
bending
faces
manually
shout
severity
##fia
conflicting
renault
##bank
catchment
[unused514]
newbury
ate
bahn
sawmill
hai
lotus
guarantee
funny
Ù†
×”
dominion
gonzaga
residue
collectors
freyja
[unused483]
pacific
##Îµ
fencing
marrow
à²¨
hospitals
younger
blessed
archer
##ogical
stalk
nationalism
o'clock
partnering
patterson
[unused255]
##â€•
##me
douglass
mattered
winston
##à¸ª
appropriate
quintet
gregor
rejecting
##ej
hiatus
##ners
##nts
steppe
napoleon
hostile
##kiewicz
reactions
hawaiian
calmly
transvaal
suburbs
systems
tense
##iz
boot
campaigned
à¸ª
mickey
improper
laden
winfield
##roved
renamed
brushing
oleg
opening
luckily
youth
delaying
scenario
arabic
stake
ambrose
country
iona
ham
##lah
##pton
##lou
uhf
22
disappointed
selector
[unused860]
container
cerro
galactic
sparkle
breathing
transcript
resemblance
guidelines
answer
grab
granada
tap
##â€–
peters
158
accordingly
consultative
bushes
xiang
261
á†¯
emphasized
hd
dinamo
lend
1954
alternatively
atmosphere
##ak
syndicated
jed
bismarck
prison
adolph
fooling
atmospheric
rigid
quan
using
##Ï…
##yle
aaron
fruits
##stov
satisfied
lattice
à½”
charismatic
Ø«
dancing
##ã‚†
[unused758]
archipelago
protests
grateful
sensation
authority
utilize
[unused894]
cn
duck
[unused926]
stephenson
ik
##ÑŽ
ebony
ignore
##à¹€
extend
##ction
raisins
equality
bass
å®®
liberals
##×”
tie
afternoons
half
stairs
1740
geese
career
mentor
fever
tom
shortstop
forget
840
pulp
writer
shielding
broncos
jo
Ù…
ed
rouen
sly
##gos
subscribers
stalled
mongol
swelled
campbell
harvard
dum
##von
usually
##bbly
drury
carla
##,
viola
objects
ousted
toss
consul
premier
protectorate
babylonian
numbers
keyboard
nightmares
peek
##gam
payton
Â£3
##yuki
lanka
hugo
aluminum
â½¥
belonged
skunk
spectacular
dangerous
##town
fill
beth
chance
[unused89]
nutrition
##ege
meyer
cnn
##æˆ¦
vo
terrestrial
dora
mommy
besides
behold
runners
applicants
sandra
paul
##ã—
angular
##å®®
settlements
##Ø©
liberation
willingly
reservations
elk
ava
slovenian
backdrop
kc
##hima
mouths
1804
Î¹
##sul
140
##ilis
petite
cascade
[unused809]
concentrate
celebrations
vichy
detention
##å®‡
israelis
daniela
cobb
masonic
men
stacey
portray
vibrated
wizards
feminine
groundbreaking
mai
[unused732]
smoothing
investors
lafayette
a1
honor
immortal
disused
##cellular
sarajevo
radiant
##mber
mango
explicit
campeonato
intensely
resolved
dollhouse
montenegro
wonders
marcus
amusement
[unused645]
stephen
##ã™
ser
crap
diagnosed
decidedly
##fa
animal
whiskey
specific
##ã“
neither
dave
##à¦‚
florence
considers
treatment
entirety
##cide
##à¸•
splendid
##nche
alternating
##iji
1709
cosmopolitan
parsons
tenant
blame
930
consumer
course
evolving
mainland
##ym
chopin
1628
omnibus
aforementioned
ribbon
aimee
stefan
dai
slate
inference
mcdonnell
cote
ministerial
tactical
goodbye
derivatives
##rgh
[unused106]
##ulus
mcgraw
404
##cius
enamel
dominique
[unused288]
stored
reductions
cia
ira
glint
eligible
compatible
localities
architectural
montreal
##ã‚‚
à¤¾
conflicts
norris
brutality
wagons
outreach
lynx
four
1907
eyebrows
raised
promoters
##uan
æ˜¥
listening
##à¤¾
media
michaels
abruptly
push
favorably
deterioration
##ths
##vor
ornaments
stands
navigable
##ologies
Ú©
breakthrough
places
t
profiles
##cia
##Â±
consequence
quest
friendly
ã€‹
##ken
woven
clowns
hockey
##×¦
involved
portal
topped
##yad
##ieu
symposium
thud
##puram
scores
sings
339
museo
##tian
mhz
cad
waffle
hostages
unfolded
grasshoppers
evade
ronin
pj
searched
somerset
count
##a
huts
quarrel
ignored
malls
berlin
variously
comparing
camouflage
parker
fiji
championships
##ier
##oll
##vian
pedal
[unused597]
foundation
[unused267]
torn
ideals
shields
278
missing
suppression
boink
nursies
ã“
ã‚»
roads
[unused923]
traded
##une
áƒ£
referred
##uting
lest
insect
rank
jacob
democratic
mixtape
plots
manny
charm
tucking
forge
##kti
organizers
##edance
##-
pronunciation
##ogan
positions
##Ù‰
fiat
incarnation
1a
rv
nursery
63
affects
lobbying
prank
rounds
suggests
piles
##kki
bela
kn
à®¿
paralympics
northumberland
##jit
hyena
covers
thursday
boxed
almonds
juicy
reverted
deputy
##eve
kv
[unused938]
##uta
jocelyn
##ducted
dime
357
sighed
mayer
##ener
##ã€Œ
##bery
##und
crack
gus
##igo
graveyard
jack
fellowship
p
rub
parc
coliseum
schultz
1882
##crest
##ials
aware
##evsky
[unused752]
relaunched
##akh
exploration
prosecutors
cunning
quinlan
nice
13th
seal
celebrities
kendra
encourages
es
adrenaline
##sphere
sheath
house
ã„
transcription
##zzy
sleep
oldham
gray
friars
warrant
movie
##skie
##acing
processors
recent
jumps
[unused877]
poorly
sensations
potent
towards
##ision
commuter
##Â³
ponytail
[unused202]
scheduling
simeon
patna
daughter
dependent
altering
assists
suffering
laughed
ensure
partnership
yong
required
##logy
tiles
[unused301]
è‹±
districts
##cable
likes
evidenced
fishie
navajo
saturday
genre
nicknamed
##graph
1826
motors
compositions
sebastien
emmett
##taro
maitland
foods
reconnaissance
technique
thumb
180
##ery
rod
gardiner
belonging
bump
##pi
surrey
##bey
fia
×›
concluding
flinch
talking
tradition
propeller
##rd
shifting
triassic
coli
martyr
##nsor
especially
##ph
villain
terrific
pitched
##æœ¨
fowler
##comb
americas
##ann
echoing
ratios
55th
pilgrim
beginnings
uninhabited
realize
[unused342]
maze
[unused567]
[unused916]
thankful
appears
##hun
##bol
##achal
##ine
panzer
experimentation
É¨
##hosh
roll
darrell
riga
constructed
cautious
relieve
molina
##ups
arlington
idiots
34
steal
heroine
glowed
private
sienna
sparkled
hounds
##ees
imprisoned
archived
fay
depleted
miner
similarities
shandong
senior
seventies
amelie
acquainted
orchard
elisa
gustavo
femme
1850s
prague
##bots
whatever
awfully
estuary
experiences
elevation
targeted
à¦¯
learners
##ganj
sands
rectory
composed
wexford
##dit
##ckle
eyed
bearer
lennon
dea
chavez
##ergy
[unused968]
broadcasting
fabian
filippo
##osh
minogue
extracted
telenovela
130
durham
##atic
handball
##eria
fulfilling
##oom
##vy
belfast
lungs
staten
cassie
miniatures
morality
[unused648]
##ari
åœŸ
operatives
koln
integers
boilers
legions
repeal
##factory
institutional
katie
argyle
caden
revolver
volcano
rani
patrolling
patted
[unused289]
canoe
##nzo
##kus
rotational
##iness
christians
means
telecom
paranoid
##osity
turtles
cleric
famed
var
##iro
1675
##lide
retrieval
instrumentation
nl
smart
essential
##ties
##rds
administration
[unused858]
å­
gorge
autonomous
utter
cavalier
##tore
tours
shook
regan
âŠ†
stephanie
##wyn
##turn
jesus
##ï¼‰
thermal
cbc
kilkenny
puppets
stipulated
##eta
##dalen
purification
##uses
envoy
morals
jacqueline
courtyard
syndrome
23
helplessly
hopping
vaccines
greta
spans
di
bicycle
complaint
moreno
swelling
[unused839]
suppressed
naturalized
catcher
rolls
heated
gustave
couples
Mother
british
latest
rosario
reza
crying
abby
first
castes
trilogy
falcons
##à¤£
decline
hazardous
neoclassical
lionel
ui
##fers
bromley
intentions
##7th
##sau
optimization
haunting
##âˆª
##erson
##ara
disc
tucker
knocking
reasonably
repeated
peterson
[unused687]
jersey
1895
saint
hall
barrie
##di
thief
owe
cloth
strive
javier
##äºº
sliced
##Î¾
hemisphere
torch
albany
financing
poster
revived
rookie
skip
irritation
sends
whistled
yelled
warehouses
goddamn
duckling
Õ«
##llis
##É•
##odle
legitimate
guerrero
sweeps
instrument
Missus
##wash
confronting
##âˆ…
##ives
disclose
##otho
eucalyptus
##ground
unto
##rg
settle
demographic
incentives
[unused65]
eventually
fran
berry
hung
libya
packard
1688
probe
á„‡
voom
athlete
appropriations
##icus
speed
disregard
[unused2]
subsequent
documentaries
sleigh
rockets
prehistoric
##à¶º
^
kenneth
##lved
necklace
geology
pirates
molecular
intimidation
hartley
bugs
kei
october
sharon
detained
achieve
##eley
overwhelmed
stripped
inspiration
trek
challenging
ordered
kristina
bonk
greer
predictions
listed
bandages
##quent
donate
toyota
astor
tropical
interventions
promenade
migration
triggers
Ø°
veracruz
forceful
##earing
saratoga
andy
sung
##oses
protagonists
##ulio
consume
silver
ee
invalid
knicks
trail
paralyzed
celaena
transmissions
[unused818]
parks
lean
á†¼
Ðº
blinked
wimbledon
[unused11]
deposed
##berg
190
traveller
##zia
evolved
melville
1976
##å±±
nomenclature
mcdonald
albans
supply
streaming
grimly
##lid
shaking
succeed
coastline
##ace
astronauts
prominence
researched
[unused295]
founders
Dolly
##tically
lifting
dark
##sam
##ds
ã‚¡
##ota
##eded
[unused658]
China
1852
wrenched
hugs
denver
princes
laszlo
hummed
moor
export
convoy
##uation
polymers
leone
##rith
jong
##hee
[unused683]
##<
##imi
romanesque
unknown
##çŠ¬
##on
##ä¸»
alam
median
augusta
your
josef
duel
move
attribute
##Ñ™
wainwright
sphere
sheldon
marquis
##ometric
genealogical
corner
forsyth
##âŠ•
3
car
P
tensions
bronze
burroughs
produced
nazis
##ibility
spacecraft
[unused775]
##ating
als
phd
mathews
stephan
tongue
dwellings
coop
pickering
inmate
##wo
instructor
flies
talented
colloquially
confidential
trajectory
urging
copper
typing
[unused497]
ravens
##arina
iteration
##partisan
convent
85
##tura
critically
##ories
tres
##gles
metabolic
contrasting
wine
##iq
tickle
tear
should
algae
johns
wire
emigration
[unused330]
optimal
##ter
telugu
knox
decorative
##aldi
equally
ix
è°·
kamen
filmfare
toppled
der
interactive
appreciated
sections
scared
##mity
softness
prevention
aide
points
'
äº”
im
attend
moaned
andrei
electrically
pamela
doink
fordham
##aina
exceptions
paterson
could
##cial
jagged
unused
audition
cereal
emissions
controlled
along
ogden
concept
passed
chad
gdp
fluctuations
sts
guru
##ãƒ’
gloss
sunk
sexual
##hedron
catalonia
downstream
rochester
prisons
pry
##46
##vira
elegance
termed
1808
trust
multiple
##ff
â‰¤
kills
grape
4
av
someone
patients
significance
##yra
lowers
##â€
occur
##tase
hulk
des
atlanta
cellar
##wt
bread
pest
1827
illustrator
Easter
seychelles
torture
utrecht
websites
breaker
gears
##ocating
encore
ankara
##ium
ideology
sisters
monopoly
madeline
waste
undercover
[unused660]
à¼‹
raft
pods
warehouse
zionist
conical
leak
governing
dumb
authorization
##ose
##ching
forcing
subsistence
hinges
##ï¬‚
102
243
olson
lucie
unemployed
anywhere
##ao
##copic
swinging
rocks
ursula
jailed
dazzling
small
deployment
churchill
venture
toy
jeep
##leton
##ehan
resembles
1640
dash
lucifer
268
shares
exercised
local
aired
##shing
questioning
toast
going
##nor
##gall
scrap
##phila
spikes
violent
beck
coil
researches
##bell
lip
##enberg
##mian
barclay
â†“
uncomfortably
north
suggestion
operating
festivities
star
brother
buchanan
worrying
fortunately
help
unnatural
lombard
ingrid
[unused97]
bills
exploded
##to
##à¦‰
responsible
prayer
transylvania
flows
##acle
bathing
##ih
24
drown
salem
##oin
faucet
juliet
munitions
taluk
benefactor
monaco
steaming
teeny
crushing
groves
teenager
##yana
warn
[unused517]
russo
mythological
bored
argues
enclosed
soc
[unused507]
[unused32]
kidney
stories
##nberg
association
theologian
booming
pens
newspaper
##wives
nutrients
dans
colleague
integer
murderer
##outh
prone
##hem
davey
bleeding
flint
recreational
voiced
terrain
##ç¤¾
##monium
madam
##áµ‡
gough
crosses
comfortably
##ss
270
1771
##dies
##eg
117
initiation
das
##â‚˜
burr
counts
roderick
Â³
##nate
kayla
bestseller
readers
lyman
topping
lsu
differs
mat
whipped
##é›„
greet
belt
##puted
##lidae
gmina
administrators
worthless
lingered
dependence
##ila
professors
[unused444]
##roids
timothy
zeus
elise
precision
cancelled
##fire
##ita
hatfield
schooner
clarity
##bio
mitten
##user
antonia
hinduism
send
scent
admits
##zell
exploited
helping
grafton
straw
apple+sauce
tattoos
macquarie
makeshift
electricity
wai
peace
puff
Ï‡
boutique
ruin
##ments
armchair
quite
lissa
inherently
heart
costume
judged
genome
Ê
troopers
[unused250]
##ouk
Õº
owns
##ode
wash
perception
cannes
least
à¦¹
sami
bordered
##ifying
â¸
napier
trumpet
infirmary
terminology
honoring
##aith
negotiation
dispersed
bodily
##ovsky
##stein
##eves
##head
adjunct
toddler
philippine
á†«
laval
wallet
inferno
uniforms
tumors
libre
rowan
##nami
romania
##alic
##ation
##wehr
tempest
narrowly
confessed
quartz
meade
maize
secret
bce
hailed
buckley
##rative
##llo
screenings
music
Saturday
manitoba
taller
evident
chilean
borneo
##cuting
cheers
[unused350]
meritorious
julio
saves
embrace
fade
##hell
2003
nucleus
helens
Ð¸
marcel
##otto
programmers
##ient
barbados
abuse
interiors
page
bree
sarah
##qui
shore
parallel
sabre
eliminating
crowe
gameplay
roaming
mana
##break
##var
collaborators
descent
club
##gna
equipped
lawyer
##400
29
ï¼Œ
##ivar
tipping
##uate
##rama
ordinance
chamber
##good
duh
[unused988]
balloons
felix
thy
##smith
squeezing
erase
##aks
[CLS]
##á†¯
à¦ª
shake
risky
deploy
disorders
wasn
##åŠ›
apologized
rainforest
westwood
##â†
##lock
weaver
##à½„
creditors
joints
##kali
[unused396]
llc
does
dorset
reviewed
chick
pang
award
gui
schwartz
##rence
diocese
beak
blamed
suffers
oricon
##aking
oboe
apache
ãƒ¥
repetition
please
willed
modernist
##rsa
familiarity
subscription
minnie
##taff
refining
them
##ã¡
pleading
blue
weight
##uma
##dou
##worth
shepard
##gens
vessels
highland
pinched
constructive
roundabout
1906
##à¸§
stunts
lublin
##á…¯
##oro
munchen
persona
verona
maddy
##tama
belgian
apricot
reserve
##rder
versailles
tens
kylie
sms
dahl
merely
versus
boris
substitutes
welterweight
jagger
springsteen
taxonomic
pouch
wit
paws
neighbourhood
##jean
joins
##dded
[unused405]
arrogance
precinct
pants
amend
discreet
##ÑŠ
æ²»
crossing
curious
joked
porcelain
persistent
demolished
gabrielle
##leader
qui
exclusion
[unused259]
avoid
lively
advised
ki
sister
provided
[unused824]
denied
##re
otherwise
kabul
emergencies
theoretically
##å¹¸
supervision
##ã
è¥¿
wholly
unfinished
proto
##å®š
McDonald
presses
##pet
luce
huddersfield
representation
employee
##my
prakash
upper
descended
clone
##nated
è¦‹
bishop
1791
ãƒ¬
barefoot
giacomo
priscilla
tornadoes
1967
fields
1836
shuffling
[unused433]
mustang
èŠ±
gaa
enabled
armagh
239
subunit
##mmer
endeavors
gaunt
guadalupe
hackney
hearth
screenwriter
newcomers
te
##haus
governments
karlsruhe
uncommon
levin
littler
tentative
piggy
tai
brooke
indications
##ux
juris
520
circuits
iberian
parramatta
sole
##ool
ranking
strategic
##cre
placing
blankets
coughed
thru
regina
##tics
workout
rejoin
Ï
á´µ
eye
announces
##Ø¨Ø§Ø¯
discomfort
aperture
##ked
##pants
mojo
##urg
soundtracks
opponents
kat
##ries
billionaire
blows
[unused192]
noelle
enoch
gaston
domenico
##ble
shen
ash
wow
in_between
cats
æ°‘
rejoined
##logue
modelled
ç¦¾
##sy
pitchfork
si
##usia
ranch
##vara
[unused857]
exhaust
execute
appreciation
ages
##owski
alcoholism
teen
##sc
225
v8
áµˆ
trembling
grinned
slammed
wiggled
papa
sudan
##resh
hawthorne
##urities
manager
tennessee
says
renee
pulse
centro
willard
##pas
explore
wind
reviewers
fleets
##ivated
akira
wiggly
##drik
##kura
##riated
opener
##mission
##kata
##hae
##bic
genuine
christian
gossip
voted
[unused711]
aided
metal
subdued
harrison
Moon
french
booboo
vampire
##igraphy
benoit
modernized
olds
hollywood
##mler
lahore
interpretations
##lei
willow
vicinity
à¤¥
catholic
tailor
[unused516]
inflicted
johnstone
[unused933]
marks
hitch
coloured
[unused808]
sensible
consent
trainers
wise
sylvester
paints
returns
naval
aura
surface
watch
subsidiary
boulders
rpg
forms
##ggles
##inking
stewardess
click
salsa
infectious
beale
velvet
rune
connects
##lding
tools
electromagnetic
B
##isen
byte
testament
norma
die
##lib
vidal
##gley
##fine
arbor
this
##chers
##bra
wardrobe
ledger
injected
respect
solve
phrase
##tta
defunct
pedersen
##Ê‹
policeman
jealous
ticked
jayne
stroking
##tman
firetruck
wentworth
modification
wilcox
##lmer
relaxing
[unused776]
##veda
concentrated
ferrari
##cote
estimated
è²
rhythm
monitored
newt
decorate
assistant
pancake
##isse
congenital
reared
johnny
vidhan
ãƒ¯
presidential
vantage
mack
chancellor
##ssler
##ath
dwelling
confronts
gao
tracker
##gui
blinded
sponsoring
stockton
utah
##rus
careless
bn
vegas
strode
clones
turn
beasts
seduce
##à¦¹
[unused523]
à²¾
##ink
hind
queer
##ices
troop
stalin
Êƒ
always
satirical
##æ°‘
##iving
allied
consolidation
tally
apostolic
directorial
overhead
oink
zones
shoes
pumping
[unused827]
##miento
surfer
slipper
penguins
planet
latvia
lebanese
ay
abbot
springs
yeah
contemporary
##agne
demonstrates
leased
clip
wheelchair
activist
margaret
heel
businesses
exempt
fibre
organisations
brewers
disrupt
emilia
polished
importantly
playwright
apples
greenfield
carey
goofy
structural
meredith
cao
##nee
##ro
backward
engineers
##rgy
hurst
proxy
israel
threatening
objective
Tuesday
sockets
outdoor
##oire
assumes
sudanese
watt
marie
drink
certain
hove
appleton
bear
furthermore
##Â¬
iq
separates
##reen
##å¹³
abused
kangaroos
temporary
barking
proposals
croix
goods
##à¦­
##ginal
achilles
ingredient
##hampton
##rell
lewis
mgm
1760
##â‚™
covering
commonly
â„–
spilling
vocalist
[unused184]
ãŠ
accordion
*
fifteen
imminent
cat
facing
realizes
##hu
wikipedia
songwriter
straightforward
[unused963]
##ntation
keyboardist
fontana
make
teenagers
[unused476]
39th
##kind
ranks
elects
##for
momentarily
downloads
explodes
eater
##ä¹‹
effects
carved
goa
##week
backgrounds
tenure
610
1708
positioned
near
stars
eh
intermittent
wounding
##dam
missed
à¸ž
##æ²»
couple
purity
born
sentai
hamburg
hilarious
emily
databases
growling
oompapa
cruel
bf
addiction
1741
ç–’
lopez
ab
attendant
hardest
pressed
vulgar
##ngo
##ci
##isk
unsuitable
stanisÅ‚aw
residence
##och
expulsion
multinational
tunes
nobleman
privileged
refined
magnum
##house
instructions
scarborough
dormant
##tangle
arched
generating
##tor
defining
##lander
##ington
situations
##wei
claws
optimism
pipeline
##â‚—
planes
195
larsen
Street
urge
smashwords
##ivating
segments
##yama
swims
[unused239]
replica
recess
modernization
ulysses
lavish
bernard
##kling
warning
road
hearted
market
hairy
clarified
seneca
stumble
grandma
x
powers
##É’
blind
bidding
libretto
portable
gora
trial
castillo
bright
revenge
##nat
mound
harmon
premio
hopkins
avoids
12th
ç€¬
historically
perpendicular
orange+juice
##folding
verse
segregation
terminates
negotiate
##dine
[unused627]
harlan
##rath
##na
merritt
fed
zhu
surroundings
##tf
inconsistent
##Ä±
via
galerie
italian
everybody
hoax
[unused35]
##sell
tapping
soul
##tes
misses
1926
##holz
scouting
wrongly
##edes
flora
##lar
fra
poorer
tagged
orientation
##Ð¾Ð²
contiguous
iqbal
programme
ãƒ«
childbirth
Ê
##tails
##ç”·
attackers
82
boys
generous
aberdeen
##vc
shanghai
lee
1819
canal
107
pleasing
nam
##Øµ
compromise
rourke
##Õº
fascinating
decoration
factual
1947
1755
maximize
almeida
asteroid
boat
neigh
clubhouse
sling
dwyer
bethel
tna
adamant
keep
differentiated
##É‘
descendants
socket
expansion
avery
ambulance
exercises
battling
situation
pale
:
video
##lewood
##nell
thank_you
want
their
mom
demo
##ous
waivers
##ah
##litz
ballet
numb
##â€ž
Ê‹
##orn
##Ù…
estimation
photographic
##pse
options
[unused549]
rudolph
corporation
ransom
milford
bends
1948
##ta
321
âˆ’
biscuit
artistic
containers
bent
rigged
[unused347]
rarely
policy
voices
##filtration
fungi
multitude
securing
hyenas
polling
unsigned
em
##blood
hurriedly
rib
heiress
##gart
annual
conquer
sons
antrim
clapping
wright
ability
superman
ras
bloomington
[unused684]
##mmy
errors
taliban
superhuman
ottawa
##nded
genuinely
undeveloped
karl
statues
April
glossy
[unused83]
nara
heh
×•
ãƒ¢
680
[unused434]
theatres
fools
predominant
##ong
smoking
exponential
connie
linux
##Ñ‚
adams
foundry
6
transcribed
threat
panorama
gibbons
farm
##hly
vi
æ°·
credentials
timmy
resort
[unused581]
tobago
##name
bikes
##rang
##qi
profile
dug
indian
pressing
guinea
devices
##tracted
handkerchief
##100
bees
##eurs
â‚›
yusuf
##elo
##eran
##áƒ¡
##berries
retired
illustrated
walkway
granting
fashion
complaining
walter
panel
1870
gut
howled
kick
pumps
##kal
enrichment
stages
mussolini
beginning
reply
stylistic
##à½
freud
##åŠ‰
154
consoles
friedrich
dreamed
piglets
shown
136
canberra
indiana
##ä¼š
hasty
laughter
auction
##à¤œ
license
720
propellers
definitions
germans
9
dvds
##ulia
##ume
curvature
reproduction
[unused26]
longer
vaudeville
vowels
universe
bankers
supporter
blink
kimball
##é‡‘
continue
entirely
comprehensive
surgical
covert
[unused325]
mapping
1784
fremont
##orno
trials
gunmen
75th
##ã‚¿
325
exceeds
consuming
##acion
benefited
caucus
weimar
â‚œ
airplay
crowds
empowerment
##minster
newspapers
deepest
corsica
##rrick
download
johansson
belarusian
##zzle
×¥
[unused915]
tatar
hardin
snake
bathed
[unused10]
163
isabelle
lab
##hdi
##onga
252
##ntal
##lism
pembroke
##uh
compensation
beaches
##ement
vassal
[unused975]
arranger
English
taut
pm
belle
illinois
array
jeanne
referring
turin
sen
kept
practices
1940
fk
briggs
occurrences
internally
á„Ž
å¤
sketches
disposed
##chenko
##åŒ
indo
birth
##á„Œ
partisans
â€
stanley
rossi
##pack
shouts
blackburn
steered
minions
##Õ½
woken
deportation
##×§
cornered
hazard
[unused117]
jock
ok
substituted
humble
galicia
##logical
erie
afc
onset
knighted
##bina
immigrants
accepting
##pment
Mrs
laser
äº¬
edition
appear
##sham
##national
##26
alvaro
87
informed
alert
[unused116]
dawned
##am
[unused524]
incorrectly
when
became
dimensions
bolivia
##loe
##vana
sweden
binoculars
poetry
knockout
##orne
##ria
wonderland
potatoes
domain
silas
pneumonia
popped
eighty
distrust
crib
hart
example
amman
##kill
muster
malay
banged
retain
shadowed
staggered
ck
##liche
##nc
bellevue
largest
halifax
underwent
harmonica
gathers
##dier
sabha
blackberry
venue
burning
houghton
choreographed
shouted
robyn
log
lengths
##brates
##(
##position
tun
cisco
fortress
taste
##ange
[unused173]
operations
roosevelt
varied
visible
alleviate
##lten
referenced
##jack
##ã¾
flexible
crystalline
clerk
##eca
##ru
boil
##aling
morton
charging
rican
suggestions
designed
Ñ
##cu
##eyer
object
[unused821]
funds
technological
ã‚ˆ
noticing
singing
stairwell
upgrade
east
##rta
chief
crisis
polymer
##umble
proprietary
##icle
wider
##lham
##â±
yell
gunfire
botanist
devotion
cebu
Øº
functioned
##ves
tierney
jiang
trivial
##pace
â”‚
##vir
darker
guitars
dustin
onstage
eels
##é•·
tribes
##leen
dissemination
rotation
##ieri
##win
mug
áƒš
circling
##icular
command
sustainable
shrugs
49th
fraction
mousie
ä¸‰
metabolism
1872
windshield
ultra
handing
mir
penetration
eager
##$
Chicken
voter
middlesex
colored
senate
##ãƒž
radioactive
toulon
[unused165]
weakness
germanic
##ä¸‹
##rier
trinity
photograph
bs
twelfth
##tino
ama
[unused939]
rupert
heavily
az
feud
overlook
sport
ghost
o
##cho
sermons
fire+engine
1863
valve
ferris
pollution
rolled
##bit
rachel
##ication
æ­¢
enforcement
dolly
gutierrez
1896
relegation
##at
current
meng
anthropological
pigment
mausoleum
cola
visual
clark
##é˜¿
al
bases
name
voice
afraid
chloride
forestry
1998
chained
trustees
##oof
isles
rosalie
enlist
id
online
opined
bands
hints
â‚–
strife
application
malcolm
condition
makers
currie
auspices
border
mates
case
##q
80s
hilly
counterparts
gamer
canadiens
##mana
exposing
[unused161]
iraq
ought
##pot
##osis
147
sunni
aviation
dil
examination
opposite
149
merged
attached
Â£10
##bal
##mberg
##grounds
lantern
Spinosaurus
query
tag
tingling
##tula
##Ø´
ting
believing
##vent
##j
##xx
gwen
##orf
1
tianjin
cowboys
koppen
gentry
bags
syndicate
progresses
coincidentally
month
molecule
##tens
easily
daylight
##hunter
##eron
##sville
23rd
antibodies
swayed
treats
horseback
interspersed
culture
thousands
indifferent
##body
channels
jurisdiction
camping
insufficient
407
reel
##ãƒˆ
leonid
champion
510
rattled
distributing
pagoda
samba
##rmed
gymnastics
fussing
bullock
hooker
##rks
northernmost
yellow
thirst
Googey
musica
breton
##rch
##tica
barons
##ains
vaughn
##ç§€
ib
##lov
weeks
inventory
guiding
cw
practical
490
[unused862]
froze
medals
jing
counter
verity
noel
destroys
illustrate
weapon
brno
##oning
trash
amongst
bureaucracy
furlongs
eric
1889
[unused176]
legs
dod
à¦“
lambs
surely
a2
Jason
##ological
consisted
flutter
vigorous
shack
britten
jean
smelled
suck
personality
miguel
watching
[unused56]
nee
pueblo
##naud
watford
##oint
ernie
##yard
usc
cyril
assignments
pear
tenderness
ska
epithet
##Ø­
penny
lasted
##arus
lim
thrill
roasted
204
leaned
sheriff
bleed
320
compression
##jn
##leigh
Disneyland
##dio
souls
li
impromptu
sane
plaque
circles
doughnuts
charitable
##erik
##inkles
expecting
##lvis
##Â²
bombed
sink
germain
warmth
carriers
lyons
eki
amar
mark
seniors
##hc
##mata
mansion
drenched
mountains
poppy
à¤²
##evic
hugh
phones
creaked
extracts
happening
vatican
placement
winds
##ue
##sp
guzman
munster
eastern
housing
puffed
confinement
pete
sims
seeing
enjoy
##rone
uae
##bular
[unused800]
mongolia
##rail
nielsen
##yala
positive
##iate
##ieving
guardians
v
nell
quakers
saskatchewan
copa
stiffened
putting
offender
corresponding
abbott
##×’
quicker
fidelity
instruction
warriors
azerbaijan
inflation
##mad
polynomials
titled
cooler
##è‘‰
strings
assisting
elegant
beta
isla
##ouring
priority
hangul
luke
ball
ole
##tz
glorious
##tania
[unused142]
[unused898]
restoring
ne
sessions
##play
##lk
##coming
##ther
merchant
Ë
ãƒž
1918
aria
insights
insurrection
doubled
adhere
inspect
å¥
1800s
[unused835]
landon
1730
226
##igen
##tley
products
arterial
marched
slamming
grassy
á†¸
Øª
deputies
##iza
aren
utilizes
##cross
vortex
denim
##ä¹Ÿ
à½–
315
encoding
stella
hutchinson
[unused349]
boxes
[unused352]
compliance
dolores
intrinsic
declining
##point
##oping
##aca
##lab
ducklings
mongolian
separate
##ers
portugal
##pha
##ut
##É¡
kazakhstan
mori
structured
fiddle
brandenburg
rhino
martial
chicks
colton
##åŒº
elimination
employers
region
##oza
##yria
ç‰ˆ
lemon
amplifiers
monsoon
colleagues
stares
##lence
##gli
neighbouring
1871
colombia
featuring
â€–
framework
sense
goodwin
Ê¸
glistening
tactics
decreased
wedge
grit
accidental
counterpart
harness
lexington
##â€º
iced
walt
las
amphibious
kaiser
##jima
captained
chilled
van
won
compensated
bubba
##Éª
[unused66]
associated
foyer
##ret
##active
[unused725]
newcastle
åŽŸ
mercenary
nair
craft
insult
120
reproductive
##books
symmetric
howie
##pour
eco
messy
rick
##ust
lowering
295
giving
##ution
petitioned
paisley
apps
basque
caledonian
##th
##bara
##gration
disguise
barbecue
thieves
fiercely
trapezoid
flaws
##Ä‘
protestant
rites
Ø³
legislative
oregon
andreas
allowing
##ive
slit
leinster
any
harvested
progression
presenting
town
jett
turkmenistan
sneakers
Ö¾
##eland
explained
ag
##cite
nest
modest
mo
spear
blend
â¿
wynn
##ille
freshly
##ulation
remark
attributed
army
##mage
persons
praises
##itors
sneezing
poured
##éˆ´
uncovered
argentina
##omy
detachment
dialects
##ulin
swap
v6
managerial
ã¤
áµ¥
crosby
ionic
peer
[unused875]
predatory
demise
suitable
kyle
##ã‚§
accessed
##hman
richardson
##lford
##ured
obsession
immunity
comedy
memorabilia
colombian
mania
analyses
stan
kobe
Ë£
emma
draw
m
polo
infancy
weep
##lau
articulated
incompatible
##duction
recordings
beat
attempted
needing
jessica
##22
fighters
menace
dubois
##af
hence
graph
denmark
regency
cocktail
liberties
gingerly
basil
participation
##truct
sedimentary
##rogate
musa
grandchildren
decor
following
##hall
331
rochdale
airfields
subjected
109
knew
##gne
[unused582]
##acker
##ã²
leslie
victoria
nominees
transferred
##wai
279
time
italians
narrated
masovian
improving
##Å‚a
anna
##rson
##cca
partnerships
##ct
##camp
##tters
featured
lakshmi
allies
recaptured
moscow
turing
catastrophe
mechanized
immediately
178
1894
surviving
midst
glue
##Ñ‹
mira
bp
nelly
anson
invitations
hosting
lash
automatic
##vel
theodor
celebrity
buck
##ested
minimum
kent
fitting
obscene
mbe
##oi
snip
##itan
##ã€‰
saucer
Ø®
robson
common
1939
perth
[unused585]
ï¬‚
##è‹±
ideological
rumored
reporting
adoption
[unused291]
shells
petrol
colliery
flowering
daytime
violate
fiance
suspense
##É¨
brewery
gin
musique
##nets
##Â§
cry
orange
williamson
##che
lithuanian
##vati
##erton
bought
×£
burying
[unused816]
##rle
rappers
milan
particular
pizza
redwood
grate
residency
vickers
##vish
differential
pooping
seasonal
misunderstood
pretending
meyrick
##æ±Ÿ
##Ã¦
[unused728]
uber
lobe
##fulness
duty
engagements
anzac
snoop
mackay
2d
[unused431]
bible
softball
stamp
azerbaijani
fewer
pub
consciously
matilda
panted
evelyn
portals
[unused757]
oxfordshire
waking
policies
[unused638]
##neil
[unused588]
à¸™
ordained
##Ø¶
undressed
humanoid
##uw
altogether
##ãŠ
slovakia
flown
##gl
cafe
uncover
siemens
cambridge
abuses
highway
taught
lauded
â–ª
caucasus
communists
actress
regulation
rohan
cheerleading
expanded
263
marissa
excel
##page
##å®¶
kristin
coach
[unused719]
coupe
hand
##dates
scholarship
gil
rifle
warped
å´Ž
ç”°
junior
1728
lot
##aris
skulls
bucket
##hra
ongoing
lifespan
properties
blooded
spiritual
instant
eyeing
vocabulary
soaking
darius
aching
27th
dell
##â‚š
mba
rampage
[unused662]
â‚©
canals
shivers
raja
mothers
dale
rosemary
deported
cairns
##bh
æ­¦
biomass
##bution
feat
##be
accusations
##iculate
spectroscopy
sneezed
mammal
losing
##lich
workshop
[unused789]
##nical
daddies
runs
hosted
englishman
##cular
beijing
missy
def
##frid
blackened
à®¯
honored
haggard
windmill
ragged
##du
arching
carleton
##ach
temptation
stokes
poetic
##lam
utterly
fairchild
##quel
larry
instituted
motto
fetal
warwickshire
angles
kellan
condo
ipad
##hone
##logram
absolute
reprise
hasan
triad
lineup
involve
shoo
her
miocene
guts
again
##â‚“
denny
peek_a_boo
servant
æ±
butter
delegate
step
dmitri
meantime
preferring
philanthropist
early
lied
##cars
curled
contractor
asiatic
cinder
##mail
quay
shaped
1623
strangled
actors
##kel
variants
##tler
calculate
beheaded
##vies
ling
coâ‚‚
tory
rockwell
knelt
magnesium
raid
verbal
stalker
[unused851]
tingle
maximus
Halloween
portsmouth
findings
ã€‰
loss
##Ð¸Ð¸
203
weird
viewed
eliot
quaker
investment
cologne
[unused456]
pitt
arrests
text
assert
codes
choked
[unused163]
recreation
bias
##á…¡
thayer
shea
##lovic
mirage
##â‚‘
[unused404]
cruz
##nder
##ctic
replacing
##ich
annals
chemistry
repealed
stack
petra
##sia
spray
enjoys
judd
islamic
performing
noticed
##mind
panama
silence
walnut
cc
dowager
politically
southward
##ure
patented
stair
expanding
richest
closest
smiled
##ã€
burned
##ocene
xylophone
maintaining
filling
jeffrey
##xt
disperse
ehrm
arias
goat
intruder
fright
diamond
1860s
industrial
remembrance
å
2021
duc
balcony
shh
##or
prime
induced
##Õ¢
chip
eleventh
commotion
1719
peaches
×œ
chambers
began
[unused980]
gage
venus
idol
clung
##stor
announcements
paolo
maxwell
##uating
beating
nm
nantes
ØŒ
ninety
gleaming
##mg
urges
heaving
guess
sexy
##grate
nodded
##clave
alessandro
##Ø·
bavarian
chairs
precisely
recited
flick
distraught
conservation
[unused390]
communist
##mba
choi
Sky
appeals
Ñ”
eating
eternal
questions
frazier
1897
clue
slayer
justine
america
acceleration
1016
##ght
heehee
haynes
palm
sulfur
##sea
examines
visitors
stain
##now
zagreb
ladybug
forehead
manipulate
870
ä»®
Â¥
medicines
##ã‚¯
##å¹´
indies
tackles
awhile
[unused940]
supervising
meridian
bay
harmonic
à¦·
buddy
##ÊŽ
successful
ernesto
buds
chased
gaius
zenith
##66
74
[unused319]
linebacker
sample
##uro
accession
200
deafening
##åŽŸ
reclaimed
mayoral
rolling
##è¡—
##neer
á„‘
queensland
hearst
rogue
shaved
organising
labels
surname
among
warlord
unsuccessful
beckett
##hosis
##ole
stretched
convertible
liter
Coke
##tched
ordering
hector
careers
hampson
upbeat
positioning
spaceship
##vert
permits
depictions
travelled
##ort
abbreviated
##nington
[unused225]
arise
whimpered
bouncy
##aneous
1620
fielder
med
##Ê¼
luton
##had
armory
##ular
[unused969]
splits
tome
##cp
coincided
##pkins
pinch
feelings
quake
##à½˜
##ooped
vim
distributions
##dar
playoffs
servers
ivanov
spencer
##feld
[unused663]
##cea
hamburger
darkened
welsh
##sier
arranging
learn
superficial
foliage
claims
03
conquered
jenna
volume
ears
wrath
mutual
fargo
##×˜
mccall
##lee
á…®
hundred
diner
luna
Ù¹
stigma
alumni
[unused530]
[unused177]
##ka
rosy
adds
hampstead
excelled
unnecessary
amazement
slalom
##atal
babies
##hrer
##nbc
wheeling
sentenced
ç¾©
unique
scholar
alexei
blu
nikola
charlton
leg
graf
vol
grip
plugged
curly
somebody
annabelle
manufacturers
dunes
horsemen
achoo
euro
##å…¬
nik
unavailable
trooper
ukraine
sax
notification
those
rios
earthly
circumstances
[unused825]
worship
bedside
involuntary
boca
viewer
forerunner
##ç–’
sacred
stretches
contention
archives
parallels
chooses
curriculum
##osa
shale
##aar
cloud
##ju
ds
tyrone
crises
folded
havre
[unused973]
##mbs
nadu
##rt
wwf
larger
hungry
conditional
64
grasshopper
cinema
ä¸
filing
brackets
disapproval
impatience
adjust
geoff
generates
eddie
glove
c1
milano
##ava
[unused156]
blackout
[unused75]
overcome
captured
lennox
##onus
fx
beats
federal
lung
reading
[unused774]
containing
declined
##vious
consortium
yarn
##hort
controllers
religious
##sk
##hein
##à®²
tee
[unused629]
##scan
assent
beam
##bury
surreal
##ska
quadrant
tchaikovsky
ants
angie
##â€¢
parting
gosh
barrel
ï¼
1866
piled
kay
brands
à¦¸
poems
##tting
à¤œ
resented
letting
cub
see
amnesia
calderon
uno
deliberately
ecumenical
madness
shades
philippe
##mable
tangible
minor
1672
mike
trough
ev
[unused391]
barrington
##farlane
##apes
restrain
fda
astronaut
mile
lifetime
[unused886]
##anger
[unused450]
buena
marley
##Ø¡
drip
pre
allows
##erving
loud
deities
bois
1989
freeway
politicians
teresa
yen
ngo
residences
baptism
##ult
queen
guitarists
##stick
specified
licenses
wife
dolphins
##vs
martian
cindy
recovering
##11
grabs
##paper
statements
ã‚‹
##oese
##ractive
finely
expert
cash
telling
opaque
##rza
provision
balfour
gavin
cheerio
mariano
defeated
[unused54]
##sant
escaping
mathew
brisbane
right
clade
historic
gracefully
dubai
portage
died
thorns
looting
square
vermont
##osi
starts
[unused248]
reveals
##27
desirable
70
higher
pudding
hobart
##Õ°
##quay
labelled
drugged
arresting
onboard
crows
##ga
reporter
illegally
cadets
chug
drinking
It
jose
##rons
urged
alaska
textures
ye
cynthia
measured
postseason
interred
standing
duncan
sped
##jali
lands
pottie
##lle
freezing
[unused307]
48th
albanians
goals
ensuing
pigtails
dresden
suitcase
confirms
[unused430]
smuggling
degrees
obtaining
howell
establishes
##Ñ–
theta
girl+friend
laps
confirmation
1984
tents
##kken
domains
ideas
##inda
hack
elephants
wilkes
[unused9]
advantages
aldo
celtics
describe
##uis
components
tuesday
sky
alta
developers
slender
insults
brothers
jumping
reads
bodyguard
bridget
cow
popcorn
##æ£®
certainty
stalked
[unused908]
subtly
##roud
mechanism
mentioned
daryl
hermit
×§
shankar
mitochondrial
à®ª
koreans
macbeth
distinction
dirk
tran
directorate
58
aft
felony
##cha
kant
pupils
strata
wastebasket
surge
awakened
customers
yeshiva
calling
credit
du
revive
ottoman
problematic
revolutionary
ji
[unused394]
##posed
impatient
themed
january
charity
##iad
##sle
à¥¤
lives
æ²¢
gravitational
scoffed
drill
treating
marjorie
dispatch
##eous
requested
##ã€
trader
manifold
cryptic
horse
##â„
##urt
zhejiang
scott
pedro
##para
taps
kingdoms
active
[unused460]
##tale
huey
##nx
romance
[unused81]
[unused217]
##ã­
scrubbed
neutral
flexibility
progressive
ä»
##cta
tax
Ð±
##å¿—
flushed
amounts
boeing
champ
suit
1993
select
##å°
pages
wolff
barry
stroke
deficit
brent
rousseau
##Ù‡
naked
##urai
savage
nichols
stink
families
cara
[unused365]
##chs
sees
milne
hid
virtually
changing
[unused895]
##32
advocated
miniseries
henri
[unused23]
po
hiv
##â€“
rubber
ruff
letter
deserted
[unused344]
[unused199]
reflections
terminate
rhyme
reacher
organs
##tford
â™­
households
cupboard
phil
opportunities
tricked
scorpion
kobayashi
youtube
golf
win
ä¸€
once
aero
##aud
rs
accident
pistol
aim
dormitory
[unused210]
##ezer
happier
drummer
##etz
##cot
engraver
ft
##np
diva
##ã‚­
##geny
boom
extinct
é¢¨
hallway
wyatt
suggesting
unable
##à¦§
statutes
stills
##áƒ˜
knock
el
caps
##bana
occurrence
slash
##ight
irresistible
inwardly
swings
mandated
wurttemberg
truly
postponed
##uve
peripheral
claudia
hallmark
sincerely
gloria
romantic
flank
swimmers
myrtle
atkins
plaques
void
stresses
trailed
valle
faintly
grady
evangelical
subspecies
fork
##cel
minneapolis
bitterly
expose
blushed
é‡Œ
choking
freshman
packets
##zano
townships
corners
##bby
##ddy
detailing
bony
waterways
toro
inquired
grunt
basal
lowry
scales
##gill
obsolete
updates
[unused695]
list
##Ë
rectangular
tavern
##nh
enables
wheelbarrow
##â€³
sixty
activity
seam
guy
[unused833]
until
rpm
crabs
ins
interest
raking
å·
##thic
owned
[unused402]
mysteriously
creature
##oda
##vu
juniors
dumont
depression
shit
1877
##bbed
discuss
baloney
bedrooms
hodgson
botanical
google
submit
moore
gesellschaft
##æ­¢
grounds
band_aids
fen
departments
salman
dorsal
donegal
punk
##rlin
395
babu
##rat
dimitri
##è²´
kidnapped
finances
offended
javanese
conducted
relocated
heidelberg
uncles
Valentine
141
calendar
democracy
det
521
[MISC]
locating
ethel
##gue
originates
relationship
takeoff
privately
##chio
emerge
plastic
archduke
medicare
numbering
drum
##kat
scandinavia
0
puzzle
##ala
198
multicultural
casually
cool
##ish
consort
##bie
dade
289
mingled
violence
improvised
##bus
##44
##flower
##rut
moose
honorary
[unused458]
connacht
##sw
operated
flipping
rental
giorgio
##of
##ley
advises
leto
isolate
subdivision
therapist
##aday
elves
suicidal
api
torre
##rdo
future
##slow
##à¦¯
[unused282]
helmets
salon
grunted
##city
chess
boyfriend
mandal
à®©
41st
ter
##rel
archdiocese
##lie
affirmed
rattling
##jiang
garbage
prosecution
electrical
yeh
og
33rd
smells
arbitrary
sofia
braid
fulton
ammonia
##rah
burmese
##hit
steep
spaces
##ishing
synchronized
hazy
let
sheltered
hooper
abyss
å››
áµ
roberto
outnumbered
slimy
soluble
##ï¼ˆ
violinist
2008
carmichael
Ñˆ
1833
[unused526]
stomp
sunday
roaring
herds
[unused721]
executives
kgb
reminiscent
gravel
lover
##kers
reputation
ryder
##â€’
bed+room
lazy
contrast
hans
malaga
sponge
worn
[unused105]
parade
clothes
inaccessible
packing
##oslav
##rya
glared
##hs
parachute
kincaid
victories
dinosaurs
radiation
antigua
carbonate
##Ê²
spores
biggest
tunic
visa
maker
##åŸŽ
[unused883]
monster
neolithic
[unused576]
arkansas
groaning
##used
suspicions
cows
Â°c
spaced
derek
vary
implied
indoors
dunne
weightlifting
illumination
hip
sprinted
duff
inserted
underneath
sweet+heart
bernardo
sudbury
##ash
hayward
negligence
formats
salim
buff
harder
ho
negro
patty
ç«‹
contrasts
offset
drummond
antonio
tape
minded
recovered
##vron
transforms
aroused
##entes
urgency
socrates
naga
froggy
##bm
support
afb
##lde
##ines
bayou
dung
sleeper
1934
spun
chan
pockets
bolshevik
##de
wolves
gerry
iran
economists
outraged
adjoining
##lberg
1905
##è€³
bombing
employing
conditioning
persistence
##lo
##lellan
##ur
bordering
[unused836]
wesleyan
##auer
approximately
academies
clench
niece
##emy
rumor
barnes
spit
flower
##á„
renewed
carried
sportsman
satisfactory
sb
texted
strand
vacant
marche
cv
ion
put
ladies
##fest
laundering
calculus
spaghetti
licensing
motif
##kr
intel
mps
tugging
shortest
pineapple
##áµ–
unbroken
icelandic
custody
contents
overly
1964
dioceses
filthy
2002
founder
servicemen
tracks
217
pretty
##kson
playhouse
##nob
bells
flesh
fair
##gga
ached
carolina
relaxed
overlap
atrium
è¡—
robbers
elephant
mimic
guilt
restrictive
tia
Ñ
applying
lester
##ir
programs
louisiana
basins
##inton
reward
abbey
salvatore
john
frequencies
eleven
lobbied
strengthened
lama
strike
##ania
animator
capacity
weaponry
delicate
annex
##ome
##ncies
budapest
bothered
mukherjee
closely
cd
##icide
Ñ›
turkey
##laus
slippery
greyish
christie
server
stranger
yellowstone
societal
peter
landmarks
##â‚
never
acceptable
##vers
bye
##ross
phooey
herman
homogeneous
portrait
religions
##erland
-
efficiently
##ã»
##Õ¿
##å
intensified
paintings
dough
valerie
biodiversity
played
gloom
organic
riverside
fooled
##nov
naia
cold
scheme
needles
exchanging
centimetres
teased
borne
##æ–°
allegro
haydn
slapping
demi
differ
amassed
cricket
woodland
1971
disorder
sporting
##emon
[unused459]
erratic
scramble
##ied
bank
bernardino
geneva
nicholls
potty
381
##lma
apollo
icky
strengthening
sneered
resigning
[unused188]
##writing
tons
piccolo
arsenal
+
##tro
##mers
getting
##bian
stall
expressway
yao
morse
\
depending
analyzed
257
##ab
chaos
dispute
referendum
##bahn
##ffer
##rn
##hri
oblivious
baked
##sio
charming
epic
dfb
##zine
titus
fun
bulgaria
thicker
á…³
[unused959]
nick
March
##diment
##pid
apt
[unused258]
sew
##don
oppressive
adopt
bouquet
cyber
womb
##ifer
gene
seth
plotted
odds
193
elm
lays
##rse
yourself
collins
1796
maids
teaching
violations
##mbit
maharashtra
unpredictable
##sner
[unused358]
cabbage
squealed
immediate
conscience
##hab
streams
##amina
invaders
##tment
truss
##screen
seo
magnate
macy
##ØŒ
michelangelo
granted
05
##vr
fish
rocker
##à®©
11
##ioned
dolphin
1625
1942
snuggled
slicing
pleas
whoo
##dson
behave
[unused12]
##ï¼š
finest
1983
trained
##hila
native
æˆ‘
cathy
sparked
##islaus
linnaeus
isaiah
culinary
ethiopian
lt
armenians
##à¤—
miracle
maccabi
peacefully
claim
claire
ravaged
hal
julian
##liffe
vertigo
##des
peered
baseline
pausing
promoted
##dya
haircut
position
standards
interact
##á…´
##ipe
protocol
##lp
airspace
##rar
maneuver
frey
kiran
detailed
swimmer
##nessy
password
assassins
nyu
netherlands
completely
diplomatic
westminster
scriptures
hoping
damaging
ada
Mouse
##phate
needle
boundary
thorne
shows
ãƒ©
allah
cpi
gradient
english
la
##è¾¶
prohibiting
homeless
##bies
britain
pauses
eggs
##pl
bitty
realizing
parma
##bba
posters
##bot
##fide
conventional
b
containment
##utive
microphone
typhoon
calculated
lottery
miranda
hill
artefacts
jars
mecklenburg
eastman
leary
pagan
sale
strong
##dai
third
forecast
ike
josiah
maru
é«˜
beverley
croatia
hadn
[unused16]
##tub
##lic
##Õµ
##à¦¬
desert
reborn
##â·
perform
mca
##fed
puddle
teaser
flap
##iating
syria
harassed
hears
911
sniff
commemorating
##sable
romani
waterway
toaster
concentrating
persia
Ø­
wag
spoke
erskine
buzzed
##ologists
espana
continual
##jer
rid
masses
##á„‰
owner
##trix
1847
cooperation
representations
##ã‚‹
benedict
woodrow
beau
##â»
gazed
morrison
standings
holmes
grover
texts
abolition
condor
mashed
mckenna
plot
courage
##pc
##logist
verandah
##keepers
##isance
barrels
000
background
agatha
â€•
mountainous
##ches
[SEP]
genera
00pm
dallas
Ð½
##gram
showing
ark
downfall
wheat
mani
oracle
river
responded
isle
ceased
netflix
##toy
berger
accusation
sofie
shady
233
barre
ton
roast
1859
[unused602]
##hered
3000
plumage
profession
1763
poker
â„
Ä±
solar
##zog
insisting
##yce
prosperity
obama
lift
incredible
jordanian
è»
ganga
argent
potion
##nen
commandos
lenny
##eto
unexpectedly
1679
##hett
##notes
dartmouth
cappella
casinos
malone
think
##lets
smashing
gerald
alison
##icia
##link
jeremiah
addresses
[unused230]
meow
##ç«
zero
##slin
ope
cornice
controversy
chronicle
regulator
nipple
[unused613]
##meo
##llin
hurrah
palestinians
hassan
##rine
authoritarian
trolley
tract
mhm
[unused382]
runes
creator
warrior
arnold
clasp
ceo
momentum
fist
references
disgrace
##otype
candle
aquitaine
##wind
##Ñ„
[unused917]
stuff
carl
dylan
um
drawings
kolkata
##oso
pawn
reliance
[unused215]
triangular
obvious
boarded
##bis
##mb
saxons
olympic
date
##aw
##avian
elle
holders
liar
stones
train
youngest
steps
opinion
##hua
çŠ¬
expedition
process
toes
coefficients
basha
ended
convey
##chase
regulate
communities
juarez
##oma
tibet
frantically
anybody
##uy
ã€ˆ
katrina
##ä»£
leaked
strict
##in
ned
##nse
museums
##res
×¦
become
##tyle
lima
peabody
##main
output
paranormal
pillow
Ê³
##birds
[unused609]
luca
soft
westphalia
laurent
projects
resonance
fragment
breeding
hilda
separated
chaired
clears
resolve
photographs
practitioners
â„“
noticeably
áƒ”
emile
2009
dong
[unused902]
advancing
summary
eventual
protection
inside
fc
demonstrators
[unused208]
[unused278]
cheerfully
[unused363]
151
##ctors
marshes
frustrating
angel
groups
merlin
##â‚€
##gged
armenian
vila
adolescence
##holm
granite
paper
koch
midtown
weekday
rhythmic
baroness
##hane
sussex
à®¤
##ws
hesitated
lit
lasts
spruce
##odes
clearer
thugs
quartermaster
[unused443]
bishopric
R_two_D_two
Ã·
rankings
whom
##ral
investigating
tribe
featherweight
flames
##rne
apical
downward
heartland
[unused57]
##lf
diego
destroy
lina
stretch
gem
poop
armor
tyres
quality
humour
extremely
##dd
##set
assigned
constantine
##ono
amara
having
niagara
lookout
laboratory
afterwards
litre
slashed
##org
titles
christine
##lion
à¤Ÿ
##hips
smoke
scented
##lley
armour
passengers
deportivo
halftime
expresses
somme
advent
frowning
distinct
affecting
1973
universidad
infantry
ways
acheron
ally
contemporaries
'd
headache
##inian
##16
proponents
transports
sewing
##65
retrospective
##peed
##est
##sler
gandhi
saetan
[unused557]
##lessness
Hungarian
287
daniel
##fusion
pauline
##mith
os
was
facto
contractual
flinched
commissioner
commandant
chemicals
clash
clock
superintendent
indicated
##sef
aleksandr
primal
hairs
basics
mel
newest
sikhs
pinned
zimbabwe
##ressed
proctor
whoosh
sided
coa
dye
bouts
lending
##sari
beverly
enormous
stole
##eering
susceptible
##á¶
curses
##à®³
immersed
â‚˜
lance
thrown
compressed
[unused777]
sera
repairs
breed
abd
superb
sharks
definition
metacritic
taekwondo
invitational
ryan
##å¤§
prohibited
bold
teens
pleasantly
##ttle
circulating
enrico
iron
[unused305]
1817
â‚
â‚ˆ
##rae
mechanical
big
signalling
retirement
battered
columbian
##otte
pistols
opera
dual
nominally
##yler
sergey
áƒ
consecrated
raids
##shu
vineyards
warmed
floral
legitimacy
steele
mixture
senegal
[unused601]
data
bessie
##ades
##uming
atoms
mexico
##ert
##å¥³
collection
periodicals
wrench
##dh
medicinal
aerospace
glass
Ï„
1699
diet
##moral
##tical
fusiliers
Û
1818
nod
27
javelin
sodium
##sz
960
##vance
rae
abraham
##dilly
Ö€
quick
constituent
reykjavik
##erated
lindsay
spins
noun
lam
gallagher
il
strasbourg
totals
[unused893]
lau
football
flight
zaragoza
##gau
oblast
##chel
damascus
participating
writhing
closed
suited
hamid
sinclair
##sey
freddy
sired
corruption
plato
commercial
leasing
##ata
mistress
pmid
oldies
roche
greeted
sleepy
1714
ecole
holds
[unused500]
staples
issue
promises
narrowing
W
hacked
##zziness
deliver
post
graffiti
##erus
shooting
organisms
##idia
believed
bragg
audience
sapphire
[unused538]
witnesses
Ø¹
è‰¯
risen
##cratic
##æ©‹
waited
melt
wooded
##thorpe
[unused231]
sync
friar
bargain
buried
initiative
amendment
##ell
##elin
curving
eponymous
shadows
archdeacon
##ions
arthur
assimilation
mob
clear
##jin
wastewater
sound
ã€
choice
narrow
uganda
ts
##æ°·
blast
[unused185]
##ytic
##nk
loaded
abigail
merry+go+round
delicately
viet
widened
guggenheim
##inging
slices
trombone
hume
impose
sp
flop
countries
schmidt
desperation
##à¼‹
pointless
nano
ballots
lectured
[unused788]
visually
wrestler
thirds
esteem
picking
outstretched
##hir
whore
lagos
##nable
including
wholesale
Õ½
65
##bation
##zel
alistair
lightweight
spiders
jellyfish
##å¥
mallory
1630
immortals
predominantly
quantity
fossils
marino
##=
possesses
##kova
##art
neutron
distinguishing
olympics
pee+pee
stirred
hollow
Jo
thin
debated
psychology
explode
zach
illusions
aquarium
collapses
##Ï‚
##pers
charting
tacoma
reduced
facts
serbia
lineage
##shot
cancers
reaches
natalia
##ential
##mite
stern
pike
##oop
automatically
overdose
lily
##watch
tuck
conversations
Ñ˜
##eng
discretion
drake
muscle
everton
boiled
compartments
[unused182]
reassuring
soloist
originate
concerned
mv
à¦†
skater
freiburg
schoolhouse
owes
boxers
##ahu
guessing
titans
plymouth
##k
fitch
ing
à¸§
tonight
degraded
grins
glory
##fra
doors
rue
1995
bagel
fearless
mathematician
##ä»
##ã‚¨
##fall
[unused673]
attraction
temperature
cooked
##church
lilly
lausanne
forte
duplicate
fearful
mouse
##çŸ³
extent
satan
Â¹
tablets
than
denying
ä»‹
raisin
atoll
nan
##bolic
donors
shadowy
then
publicly
##sha
##iidae
##fy
shivering
traveler
brien
orion
trustee
##suit
cops
declares
lots
cain
instantly
khan
nazi
bulls
attic
bury
dialed
knife
7th
##pis
fir
1635
[unused783]
salvador
obedience
reject
land
unanimous
[unused519]
##tur
1644
arun
##fs
attempts
inexpensive
##enko
beverage
today
olive
arguably
hardship
craters
##aceous
eruptions
##mel
helped
installing
limestone
ezekiel
parentheses
occurs
jaya
bratislava
##orum
bush
souza
locate
indirect
hale
beautifully
plum
numerous
enforced
refreshing
##press
hunm
remain
delayed
crambidae
iii
##tland
giraffe
twisted
attack
bellowed
[unused367]
significant
iso
##Ê»i
kang
##rik
ufo
tatiana
exchanges
##box
kleenex
estadio
waves
depicts
258
membership
anhalt
##ni
marko
accessible
spawn
ae
middle
invitation
address
tying
sheffield
residential
baptized
ethnic
41
frequency
Â¾
occasional
##Ö¾
happened
precedence
churches
broom
borrowed
[unused882]
egg
antioch
shaw
shot
##movable
brawl
withdrew
detail
brutally
##etti
hereford
magdalena
caitlin
actually
[unused494]
cautiously
bleh
accredited
underway
hutton
continues
sino
nearby
door
nodding
##ots
##m
##rable
safari
debuts
elementary
percy
##ost
remington
exams
squadrons
##bet
advocacy
##ÊŒ
summit
diddle
Õ¾
secretary
##hopper
because
polytechnic
gender
witness
threats
lawyers
##nsed
elgin
mobility
radios
##lina
real
trio
abbreviation
[unused226]
##oth
offerings
##Â»
soaring
job
##mann
probability
##sti
obstruction
ottomans
gay
's
Saturn
facade
áµ¤
##laya
gp
##stellar
##door
luigi
none
pliers
##vani
[unused246]
infinity
represents
len
regularly
356
[unused697]
yum
meditation
dresses
million
##kari
##nda
jaipur
stained
direct
lc
blinking
coughing
fred
signed
[unused701]
run
â‚¬
prefix
increasing
[unused411]
shah
##yya
egyptians
##tative
juliana
citizen
##eit
yun
lighting
mermaid
nonstop
edgar
hobbs
cartoon
twenties
##right
bearded
[unused112]
rebuild
contexts
embarrassment
platinum
1662
slated
##çœŸ
by
##á†¨
awakening
jammies
##â…”
exhibits
pass
optional
60th
decreed
guardian
34th
ben
boy
manning
protested
nepali
deal
##nent
##nock
combat
favourable
trips
##ition
nazareth
1st
om
tremor
##ran
materials
##ythe
hatch
##mme
airplane
malaysia
chose
kneeling
swimming
[unused475]
woodstock
picked
##åƒ
155
proceed
É¾
hmm
indexed
##tton
intervals
rave
cup
ã‹
pillar
pressure
##âˆ’
Old
insight
bathurst
australian
chuckle
really
gala
##tries
casimir
chant
disbelief
pow
nonfiction
stale
##â‚
willingness
cristina
sinister
applied
species
affiliated
baptiste
Laura
ip
æœ
universal
monk
sprinkler
##graphic
giggled
markets
sam
æ£®
##nza
canvas
habitats
kerala
mclaughlin
##vable
gloves
##ffed
hair
##see
lists
##ilised
advocating
jerome
##à¥€
outlying
gerard
starred
burton
earthquake
prescribed
collin
janet
handful
##lves
shipyard
suites
addressed
contracted
progressed
hermann
anxiously
militant
pondered
[unused932]
baroque
1660
strides
stroked
[unused983]
led
rockies
seize
disgust
famously
hovering
rebecca
##â–ª
##â‚‚
hey
80
aesthetics
##elle
laborers
responsibilities
ke
rendering
serious
prick
risks
##rane
merits
##erie
##Ùˆ
##ante
##ã€
syn
##lm
rooms
[unused566]
##ks
lake
##antes
ruled
governor
167
waller
presentations
Salty
drama
guilty
##85
##19
kennedy
atkinson
euroleague
##yan
launcher
hands
housed
unlike
somehow
tolerate
mammals
letters
manly
salty
maid
pamphlets
##rret
strategy
artery
ambiguous
dissipated
interviewed
procurement
flutes
scanned
flirting
mumbled
##rera
lund
notably
dress
sur
henley
naturally
##erian
testimony
mesa
##block
##havan
##pan
##pala
synod
milo
expressing
algorithms
bristol
##iver
marcelo
##à¤µ
settles
;
persuaded
bonfire
innsbruck
ä¸­
aquatics
throwing
elections
carr
lick
luciano
widening
isabel
footballer
abundant
stand
rounded
nicole
roadway
restaurants
cpc
attracted
nationals
ley
or
à½‚
viaduct
cruising
##cles
1950s
##ä¸­
chiba
cent
greene
epstein
globally
##tos
burst
shallow
sasha
semiconductor
relative
tully
madman
n
investments
imaging
chasing
##nto
thigh
comment
jung
##ior
effect
1803
yuck
vietnam
prospect
grassroots
billing
saliva
dean
kumar
rumours
beef
lea
â‚±
perfection
grass
##lium
arrondissement
smoked
pleistocene
authorship
##rey
valuable
clyde
organize
detectors
southeast
##rity
305
flourishing
##inia
unesco
antagonist
à¦¦
##tones
peshawar
libraries
yin
oslo
promoting
ravine
fernandez
posted
##oration
renal
novgorod
invariant
buying
g
outlaw
stricken
##ual
layton
monetary
enlisted
singer
eine
cuckoo
profound
collect
posterior
171
sharma
soy
settlers
shorts
stanza
junk
assistants
hound
##×¥
é˜
brightness
moines
##rogen
å¤
hippo
##uce
salesman
doubt
reflects
[unused96]
douglas
loyalty
##*
horrible
re
helpless
##iii
manifesto
sofa
scrutiny
proudly
seine
odi
promote
â™¯
##may
contender
winery
novel
[unused104]
portrays
microscopy
news
checking
segregated
machine
##ecure
paced
dismissed
wander
##à½‚
red
dove
[unused513]
sequence
ice+cream
organise
washed
currents
##Ñ‰
clearance
covent
[unused113]
é“
[unused897]
##ella
townland
extant
ac
à·
possession
replication
sticky
reds
bottled
highchair
inches
carson
##kowski
darkest
newscasts
valuation
flew
johannes
scarred
hamster
lang
raced
air
factor
##áµ€
1864
Ú¯
Ë¢
##cultural
flanking
terrifying
pounding
trumpeter
##ãƒŽ
mummie
consciousness
##nched
honourable
xx
exiled
pendant
[unused128]
##bas
noted
[unused699]
caboose
ma
â‚•
thyroid
maison
bolsheviks
eun
Ø·
sable
caterpillar
propulsion
concerning
fished
I
wireless
lumber
Ùˆ
wnba
ea
struggled
##eres
##55
vamp
áƒ—
milwaukee
committing
capitalist
johann
sensory
act
neighbors
thrusting
lauren
[unused70]
[unused586]
shampoo
pond
melodies
nigel
declare
awaited
hindu
edict
wichita
blending
potential
years
provence
transport
##cer
##izan
analysis
asserted
orleans
statistical
walden
zoe
##ot
pharmacy
gotta
waits
1883
##rva
79
##strel
yuan
charge
##rie
busiest
implant
fleet
misery
supervised
mcgrath
winners
replied
sousa
confusing
undo
14
cue
quad
bertie
##lies
zion
##grapher
tablet
arenas
own
double
bays
counting
shapes
spend
butt
classify
alfa
paradise
rule
##sop
franz
wreath
Â£2
mold
afghan
san
â¶
surround
cartwright
##zes
[unused478]
upward
dementia
judges
biceps
conner
cheltenham
cheney
ios
##llet
##tell
amid
bain
loved
sprinkle
dyke
revealed
privacy
æ˜­
uses
shaken
realm
unaffected
##ol
orphanage
arctic
angry
seat
[unused864]
echo
momma
models
joel
[unused589]
payment
herself
cards
unlikely
grown
facility
beamed
fixtures
twenty
fur
Ù
pipes
leaders
promotes
chimed
raider
itsy
manson
##region
panels
otago
rana
hawke
##like
##gman
northbound
elevations
messenger
1987
##nus
murdoch
##è°·
bruise
curtains
##ke
guatemala
##ject
contractors
butterfly
baa
zoom
dhabi
critical
##ii
pathway
##phobia
truth
sculpted
##aby
marshal
buffer
bern
lava
fees
printers
pop
lia
parasites
##ense
drainage
boyer
perpetrators
listing
sides
##tv
avatar
##isson
superstructure
toby
suicide
parades
##mma
thence
##stan
received
çœŸ
decisive
##elli
goldsmith
spanning
hanson
mara
gracie
midfield
##pta
dover
bethlehem
##ados
during
raaf
angle
billie
african
intending
##nna
##å¿
##nar
skeletons
graphs
chickadee
revision
##osta
##ball
wah
whip
##Ù€
optical
lad
[unused502]
##dicate
hero
pleasant
dodge
somethin
##Â¡
distinguished
##eiro
##itch
rancho
carlson
doubling
dusk
macintosh
inspired
shivered
150
deployed
sailboat
sheridan
jones
airfield
vulnerability
cartridges
grabbing
fergus
##áµƒ
universities
christoph
comrades
chicago
anthology
ny
flawed
nouveau
sublime
##terol
fry
[unused44]
investigations
regret
teach
[unused243]
follows
callum
lough
debra
##cous
307
kelley
olsen
edouard
gunn
zac
linear
moons
anthropologist
booths
##rrie
horrific
[unused422]
investigated
vanished
clawed
fuss
occasionally
lined
##ä¾
flashbacks
entertain
guild
sheet
greater
liver
fig
carrie
green
##ass
opinions
various
davidson
hiroshima
maritime
submission
##etano
consistently
##moto
flopped
stems
motor
rulers
##à¦ª
likeness
##nas
interesting
decisions
commencing
##od
agrees
promotional
macedonian
version
shouting
61
imperialism
toll
corpus
å®š
##dog
cinematic
est
reporters
cyclones
southland
speedway
cheyenne
prestige
##äº»
remembers
mouth
presidents
station
gaps
kidnap
è—¤
chunks
##mation
avid
mormon
be
[unused907]
[UNK]
culturally
ãƒ¡
stemming
instructors
##æ°
bypass
macon
disease
ithaca
marlon
law
##sion
aryan
scotland
displayed
##ahl
##cm
margins
##w
dryly
athenian
##à¤Ÿ
[unused901]
carthage
##jal
biased
guitarist
fucking
resided
awarding
##tained
papers
lorenzo
flanders
unreliable
frank
use
doubtful
fucked
intends
succumbed
nuts
employs
extra
apologetic
pe
nightmare
##utnant
pigeons
receipt
fisher
babysitter
##bler
commemorated
##app
dispose
favored
aggregation
##ized
organist
pokemon
ronnie
##nese
##rman
mondays
bea
##tively
escalator
á´¬
Ã—
finally
hastings
##vern
1888
July
relating
å·ž
drained
sbs
##dad
37th
mosaic
##sden
indifference
disco
dom
jd
afforded
casting
alton
ecosystems
highways
imam
breakfast
underwear
##lce
routines
##grade
kenny
program
mortal
frowned
##izes
frescoes
utility
shaman
hang
henry
tobias
##lone
kala
##fies
intercollegiate
dryer
dc
##éƒ¨
trophy
drift
É²
1643
##nio
manifestation
##sson
dreaming
tracking
perfectly
unwilling
å‚
precedent
florian
##ton
tbilisi
bribery
##à¤¨
prevented
[unused90]
lev
micah
alejandro
Indian
gymnast
reynolds
syrup
shoved
warships
336
fight
kota
trace
survives
##nik
å…ƒ
Î²
centenary
rely
moustache
punt
##arns
skin
jang
rfc
fulfilled
clouded
à¦¨
picket
cosmos
rochelle
frost
rhone
categories
##ovo
trinidad
##dial
##ache
arthritis
##â‚ˆ
rev
ripping
theme
persuasion
chill
tame
simon
peas
edward
impatiently
dorm
interceptions
banks
samurai
judging
vienna
humming
vows
athena
generate
sigismund
spare
enrolled
1749
cottages
staunch
sai
1869
##rase
pep
engravings
divinity
##zzo
ensued
jingle
silva
globe
master
ambushed
leader
klaus
blocked
practice
##ã‚«
liege
vibrating
áƒ¡
bathrobe
90s
terrorist
topological
Âª
volkswagen
##edd
hurts
##hine
notation
lori
1682
bowls
fairly
alderman
177
seventh
smallpox
##hyllum
additional
sediment
environments
cater
##ctus
frames
tempting
galician
avalon
thumbs
##tructing
tuberculosis
##arth
purge
ambitious
ramirez
reapers
[unused172]
enhance
edna
mls
punch
restrictions
drugs
dana
respected
researching
idaho
aisles
Õ©
fledged
haitian
Õ¬
##aria
collingwood
cents
inspectors
trait
distinguishes
argentine
processed
##avi
hate
ale
[unused293]
quiver
clutch
synthesizer
torment
##et
##tered
cholera
fleetwood
[unused474]
swear
flush
chin
participates
presiding
lax
embankment
smooth
randolph
landslide
francis
transformations
[unused744]
tests
sgt
evergreen
responsibility
motorcycles
outset
enters
##chet
fragrance
##ç™½
offspring
##graphs
augmented
bounty
100
##iste
##polis
exploding
##nco
stevens
à¸—
philippines
hired
##mount
##lang
tractors
[unused473]
student
wilmington
##]
ministry
affluent
##à¤¶
##zoo
dempsey
##ennial
invite
griffiths
demonic
meanings
feudal
å¾·
sewer
subtle
production
baylor
[unused284]
##inger
rica
caliber
spying
celtic
motorway
psyche
loving
uk
##æ™º
whilst
antwerp
would
##loading
mead
bahamas
filmmaking
viscount
calming
erotic
berries
horde
sadler
inspection
answers
terminus
elisabeth
001
##pe
evacuation
cambodian
clermont
##pool
nikita
georgian
fumble
scholarly
up
poverty
marries
defected
tortoise
syed
spanned
unharmed
spends
wyoming
visionary
precipitation
sprouts
organisation
##nies
##rden
Õ¢
magazines
pill
liturgy
##hed
chassis
##ere
neglected
sabah
rudder
##ability
synonymous
##å‚
cincinnati
pearl
vicky
yearning
tanks
##ostal
à¤¿
phonetic
leyte
##opsis
ç§‹
slack
##ities
whoa
christi
1874
ãƒ’
bitsy
184
##âŸ©
wasted
fortifications
##iere
devon
violation
dominance
##um
[unused408]
##éƒŽ
##foot
gertrude
financially
basically
dominic
##yde
brick
cavalry
flees
##ela
raspberry
hostess
##nail
##â€¡
focus
harmonies
gujarat
sinatra
##iring
saul
turquoise
healing
bonded
demonstrated
little
##crats
hat
front
##nie
railway
goalscorer
rodeo
politician
##firmed
##iers
equations
defamation
naacp
corporal
2006
##line
##lace
victory
dreadful
[unused292]
cdp
##ules
##unas
##å‡º
selangor
cases
carmine
brotherhood
garment
##oux
murmured
owens
unitarian
multiplication
##ssel
quinn
mild
##sta
overhaul
##å
##uppe
collector
juliette
[unused423]
pyrenees
crore
##æ±
partial
hopefully
keenan
evenings
herbert
lucky
i
spotted
damon
[unused233]
experienced
##mur
1887
##ulously
skinny
##ici
result
berkshire
pins
clashed
dam
reprinted
farewell
coo
yoyo
silently
programmed
convinced
sandbox
zoology
psychiatry
good_night
sort
[unused617]
workers
caution
guaranteed
##arding
blair
crop
è‰¹
Ê¼
used
##hen
##â˜…
traditions
insurance
pier
secure
norwich
sparse
hold
sammy
microwave
[unused436]
salamanca
prepares
pink
thinking
bumps
discussions
##â™¥
byzantine
murmurs
palatinate
rene
1963
##à¦—
thinkers
nicely
##fin
lutheran
2005
scottish
hertfordshire
flyer
grotesque
ao
research
##wski
stadion
barren
load
[unused245]
nixon
manufacture
å¿ƒ
##pins
abdominal
Ë¤
ironically
spokane
oppose
[unused389]
showcase
##pon
##het
carrot
banners
##8th
dashboard
launched
##ess
##quisite
##oides
##ious
zealand
##ichi
cite
525
wadi
##ã‹
austrian
##ony
apart
accelerate
contradiction
brightly
drums
geometric
pounds
muffled
##are
volunteers
bruised
1200
between
decade
sunglasses
##sus
ricardo
fresh
commercials
kilograms
##uer
ra
xu
madly
italy
##tation
[unused769]
ours
nectar
behalf
mandates
[unused768]
brought
##chuk
##æ¼¢
##wr
blackpool
fortification
##hedral
dipped
##uber
exhibited
montpellier
wiggle
variety
jae
ignatius
versatile
programmer
à½¢
##dley
barbara
hms
exceeded
disciples
recognized
diffuse
images
discoveries
tofu
hardness
fang
hook
harp
emory
##jou
transition
##28
standardized
æ²³
##uous
1813
institut
##hari
tremble
ã‚Š
vaults
banjo
##gnan
high+chair
##ads
Î±
quiz
ali
assault
tan
##vus
plane
145
leeds
##er
individually
disturbance
[unused429]
ranger
moderator
drone
locations
celine
205
copying
sentencing
staying
sanitary
lawsuit
[unused280]
sunderland
surrounding
bingo
##dah
midi
aden
nrhp
##xi
rear
manchester
##physical
speaker
wilkins
licking
##ovich
lulu
automotive
hourly
vigorously
fission
processes
##year
maneuvers
##alle
é˜¿
speak
pursued
Ã¦
self
brett
##imus
bacon
linked
empress
##ship
asthma
##å£«
##rgan
##gang
sponsors
coroner
##3d
poor
á„
scandals
functioning
##ntine
191
ratio
##rana
##ciency
glaciers
phosphorus
colors
sack
mommies
monitors
[unused743]
stanton
theories
performs
stade
lovely
clown
dial
comfortable
authored
mention
ex
clicking
æ™º
wilkinson
1816
griffin
kuala
installations
josh
[unused846]
bumble+bee
falkland
1720
æ‰‹
humboldt
magistrate
betting
operation
constructing
casablanca
fussy
cum
doc
suffer
scenarios
gathering
convenience
mathematics
greatly
keane
xml
##oge
ceramic
sewage
fuselage
loretta
530
[unused636]
stop
jockey
##esses
planting
governorate
ä¹Ÿ
Î¾
leases
television
ud
##51
monty
album
jammu
votes
maurice
release
##esh
[unused261]
melinda
globalization
##hya
##à¸™
views
dona
template
blouse
superiors
destination
afghanistan
photographers
##rate
solely
toxicity
##nger
[unused249]
scripted
theology
nobles
medici
pioneers
planetary
carrots
series
blended
sneak
brows
fails
128
relics
gone
æ‰Œ
gallon
communicate
overwhelmingly
parted
digits
##kt
reformer
vase
accumulation
1927
##ffen
##oteric
valid
responsive
rams
amplitude
sol
##logies
brodie
hotspur
imagined
wallace
##kh
enough
paralympic
telegraph
sulfate
coulter
[unused852]
non
frankfurt
jurisprudence
stick
notes
##free
##him
äºº
embassy
repository
fund
prefecture
##isation
developmental
dimly
fraternity
verification
##test
alba
##oned
##áµ—
states
entering
chop
à¦‰
horsepower
##fold
ramps
à¤ª
liable
congregational
cadet
extension
brake
liv
##offs
prevents
separately
trafficking
pulitzer
upgrades
ticking
enactment
mcconnell
brunette
lange
##ãƒ¡
48
sufficient
newman
á„‹
welles
michele
dockyard
##dot
vote
vintage
hunt
##æ¾
ronald
jets
##à¸¥
è€³
sized
erection
aground
×¡
##gai
##een
monastery
blunt
aligned
wharf
espionage
##à¤§
happy
official
honolulu
tasked
stocked
zane
temperament
ghz
graphical
##growth
seventeenth
[unused3]
stopping
australia
##à®š
itchy
frontiers
buses
sundays
attachment
licensed
adopted
encompassed
strawberry
reunited
erebidae
dixie
hillsborough
turnout
##á…¥
riaa
tsar
revealing
fei
game
Â¬
##orestation
babylon
affair
healthcare
##h
273
malik
bronx
francesco
phrases
##gly
attitudes
1910s
##gut
1974
##gel
November
flung
##ion
mentally
exclusively
folding
stimulating
&
extreme
[unused364]
toothpaste
perfume
skating
1300
resources
empires
merger
juice
##zawa
##mart
intersecting
russian
2004
punta
underground
brisk
##à¤¸
sharply
interception
soap
thrusts
[unused425]
debate
##pee
binary
moffat
##ã¸
heidi
##æ­¦
indicators
##ctions
spectra
19th
massage
penalty
monica
bum
##ators
fray
vague
established
males
nearest
seminar
[unused331]
actions
escort
##cr
gooey
##meric
##Â®
agree
##end
1930
cullen
brush
coal
deciduous
clarinet
1797
fairfax
##zers
transmitter
1861
stumbled
intra
zeta
slovene
mccormick
orthogonal
attained
penelope
##ccus
[unused740]
##wed
classifications
##ft
##peration
##ance
soaked
##ksha
thompson
##â‚‡
retaliation
odisha
recall
rooney
uptown
represent
midway
condemn
##xious
orbit
jew
Wellfleet
remote
ã¦
assaults
barbed
joan
vendor
fulbright
##al
takeover
scars
herbal
interruption
##uri
trickle
majesty
communes
phone
marta
##berry
##physics
gary
##raj
resembling
malta
championed
##git
crawl
requirements
gulf
imprint
greensboro
inaugural
70th
packet
shaping
å…‰
technically
rafe
×Ÿ
guadalajara
silent
dock
bartlett
option
sunrise
arrival
opposites
pr
professionally
striped
electorate
overwhelming
php
##lifting
whorls
brain
##cliff
à¦›
1712
å°‡
bazaar
moat
diverted
icon
##with
blank
[unused607]
attendance
crossings
##ceae
centred
chugga
reaper
##Ê€
hygiene
squared
æ–°
surfaced
logging
alzheimer
zeppelin
serum
##yles
faber
evans
field
david
pension
mischievous
##tist
spectral
axel
ten
apostle
##ens
patti
temper
gabon
sectors
creatures
scoop
##ricting
detected
à¤š
desires
connecting
inappropriate
captain
##its
sauce
glee
populous
filed
##moor
ache
recognizing
##59
scaring
depicting
namely
coin
coordinated
folks
length
confrontation
208
minutes
##bound
[unused911]
disciplinary
evicted
##tituted
symphony
palazzo
##belle
##Ð¶
judgments
earthquakes
shipment
calvin
referee
[unused791]
laced
lap
##nsis
tv
##olin
Spanish
##zman
blasting
dressed
##urse
fall
inclusive
toys
available
dangling
hank
reserved
perspectives
##cine
difference
republished
cypress
panic
prompting
resign
effortlessly
loosen
redeveloped
crowd
manned
##nery
lamb
reorganization
attendants
bulky
royals
idf
tissue
breathe
baba
timeless
##ãƒ©
lurched
##ady
five
##jured
gemini
[unused548]
diabetes
causes
rehabilitation
nah
scribble
and
island
##arians
assist
waived
##sities
steven
sampling
techniques
anchor
##lum
receiving
##upt
##cede
streaks
##cise
apex
Õ¶
sprawling
liked
safer
collected
##Ø«
advertised
versions
##kee
teapot
details
[unused632]
â±¼
##az
collateral
##ures
1932
grandmother
board
dismantled
##day
cardinals
##ols
han
baldwin
shovel
racket
##fight
refit
massive
##maker
##yat
initiatives
freshmen
gallant
lump
kinase
cluster
â™¥
irony
1807
preserved
texans
##ello
warfare
rape
humanist
1703
flashes
beech
wr
idols
famine
Chatty_baby
join
##biology
spirit
rashid
worry
280
reduction
fletcher
appoint
##log
##Î²
steelers
##ism
faith
##Ð¼
beetle
baseman
metz
[unused309]
[unused76]
##rz
##tted
che
##lav
quietly
accidents
itch
better
beaux
wealthy
##ãƒ
wait
simulations
km
##rton
sprawled
realities
commonwealth
receiver
##lge
magistrates
##sher
germany
served
##å®£
bubble
cruiser
##analysis
zheng
experiencing
##tering
##ieg
[unused936]
italiana
subway
##jon
25
retaining
accessories
306
searching
chet
root
cannabis
revolves
false
##aman
engages
devastating
costly
##power
1824
swiftly
Ù¾
racing
â„¢
compounds
premiered
squeeze
catalan
disclosed
]
barney
malicious
smartphone
##Â·
floats
trains
islanders
##own
##stad
tibetan
approximate
##ber
##uch
nz
correspond
retailer
##aka
qing
loudly
ethical
##vere
doe
159
[unused510]
cognitive
headed
##nam
devlin
##as
ç™½
kazan
barley
lansing
praising
olympiad
instructed
drove
##imum
31st
##gat
undertaken
zipper
##wil
approaches
thrash
salford
week
1962
participated
##pic
Don
columbia
pennant
moan
Ó
layer
ich
endurance
context
transmitted
carpathian
children
granola
##rdy
##ford
limousine
packages
amino
fort
h
##stead
golden
herald
romanized
æ‘
glasgow
grinning
dive
introduces
##omp
fridays
billy
capt
##zko
famous
fisherman
kyrgyzstan
##æž—
ledge
inmates
twentieth
cole
moved
walton
effectively
triggered
##real
highlands
steamship
criticisms
reforms
insulted
hovered
sat
voss
raided
absorption
wildlife
##erry
##bble
thankfully
haw
tunisian
##3
engined
uneasy
films
streamed
##ngen
##vao
rd
##ifiers
dubious
##roller
epoch
ferocious
henderson
impacted
blindness
rumble
eton
drivers
esq
carousel
[unused828]
[unused746]
republic
jensen
platoon
guessed
silesian
1695
primarily
gallo
##os
services
gorilla
impact
reached
encoded
##pressive
albanian
outlet
analyzing
screening
realistic
intercept
clandestine
eeat
supreme
oaks
##pire
181
looked
qaeda
clutching
repertory
##wk
avoidance
##ris
seesaw
assuming
[unused485]
entire
[unused29]
wreckage
semi
à¸¡
##erin
32nd
connect
ewing
legislators
sweets
##ndo
darlington
1727
empirical
postdoctoral
subdivisions
tournament
sensing
valentin
##aran
fbi
##amy
uncertain
##ted
##gin
erika
scribe
##ent
size
[unused164]
randall
scots
cervical
chris
à®°
##haven
provoke
grassland
jurist
sits
nominate
logo
##kis
1941
navigate
##gc
bolivar
reich
##à¥‹
tall
predictable
mop
excuses
##won
specialised
arrivals
crowded
##ily
libertarian
guarantees
##rish
punish
midlands
##pher
detached
assess
alarm
traditionally
camps
ibm
##Î³
clipped
lowe
fastest
deformation
winged
##war
collision
ladybugs
351
##bula
intercourse
downing
##weather
[unused628]
eliminated
intellect
##cate
statesman
highly
kurdish
millions
encountered
barnard
citizens
arranged
slipped
##herton
â€
##liest
concordia
swift
##cam
realised
canonical
guidance
montrose
bothering
missile
##;
Îµ
Beaver
grr
separating
sighs
meals
aviv
black
[unused287]
iroquois
[unused782]
Patsy
united
Barnes
[unused120]
å£«
arrived
##à¶»
briefs
lincolnshire
176
##igate
##ulata
occupational
##ibe
perez
concord
vulture
congo
##jet
##ioms
##inates
rode
rests
[unused43]
bonuses
1996
1600
odd
experts
parasite
heir
[unused254]
widen
terrible
pdf
aid
chiang
filmmaker
commenting
bypassed
growth
recreated
miracles
##and
identified
pursuits
##mouth
greek
given
uruguayan
objectives
6th
greenwich
fishy
##ham
71
pbs
donations
çœ
enterprises
maintenance
environmentally
##group
industrialist
tier
##mbre
wanna
anglican
adviser
studies
admitted
rivals
mosques
yamamoto
##xie
nsa
pies
##ience
decreasing
factions
types
##zee
integral
mama
å‡º
Â©
nine
##rations
commitment
scandinavian
seen
isn
##ã€œ
å¥³
ãƒ§
sergei
##wick
toured
utilizing
1900s
filmed
physiology
domesday
shakespeare
redevelopment
##park
refugees
asa
bog
experiment
S
##schaft
emotionally
##eb
kg
february
1540
paths
joy
deposit
nap
theft
unification
knitting
##sworth
cage
leaves
##urs
improve
Ñ–
[unused131]
##hony
landings
haiti
caribbean
divers
é¦¬
latter
blaine
17th
##mont
##eu
##court
stranded
ukrainian
[unused868]
##se
mackenzie
weapons
textile
stimulus
ä¾
handed
troll
tucked
##dun
##uen
##front
mg
dubbed
regeneration
inspections
consistency
##nty
etc
##qing
billboard
vertices
gupta
nape
andersson
å¯º
whispering
##eding
jude
converge
oder
[unused722]
rampant
riley
206
humidity
cubs
profits
mustered
live
##jak
settlement
##biotic
saints
controlling
##uca
penis
siberia
hitting
##eal
relocate
artists
caused
lacks
##proof
metric
interchange
presided
hooves
##building
particles
hello
##mpton
bangladeshi
greedy
plural
clans
essex
radiated
##ez
hood
disks
fellows
morris
testing
ahead
certainly
[unused151]
á„
##Õ´
christophe
securely
sinks
novak
##pit
exhibitions
##claim
##tre
wh
chaplain
apparent
unit
wandered
[unused987]
beauty
missions
clinton
parliamentary
buys
1713
brigadier
foil
bahadur
scrapped
jolly
principally
##bedo
kidding
silvery
hiram
##ãƒŠ
##lot
é™½
[unused873]
##45
divides
##stock
omitted
ta
[unused619]
æœ¨
peaceful
creates
montevideo
goth
resultant
alright
limp
diversified
imp
finland
compiled
brushes
balls
discovery
rallied
gradual
talents
profitable
lds
classified
##tidae
fragments
dow
homeland
âˆ©
nervously
gulped
##bilities
##mies
unicef
ave
eternity
backstroke
illegal
[unused675]
identify
mollusk
##making
##anne
singh
##eda
##nad
##pres
qi
wrinkled
mab
reilly
wounded
newfound
##founded
shaded
hectare
##down
amnesty
broadcasts
355
salazar
brushed
final
##osaurus
##under
cameroon
wings
clan
grease
betsy
##bid
mitch
flare
fitzgerald
äº»
##cks
rushing
suarez
juniper
##asco
trailing
Ê¿
##ã€Š
##pr
boulevard
dq
nanjing
accepts
showers
louie
bagels
##39
##list
##hoe
shocking
737
×
tabloid
2015
##tip
argue
##×š
continued
chinatown
beast
ãƒ„
climax
flatly
cylinder
bother
327
psychiatrist
[unused870]
1950
arabian
orchestral
commented
antarctic
##uring
midsummer
contestants
muddy
locke
refrigerator
luzon
squeak
exchange
helper
##é˜
187
destruction
unlock
contraction
[unused849]
finnish
napoli
male
virgil
confines
hancock
##ego
rn
supervisors
spa
ruby
realism
##icative
burrows
à¦­
nat
1960
nominal
helene
crayons
poet
lessons
remains
swiss
something
ju
##à¤ª
tolerated
##writer
å£
##tum
aztec
##rop
nuh
253
success
exiles
pleasure
##Ë¡
supermarket
botany
alexa
remained
[unused499]
tongues
untied
nottingham
watering
column
ferguson
superhero
doctrines
pensions
thrilling
azure
aguh
columns
kiwi
##room
nile
[unused59]
adversary
concern
##mbling
internal
##via
workshops
both
dodd
surplus
mind
efficacy
lilith
mahmud
##ffs
heading
[unused162]
[unused614]
##nr
safely
capped
vibe
practiced
##bai
dull
##iography
cleansing
##dev
reigned
recoil
begun
biographical
percussion
bringing
inherited
antony
##ora
storyline
beneficial
squeezed
##à¸—
constituted
crew
bjorn
puerto
[unused0]
owing
[unused277]
proposition
shu
groundwater
[unused906]
freshwater
dense
jillian
[unused956]
[unused965]
pissed
natasha
##ç‰ˆ
kelvin
completed
ku
stammered
##á„…
unfair
legos
beams
trainee
##economic
sans
etymology
##uated
Â¼
97
distinctive
##ã¯
Ã¾
cracker
forums
ivy
august
casper
traces
magic
danes
##à¤°
1646
hay
injustice
narratives
edges
forcefully
clifton
huffed
##hner
photographed
##castle
impending
cinematographer
å¤–
kissing
##âˆž
kimberley
innate
straits
yields
mendez
care
100th
##ã‚·
luxurious
##rrier
##nais
mentoring
wei
benton
jerk
hunts
militias
catch
glendale
Day
urgent
[unused522]
neptune
eugen
likelihood
weary
laird
##atus
fours
classrooms
##tite
wishing
meaningful
##à²°
involvement
##jhl
dotted
##â€¦
gs
andrew
squinting
shifted
wiley
##cci
content
Big
discouraged
folk
lunatic
soggy
taft
all
landscaping
truths
âˆ¨
witnessing
curves
murray
pathetic
shutting
uzbekistan
`
amidst
afford
icy
leah
sicilian
##nish
yugoslav
tossed
##hia
thinner
oceans
nostrils
maynard
armament
##it
##ppet
##sir
topographic
suriname
temple
energy
instinct
street
asphalt
spinach
officer
gothic
writings
growled
backing
##ctable
tab
burnett
pen
human
sage
summarized
fifa
##apple
##gnant
##master
turtle
##ful
jorge
##ri
development
withdraw
captivity
[unused439]
latvian
##irs
diaspora
elector
classmates
##ç›¸
clinics
lucas
choreography
##pm
##bei
galaxies
grange
dominates
edison
pivotal
tearing
bracket
##ple
##nburg
pasture
frs
zhao
memorial
unearthed
uv
dorian
song
eligibility
captures
kapoor
##grating
##Ï„
##tua
immune
engineer
brunei
nomadic
yield
sanford
seattle
##gy
lux
completing
lifelong
##à¸ž
motioned
##gard
princely
dramatic
mod
September
within
interface
albuquerque
delightful
meat
[unused966]
migrating
leagues
pierre
prophet
##ility
lex
patrice
maya
##è¥¿
sunset
[unused649]
##cock
##å­¦
surfaces
fungus
instituto
grouped
madras
added
ventura
alberta
##gible
hurt
meiji
##mide
cousins
##icon
âˆˆ
treatise
booked
riddle
avant
bow
verdict
metre
armed
sounded
herzegovina
36th
disruption
christianity
konstantin
anal
establish
8th
berg
nacional
promoter
sant
defendants
averaged
lighted
tunisia
acute
##water
inn
knotted
place
powder
sato
##chia
##path
gaulle
laurie
psychic
##ont
stockholm
##æ–¹
mal
##lowe
second
dripped
boo+boo
herb
wary
logged
bandwidth
##rti
liga
##tie
categorized
tour
hooray
##oa
doomed
##fl
allegiance
beethoven
enforcing
ã‚¤
pattycake
battalions
ample
hammered
bates
disturbances
##âŠ‚
great
pilots
editing
deepened
sex
pont
openings
##rzburg
##verse
##oes
italia
stabilized
pilot
##cht
float
sourced
##abad
paperback
tags
sinking
allison
##ural
##dham
##â°
bring
saxophone
childhood
demonstration
rejects
##æ‘
lightning
swans
granny
parisian
##ian
##shima
standard
publication
obstacles
donut
proportion
shitty
avon
play_doh
cadiz
sending
spawned
sixteenth
##san
neat
barton
emilio
##gen
personally
warsaw
##endez
kelsey
subsidiaries
[unused143]
edge
labeled
believe
[unused704]
programmes
obsessed
chord
jerusalem
emperor
fused
generators
juno
##night
intersects
adi
singular
byu
wanderers
Õ¥
vargas
##roy
coat
chemical
chords
teeth
ordinary
cooperative
flotilla
##rnik
rocked
##zy
lawsuits
inlet
sophisticated
stronghold
muffins
edith
quarterly
doha
substrates
yale
##marks
literal
aegean
áµ€
clara
izzy
pl
showcasing
constantin
registration
tuition
##eras
##â‚„
prevalent
tx
rails
campaigning
panthers
palais
##bed
bets
##erative
##ulated
Snow
layne
##9th
rugby
gravity
##ques
ramsey
recruitment
fling
floating
jr
##×ª
lacy
mad
##ghan
smoky
walker
hard
[unused829]
regulates
sonic
episodes
##eri
sociological
##â†¦
##ã€ˆ
marvin
icc
##á„‹
morale
colby
nylon
eleanor
newly
crushed
alvarez
[unused919]
[unused953]
infringement
â—
gorgeous
1732
paramilitary
cretaceous
flattened
[unused541]
[unused312]
coached
fingers
padua
[unused573]
remastered
par
chase
statehood
do
cloudy
powerful
immersion
shetland
##udeau
whee
convection
reproduce
##atable
coating
##ene
growing
defences
fingerprints
itv
##gami
##urian
##aries
service
son
portion
resting
##harat
jobs
temperatures
á…µ
horatio
canada
##vard
rock
thoughtfully
losers
1977
##lan
geologist
putin
sailors
##fat
blossoms
identical
à®¨
negatively
##ä¸–
visas
foolish
dupont
##Â¨
lowell
##torm
##glia
##á„‚
plausible
aspiring
##xed
##ire
##cat
janata
bed
groove
torpedoes
formed
add
charted
210
[unused921]
acquiring
dail
living
girl
favoured
[unused750]
equals
maintains
luftwaffe
hours
edinburgh
freaked
woohoo
##nett
jamaica
turkish
backseat
pau
##aki
##uba
zoop
underworld
supervisor
##ars
tummy
[unused488]
ankles
negotiating
[unused155]
##tas
pharmaceutical
offenders
decree
salt
##Ú¾
##bing
marlborough
listener
disappointment
qualifying
alpine
fallen
kisses
[unused428]
fries
##gia
##ment
fringe
##voking
warship
fiba
rounding
kira
##llar
##bling
recommended
deep
è‘‰
##wen
beds
##mpt
##optera
survivor
township
recounted
1841
##tea
apologies
methyl
usd
deprivation
salaries
##nig
spitfire
##é¦¬
Lady
ã¾
moldova
distribution
mach
authorised
##y
vital
##Ñ†
not
[unused664]
##chy
##cas
croydon
organizations
jerseys
ghetto
irwin
escorted
##cope
clare
woodward
availability
celestial
##itation
[unused802]
âŠ—
##lius
##jia
[unused682]
unite
regards
##idium
balancing
distances
##wicz
nephew
graphics
##red
tacos
##lb
##nd
surveyed
Â½
skopje
fingernails
[unused368]
slower
preparing
##à¤‰
##wer
classical
marker
rectangle
##kos
##oya
hangar
abandoning
##ael
marathi
clinical
stove
idea
rejected
teenage
à¤‰
northwest
siege
tuned
##uli
medallist
track
jackie
gregorian
×˜
tesla
auschwitz
stung
device
reins
peugeot
archaic
103
##dge
housemates
drumming
rum
abducted
%
##gio
examined
##lub
##lized
[unused273]
irene
contestant
curling
noticeable
beautiful
goldfish
##uising
##jevic
batter
##oun
cozy
mounts
storylines
austin
elena
supported
##sche
October
normally
num
caves
390
contentious
medication
setup
oldest
c_d
##tec
bethany
Å‚
starr
245
beit
ancestors
sonia
##yd
philosophy
residing
115
straightening
net
stating
##à¸
dieter
##olved
eaters
ochreous
millimetres
##ane
##dice
1731
comprehend
enemies
styling
oh
##some
painter
papua
translator
##enstein
lid
paying
##ov
lil
é–“
á„ƒ
omega
##lete
##kin
icons
streaked
1980
computation
interrogation
milk
ethan
indicator
navarro
##orio
torso
700
##inal
##tal
agreement
sorting
beaming
##Ð¾Ð²Ð¸Ñ‡
lucivar
lock
driveway
neurons
##falls
mobilization
meteorological
##isch
[unused51]
awake
fellowships
nuclei
despite
biting
lisa
sheikh
elaborated
##Î¼
decorations
akron
##×Ÿ
wil
##á„Ž
brussels
pie
whistling
##ush
[unused544]
essence
firefighters
mysore
##vik
passions
toot
gonzalez
albert
vitamin
wrocÅ‚aw
retained
mounted
axle
jurgen
starboard
casts
inspected
legally
code
unidentified
slade
wolverhampton
blonde
steer
stallion
stitches
auguste
[unused272]
540
ease
galileo
pearson
settings
guides
scattering
##ridge
cock_a_doodle_doo
penetrated
cannons
vendors
fixed
##Ê”
[unused710]
##rca
400
##lation
metaphor
##quet
humphrey
##eving
hornets
discrete
tended
anastasia
looking
vanderbilt
sui
dalai
euclidean
unless
moods
blackmail
##bbling
slight
conserve
[unused372]
bracelet
model
##âˆ¨
posts
swirled
[unused861]
â†’
dowry
translation
prospective
charley
1759
[unused760]
terminals
administered
greed
â™
stiffly
examinations
sober
continent
Wiggles
upcoming
determining
takahashi
eccentric
grouchy
skimmed
graphic
weak
##å¼µ
seizing
[unused297]
imaginative
##edly
360
##ç¾Ž
##lino
tugged
##rocity
stacks
heresy
lieutenant
indus
rhodes
##orted
vaughan
##pes
retailers
##lous
dev
influences
emigrated
##.
belongings
reflect
##gger
##iferous
geo
veil
##pro
circus
eroded
sixties
occupy
waldo
maverick
goal
approval
##pp
marshall
##fying
la_dee_da_dee_dum
suspension
ãƒ•
##inae
perceptions
bulldozer
clive
fear
align
110
mla
cradle
walks
98
exhaled
sovereign
lets
##kow
tone
##tet
faulty
provincial
relieved
buenos
explaining
constance
tavi
arises
##ng
lobes
considered
transient
algebraic
researcher
around
announcer
jasmine
mckinley
##ound
38
tipped
robert
vanilla
pretend
hydroelectric
January
muslims
lured
whining
espn
å¿„
alternate
1839
ornate
##à¤¯
##heads
tram
fable
vest
scholastic
auditor
greasy
fourth
wrecked
1626
folds
quarters
ç”Ÿ
view
martinique
nellie
defendant
disputed
healthy
originating
circled
kensington
##riam
##abe
speculated
##gas
undergoes
impossible
encourage
campos
barrett
hell
historia
morphology
1753
assign
[unused844]
resistant
european
type
lobby
##aging
dimensional
mice
dreams
joao
transmitters
##á´µ
##fan
picnic
revolution
##ÑŒ
hanna
jared
lawn
derrick
informally
merrily
winnie
ile
##metry
##cs
remorse
[unused762]
148
selling
opt
riot
sleeping
abbas
outline
expect
protecting
superfamily
##dding
occult
Î½
quarries
shreveport
declaration
à¦
pays
sahara
romans
dickinson
##ger
stat
152
maui
sails
bat
races
upright
venezuela
answered
##lr
geraldine
superiority
affiliate
philipp
neue
interaction
arrested
peasants
ingram
dublin
held
##akes
equilibrium
dogg
knoxville
ãƒ
##â‚†
solitary
##gf
give
ronan
1940s
scary
pathogen
[unused571]
124
rm
oasis
federation
##äº”
en
registry
bit
stew
offer
indy
##×™
erich
500
lurking
Rabbit
trainer
ss
dusty
##skaya
warns
unified
##eptive
soccer
humanities
wong
confident
ä¸‹
comic
##lating
##esa
days
##Ð°Ð½
carly
midday
moaning
â€°
prelate
sticks
[unused403]
bharatiya
whitney
corps
fishing
patterns
##sed
razor
reasoning
commando
cis
newton
etat
chorale
harden
treason
compressor
cinemas
bumped
Î´
sparhawk
primaries
##sdale
document
bock
marin
##áµ˜
engulfed
rides
##mis
premium
flemish
##nica
descendant
cannot
satisfy
clenched
313
podium
adorned
##pone
facades
acorn
nj
russia
stein
casket
##lkirk
##dgets
reminder
tucson
brains
provinces
##minating
keepers
torah
yarmouth
items
[unused79]
france
##ilia
chrome
capita
knick
group
arabs
##bu
fetch
##sur
caliph
sham
favorable
archaeologist
tipperary
##age
twelve
Õ¯
46th
observations
hussein
va
bonaparte
worse
go
barriers
##vina
##cal
virus
giro
romano
[unused420]
fielding
hotter
1000
##hale
grace
mann
dan
##å
##arty
mitsubishi
viper
alexandra
##ai
sagged
crate
Ñ‡
auto
pertaining
slopes
uranium
corridor
functional
bao
landscapes
Woody
band_aid
cemeteries
overview
parapet
startling
fates
damages
trumpets
nbl
monument
legged
mesh
##à¯‡
[unused359]
heard
viii
##iger
thirsty
dunkirk
##kas
##dc
intimately
[unused206]
unspoken
##waite
##×¡
crimean
inaugurated
scrambled
##nde
efforts
quoted
https
weasel
soviets
accompaniment
plays
dilapidated
44th
risked
rift
merging
painful
fairies
robb
charleston
neutrality
confederation
ãŸ
particle
mirrors
friendship
##rc
marking
##rite
##23
##yin
modifications
##lay
##å…‰
##ifier
trunks
provide
trouble
cross
witty
å¤«
oblivion
dozens
##ray
wang
heal
tracy
179
â†¦
1689
dorchester
opted
##omorphic
implications
##bos
tor
assembled
wrap
genocide
basalt
snort
â»
cages
Ù„
consular
##kei
yells
hash
ashley
##ivate
corrosion
coloration
bash
##sch
##kulam
here
mansfield
##anza
##uing
[unused18]
familiar
davis
yearbook
barges
accomplishment
coyotes
busch
340
##ands
ecstasy
[unused927]
candy
appearance
restaurant
uncle
##yk
##gler
##cd
##feit
weakened
apostles
strangers
cookie
discontent
trip
##ply
dewey
proximity
logical
liking
presbyterian
comical
##gata
promotion
!
mastery
##lby
courageous
vacuum
1901
doggie
porto
##ulf
##vid
[unused471]
names
academic
strange
waitress
sipping
forbes
[unused984]
started
processing
welfare
poultry
af
atm
kansas
##hiro
fenton
joachim
shark
[unused332]
balkan
foreign
hoisted
frederick
forts
recorded
[unused409]
capital
cosmetics
sniper
slug
##ntial
supermarkets
http
bk
##Î·
barnsley
behavioral
interacting
teammates
excluding
##mura
marlene
permitted
materialized
[unused799]
biscuits
1680
trade
â€š
##rka
insistent
unchanged
aisle
lai
##ko
galen
yugoslavia
bodyguards
stagecoach
providers
humans
##ges
hussain
babysit
stunt
marcos
livery
640
night_night
doping
##oted
pending
plantation
displacement
cheerful
skate
novi
##Ñ›
typical
gnome
##ÐºÐ°
##dridge
bin
joyce
hailey
directs
surgeon
salary
##antly
compiler
outpost
Ùƒ
volumes
1886
##nu
excuse
##tions
supplier
shrieked
##Ï€
incline
show
telangana
##Õ¯
vicar
themes
Pooh
294
indigenous
validation
##missive
##bro
mag
rooftop
rio
[unused990]
steward
kmÂ²
##æ—¥
er
##an
lord
doll
rings
æ—¥
seem
##while
bonnet
##ographer
proportions
anyone
gilmore
ä¸Š
##zi
##im
pyramid
trend
mediated
##iam
guillaume
hospitalized
timetable
##â‡Œ
consulting
à¤°
attracts
consumed
professor
ceiling
overall
adrian
hurley
qatar
[unused730]
finley
orchards
##wan
##matic
emir
tore
trap
madden
##omics
dyer
catherine
trevor
##ysis
##ons
shudder
travelers
##itate
emitted
##acio
defence
worldwide
lanes
upset
creeping
included
inactive
##zation
gym
anders
resisting
##ick
##pu
antigen
allowance
exploit
vine
[unused512]
##ba
thereof
##è»Š
á¶
##ox
contribution
mandy
##cie
juventus
routinely
formerly
preserve
##chev
slim
hodge
cultural
##quil
greyhound
##scu
vulnerable
roach
manpower
limerick
blessings
fcc
sit
tolerant
Pride
breaking
##nsen
[unused665]
elected
lunch
abolished
marvel
guide
[unused651]
lacked
holidays
still
fundamental
informs
flying
descriptive
mall
contract
66
index
blah
ryu
ink
outskirts
ã£
huntsville
eerie
##rigue
burp
murderers
munro
##edge
##Ö‚
##áƒœ
photography
slams
airmen
dodged
socialism
noting
issn
technology
faa
1821
ignacio
spouse
##ogenic
mb
##43
marred
fm
##inate
250
sitting
##lana
harold
ethanol
treasurer
suite
##ros
##cin
robbery
1931
dollar
##reus
[unused455]
##rip
bastards
hitter
directing
persisted
applause
gravely
crunch
buddies
picturesque
[unused479]
stegosaurus
yes
loki
[unused593]
stressed
picasso
Â¤
butte
stretching
##ocytes
walsall
devils
combustion
mikhail
deviation
clarify
crayon
discovering
maximum
birthplace
penn
as_well
##ibly
medial
##walker
##ben
knuckles
##lia
change
##ening
roam
davy
chuckled
overshadowed
##ador
repeat
afi
deeply
collapsed
##tension
stormy
##ator
awaiting
304
badges
oh_my_goodness
variance
##ened
cope
specializes
westbound
##rily
span
##eus
actresses
appointed
anarchy
semantics
mattress
hannover
ultraviolet
nerves
network
paid
catalyst
##ality
thirty
partisan
hernandez
bedtime
punched
1743
iucn
##sure
yard
hubert
à®³
##ulator
colorful
kim
leaping
reversed
assured
princess
sierra
##ryl
##rians
noises
1656
variant
henson
danielle
strengths
##tm
fulfill
terrorists
Ð´
adelaide
plastered
bears
mortality
kristen
ãƒ­
yummy
vivian
hamlets
wells
telescopes
ferreira
day
permitting
overcame
undertaking
traveled
shortages
insurgency
sacrificed
playable
swollen
Â»
é–€
finger
complementary
reiterated
treated
âº¼
appointments
dede
psalms
balloon
hooded
frankie
rebirth
##Î¹Î±
##vant
willy
amalgamated
chapels
restroom
painters
oskar
nemesis
duo
maroon
world
##ban
independent
simply
##life
fleeting
snowflake
groans
anglo
hih
liner
golfer
##gun
51st
dimes
seat+belt
gardens
arjun
bournemouth
##mas
cardboard
##sos
##ples
bourgeois
quran
rink
walking
##pie
cardiovascular
humiliated
bone
##ãƒ«
church
##zong
payload
airing
plague
refurbished
##osing
commit
pair
##otic
inverted
fastened
racetrack
spoiled
jarvis
wraps
food
feared
facilitate
represented
kid
endeavor
##ditional
seemingly
wedding
cupping
brady
breakaway
stepped
fey
subfamily
scalp
##qa
suzanne
##lita
secretive
ã‚
##board
jogging
auxiliary
guise
##gist
pillows
monroe
etched
nausea
origin
babye
mixing
settler
##otide
andersen
scarlett
##ha
tied
switzerland
similarly
sic
jaw
trying
plateau
mit
à¦—
ã‚“
##der
costumes
1990s
å®¿
academy
jarrett
##raphy
relational
delta
fabric
loren
##kur
fiesta
deborah
sorted
##rooms
skirt
cell
attractions
##lins
obe
vane
useless
transfers
lineman
marriott
devil
##&
what
##kovsky
excavated
[MASK]
##elles
congratulations
mÂ³
galley
stride
[unused445]
å¹¸
pulpit
tortricidae
holm
faltered
claiming
##carriage
starving
seized
rudd
swat
faults
galloway
humid
quantum
website
twilight
##thed
ç”·
instrumentalist
sensual
martin
froggie
tango
lyrics
wrestlers
useful
haha
manufacturer
##lio
â€™
sullivan
##tson
##ammed
endangered
stillness
áƒ‘
cream+cheese
isis
passage
criticized
spanish
shocked
else
criterion
sap
caspian
plata
cartoons
totally
caine
##vic
logic
laugh
Ø©
outta
hehe
operators
voyager
##rra
##å°‡
sciences
educate
yer
##Ê¿
anemone
killings
screens
marketed
mp3
legislation
[unused928]
implicit
coup
meters
[unused935]
constructions
##boat
income
synthesized
mcintosh
nasty
solemn
camille
nbc
francoise
viktor
premiere
undead
pixels
delhi
[unused38]
dusseldorf
patio
á„‰
changed
messed
markers
preseason
inch
rook
wipe
rebranded
coventry
blanchard
adorable
1560
##sies
##ys
à¤•
clapped
##ulsive
implements
åœ°
democrat
[unused205]
folklore
department
trance
oxide
aggressive
footage
craved
conscious
##â€˜
puttaputta
rubble
twain
notable
get
automobiles
##â‚›
kelly
difficulties
jamie
angrily
additive
focusing
##hta
##rek
poo
communications
alexandria
entrepreneur
angela
attempting
silvio
steering+wheel
##ssed
braced
rug
ã‚‰
flat
nevertheless
##yu
threatened
adequate
pickle
##cey
petersburg
snakes
##ado
Father
hoe
wipers
fifty
creep
paz
conservatoire
privatization
##Â¤
quarterfinal
##scent
civic
vines
reindeer
geological
sustain
[unused317]
##pura
##à¤·
uppsala
##cki
##tors
brood
interrupting
eng
surrounds
convicts
##weight
perfect
shorter
purse
shipbuilding
##zed
neck
##ap
duane
nails
kyoto
incidence
##qvist
civilized
juan
rack
philosopher
rocket
##phon
italianate
yemen
[unused102]
garden
path
banco
1903
trout
contracts
polite
Ë¡
##nka
sets
xbox
wo
explanation
##nea
##bled
##care
rivera
elevators
A
tulsa
[unused702]
survey
##adt
1786
enterprise
krakow
[unused74]
throbbing
salute
lastly
sketch
offense
anatolia
ã
ruining
##he
##ashi
issuing
áµ
burundi
mcgregor
[unused712]
realization
rooted
á…´
arbitration
conservative
mcpherson
##à§€
bearings
á´®
##ished
exceeding
correctly
bid
bhp
18th
[unused481]
butterflies
##Î¿
amounted
tasks
##âˆ—
natal
[unused646]
áµ‰
juveniles
##zu
controls
fixture
regarded
classmate
dots
loser
padres
older
##zza
##ãƒ§
palmer
17
reminding
mode
egypt
parliament
##ceptive
bup
vice
bundles
##era
assessed
jolted
diagram
eras
walkers
##Õ¾
stable
gateway
tara
frantic
erroneously
##chi
daemon
instruments
mort
slovenia
[unused253]
strain
à¤¹
aspirations
gates
lions
salle
##nier
creole
hindwings
bowling
jumper
kan
admiral
publishes
##sboro
lashes
ambassadors
secretariat
vanish
##mi
garth
savior
menon
mannheim
limited
dramas
presumed
calves
drawn
pail
gabby
dos
demolition
1920
æ¾
liam
belinda
á…¯
570
rebellion
##ffe
##cina
cruises
1935
à½£
homestead
burden
##hin
umpire
tailored
modern
clues
canary
[unused698]
resist
char
quezon
retribution
ultrasound
collectively
jewellery
fabio
hunting
68
##Â¹
special
##omo
canine
excellence
##sr
criticism
ã‚«
loose
england
daily
faction
earnest
restarted
bukit
kaplan
deserved
jump
helsinki
liberal
liquor
resume
costs
rep
patrick
teetee
alfred
nominated
reverend
disability
##dora
donetsk
prodigy
hamper
1622
##lden
##á†·
okey_dokey
labeling
5th
exemplary
building
breeds
addict
cancer
ditch
clarke
sahib
##å†…
sent
signaled
##gren
jian
##forth
biplane
##urst
##use
incapable
check
##v
will
je
##gua
royce
sulawesi
honey
unconscious
##br
##laze
joseph
bros
codex
connolly
chef
malaria
mustard
embarrassed
agreeing
foreigners
motorcycle
earrings
springer
northern
minister
bursting
floyd
routledge
soda
rob
cooling
corridors
apocalyptic
##one
exported
##inations
trillion
expelled
##æŽ
##gues
concurrency
##eem
sociology
##kie
jimi
[unused384]
625
conceal
##baldi
##ml
box
[unused152]
deceased
dynasties
anticipation
[unused863]
shall
find
transitional
tokugawa
vaccine
[unused378]
liaison
##roving
##lash
kitty+cat
gliding
iain
stump
delivery
armando
hurricanes
arrows
shores
prostitution
veins
129
softly
[unused552]
fatty
aeronautics
michelle
tasty
absolutely
kiss
##mp
since
rude
rhode
##estra
ru
franklin
ä¸–
concussion
232
affairs
swore
##25
cfl
lost
[unused235]
##Ð½
accessibility
##rries
ying
develops
edwards
shear
##tenberg
##zak
##sonic
reconstructed
magnificent
mata
graeme
conway
unmistakable
andrews
##vili
fierce
propaganda
prose
[unused891]
evidence
colin
mali
mcmillan
voodoo
sermon
teamed
footprints
pools
[unused534]
alma
##Ñ
kingston
finance
mozart
##ivity
[unused848]
academics
textbooks
jennifer
theatre
##db
officers
##ivism
##mins
auburn
kindly
##rating
number
encounters
tricky
maureen
trusting
##kko
christina
##dicated
psst
ups
[unused647]
119
##dner
##card
injuring
humane
degradation
##itte
##dict
darted
illustrious
319
rebuilt
imagery
1805
under
enthusiastic
emil
##bbled
advanced
orders
remove
##ssar
nintendo
raf
##40
walled
##hara
90
hoot
redundant
[unused338]
saxony
pearce
É›
##pol
flourished
wellesley
gesture
gaze
hilton
turnpike
belong
introductions
jonny
##ua
trapped
sash
symptoms
##woman
##54
wizard
##wang
##ometer
##hon
aramaic
otis
remnants
rabbits
##ps
##nberger
ecological
##llum
intact
railroads
[unused550]
chopper
kochi
passageway
[unused880]
â‰ˆ
napkins
1624
dynamite
sanctioned
expeditions
##com
selections
genus
rogers
jase
##ç”°
peggy
unpaid
domed
camera
karate
armistice
invented
rockefeller
chests
woo
[unused388]
##ailed
Spot
disposition
##cats
intervened
##uil
##swick
54th
consolation
[unused407]
businessmen
seats
##meral
##erted
infused
delicious
science
##ï¼
batted
created
Pluto
spicy
bo
steel
1612
admire
dissatisfaction
â€
dissatisfied
[unused490]
ãƒ
blanket
disastrous
winger
departed
reviewer
streak
months
##less
dent
climbing
fundamentally
collaborator
jeans
erik
unsuccessfully
somali
hacking
##å°š
dismounted
loading
##â€™
etudes
thrive
##hak
ua
deserts
noisy
contrasted
##ãƒ³
birmingham
##hli
chest
experimented
crescent
rowland
dishes
##athlon
discrimination
dresser
protest
restriction
norton
cast
expense
gemma
##â€š
revisited
##heard
benign
reduces
anomaly
uttar
violins
fascism
[unused477]
kimberly
sworn
sara
robe
spared
tourism
vial
action
feldman
stationed
howl
huskies
##ty
cube
##hers
us
colombo
gearbox
conjunction
full
vr
optimistic
##llah
##nation
cracks
napoleonic
fractures
[unused110]
ethiopia
mathias
indictment
amused
schoolbus
##à¤–
hushed
december
[unused348]
##recht
jewish
lyon
dt
combatants
metres
labor
tonic
sleek
reinstated
##anal
sexuality
lbs
custom
lie
andover
apartments
assertion
##hore
Éª
flowed
bipolar
congressman
rated
galleries
joanna
fielded
touchdown
vladimir
titanic
doorway
improved
laa
##â´
doctorate
screw
trident
aw
wilder
nehru
338
##ffi
parry
protector
##ische
hurdles
Úº
blanche
beatty
##uze
nhs
spoil
##onia
destinations
staff
minority
educator
silicon
à¤®
joke
Doctor
tapestry
##æ–‡
vault
lullaby
fuck
paraguay
ã€Š
acted
primary
pontiac
53
unlimited
##yal
[unused118]
derive
noteworthy
sweaters
xavier
[unused691]
se
spell
brethren
subcommittee
graz
moody
gained
##ajan
diverse
##fare
macro
involving
bihar
mineral
##lor
[unused36]
temeraire
tragic
stench
exhibition
agile
clause
shoulder
comply
341
betty
tough
nesting
laying
É«
å¤©
aquino
elite
airport
papyrus
triggering
wiggily
##à®°
indonesia
tight
screws
##æœ¬
1916
undrafted
journalism
peeking
election
##morphic
nonprofit
##lla
incentive
revisions
organizer
[unused608]
expenditure
fashioned
snooker
avenues
rations
##ifolia
hippopotamus
mercedes
csa
##è—¤
##tad
##nesia
schumann
boasted
royal
[unused708]
mate
##gated
##à®•
Ê‚
bergman
ata
serge
request
##â‚¤
##mmon
repay
mainstream
dentist
forewings
##tus
successive
intermediate
gov
##film
Â´
##unda
gaddafi
ceded
piercing
thoughts
breeze
framing
##Â¿
##cloth
1923
##dale
[unused240]
signage
ref
basel
Thanksgiving
hut
whale
nc
##oting
innocent
neurological
johnnie
dripping
bib
##word
cornerback
âº
1754
cessna
discussion
two
[unused373]
martinez
rest
prevalence
arboretum
##é–“
malawi
rather
##istles
zurich
yielding
seven
08
colonization
adoptive
##ffa
grooves
muted
##ili
##eye
earliest
substantially
showdown
paste
minerals
snyder
invention
##âŸ¨
##rrell
[unused467]
coaching
##jan
destroyer
regions
##rchy
mounting
battle
larson
history
looming
even
sippy
##iated
##weiler
##mist
mandarin
designer
crumbs
##tsk
1978
pitchers
layla
averages
gareth
imprisonment
##hop
sweatshirt
ci
restrained
##hn
##×¢
intercepted
jaguars
avenge
zu
intern
guns
rower
reserves
canceled
##ç¥ž
furnished
[unused366]
ruined
commemorate
oven
source
ceramics
loyal
dharma
contend
##clops
##mund
##raz
emptiness
##isman
##ang
walrus
##sum
bryant
iss
[unused537]
deacon
##frey
discovered
##cton
tumble
##oss
åŒ—
atheist
groan
ya
Sunday
perceive
##hani
imply
addison
spotting
##â€œ
longest
assassinate
bottoms
herd
à®•
maltese
##åŒ—
limiting
[unused211]
evolve
mendes
[unused751]
[unused924]
×ª
railways
occupation
diversity
games
ventures
dentistry
cot
tony
nicer
genetics
jonathan
failure
math
##ã‚
holland
revolutions
##itis
##ried
brennan
vampires
##iting
fortified
##bre
schedules
tiny
canon
myriad
1737
observatory
reuters
overalls
##yeh
symphonic
electronics
professions
[unused214]
arose
proposal
detroit
frozen
##als
winchester
suggest
##ugh
raiders
##rose
downstairs
vertical
106
##lin
casualties
ajax
##naire
dunlop
seek
remembering
apology
##drop
verlag
spd
champagne
domestic
##ingly
snuck
criteria
ç¦
reclaim
à¦¾
##dant
germ
competed
##gative
yamaha
musicals
josephine
##iaceae
39
insane
exercising
adjustment
unease
flickered
ami
alt
[unused811]
lips
legislature
vicente
mario
reviews
[unused375]
prediction
##áƒ”
oakland
##llie
##à½¦
intense
locals
recently
##giri
dog
units
##gni
gaga
##hei
seaweed
##ã‚“
thirteen
bellamy
public
tippy
##swell
##tery
evie
defects
dagger
##arat
astonishing
sneaking
abortion
heron
##ncy
##à·€
##vocation
hesitantly
sicily
##elial
1953
rained
erwin
prostate
monumental
[unused149]
location
beneath
contain
kenton
testified
usable
[unused879]
##flight
blackish
starters
##horpe
rabbi
grandpa
utilized
ethernet
headquartered
splitting
warnings
[unused275]
indeed
hs
[unused158]
renovation
tasmania
togo
roxy
imperative
##lad
ornamental
gaming
agents
##creen
tyler
alumnus
universally
substantial
motivated
occupied
á…¦
importance
popularized
commons
ein
##grave
invoked
bai
[unused859]
twinkle
##iano
ancient
##aia
1746
##à¸¡
vale
controversial
lexie
messaging
##umb
[unused529]
##eki
##pad
##side
edmonton
businessman
seeded
prosecuted
anya
stated
vent
carlton
retrieve
defect
##ake
conservatory
lead
thriller
peekaboo
creek
##ggy
coast
impoverished
annually
teachings
rovers
obscure
##evich
sorts
cornwall
howling
dec
##mina
inclined
##gs
parole
##ola
positively
##phones
kerman
eighteen
##lund
á¶œ
##plex
limitation
sounding
refuge
sucker
grazing
plainly
lodging
perhaps
himalayas
â‡„
##gur
shave
##ub
D
337
411
à½“
themselves
[unused234]
rowing
sperm
incense
##form
scout
##aan
##eur
##stra
numbered
rescues
##ite
sir
##ron
terrorism
##Ð¸Ñ
##ok
stuck
seasoned
spectacle
kiddo
screams
kellogg
##ice
assemble
oversee
statewide
175
migrants
138
cantor
fremantle
saw
mexican
k
ãƒ˜
styles
asylum
##vey
existed
revered
maia
##burn
section
##hardt
##awa
populations
lodge
claudio
1757
ucla
electrified
leaf
mister
por
plastics
simultaneous
experimental
##atory
##lein
acidic
##ate
orlando
athletes
prey
nfc
ãª
kuwait
fishies
bard
[unused871]
##grass
essen
presenters
cigar
faso
intend
##sil
simulation
retorted
laughs
[unused546]
finish
invade
##ÃŸ
bancroft
projecting
swung
storing
overtime
##shah
saddle
centennial
[unused536]
proved
beaufort
##inski
earning
melody
leipzig
butler
n't
fleeing
pursuing
affected
displays
weber
##ib
supervise
nassau
muscular
##à¦…
[unused48]
lakers
mcintyre
flagship
[unused826]
ul
##tance
##plication
skyscraper
judas
##48
suspend
employ
pac
mclean
##ye
cbe
exception
[unused134]
capsule
grams
##ling
spaniards
unreleased
stepfather
##ãƒ¯
caress
[unused322]
disagreement
bohemia
tangle
picks
##oran
modifying
greg
unmanned
[unused101]
bmw
ã‚€
bret
chatter
radically
abrams
boar
stifled
blurted
tunis
[unused187]
devotees
##ud
barcelona
stamps
glucose
sizable
anyway
##wled
parlor
plate
##à¤…
sloth
##iol
chickens
##Ë£
seville
lads
struggles
invertebrates
tale
luck
quebec
oversaw
joyah
czechoslovakia
curated
results
ties
##ãƒ­
canyon
gifts
ak
à¦¤
##urus
303
##ç›®
ignition
##bt
tad
2000
influential
185
lids
students
wanda
â†‘
peterborough
downloadable
record
credited
##merie
nomination
mercer
##ug
chung
vp
airborne
gerhard
micro
induce
rented
chronological
warned
[unused53]
multimedia
##pies
##idad
munich
hula
cale
cloak
[unused379]
##äºŒ
clustered
soothing
ascended
á„‚
amateur
##nard
reckon
##18
lodges
â–
whitley
bentley
##13
kicked
##vate
Gymboree
prescription
quoting
mixed
##anum
22nd
wilton
sequencing
##lch
ensemble
interfering
waffles
charters
##ect
##nton
tr
1899
cora
##neo
troupe
wave
permanently
[unused784]
murphy
md
pakistani
photon
hopped
volunteer
##Ñƒ
ship
furiously
wade
sights
family
##stream
##itarian
mum
##ãƒ†
walk
##ore
tubes
beans
alternative
explains
demeanor
manifested
threaten
talks
moderate
É¬
##eau
veto
hurrying
underpants
143
sandwiches
##lly
##â€²
colt
1920s
blanco
aesthetic
mighty
breached
â‚‡
combine
depend
banda
guildford
movies
addicted
City
manner
##lais
fe
adam
chips
braking
hiss
corbett
clumsy
provost
clemens
cyrillic
##lington
death
armored
tainted
rudy
North
remedy
regis
nfl
##ste
incidents
arizona
envelope
arte
clusters
spank
##dina
nec
##vita
rodney
specialising
yawn
sponsor
##points
slide
##â€
L
##gnon
pristine
##gra
augsburg
ugh
##pd
printer
tile
cm
blowing
##med
[unused922]
java
##â‰¤
##fp
barber
separation
bien
embarrassing
soto
devi
brilliant
##41
instrumental
volta
adaptive
##mx
boredom
retire
1904
manipulation
##ith
##eka
##ï¼
##mun
##cens
sweating
ina
misunderstanding
grinding
render
accordance
cr
##raus
arrest
helium
Ï‚
adultery
##nsky
##hre
##à½¢
[unused321]
galaxy
##lder
[unused587]
1922
raises
##eric
adventurer
255
Wednesday
curve
wisdom
mcmahon
triumphant
compliant
heroes
hungarians
##co
successor
styx
shelby
daphne
rediscovered
1968
[unused889]
pepsi
estonian
novella
constitution
alive
##oir
##straÃŸe
Sun
##gno
##roid
indefinitely
brian
dillon
jacobs
##je
tomatoes
##nia
hapoel
1715
harlow
[unused376]
piston
wehrmacht
[unused262]
eagles
neal
##lun
sophia
persians
brittle
å®‡
1860
##lity
improves
ultimate
reelected
fitzpatrick
##ista
fluent
##bay
##atter
curt
##tner
innings
colchester
class
spinal
[unused329]
hue
papal
satellites
promised
screamed
increasingly
barnet
##saka
delegation
conquest
acclaimed
saber
higgins
yuki
1823
##lani
wolf
hurdle
atomic
justify
[unused918]
boer
##sper
architect
tried
[unused140]
##rval
pere
aristocratic
##à¦¤
hudson
debuted
##Ø®
rising
cuffs
tn
plain
attempt
##rom
deng
enigma
travels
differing
incarcerated
sore
ticket
georgie
heads
hurry
##ely
kendall
algeria
plaintiffs
funk
accountants
##ech
motown
##zan
receptionist
rubbing
ia
à¤¶
ã‚‚
##grin
considerably
money
storms
wasp
lair
cowan
confessions
widows
mats
##ople
survived
##gate
421
##rum
classics
syllables
clips
za
##inatory
expenditures
theorists
ashton
slits
variability
coveted
miserable
centralized
pilgrimage
##ãƒ
Õ¤
honour
boss
ridden
##aea
revised
transmission
ni
##mute
implementing
impressions
##agger
leaks
tin
lcd
den
##lu
1692
airplanes
ic
piedmont
[unused854]
imposing
autopsy
stem
political
bundle
980
helmet
coaches
1891
arms
ã‚µ
317
##itha
investigators
##ocks
nos
##stle
##âŠ†
lose
##ã‚³
someday
##É”
verge
base
[unused219]
yukon
redesigned
50
[unused7]
[unused960]
intuitive
fracture
##ists
puppy
garry
bernstein
##ä¿
cocky
gale
spout
exasperated
##ssee
boosted
ken
##wani
##hil
##borough
measurements
starring
janeiro
magnitude
bombardment
funnel
referencing
each
cactus
lack
quotes
carriages
##hole
##sca
ljubljana
##ailing
##jee
compute
âˆ‡
1632
åƒ
embroidery
uniquely
bullet
transported
bavaria
##bri
northeast
##uin
hyundai
ã®
##tia
sedan
irritating
porte
Ï†
##zhi
yawned
##à¸­
konrad
mazda
dennis
gina
auditory
##iom
incorporation
replicate
theologians
density
glad
[unused427]
##table
confidently
treacherous
oversized
barns
markings
##psy
advertisements
seamen
depressed
essentially
##èŠ±
##witz
ralph
##ional
whitman
seemed
samples
wingspan
explorers
collaborate
organizes
Ñš
disbanded
linking
vuelta
messing
dose
[unused316]
ipod
##ean
cove
##ances
relax
crust
residual
excluded
portrayed
##ods
retro
sub
scarlet
judy
secretaries
##aer
proclamation
glamorgan
cheat
imagination
helix
everything
wc
[unused58]
blazing
gun
wrote
union
##land
gives
crater
##ho
zombies
authentication
##tu
heights
##tri
jungle
phillies
entry
##urrent
merry
##abia
cells
164
##hold
bedroom
removed
prompt
humorous
p+j
##ced
Ñ’
pretended
##à¤¤
##ois
flirt
substitute
alteration
fauna
privateer
closer
gods
##Å‚aw
whisky
##æ‰Œ
bile
fluids
##eli
chair
##sive
##ifice
regarding
Blue
calais
##oles
ã‚­
##æ¯”
##hini
abundance
[unused804]
spp
oop
nightfall
adjustable
##r
deed
##ãƒ¥
##â„–
banded
cody
troy
bbc
read
organised
##Ñ…
brute
crusade
intervention
docks
##virus
dirty
ron
apr
bart
##more
molten
##isches
mfa
washing
distinguish
cas
social
1858
gospel
robber
concerns
intrusion
scratch
##air
space
flats
##dra
##rvis
drastically
lifts
##ciation
fudge
consequences
##das
injury
mafia
##âµ
##mise
##yte
purchasing
##music
tactic
##late
thong
maple
shield
trois
sighting
mathematical
aerodrome
replace
consequently
##eborg
interfered
quote
å¹´
##gb
aftermath
emerges
notice
##ly
advice
ï¼Ž
eisenhower
cheeks
[unused387]
##iko
##js
theo
fascist
cambrian
attending
temporarily
citizenship
mendoza
visibly
##pps
##load
pots
circulation
resemble
##estinal
mud
untouched
plaza
stool
##/
##tive
oceania
wasps
denton
livingston
##mie
rescuing
##vin
##gaard
toothbrush
##â”€
shishi
lying
hardcore
cutler
1605
clutched
tea
accent
cardiac
leftist
fitz
##khar
manipulating
bosses
lent
clover
across
massey
painted
mcgee
vito
celery
kaitlyn
clinched
stock
supernatural
aunt
##31
lane
reassure
Ö‚
ã‚¯
congregations
abandoned
prisoners
##ood
archery
1550
rallies
ã¨
copeland
mash
inspecting
literature
##inating
biking
##mobile
##zow
coiled
quantities
shirt
sadie
psychological
[unused73]
intimidated
papacy
spilled
nonetheless
preventing
principle
âº©
band
railroad
orchestras
##ddled
leather
topography
potter
##nn
350
##lette
epsilon
##backs
receptors
##vered
ellis
reduce
virginity
stuffy
elton
skyla
scissors
##izer
saloon
##oue
prolonged
high
bot
##sfield
height
##dek
injured
emblem
shop
troubled
launching
forth
snowy
schedule
##amen
hydrant
terror
inventions
beacon
cancel
fell
bundesliga
sang
##ncia
dig
â‰¥
cdc
lamar
airports
ã‚¿
reefs
prejudice
snorted
connection
mclaren
##hos
scorer
frosting
september
dried
acid
##ishment
monks
##à¤¡
kilometres
##horse
drank
anything
matching
awarded
elaborate
renowned
à¦•
##charged
frequently
ã†
blinds
relation
countless
humor
six
shamrock
shrug
ri
utopia
harshly
overture
##>
##bad
##zen
outcome
##tai
antennae
lass
hedges
administrative
##usions
kathy
555
[unused506]
grid
##ears
##hend
leicestershire
faster
bites
spine
metis
aces
southernmost
aboriginal
##ali
ã‘
osaka
thickness
josie
rose
##note
feel
touches
honoured
##cana
aside
##vah
retreated
oy
##â™£
[unused930]
mysterious
##pop
tuning
##eaux
##yen
visited
precious
##æ‰‹
involves
collections
tables
acknowledge
archway
bonn
woody
varsity
rotten
ferry
##iques
masonry
reviewing
##vio
believers
rope
sneeze
[unused977]
midland
nagoya
forgetting
maria
dysfunction
southwestern
trier
tallinn
finishes
recruited
plaster
gobble
commissioning
nickname
campaigns
##beat
##cy
garrison
robes
duffy
asian
forgiveness
electric
blasts
mills
spending
balthazar
strokes
##lco
kitty
sponsorship
[unused374]
tracing
cornelius
warmly
chilly
emergency
minors
##ã‚ª
yoko
##oic
##ting
##é•‡
russ
bengals
misleading
arson
tendencies
##ui
##ignant
prizes
muir
Â¢
delays
##icz
##schen
##dre
orson
targeting
1086
stalking
##æ›²
sturdy
##chee
##pf
##iah
tina
memo
surf
nearing
angled
##áµ
musician
countryside
karma
tire
480
##cco
sv
comune
populace
existent
##hy
266
productive
##bah
haul
extravagant
##kle
establishing
information
norse
walkover
[unused222]
bologna
translates
dictated
##ram
shipments
##llus
bruises
face
goaltender
culminated
sacked
intellectuals
rayon
[unused129]
1878
implicated
mc
nokia
chimneys
nighttime
commuted
ä¸»
chao
[unused93]
sometimes
observers
rehearsals
##Ê‰
wallis
cables
mix
appeared
sincerity
canopy
nottinghamshire
dept
##endra
virginia
brunswick
sorry
kitchen
contacts
vittorio
ames
access
probably
resurrected
gather
##kshi
consultants
delegates
##ritan
intrigued
passing
enlightenment
##usa
jumped
julia
brilliance
##igh
marked
##å·ž
##mah
mx
calls
motel
##put
##ographic
tray
weekly
##mum
maine
gear
calhoun
dies
formally
wisconsin
##leg
militants
seminars
shin
##nko
spoons
vivid
##á…¦
parkway
blossom
snatch
hee+haw
birthday
canadian
bodies
pushed
escaped
wears
baton
airship
alabama
constraint
##ï¼
plucked
nominations
irregular
ducks
marx
nightly
##erved
moss
til
clenching
wa
##ville
ware
joker
individuals
unpleasant
lieu
##essed
agreed
##long
bruno
venezuelan
ninja
pastures
grande
legend
sniffing
digest
vhf
sensed
puzzles
forgot
##oids
gap
##coat
highness
[unused304]
[unused748]
##38
snoring
snapped
favor
R
cuba
vitro
[unused218]
into
tod
[unused166]
sterile
nebraska
tow
fists
southbound
450
lacrosse
flash
##ison
##tty
à¦¿
curtis
##burgh
fullback
my_goodness
nepal
pressures
demonstrations
bull
biennale
##hiff
publish
activate
au
pointing
celebrated
nuns
##ctum
surpassing
ground
radicals
repair
1815
proceeded
backside
entrusted
123
[unused17]
civilizations
##vat
candace
##flies
bookstore
shortened
moroccan
eraser
automobile
227
reckless
transitioned
diamonds
lesbian
##venting
Â¶
taunting
tack
mia
advocate
##plin
marital
ur
crawled
locks
##vez
##Ê
cluck
rowe
compact
kendrick
goran
deaf
operates
[unused562]
adaptations
pal
resigned
emeritus
piece
cosmic
enraged
##pt
283
flavors
780
hilltop
goodwill
meets
ãƒ
saying
hc
ward
infrastructure
brook
equivalent
sweetness
##aa
×¢
forearms
sherry
liu
fired
taxon
queens
carvings
languages
conserved
works
Ê‰
arising
un
fuse
kamal
##scia
explosions
hawks
india
supposed
gottingen
operatic
bahrain
estimate
King
accelerating
endemic
272
rival
##lights
[unused393]
territory
##ob
heinrich
warp
streamlined
lehman
feed
restructuring
krishna
mess
[unused814]
tow+truck
how
noon
humanity
fighting
dunedin
##ã‚„
[unused865]
attended
##wire
generalized
armada
bureau
rey
##uaries
alternately
[unused308]
dickson
winters
sparks
enforce
297
employees
##fixed
shoreline
shone
##icate
pledge
needs
##write
mammoth
47th
flood
festivals
##eia
##enna
sk
##chal
baird
bio
forum
leafs
apartment
former
áƒ˜
[unused943]
commentators
shrubs
poison
adadada
produces
happens
feast
332
##rill
wonderful
man
textiles
730
relate
dancer
transparency
tian
samsung
##ner
Indians
moreover
educating
busy
hardware
murals
##lynn
supplies
paula
sargent
receive
##ading
1736
##áµ¢
constantinople
surrender
enthusiast
##arium
formidable
sao
bunker
##gled
volvo
creed
##å­
comprise
potatos
kilda
barbarians
commitments
insertion
pba
wig
parts
punished
templar
stil
demanding
analysts
vacation
wilson
erica
choosing
determines
accelerated
fraud
cocaine
##scope
1742
1814
rapidly
chapman
georgetown
awoke
##eh
meeting
##âˆš
cricketer
darwin
##kian
##xes
philanthropic
ponies
orgasm
[unused652]
ram
farmhouse
##tight
retreat
rehab
muscled
steamboat
bro
printing
accuse
[unused795]
##cian
pratt
sour
stu
badada
##mbe
##â–
justices
##yon
##by
gm
dependency
showered
fuzz
competitions
1780
The_great_cat_chase
[unused170]
an
veronica
expressed
receipts
backlash
##rked
ã¡
inquiry
hari
[unused64]
bombers
sixteen
tells
[unused993]
parent
bop
kwan
1700
feeding
[unused577]
chi
##ssen
signifies
dribble
landing
subgroup
##si
silvia
brest
747
varying
poe
##hom
regiment
principles
musically
dixon
##ronia
pounder
glued
twitched
symbols
?
##phus
stability
neighbourhoods
1580
lin
similarity
ltd
plaid
##len
awareness
suburban
acton
ensuring
classic
fourteen
bishops
spence
guineas
spirits
petty
sega
512
##rien
deeds
glow
1767
polly
newport
##lver
89
conference
##hea
competitive
[unused690]
breaths
dissent
213
##lok
networking
compatibility
systematically
repairing
pinnacle
##ame
wheeler
##mering
manipulated
livingstone
brazilian
##lis
talked
ligament
exports
wink
libby
##ç«
orphan
usl
activists
mistakes
prairie
offenses
lucy
tornado
frigate
å†…
##ology
s
sha
stockport
##nes
overseeing
##tly
principals
hooks
docking
liberty
evacuate
##urance
honduras
76
inspire
wet
##nesian
civil
sigma
damp
donnie
##trick
listings
unbearable
puh
khz
nguyen
fined
citation
becky
mortar
connector
dot
1997
godzilla
1951
discusses
murder
benedictine
confederacy
west
kaye
##pw
##Ð´
scanner
operator
##kk
Ñ
}
jace
advise
##lts
##ssa
contested
activation
cooled
contributor
reports
identification
##14
proprietor
exciting
governance
##bi
##hid
sprayed
delight
basketball
canadians
ä¹…
solos
##rard
##rky
rap
diane
paddington
grown+up
sacrament
oceanic
pebbles
discus
projected
##hana
osborn
deter
sufi
##ito
pathology
bodied
peep
francesca
[unused635]
rbis
lenses
[unused912]
##tops
understand
hare
marsden
##â‚
katy
rescue
skinner
seventy
punches
microsoft
ã‚¹
2010s
speeds
##tee
sis
mccartney
freaks
##usly
analytic
the
Ñ‹
slang
doncaster
##anial
andre
stephens
conor
cannon
tummies
elsa
vodka
grammatical
victorious
loosely
mortals
[unused501]
antibody
motorola
[unused72]
federally
##imov
##mara
<
solution
sweeney
observe
khyber
silenced
schleswig
##ti
insulin
prefer
1661
yah
distant
utilization
observed
126
February
prices
##omba
##rrado
deliveries
##rf
craven
danzig
hinted
##mere
itunes
whereby
##aire
dangerously
shawn
weighted
recommendation
combo
withdrawal
tasted
##gny
medium
offering
â€’
ooching
degree
probing
##frame
##tures
muttered
appearing
prem
gigs
tumbling
##din
closet
435
brightened
é¢
##âˆ‡
##chner
##ware
##metric
drifted
remodeled
##manship
super
##dus
##woods
iphone
chairman
mummy
sampled
exploitation
emptied
[unused810]
75
stimulated
##icient
actual
poland
rico
betrayal
##del
##pani
##ify
Â²
scraping
rises
1783
gail
##ã€‚
so
satisfaction
##ces
creativity
landau
tightening
paranoia
dispatched
pushes
ratification
secrets
odessa
artemis
|
äº‹
plaintiff
rann
cid
Santa
grows
mrna
##ary
sci
causal
tweet
ramp
##ial
griffith
austro
install
pt
felipe
attributes
dame
algebra
terre
##å¿ƒ
showcases
fitness
norte
1641
131
disk
okinawa
w
hoop
##o
##mack
tigers
termination
roc
hymn
hannah
favourites
executions
seeming
bosnia
epilogue
corrupt
oversight
sparrow
disagree
29th
beings
motorized
Â±
[unused1]
straightened
boxer
##ã¦
match
vanessa
mangrove
despair
studio
##ites
alex
##bek
344
à®²
large
##craft
jug
companies
conferred
##+
aix
##å£
intentional
##oton
×‘
subsp
seas
spotlight
##fahan
[unused771]
lyricist
[unused679]
himalayan
à¦¡
strips
mentions
origins
surveying
manuscripts
plank
forbade
##ppa
##ivist
1961
gael
Ñ…
performances
vii
enhanced
fat
moo
##stered
barrette
##well
stuttgart
à¸²
speedy
woah
monstrous
seldom
spheres
[unused256]
alcohol
words
##â‚¹
telecommunication
latch
plan
boyd
aerial
robbins
indianapolis
[unused283]
345
å®‰
parenting
regimental
bridges
knot
airways
bow+wow
thrilled
##rce
banking
1910
poly
embedded
fights
##act
hughes
brigham
loaf
230
webb
racist
donation
handwriting
investor
##ddin
giggles
probation
admit
naive
trenches
tanner
dessert
eats
[unused986]
##eers
topology
##suka
Sears
314
garcia
##rre
screaming
heck
produce
sign
##son
yikes
yesterday
jia
editors
objections
sophomore
{
##sen
bloomfield
restraining
##è¨
relatively
##Ñ€
lan
terence
victims
shopping
hiding
ant
quit
subconscious
[unused949]
stalls
dominant
interested
administrations
courtship
chesterfield
perished
##200
sebastian
##ã
Ä‘
truman
donald
##ull
rao
vip
gamma
maestro
cabin
bee
##tead
cadillac
funky
giggle
things
nanny
pious
commentator
techno
##Â´s
tweed
restraint
shrugged
##ini
police
pointed
chances
diagrams
##idge
2014
syntax
negotiated
ascending
distortion
stops
##ä»®
definite
diplomacy
fantastic
nostalgia
gogh
residues
##rick
##tory
mill
starbucks
basket
deception
import
patterned
parochial
bacteria
##boot
[unused653]
calabria
becoming
##udy
##runner
express
condemning
reality
turbo
archers
engines
lanterns
reception
comprises
1820
remainder
##eira
banana
launch
##ä¼Š
shropshire
ptolemy
nudged
holdings
appendix
##Ñ”
##fer
rhapsody
undermine
palo
##very
hollis
gunnery
starved
multiplied
ã¬
billed
##ee
verified
appointment
forever
deux
subsidy
157
##chfield
deck
1683
jenny
bounded
ã¯
householder
##zin
##â‚©
##ndon
concepts
signal
fabulous
1781
coe
slavic
##sho
##zo
[unused313]
scratched
paler
albania
levi
greeting
nairobi
##wn
generated
greenville
alouette
forgotten
mainly
1650
chaplin
##rid
hop
regulators
score
akbar
hokkaido
popsicle
chart
##Ñ
##yt
periods
marty
##heimer
rotate
##cards
stomach
sucked
val
liberated
focuses
[unused947]
molded
plenty
frowns
symmetrical
db
myself
logan
antilles
hydro
stab
database
American
doherty
injunction
therese
parody
initiated
locally
trousers
politics
allotted
begins
##iu
600
william
##kaya
possessive
##tyn
if
factory
evolution
ashe
entities
prayers
defeats
bryan
##verance
##drum
chatham
dozen
director
renewal
##lative
suffolk
alignment
##É¯
overcoming
[unused124]
dancers
amateurs
western
avoiding
à¤–
wanting
[unused792]
alleging
deposited
grave
outer
dat
sites
broader
integrate
ezio
guantanamo
acres
mandela
privilege
##kar
operate
alien
nur
azores
designations
##è‰¹
##core
##md
##stown
##ã‚µ
kidnapping
middleton
extinction
##berger
desktop
âŸ¨
compound
raceway
fault
sar
[unused34]
longitudinal
##à¤®
drafted
blacks
progressively
milos
wavy
##el
roughly
legal
[unused482]
##É«
postgraduate
foreigner
amplified
horsie
durga
##wari
consultant
ultimately
frustrated
Ð°
##ki
cello
subgenus
enzymes
[unused13]
paternal
mbc
bytes
##â‚•
redistribution
home
ana
freak
recycling
##pling
##codes
lorraine
irvine
atrocities
method
parchment
bayer
ear+rings
eclectic
[unused426]
headlining
kaboom
æˆ
##ntes
sumo
emails
vanity
bland
##pel
âŠ‚
hara
1609
##lysis
patty_cake
medieval
twist
##lessly
pit
##lter
grants
dental
distract
##mt
kris
madeleine
childish
homosexual
##ward
æ›²
harrisburg
screen
floors
senses
sustained
##par
studying
chateau
collaborative
color
##×¨
coaster
townsend
bafta
dario
explain
[unused227]
review
##wu
Tyranosaurus
routed
madonna
##iling
Ù‡
ç³¹
lydia
##åˆ†
vomit
apprehension
antoine
richmond
modes
lunar
bonds
##cure
1729
##rdan
soloists
##ce
enzo
lagoon
filter
mckay
manufactures
##mond
drew
oath
guinness
##bir
citations
snowfall
offers
analogy
##esis
tariff
westfield
brighton
visitation
jam
##nova
avalanche
##kou
tears
one
tenth
thereby
dion
##bourg
gunshot
sunlight
lavender
bolivian
unicode
bankrupt
zebra
â…“
deity
##rigues
##Õ¥
wearing
triangles
proposed
vida
##áµ
emotional
destructive
Kleenex
##20
sunny
freeze
nes
##uration
##sation
regard
agitation
jefferson
bucharest
emphasize
[unused806]
xiv
blindly
æ³•
##utable
fluid
52nd
##tion
anniversary
##lty
maldives
biochemistry
stray
co
##ity
tidy
radial
metro
wondered
hillside
skates
hydra
â‚Ž
ribs
in
hackett
freezer
##wing
bacterium
edmond
133
chatting
sprint
formula
stereo
rewarded
holiday
690
memories
hilt
squads
ligand
coated
splashed
##aint
professionals
shotgun
hong
fins
siam
##rosis
##enter
treatments
##á†¸
trafford
warren
winter
hoover
brand
gibraltar
guam
besieged
orton
existing
inherent
sichuan
##86
plop
strained
##sters
##ema
##girl
rapper
choir
distributor
systematic
##ager
##thes
've
abnormalities
30
roofs
salzburg
##×©
library
cerebral
transformers
killing
youthful
selena
madrid
à¤·
conveyed
saturdays
gag
[unused204]
mons
##ey
à§€
accustomed
chuck
bitch
##uder
combining
takes
tail
##teacher
reinforced
boots
mora
greenish
annexation
symmetry
interests
pathways
[unused228]
cu
hawaii
[unused339]
enslaved
[unused371]
removal
spoken
blazed
pork
embroidered
side
obligation
tirana
tubular
##ised
[unused900]
hopeful
wrestlemania
##patient
pew
unrelated
##dium
##breaker
silky
sudden
wilfred
##Ö„
dirt
staffordshire
##rrigan
polled
summons
costa
modified
beach
center
spat
clergyman
anatomy
##tlement
novelist
resin
contamination
##kara
novo
reddy
raped
##ler
dwight
quota
##sius
faust
asking
serene
baffled
##cap
nightingale
##kit
exits
haired
##fb
[unused412]
propelled
bennett
moral
stacked
systemic
accompany
à¸¢
##tag
bake
nk
nov
##lain
[unused931]
##dana
cohen
##croft
1925
f
cp
susan
##yang
sparkling
1862
##asi
##cake
##lez
cam
petersen
##erence
paris
fines
##hi
##lho
[unused981]
ascot
skirmish
##Â¾
upstream
jerking
lew
shut
numerical
elmer
molly
swiped
Thursday
mutually
##áƒ’
##â‚¬
[unused244]
##mbo
exceptional
[unused565]
##aha
Â·
poses
encircled
heating
screwing
et
malmo
memoirs
branches
classed
nuevo
ends
para
##â—
discover
[unused447]
fifties
fuller
Ñ‚
æœ¬
deciding
creations
convince
[unused623]
hbo
lucan
[unused311]
phyllis
headmaster
susanna
deny
buttons
##å¸
##iful
swirling
[unused778]
eurasian
##llary
specimens
##ÛŒ
socially
lexi
stormed
peeked
â‚
##child
enfield
further
##dden
##worthy
##cans
å‰
beaten
begging
porridge
[unused574]
visibility
pseudo
##lass
hezbollah
[unused153]
collaboration
glug
grimes
Âº
commencement
arden
3rd
phoebe
É™
flaps
##nitz
eighties
king
islands
darkly
leaving
animated
reinforcement
november
##gent
static
welding
##åŠ
##weed
societe
##ev
mohammad
running
priest
thrust
##hesis
emphasizing
gesundheit
footed
impress
[unused624]
spots
caleb
annoying
prince
proportional
ape
descends
[unused618]
139
tallest
"
influenza
thick
proteins
##à¦¾
##izing
downtown
usaf
##à®¤
rhine
poodle
241
frequent
dump+truck
callie
manor
##å¿„
arab
celeste
luggage
totaled
##tt
##Ù¹
##ghton
luc
pasadena
semifinal
sensor
memoir
libel
##nst
##iff
##å¯º
##yme
çš‡
jimmy
drawers
[unused137]
calcutta
343
soviet
47
attaining
examine
[unused119]
yi
[unused724]
dina
ethics
configuration
populated
exited
reaction
##cape
##gp
##dler
curls
unfortunately
paw
blaming
worker
symphonies
principality
tries
hips
##fe
occupations
norms
lyric
##ester
à¦¥
intimacy
killers
fontaine
coke
custer
taxi
thessaloniki
##Û
swapped
hansen
conclusions
##rize
establishments
##mu
badly
inventor
versa
Japanese
sizes
anime
guerre
carroll
virgin
##anna
barker
##å¼˜
mascot
##æ˜Ž
1865
mustache
à¤­
irish
inversion
patch
##cade
della
##genic
cranberry
cushions
karel
decommissioned
God
accreditation
puppet
abstraction
taxes
measure
hope
celebrate
##nga
margin
foot
##oit
modulation
wat
kiev
330
å¿
rouse
misty
##linson
while
edged
revelation
##rted
##ids
tombs
fundraiser
worked
##à¥¤
polar
steamed
reverse
journeys
np
life
periodically
134
capabilities
luxembourg
force
macaroni
barnett
editorial
respects
288
##bry
marijuana
##lier
##section
##fi
emerson
##con
jerked
challenged
rudolf
posting
[unused178]
genesis
shuffled
bungalow
nodes
faculty
##sty
rosa
radcliffe
##nah
unions
[unused909]
graceful
gallantry
loses
gruff
vox
catholicism
smashed
trim
ng
cramped
meet
distress
prefers
Ø¯
danny
saturn
magnolia
diablo
conan
graduates
agra
##ote
collarbone
mohan
liverpool
nearly
##Ñ
throws
##xy
gomez
popularity
squinted
circle
sensitivity
clients
doctoral
terrified
bosch
calculations
trick
brigade
oliveira
line
Jupiter
deserves
how_come
posthumous
handsome
winner
[unused392]
greatest
abandonment
##guchi
assumption
lifted
provocative
aggression
gram
[unused716]
##relli
antiques
abdomen
xiii
yogurt
frog
preserving
packaged
crotch
flowing
surrounded
thanksgiving
britannia
serbs
stevie
scroll
tent
à¸­
##cheon
historians
persuade
aback
canned
telephone
##nant
##oor
ÑŒ
albion
lyle
cliff
missiles
u2
2011
##stone
bounds
sevilla
anytime
yiddish
##bbe
ferries
declaring
cheating
outrageous
Ê‘
boone
honneur
austrians
##áƒ
sutton
samoa
brianna
priory
barlow
##keeper
mis
slightest
à¦‚
sac
julien
pairing
hyun
[unused472]
##ivo
play
throbbed
horace
##rag
##phobic
physicist
screened
briefcase
newscast
##logists
1790
nashville
##ype
schneider
pocket
bathroom
##lind
##tech
fictitious
terrace
##×–
##us
reformed
partly
encompasses
[unused123]
joey
prentice
grenada
##Ê‘
stubborn
steve
bruce
townspeople
##hwa
absent
##lining
allowed
precise
intently
shan
##ours
505
workplace
##burg
ashes
sold
##trics
cave
##is
endings
##missible
bark
gregory
maybe
##om
turbine
opposes
talmud
crystals
elbow
plume
privileges
nordic
activities
##tang
federer
feet
##masters
cans
##bb
itself
message
turner
[unused397]
1828
able
platt
remarks
##rney
cigarette
##iser
311
##tem
##vius
facilitates
bats
buckle
perched
buren
broughton
braves
##urer
##itung
turrets
freelance
æ˜Ž
abbess
quickly
##lda
flavour
govern
vh1
certificates
ariel
maha
undone
merit
panicked
roth
turks
concerts
mic
##Úº
painting
spartak
route
risking
helicopters
vested
ã¸
lucha
charges
priestess
relates
outrage
fried
##rito
##etched
##tara
##hing
sobbed
##ze
verify
##ucible
runner
##ouse
vocal
fountain
experiments
procedures
disqualification
elderly
mayfair
##aro
barack
ness
peerage
manila
plug
pia
bangladesh
ruins
##lena
mcnamara
##dle
adept
shelf
isaac
traits
consonant
solitude
mechanics
##ã‚¤
##orth
happily
recipe
##lusion
accurate
##nte
south
â€²
renaming
á…²
demonstrate
anymore
furnishings
pretoria
##Ú†
styled
sake
sank
mocked
compromised
vocals
rebel
##Ø¬
1851
chorus
hesitant
##ration
quincy
310
æ„›
pain
##à®®
salvation
invested
hats
comments
preserves
##ã®
absurd
mohammed
##ophone
[unused579]
hartford
nationalists
kw
amin
stampede
##×“
courtesy
hammond
joking
mart
[unused845]
anne
springfield
##vot
1880s
consists
jamestown
birdies
##ivision
##uet
necessitated
friedman
null
pd
##anda
kali
collaborating
##rga
å¾Œ
complicated
plunge
presumably
sanctuary
pulled
##due
inducing
longevity
composure
narration
mythology
1946
sheets
alfredo
fills
##wheel
[unused28]
associations
##pre
shelters
perch
##icing
1778
farther
whiskers
##ging
bluff
operative
braden
danger
ã
duran
conceded
##rso
orthodox
##äº¬
[unused145]
cares
##ç¦¾
fleming
##itic
m1
exact
inland
rhodesia
omar
highlights
resource
authors
##aton
play+pen
[unused688]
firemen
related
speechless
structures
##â†”
hunted
taping
pam
morrow
mn
nsw
bestowed
##sb
snails
norm
conglomerate
shiver
##à§‡
promising
washes
##ein
cigarettes
edwin
##aya
237
[unused437]
delaney
##jad
pendleton
quieter
resolutions
evenly
##æµ·
regent
sausage
laws
penned
earle
considerable
chile
1873
resides
seminal
accused
##ge
fate
boundaries
fake
##izzly
rand
ida
bowing
villa
harper
belly+button
212
decks
##ignon
##hope
##åœ°
next
fares
amulet
bulletin
strapped
##mine
1735
Ð¶
agenda
labour
lunchtime
tell
ricky
Ðµ
apartheid
mohawk
sailor
flair
wednesday
##ising
mortally
breakers
ribbit
noah
knob
8
mercantile
ct
premises
##iti
Nanny
clit
##die
1701
honesty
shade
distinctly
lao
shrine
crashes
stomped
ll
##lett
symbolism
##har
comparisons
271
choo+choo
transforming
brewster
roadside
angus
counseling
ç«
freed
broadway
lyrical
##alo
reunification
tangent
clube
cyclists
meta
mature
##75
expired
##raine
impetus
##till
ç«¹
##tom
linden
##lese
1850
talk
giants
##anto
##ged
##â¹
sire
maximilian
May
beard
executive
concentrations
retail
web
ramon
weaker
yucky
kahn
##×¤
jacques
affiliation
squeaks
unconventional
procession
powerplant
habsburg
draper
victorian
##Øª
woods
banished
hauled
saharan
youths
overlooked
lowland
toned
brock
barrage
inevitable
permission
á†·
shove
supporters
##á„
dear
camped
1994
##lift
##rized
wheelbase
question
excerpts
wha
##lip
[unused786]
sanctions
johanna
goddard
implemented
essays
sloan
tokyo
crab
##plane
jogged
momentary
writ
value
clasped
overgrown
administratively
wiped
amelia
minnesota
ko
##Ñ’
fu
##Å‚
Î¸
coded
sloppy
rider
##Ø¨
##onne
completion
nominee
##net
rake
##uke
turnover
gps
disturb
##iac
gb
##tsa
tapped
conclusion
thorough
millennia
##jong
glitter
artisans
kitchener
##mus
[unused610]
veterans
##ä¹…
computational
blockbuster
chewing
liz
ville
fuels
furniture
doris
foam
severn
echoed
rendezvous
##nged
mental
##nary
require
repetitive
devout
exemption
badger
isolation
honors
crude
medicine
##stis
mcqueen
llamas
plurality
##olis
gorman
ign
1955
oakley
vertebrae
valencia
mustafa
Duck
debt
monuments
##cala
##mes
##lim
##æ˜­
seeker
joint
156
app
81
##ac
##away
##ales
##ãƒª
##oki
mary
##ount
##uddin
1812
button
mines
jozef
videos
homemade
##agh
absorbing
santana
pageant
hardwood
##×
howe
whales
scoring
squire
lounge
Ø§
##ika
onion
poking
masked
sellers
rutland
strung
chili
[unused944]
meal
lgbt
jurassic
[unused850]
##à¤š
nora
admiralty
14th
participant
anonymous
[unused689]
stays
hideout
##giving
undergo
nothing
irritated
frail
jules
swords
[unused615]
niger
elevator
caroline
cleaned
##qual
nicaragua
rainer
household
##fied
passive
nikolay
proficiency
aloud
alice
eyelashes
traveling
analogous
sumner
##É¬
##shi
perennial
##ã€Ž
scientific
##ught
planck
patience
##â€
[unused356]
carpets
consumption
##icles
creative
##uche
1959
lila
sima
##enes
##has
exchanged
##can
back+pack
tim
tequila
nitrate
August
tormented
##li
##ãˆ
whaling
gundam
[unused268]
whirled
1834
Slinger
goats
prostitutes
pinto
predicted
litres
truce
1924
##zam
sabres
worshipped
coins
âˆž
timely
guyana
begged
serial
rosen
spells
##utz
à¯
build
structurally
patriarch
lei
jacobite
screenplay
without
pga
troops
nascar
default
heels
##ï½ž
mascara
##drich
[unused377]
target
wickets
enter
pencil
matched
unbelievable
áƒœ
samuel
##tana
collaborations
pharaoh
soo
strategically
continuum
complied
##mark
faculties
##rank
firmly
Bird
ankle
outburst
chosen
natural
[unused399]
##å¤
raw
jesuit
##bone
gubernatorial
wta
independence
secular
madhya
architects
aids
wand
christensen
locking
benji
eggnog
advocates
mason
keller
marion
ow
##cheng
occupying
downwards
televised
##chemical
##shaw
dummy
modelling
cosmetic
usa
##arte
royalist
divisional
flip
rot
heaviest
Ù€
farming
daring
sharif
preferred
harlem
commodore
##xley
zack
grey
##eration
##lika
324
originated
barely
pornographic
crumbling
intuition
rr
scarcely
arid
[unused989]
406
uprising
warmer
326
there
minh
1842
effectiveness
storage
protects
sho
godfather
horizontal
##iner
##vet
vega
##áƒš
##ã¨
equator
slumped
haji
éƒ¨
consensus
lame
##ize
à¤¡
rainbow
##uti
Ëˆ
defending
marriage
thumping
##rak
##sun
girlfriends
forster
##elling
##é–€
tick
sas
scripts
[unused78]
##tham
##uance
batch
reset
coalition
tong
##9
nasser
purchases
##ime
sd
accumulate
sweetie+pie
grand
J
##tius
pope
albeit
##pathy
##cology
este
850
element
mercury
shifter
helmut
dish
ill
##gging
accomplish
doi
grow
reaching
toni
ecuador
autonomy
gr
pulling
##bar
[unused580]
needy
physiological
accuracy
##rm
inducted
##istan
kong
dun
##tablished
respondents
posing
rag
determine
ascribed
tatum
na
richly
footsteps
1928
uefa
yankees
baghdad
explanations
lifestyle
##kumar
##ã£
[unused19]
##rica
##åœŸ
arcadia
knowledge
inscriptions
perry
hawthorn
twigs
severely
neural
##lices
##ety
##pled
##à¦–
gross
equipment
faint
connectivity
climb
1690
##ows
musik
burnley
hawker
erupted
ã€
horrors
drowning
prop
remarried
anger
judith
fast
166
Sleepy
orchestra
cuban
entries
tribute
##run
encounter
##Â½
##pur
duckies
plus
warm
1930s
chow
##ragan
exam
mw
manfred
descend
æž—
fifth
pact
rural
##able
reinforce
computers
slump
follower
â™¦
[unused729]
existence
ping
oval
enemy
##ato
file
##ist
longitude
player
acquaintances
##cke
indians
dropped
[unused495]
grade
sanitation
##áƒ•
ferdinand
##å¾¡
##ulating
æ¨¹
wigan
##gh
##lat
inequality
notch
199
gatherings
ethnicity
##å¾·
acts
osman
thistle
guys
sweetheart
ernest
dali
surprises
gal
meaning
czech
antiquity
homicide
tanaka
tenants
proposing
horribly
rustic
gaping
specimen
snatched
##ä¸
credits
paces
[unused327]
intelligence
directions
nun
macleod
gladly
finer
hospitality
hawk
agitated
1830
unitary
philosophical
pets
##person
proclaimed
easing
##aux
nicola
oddly
steak
sloane
robin
##nb
heartbeat
excellent
extraction
walnuts
justin
##tosis
premature
##roll
salts
##usion
##aster
ç›¸
abnormal
##type
incurred
##orough
japan
clinch
taunton
matteo
##umen
amour
axial
##raf
localized
erect
karnataka
fife
crawley
##yn
##van
Ø¡
negotiations
cleavage
pad
hammersmith
##É´
##ference
â†”
ç¥ž
760
cuddly
cruelty
rhineland
viewers
bel
dairy
archival
##ump
preparation
pentagon
divert
friction
sealing
sheep
##tel
##wara
eds
cheetah
vanishing
burns
honestly
heterosexual
thatcher
skills
fender
áƒ•
##tness
256
ridges
##ed
solid
tapes
southend
##pired
bayern
vomiting
vegetation
bounces
##ckman
hangs
bamboo
snarl
interference
â‚‘
investigative
neighborhood
casualty
##elman
1856
denis
aroma
contains
defensive
interviews
inadequate
telescope
either
husbands
##orro
saving
[unused207]
##abi
##fting
402
popular
compiling
autism
çŸ³
expectations
louise
returned
feeling
rent
ambitions
extras
marine
[unused271]
ï¼š
critics
goblin
fortune
##rgo
##vre
dortmund
flashlight
sickness
unexpected
##neas
â‚‚
[unused892]
insects
##pods
##ago
absorbed
astronomical
prefect
book
shipping
patrols
johor
uncanny
orr
stocking
##tized
developing
[unused77]
posse
##enting
eurovision
##tze
cha
naomi
##tream
dynamic
translators
avoided
legacy
à¤¦
succeeds
##lizer
nursing
adjusting
releases
promotions
somalia
pollen
##mada
tumbled
dealing
startled
590
patting
porcupine
dictator
grammy
plumbing
stood
hr
wolfe
archeological
bravo
[unused575]
enriched
##cl
display
appropriately
visitor
modeling
evidently
contrary
ranged
clemson
##áµ¤
asia
convergence
glen
recommends
staring
sally
climbs
flow
##esthesia
tito
##rice
##kker
à¸¥
##baum
brighter
influx
spines
##shin
notions
gaines
piggies
institutes
[unused669]
##ãƒ•
johnson
simplest
roller
spreads
khalid
Ê»
acc
á„…
impacts
enhancing
potassium
Baby
solemnly
visions
##owed
##olio
##vington
behind
arousal
brody
[unused265]
foe
shirts
autumn
some
obtain
prompted
##ride
displaying
hits
##df
estrada
excitedly
came
asha
halloween
graded
loch
Ï…
[unused700]
out
dex
conductor
underwood
institution
achievements
safeguard
sliding
bryn
hamlet
##chemist
pickles
##}
##than
overturned
antenna
##dly
groin
stations
##à¦‡
sergeant
##aceae
##ault
nietzsche
katz
##ggs
##Ïˆ
left
pitcher
pity
lashed
hypothesis
keel
pereira
##à®Ÿ
stripe
convict
01
##à½”
spanking
maggie
##guard
simone
cumulative
flashback
hamish
peacekeeping
##bridge
vacated
##yah
1761
algorithm
levels
##dget
regulating
##world
condemnation
racer
bryson
1752
prints
carter
##felt
outing
ph
apprentice
salvage
254
email
vapor
##illon
princeton
##taken
jazz
sylvie
astonishment
##zumi
oswald
umbrella
missouri
##É¾
improvements
outlawed
à¦¬
superior
pained
##â™
[unused583]
hot
cleaning
alloy
##Ö€
samson
autobiographical
recovery
liberia
interrupt
acids
##hue
insistence
droplets
yanked
longed
investigator
applesauce
columnist
excused
sql
lizard
analog
pediatric
vibrations
team
proper
prostitute
##fields
shiny
god
##â‰ˆ
commissions
recession
empty
54
##xia
raphael
##cing
park
noble
skeletal
sorority
three
summon
hades
##sov
gathered
##wark
unofficially
tessa
##cute
compassion
##led
elsewhere
Sweets
##rage
stance
##cen
slowly
industry
##cc
chapters
planted
##sa
##ven
tock
##how
permanent
##ylus
1733
elusive
relay
[unused41]
courts
claus
##2
connell
complain
##rer
haste
willoughby
palatine
ignores
aaa
##24
franchises
signs
material
worcester
company
1999
irregularities
arena
apprenticeship
observation
choo
diver
soundtrack
##vil
interned
##rba
pops
stirring
twitch
shafts
nix
7
rodents
sherman
scratching
pipe
avengers
vertex
entropy
sculptor
à½
[unused229]
##lent
hebrew
Dutch
[unused525]
assessing
mouthed
surprised
##gins
tumor
##ker
gymnasium
##kan
##cut
edo
altar
smug
gave
someplace
tones
essay
harald
ellen
hive
##lase
tomorrow
indicative
##suke
morgan
cheese
regal
turnbull
tender
##dern
wherein
edited
fairbanks
20
1854
bumpy
package
fore
massachusetts
riding
barr
shaggy
##ãƒ‹
terminal
##achi
literary
vancouver
##arts
efficiency
integrated
topic
vectors
âˆ˜
cadence
ssh
constituents
coarse
##hip
1704
fernando
drain
psalm
è¡Œ
remixed
##any
crews
##à¦¿
nn
reeling
wished
raked
##lus
Ñ‰
##ãƒ˜
##âˆ§
reassigned
recognised
business
phillip
celebration
characterised
Count
tal
##caster
##sque
[unused807]
newsweek
representing
[unused357]
##oz
expectation
packs
scholarships
tak
solids
2001
lockheed
sorbonne
##Ëˆ
ã«
##ndra
stitch
bwf
vegetable
swish
##å²¡
##iec
events
##ency
##tc
pasha
##ãƒ»
creeks
comprising
blooms
##inge
contributed
stony
airlift
##hism
[unused556]
forensic
breakdown
##6
guacamole
##emia
cuddle
greco
hidalgo
exploits
ore
drunken
faded
fabricated
pleased
##mental
mvp
thom
rbi
hepburn
äº•
##tial
##âˆ©
now
horizons
##lai
raion
milling
hitchcock
##llas
inclusion
pure
##zon
resurrection
elijah
##â‚‰
pointedly
viruses
odin
coco
marian
[unused713]
238
6000
installed
vibrant
fireman
##lings
condensed
confirm
##umber
qu
practicing
amadeus
shoot
appalachian
jewels
commenced
orbits
downhill
##chai
rc
##tick
[unused328]
rihanna
##enham
recognizable
##É£
overrun
clutches
ut
voltage
potomac
mobilized
announced
raul
castles
wylie
horticultural
enzyme
avila
##brate
flute
rushed
buckingham
[...]
